<pad>	0
<unk>	0
<s>	0
</s>	0
<0x00>	0
<0x01>	0
<0x02>	0
<0x03>	0
<0x04>	0
<0x05>	0
<0x06>	0
<0x07>	0
<0x08>	0
<0x09>	0
<0x0A>	0
<0x0B>	0
<0x0C>	0
<0x0D>	0
<0x0E>	0
<0x0F>	0
<0x10>	0
<0x11>	0
<0x12>	0
<0x13>	0
<0x14>	0
<0x15>	0
<0x16>	0
<0x17>	0
<0x18>	0
<0x19>	0
<0x1A>	0
<0x1B>	0
<0x1C>	0
<0x1D>	0
<0x1E>	0
<0x1F>	0
<0x20>	0
<0x21>	0
<0x22>	0
<0x23>	0
<0x24>	0
<0x25>	0
<0x26>	0
<0x27>	0
<0x28>	0
<0x29>	0
<0x2A>	0
<0x2B>	0
<0x2C>	0
<0x2D>	0
<0x2E>	0
<0x2F>	0
<0x30>	0
<0x31>	0
<0x32>	0
<0x33>	0
<0x34>	0
<0x35>	0
<0x36>	0
<0x37>	0
<0x38>	0
<0x39>	0
<0x3A>	0
<0x3B>	0
<0x3C>	0
<0x3D>	0
<0x3E>	0
<0x3F>	0
<0x40>	0
<0x41>	0
<0x42>	0
<0x43>	0
<0x44>	0
<0x45>	0
<0x46>	0
<0x47>	0
<0x48>	0
<0x49>	0
<0x4A>	0
<0x4B>	0
<0x4C>	0
<0x4D>	0
<0x4E>	0
<0x4F>	0
<0x50>	0
<0x51>	0
<0x52>	0
<0x53>	0
<0x54>	0
<0x55>	0
<0x56>	0
<0x57>	0
<0x58>	0
<0x59>	0
<0x5A>	0
<0x5B>	0
<0x5C>	0
<0x5D>	0
<0x5E>	0
<0x5F>	0
<0x60>	0
<0x61>	0
<0x62>	0
<0x63>	0
<0x64>	0
<0x65>	0
<0x66>	0
<0x67>	0
<0x68>	0
<0x69>	0
<0x6A>	0
<0x6B>	0
<0x6C>	0
<0x6D>	0
<0x6E>	0
<0x6F>	0
<0x70>	0
<0x71>	0
<0x72>	0
<0x73>	0
<0x74>	0
<0x75>	0
<0x76>	0
<0x77>	0
<0x78>	0
<0x79>	0
<0x7A>	0
<0x7B>	0
<0x7C>	0
<0x7D>	0
<0x7E>	0
<0x7F>	0
<0x80>	0
<0x81>	0
<0x82>	0
<0x83>	0
<0x84>	0
<0x85>	0
<0x86>	0
<0x87>	0
<0x88>	0
<0x89>	0
<0x8A>	0
<0x8B>	0
<0x8C>	0
<0x8D>	0
<0x8E>	0
<0x8F>	0
<0x90>	0
<0x91>	0
<0x92>	0
<0x93>	0
<0x94>	0
<0x95>	0
<0x96>	0
<0x97>	0
<0x98>	0
<0x99>	0
<0x9A>	0
<0x9B>	0
<0x9C>	0
<0x9D>	0
<0x9E>	0
<0x9F>	0
<0xA0>	0
<0xA1>	0
<0xA2>	0
<0xA3>	0
<0xA4>	0
<0xA5>	0
<0xA6>	0
<0xA7>	0
<0xA8>	0
<0xA9>	0
<0xAA>	0
<0xAB>	0
<0xAC>	0
<0xAD>	0
<0xAE>	0
<0xAF>	0
<0xB0>	0
<0xB1>	0
<0xB2>	0
<0xB3>	0
<0xB4>	0
<0xB5>	0
<0xB6>	0
<0xB7>	0
<0xB8>	0
<0xB9>	0
<0xBA>	0
<0xBB>	0
<0xBC>	0
<0xBD>	0
<0xBE>	0
<0xBF>	0
<0xC0>	0
<0xC1>	0
<0xC2>	0
<0xC3>	0
<0xC4>	0
<0xC5>	0
<0xC6>	0
<0xC7>	0
<0xC8>	0
<0xC9>	0
<0xCA>	0
<0xCB>	0
<0xCC>	0
<0xCD>	0
<0xCE>	0
<0xCF>	0
<0xD0>	0
<0xD1>	0
<0xD2>	0
<0xD3>	0
<0xD4>	0
<0xD5>	0
<0xD6>	0
<0xD7>	0
<0xD8>	0
<0xD9>	0
<0xDA>	0
<0xDB>	0
<0xDC>	0
<0xDD>	0
<0xDE>	0
<0xDF>	0
<0xE0>	0
<0xE1>	0
<0xE2>	0
<0xE3>	0
<0xE4>	0
<0xE5>	0
<0xE6>	0
<0xE7>	0
<0xE8>	0
<0xE9>	0
<0xEA>	0
<0xEB>	0
<0xEC>	0
<0xED>	0
<0xEE>	0
<0xEF>	0
<0xF0>	0
<0xF1>	0
<0xF2>	0
<0xF3>	0
<0xF4>	0
<0xF5>	0
<0xF6>	0
<0xF7>	0
<0xF8>	0
<0xF9>	0
<0xFA>	0
<0xFB>	0
<0xFC>	0
<0xFD>	0
<0xFE>	0
<0xFF>	0
▁t	-0
▁a	-1
in	-2
he	-3
re	-4
on	-5
er	-6
at	-7
▁the	-8
▁s	-9
or	-10
en	-11
▁c	-12
▁o	-13
is	-14
it	-15
▁w	-16
es	-17
▁p	-18
al	-19
an	-20
ed	-21
▁f	-22
▁an	-23
ing	-24
▁in	-25
▁b	-26
ic	-27
ion	-28
ar	-29
▁of	-30
ou	-31
▁m	-32
▁d	-33
le	-34
▁to	-35
ro	-36
as	-37
▁and	-38
ct	-39
ent	-40
▁re	-41
▁h	-42
et	-43
▁th	-44
om	-45
st	-46
▁n	-47
▁T	-48
el	-49
il	-50
▁I	-51
▁l	-52
▁e	-53
id	-54
▁A	-55
▁C	-56
ut	-57
ve	-58
am	-59
▁is	-60
ol	-61
▁S	-62
ation	-63
us	-64
im	-65
ot	-66
▁g	-67
ur	-68
ac	-69
▁for	-70
ig	-71
▁(	-72
ow	-73
ly	-74
un	-75
ay	-76
ul	-77
ad	-78
▁st	-79
▁on	-80
ith	-81
▁be	-82
ate	-83
ver	-84
ce	-85
▁y	-86
if	-87
▁with	-88
od	-89
se	-90
ch	-91
ter	-92
ag	-93
▁pro	-94
▁con	-95
▁The	-96
▁M	-97
▁P	-98
▁that	-99
ir	-100
▁v	-101
▁as	-102
em	-103
um	-104
ab	-105
▁you	-106
ect	-107
▁it	-108
ri	-109
▁B	-110
op	-111
--	-112
ist	-113
▁al	-114
pp	-115
ere	-116
est	-117
ra	-118
res	-119
▁D	-120
▁H	-121
qu	-122
▁F	-123
oc	-124
▁ex	-125
os	-126
▁W	-127
her	-128
▁com	-129
▁"	-130
▁=	-131
▁R	-132
▁de	-133
th	-134
ers	-135
▁wh	-136
▁or	-137
▁us	-138
rom	-139
ess	-140
iv	-141
▁r	-142
ment	-143
▁are	-144
▁N	-145
▁was	-146
ant	-147
▁L	-148
ew	-149
ity	-150
ill	-151
▁su	-152
nt	-153
ort	-154
ke	-155
pt	-156
▁by	-157
and	-158
ore	-159
▁at	-160
▁E	-161
▁this	-162
▁he	-163
▁se	-164
ive	-165
igh	-166
ain	-167
▁ha	-168
pe	-169
nd	-170
▁from	-171
ction	-172
og	-173
end	-174
▁O	-175
ated	-176
ud	-177
ld	-178
pl	-179
▁G	-180
ine	-181
▁ch	-182
art	-183
▁{	-184
▁<	-185
ies	-186
▁not	-187
▁}	-188
ory	-189
ure	-190
);	-191
age	-192
all	-193
ial	-194
▁can	-195
ame	-196
▁have	-197
ell	-198
▁sh	-199
ical	-200
per	-201
▁im	-202
ue	-203
ult	-204
//	-205
▁un	-206
ight	-207
ex	-208
ase	-209
iz	-210
▁$	-211
ff	-212
cl	-213
▁cl	-214
rou	-215
ass	-216
able	-217
our	-218
ust	-219
ost	-220
ge	-221
▁res	-222
ib	-223
▁In	-224
ub	-225
▁comp	-226
▁U	-227
▁ad	-228
▁tr	-229
▁we	-230
out	-231
ack	-232
orm	-233
ard	-234
▁le	-235
ich	-236
ould	-237
ide	-238
▁pl	-239
are	-240
▁int	-241
▁J	-242
act	-243
▁cont	-244
ip	-245
ast	-246
ile	-247
du	-248
ire	-249
▁Th	-250
▁*	-251
ans	-252
der	-253
▁ne	-254
up	-255
ents	-256
ap	-257
----	-258
ome	-259
ign	-260
..	-261
▁app	-262
▁do	-263
▁whe	-264
ork	-265
▁ab	-266
ind	-267
ice	-268
cc	-269
▁but	-270
▁-	-271
ph	-272
▁j	-273
).	-274
ions	-275
ary	-276
▁will	-277
▁were	-278
ia	-279
▁which	-280
ther	-281
▁has	-282
ok	-283
▁k	-284
▁all	-285
**	-286
▁dis	-287
port	-288
lic	-289
ateg	-290
▁me	-291
="	-292
ress	-293
int	-294
ens	-295
ong	-296
gh	-297
ear	-298
ous	-299
▁your	-300
▁'	-301
so	-302
▁if	-303
av	-304
one	-305
ace	-306
ations	-307
ak	-308
▁St	-309
ef	-310
▁per	-311
con	-312
ject	-313
ime	-314
ber	-315
ategory	-316
▁en	-317
ail	-318
ance	-319
ru	-320
form	-321
vel	-322
▁ar	-323
ord	-324
ata	-325
ition	-326
▁pat	-327
ach	-328
▁pre	-329
),	-330
cre	-331
▁out	-332
▁V	-333
▁Category	-334
ite	-335
com	-336
ring	-337
ll	-338
▁K	-339
ode	-340
ally	-341
urn	-342
ry	-343
eth	-344
ext	-345
ep	-346
▁my	-347
ang	-348
ors	-349
▁li	-350
lect	-351
▁qu	-352
▁new	-353
▁one	-354
ely	-355
▁so	-356
▁sy	-357
erv	-358
▁Y	-359
ple	-360
ence	-361
ount	-362
▁fun	-363
==	-364
te	-365
ific	-366
▁go	-367
ound	-368
▁//	-369
▁more	-370
▁up	-371
▁ret	-372
reat	-373
▁[	-374
▁#	-375
fere	-376
ose	-377
ake	-378
ook	-379
▁work	-380
▁ev	-381
ype	-382
▁This	-383
own	-384
▁also	-385
ces	-386
clud	-387
low	-388
▁part	-389
ric	-390
▁It	-391
▁use	-392
▁sp	-393
ob	-394
▁get	-395
iew	-396
vers	-397
()	-398
▁man	-399
▁there	-400
",	-401
pec	-402
▁other	-403
▁ro	-404
ree	-405
ates	-406
cri	-407
ular	-408
▁am	-409
tern	-410
ys	-411
get	-412
we	-413
ks	-414
▁Q	-415
very	-416
▁their	-417
ont	-418
▁when	-419
tt	-420
fter	-421
▁been	-422
▁ob	-423
▁bet	-424
ft	-425
stem	-426
▁val	-427
▁any	-428
▁var	-429
▁col	-430
▁dif	-431
irst	-432
wo	-433
ie	-434
ove	-435
__	-436
▁add	-437
ild	-438
▁ass	-439
ays	-440
▁stud	-441
ced	-442
▁des	-443
▁may	-444
▁using	-445
▁Ch	-446
▁gen	-447
▁te	-448
▁time	-449
▁act	-450
▁ag	-451
ased	-452
▁acc	-453
▁like	-454
▁sub	-455
▁exp	-456
▁some	-457
aus	-458
▁function	-459
▁rec	-460
ian	-461
▁need	-462
ater	-463
▁ind	-464
▁they	-465
▁kn	-466
▁class	-467
ov	-468
ath	-469
▁sc	-470
▁over	-471
pro	-472
erm	-473
▁than	-474
▁trans	-475
▁comm	-476
▁pati	-477
vent	-478
▁return	-479
▁no	-480
▁eff	-481
ublic	-482
▁rel	-483
▁We	-484
ish	-485
▁sa	-486
▁its	-487
row	-488
ied	-489
ec	-490
iss	-491
ick	-492
▁his	-493
▁ph	-494
▁would	-495
roup	-496
▁form	-497
gr	-498
▁mod	-499
▁about	-500
olog	-501
pon	-502
▁year	-503
▁into	-504
ual	-505
▁under	-506
ings	-507
cess	-508
▁who	-509
ption	-510
▁set	-511
▁data	-512
ock	-513
ark	-514
▁sign	-515
ating	-516
▁def	-517
▁bl	-518
▁cell	-519
▁prov	-520
ink	-521
ative	-522
--------	-523
ck	-524
▁two	-525
▁reg	-526
▁/	-527
hed	-528
ert	-529
St	-530
▁includ	-531
put	-532
▁first	-533
▁fol	-534
▁.	-535
▁\	-536
les	-537
▁i	-538
rit	-539
ize	-540
▁only	-541
▁pos	-542
but	-543
▁differe	-544
▁spec	-545
▁after	-546
ange	-547
io	-548
▁det	-549
▁pr	-550
▁inter	-551
▁off	-552
oth	-553
▁result	-554
▁“	-555
▁how	-556
ne	-557
▁had	-558
ments	-559
ble	-560
▁system	-561
▁em	-562
▁co	-563
▁pres	-564
▁:	-565
▁end	-566
ix	-567
▁such	-568
▁+	-569
iel	-570
▁ac	-571
****	-572
ough	-573
ox	-574
▁patients	-575
▁requ	-576
▁produ	-577
▁used	-578
ious	-579
ss	-580
ween	-581
</	-582
inal	-583
urre	-584
▁our	-585
yp	-586
ethod	-587
▁these	-588
',	-589
ttp	-590
ility	-591
ient	-592
ax	-593
("	-594
▁pe	-595
▁sur	-596
ade	-597
▁inst	-598
rough	-599
▁between	-600
ER	-601
uring	-602
oint	-603
ause	-604
▁public	-605
▁import	-606
ruct	-607
▁How	-608
▁want	-609
▁what	-610
velop	-611
ield	-612
ng	-613
▁them	-614
oad	-615
▁just	-616
ood	-617
▁fe	-618
▁num	-619
als	-620
▁He	-621
ible	-622
▁follow	-623
ull	-624
▁You	-625
▁bec	-626
▁cons	-627
▁inv	-628
▁fl	-629
ting	-630
cy	-631
▁Un	-632
▁then	-633
err	-634
▁Re	-635
old	-636
hes	-637
round	-638
hen	-639
▁att	-640
ool	-641
ures	-642
▁high	-643
ues	-644
elf	-645
...	-646
▁supp	-647
▁play	-648
▁show	-649
▁Se	-650
mer	-651
":	-652
ning	-653
ics	-654
ug	-655
▁should	-656
▁fil	-657
▁inf	-658
▁ser	-659
▁If	-660
▁rem	-661
red	-662
ople	-663
▁exam	-664
oid	-665
ically	-666
▁incre	-667
▁effect	-668
">	-669
▁where	-670
ribut	-671
▁loc	-672
ery	-673
rol	-674
▁char	-675
://	-676
▁method	-677
sp	-678
ract	-679
▁group	-680
▁Wh	-681
▁sim	-682
fore	-683
▁ext	-684
('	-685
ray	-686
oy	-687
ise	-688
▁@	-689
▁&	-690
ident	-691
nce	-692
ict	-693
ited	-694
▁through	-695
ins	-696
▁test	-697
ever	-698
▁pol	-699
day	-700
yl	-701
ined	-702
ton	-703
irect	-704
▁</	-705
▁|	-706
sh	-707
ages	-708
▁different	-709
▁gener	-710
▁develop	-711
pert	-712
ON	-713
▁bu	-714
▁said	-715
▁cor	-716
▁ke	-717
val	-718
▁dist	-719
ational	-720
▁back	-721
ized	-722
arch	-723
▁call	-724
ities	-725
▁const	-726
urrent	-727
▁mem	-728
read	-729
ms	-730
cept	-731
▁well	-732
▁does	-733
▁An	-734
▁di	-735
ron	-736
ered	-737
lp	-738
▁file	-739
IN	-740
▁type	-741
▁know	-742
ices	-743
atic	-744
ection	-745
oci	-746
▁Pro	-747
its	-748
▁could	-749
▁her	-750
let	-751
▁Al	-752
aw	-753
cent	-754
▁most	-755
▁way	-756
ower	-757
uc	-758
▁mon	-759
▁make	-760
ense	-761
▁Ex	-762
▁car	-763
▁process	-764
▁che	-765
▁Com	-766
▁serv	-767
▁For	-768
cond	-769
ected	-770
();	-771
====	-772
pos	-773
▁code	-774
ines	-775
▁look	-776
ator	-777
▁found	-778
tr	-779
▁people	-780
▁As	-781
▁each	-782
ases	-783
▁med	-784
▁name	-785
▁dev	-786
▁help	-787
▁Ar	-788
ons	-789
ner	-790
▁aut	-791
▁sol	-792
▁ent	-793
▁cre	-794
li	-795
▁par	-796
ale	-797
▁sm	-798
ily	-799
▁find	-800
raph	-801
ym	-802
atch	-803
rap	-804
ames	-805
▁value	-806
pen	-807
In	-808
formation	-809
▁see	-810
riv	-811
view	-812
par	-813
▁years	-814
▁both	-815
▁activ	-816
cript	-817
ward	-818
::	-819
ES	-820
amp	-821
gram	-822
▁run	-823
▁study	-824
▁she	-825
ody	-826
▁list	-827
ature	-828
oot	-829
ired	-830
▁ant	-831
▁respon	-832
ource	-833
eng	-834
▁x	-835
name	-836
app	-837
▁same	-838
ml	-839
cer	-840
AR	-841
▁el	-842
ash	-843
ran	-844
▁during	-845
ared	-846
▁present	-847
ww	-848
other	-849
▁number	-850
▁level	-851
##	-852
▁here	-853
▁long	-854
AT	-855
ince	-856
▁conf	-857
▁anal	-858
chn	-859
to	-860
IT	-861
set	-862
▁min	-863
ren	-864
ution	-865
nces	-866
▁start	-867
▁elect	-868
sc	-869
ument	-870
▁partic	-871
▁read	-872
▁ele	-873
▁proble	-874
▁tra	-875
▁because	-876
▁post	-877
pr	-878
ively	-879
▁oper	-880
▁ins	-881
▁met	-882
itt	-883
▁perform	-884
ression	-885
▁don	-886
▁treat	-887
ality	-888
▁every	-889
vention	-890
▁fact	-891
▁err	-892
arg	-893
roll	-894
wn	-895
any	-896
▁signific	-897
▁while	-898
))	-899
▁There	-900
ulation	-901
▁–	-902
▁provid	-903
min	-904
opy	-905
▁cells	-906
▁gu	-907
air	-908
ement	-909
alth	-910
uch	-911
▁art	-912
eg	-913
ium	-914
▁case	-915
▁right	-916
lease	-917
▁many	-918
ization	-919
EN	-920
acter	-921
ful	-922
orld	-923
▁vari	-924
ole	-925
▁try	-926
▁av	-927
▁And	-928
OR	-929
▁applic	-930
▁main	-931
ved	-932
▁som	-933
▁being	-934
▁before	-935
▁So	-936
gg	-937
▁now	-938
tain	-939
rop	-940
▁current	-941
▁following	-942
▁again	-943
erson	-944
▁line	-945
▁bel	-946
▁very	-947
▁significant	-948
▁information	-949
ann	-950
▁example	-951
ife	-952
ency	-953
az	-954
▁control	-955
fer	-956
▁second	-957
els	-958
ser	-959
ason	-960
▁gr	-961
line	-962
▁To	-963
▁did	-964
ral	-965
land	-966
gan	-967
ond	-968
ten	-969
ually	-970
▁struct	-971
ving	-972
▁New	-973
▁object	-974
ST	-975
▁Sh	-976
ants	-977
▁even	-978
->	-979
▁those	-980
ified	-981
▁direct	-982
▁support	-983
led	-984
▁tri	-985
pect	-986
▁mult	-987
▁>	-988
ead	-989
ener	-990
way	-991
CT	-992
▁hand	-993
▁state	-994
▁program	-995
▁dep	-996
yt	-997
str	-998
ify	-999
roid	-1000
ology	-1001
▁poss	-1002
hem	-1003
ision	-1004
irc	-1005
▁point	-1006
▁But	-1007
▁exper	-1008
▁str	-1009
▁without	-1010
▁gl	-1011
yn	-1012
▁techn	-1013
agn	-1014
de	-1015
ute	-1016
div	-1017
version	-1018
duct	-1019
ctions	-1020
dd	-1021
face	-1022
icro	-1023
hip	-1024
NA	-1025
▁ed	-1026
ists	-1027
ven	-1028
▁great	-1029
▁design	-1030
▁non	-1031
que	-1032
ished	-1033
aking	-1034
▁rat	-1035
▁report	-1036
▁down	-1037
▁user	-1038
▁results	-1039
be	-1040
▁Cl	-1041
ware	-1042
▁http	-1043
ave	-1044
▁made	-1045
▁three	-1046
▁No	-1047
▁However	-1048
ts	-1049
▁good	-1050
ism	-1051
▁rece	-1052
ential	-1053
▁De	-1054
ior	-1055
Cont	-1056
med	-1057
meric	-1058
orn	-1059
SE	-1060
play	-1061
▁Is	-1062
▁contain	-1063
▁chang	-1064
▁quest	-1065
▁pass	-1066
▁child	-1067
imes	-1068
ouse	-1069
▁dec	-1070
▁rep	-1071
ustom	-1072
lex	-1073
LE	-1074
▁count	-1075
son	-1076
********	-1077
▁ear	-1078
ives	-1079
▁redu	-1080
▁fr	-1081
oh	-1082
▁est	-1083
▁open	-1084
ek	-1085
▁sing	-1086
▁cent	-1087
▁treatment	-1088
Name	-1089
▁typ	-1090
▁Ref	-1091
▁string	-1092
▁tem	-1093
____	-1094
▁associ	-1095
ital	-1096
▁conn	-1097
ault	-1098
▁disc	-1099
▁fam	-1100
of	-1101
▁order	-1102
bl	-1103
ier	-1104
▁App	-1105
aj	-1106
ration	-1107
chool	-1108
▁X	-1109
ems	-1110
▁care	-1111
ivers	-1112
ternal	-1113
▁last	-1114
▁=>	-1115
▁commun	-1116
▁product	-1117
bers	-1118
----------------	-1119
ID	-1120
erg	-1121
mun	-1122
ule	-1123
rid	-1124
ograph	-1125
ocument	-1126
itive	-1127
▁hy	-1128
▁lead	-1129
ets	-1130
ural	-1131
over	-1132
rict	-1133
icense	-1134
atus	-1135
▁opt	-1136
ination	-1137
▁cond	-1138
right	-1139
▁web	-1140
ank	-1141
▁mark	-1142
▁appro	-1143
▁problem	-1144
▁prote	-1145
work	-1146
ters	-1147
oun	-1148
ross	-1149
ah	-1150
ane	-1151
▁project	-1152
▁Con	-1153
itions	-1154
▁%	-1155
ccess	-1156
▁ra	-1157
AN	-1158
")	-1159
▁including	-1160
hib	-1161
ability	-1162
IC	-1163
▁path	-1164
ience	-1165
▁cour	-1166
Ex	-1167
plic	-1168
▁within	-1169
▁meas	-1170
ething	-1171
▁del	-1172
ness	-1173
▁On	-1174
▁ident	-1175
rac	-1176
ths	-1177
Id	-1178
man	-1179
▁select	-1180
arge	-1181
ysis	-1182
arent	-1183
▁impro	-1184
ows	-1185
▁think	-1186
▁pop	-1187
▁cle	-1188
def	-1189
▁--	-1190
▁much	-1191
Pro	-1192
ask	-1193
umn	-1194
▁mat	-1195
▁vis	-1196
▁adv	-1197
here	-1198
▁prot	-1199
yle	-1200
▁Refere	-1201
▁hum	-1202
▁field	-1203
▁provide	-1204
http	-1205
urs	-1206
▁descri	-1207
▁small	-1208
▁All	-1209
▁*/	-1210
▁error	-1211
AL	-1212
▁health	-1213
iving	-1214
ording	-1215
▁own	-1216
▁invest	-1217
▁determ	-1218
▁addition	-1219
file	-1220
▁term	-1221
▁head	-1222
iness	-1223
arget	-1224
▁My	-1225
ote	-1226
▁corre	-1227
requ	-1228
▁iss	-1229
▁still	-1230
View	-1231
▁team	-1232
ived	-1233
▁lim	-1234
▁equ	-1235
add	-1236
▁day	-1237
▁dise	-1238
▁Pl	-1239
▁bi	-1240
▁u	-1241
▁specific	-1242
▁ve	-1243
▁top	-1244
arm	-1245
▁When	-1246
▁sugg	-1247
ured	-1248
uss	-1249
▁suggest	-1250
ission	-1251
▁avail	-1252
urther	-1253
Cl	-1254
],	-1255
omen	-1256
date	-1257
▁change	-1258
▁best	-1259
cont	-1260
▁occ	-1261
▁Z	-1262
ball	-1263
▁dem	-1264
osis	-1265
▁References	-1266
ately	-1267
▁void	-1268
serv	-1269
au	-1270
ently	-1271
String	-1272
.,	-1273
ider	-1274
amet	-1275
▁Tr	-1276
ream	-1277
▁take	-1278
ession	-1279
▁mus	-1280
▁print	-1281
▁writ	-1282
▁view	-1283
▁Americ	-1284
▁access	-1285
▁low	-1286
▁cap	-1287
col	-1288
ither	-1289
ava	-1290
▁character	-1291
less	-1292
vert	-1293
rite	-1294
▁Sc	-1295
ety	-1296
▁based	-1297
▁aff	-1298
akes	-1299
▁something	-1300
▁pot	-1301
▁sk	-1302
▁stand	-1303
."	-1304
▁known	-1305
rain	-1306
▁bus	-1307
essage	-1308
ially	-1309
▁rest	-1310
osed	-1311
▁build	-1312
▁person	-1313
▁id	-1314
iven	-1315
▁What	-1316
▁These	-1317
▁!	-1318
▁since	-1319
▁another	-1320
▁key	-1321
▁model	-1322
stand	-1323
▁ref	-1324
▁text	-1325
ED	-1326
▁eas	-1327
key	-1328
att	-1329
▁inc	-1330
▁fin	-1331
ma	-1332
▁Ind	-1333
itor	-1334
▁Col	-1335
bed	-1336
▁must	-1337
und	-1338
▁create	-1339
ends	-1340
ength	-1341
ways	-1342
ope	-1343
vious	-1344
▁hig	-1345
▁contin	-1346
▁rese	-1347
icle	-1348
clude	-1349
▁grow	-1350
▁possible	-1351
▁bre	-1352
org	-1353
self	-1354
bo	-1355
▁local	-1356
▁Le	-1357
chan	-1358
ystem	-1359
▁around	-1360
not	-1361
by	-1362
ram	-1363
ivid	-1364
tml	-1365
iron	-1366
unction	-1367
back	-1368
▁clin	-1369
▁available	-1370
];	-1371
▁device	-1372
▁sl	-1373
aterial	-1374
por	-1375
orth	-1376
▁image	-1377
lu	-1378
etic	-1379
type	-1380
lection	-1381
ormal	-1382
itle	-1383
ological	-1384
▁pur	-1385
▁life	-1386
▁particular	-1387
▁bo	-1388
▁log	-1389
▁having	-1390
idth	-1391
▁propert	-1392
▁imp	-1393
▁size	-1394
isk	-1395
RO	-1396
▁single	-1397
string	-1398
sw	-1399
▁check	-1400
ET	-1401
▁z	-1402
▁place	-1403
alse	-1404
load	-1405
▁him	-1406
▁bas	-1407
action	-1408
▁power	-1409
▁init	-1410
ik	-1411
ploy	-1412
ibr	-1413
▁self	-1414
mon	-1415
▁though	-1416
the	-1417
▁vol	-1418
▁version	-1419
▁pack	-1420
▁true	-1421
apt	-1422
");	-1423
AS	-1424
ury	-1425
▁Res	-1426
▁Can	-1427
aces	-1428
▁world	-1429
▁rad	-1430
▁expl	-1431
etwork	-1432
▁record	-1433
▁light	-1434
):	-1435
alk	-1436
aut	-1437
ache	-1438
reg	-1439
ference	-1440
ogen	-1441
▁against	-1442
eb	-1443
ification	-1444
ott	-1445
data	-1446
▁beh	-1447
ilar	-1448
▁application	-1449
▁circ	-1450
▁home	-1451
▁array	-1452
▁priv	-1453
▁organ	-1454
▁sit	-1455
▁important	-1456
mod	-1457
▁comb	-1458
hor	-1459
▁less	-1460
▁et	-1461
▁cal	-1462
▁free	-1463
▁let	-1464
List	-1465
ina	-1466
▁hist	-1467
')	-1468
text	-1469
ining	-1470
▁development	-1471
ception	-1472
▁Ph	-1473
▁micro	-1474
uro	-1475
▁area	-1476
▁associated	-1477
abel	-1478
▁activity	-1479
▁include	-1480
oss	-1481
▁manag	-1482
UR	-1483
▁question	-1484
▁large	-1485
▁port	-1486
cular	-1487
gen	-1488
▁table	-1489
epend	-1490
UT	-1491
ably	-1492
mb	-1493
this	-1494
raw	-1495
▁Pat	-1496
The	-1497
anc	-1498
ivity	-1499
▁sw	-1500
▁better	-1501
▁above	-1502
lished	-1503
inks	-1504
▁License	-1505
IS	-1506
lish	-1507
▁response	-1508
ars	-1509
▁page	-1510
▁custom	-1511
▁really	-1512
▁material	-1513
▁require	-1514
////	-1515
alu	-1516
▁)	-1517
▁mov	-1518
▁mechan	-1519
▁event	-1520
ique	-1521
▁say	-1522
atory	-1523
mit	-1524
▁sever	-1525
Ch	-1526
▁put	-1527
▁_	-1528
▁water	-1529
ftware	-1530
($	-1531
my	-1532
Com	-1533
▁human	-1534
▁working	-1535
til	-1536
▁eng	-1537
▁increased	-1538
iversity	-1539
▁tot	-1540
opt	-1541
▁able	-1542
▁four	-1543
▁Bl	-1544
▁press	-1545
▁Sp	-1546
▁service	-1547
▁respect	-1548
▁else	-1549
▁At	-1550
ails	-1551
▁Or	-1552
Type	-1553
idence	-1554
iple	-1555
▁disease	-1556
▁site	-1557
▁values	-1558
▁==	-1559
thing	-1560
▁display	-1561
▁either	-1562
erest	-1563
ground	-1564
uff	-1565
ajor	-1566
▁orig	-1567
ger	-1568
▁left	-1569
▁indic	-1570
for	-1571
▁might	-1572
iod	-1573
It	-1574
▁few	-1575
▁distribut	-1576
▁invol	-1577
▁age	-1578
▁days	-1579
▁levels	-1580
▁mot	-1581
ension	-1582
▁Ad	-1583
Con	-1584
ird	-1585
▁evalu	-1586
========	-1587
▁old	-1588
▁analysis	-1589
idd	-1590
outh	-1591
▁real	-1592
▁changes	-1593
▁prom	-1594
▁won	-1595
▁spe	-1596
▁game	-1597
▁sens	-1598
mp	-1599
rem	-1600
ump	-1601
▁investig	-1602
▁content	-1603
cle	-1604
time	-1605
ides	-1606
▁allow	-1607
▁card	-1608
▁position	-1609
▁next	-1610
AM	-1611
oph	-1612
▁She	-1613
viron	-1614
ored	-1615
ules	-1616
▁family	-1617
▁mean	-1618
▁children	-1619
▁body	-1620
bject	-1621
duced	-1622
arn	-1623
ves	-1624
▁week	-1625
resent	-1626
▁success	-1627
.”	-1628
▁...	-1629
cription	-1630
ideo	-1631
lete	-1632
ayer	-1633
▁They	-1634
▁With	-1635
].	-1636
www	-1637
equ	-1638
▁expression	-1639
fig	-1640
RE	-1641
fo	-1642
▁effects	-1643
ples	-1644
Val	-1645
▁happ	-1646
▁Here	-1647
▁sure	-1648
▁prof	-1649
lement	-1650
Data	-1651
uit	-1652
▁United	-1653
▁going	-1654
ended	-1655
ern	-1656
▁review	-1657
▁business	-1658
ittle	-1659
▁es	-1660
atures	-1661
Ar	-1662
ee	-1663
oin	-1664
ari	-1665
rug	-1666
go	-1667
▁See	-1668
ertain	-1669
ush	-1670
▁document	-1671
▁higher	-1672
enc	-1673
▁IN	-1674
ror	-1675
▁side	-1676
ending	-1677
erc	-1678
▁load	-1679
▁private	-1680
test	-1681
js	-1682
▁source	-1683
▁ide	-1684
▁cost	-1685
ler	-1686
▁common	-1687
ables	-1688
ref	-1689
####	-1690
▁rele	-1691
▁ep	-1692
▁rate	-1693
▁too	-1694
▁understand	-1695
ised	-1696
▁enc	-1697
▁phot	-1698
include	-1699
▁similar	-1700
▁target	-1701
▁keep	-1702
ape	-1703
usion	-1704
▁due	-1705
▁risk	-1706
▁several	-1707
angu	-1708
▁},	-1709
▁systems	-1710
▁required	-1711
ample	-1712
osp	-1713
▁compon	-1714
uration	-1715
ION	-1716
▁pred	-1717
url	-1718
▁cases	-1719
▁appear	-1720
▁potential	-1721
ty	-1722
▁obtain	-1723
▁install	-1724
rapy	-1725
oor	-1726
▁trying	-1727
▁studies	-1728
▁Des	-1729
ividual	-1730
▁called	-1731
px	-1732
ici	-1733
▁book	-1734
▁arg	-1735
▁clinical	-1736
,"	-1737
ales	-1738
▁cr	-1739
▁total	-1740
▁compared	-1741
▁women	-1742
value	-1743
ey	-1744
▁observ	-1745
▁US	-1746
site	-1747
▁protein	-1748
▁After	-1749
▁later	-1750
▁Count	-1751
▁school	-1752
ores	-1753
▁scre	-1754
ister	-1755
ayout	-1756
▁output	-1757
▁comput	-1758
ats	-1759
▁inhib	-1760
▁range	-1761
▁means	-1762
▁increase	-1763
ots	-1764
aster	-1765
plement	-1766
order	-1767
af	-1768
HE	-1769
▁short	-1770
ready	-1771
▁dat	-1772
ling	-1773
▁fail	-1774
▁prim	-1775
▁phys	-1776
▁doesn	-1777
▁link	-1778
▁request	-1779
▁One	-1780
ene	-1781
▁major	-1782
ember	-1783
log	-1784
▁lo	-1785
▁groups	-1786
ival	-1787
▁always	-1788
▁foot	-1789
▁interest	-1790
▁players	-1791
▁vir	-1792
▁pract	-1793
";	-1794
▁below	-1795
▁role	-1796
▁diff	-1797
▁remain	-1798
▁subject	-1799
▁got	-1800
rior	-1801
▁cy	-1802
▁fac	-1803
Res	-1804
▁research	-1805
vironment	-1806
▁`	-1807
ipp	-1808
mber	-1809
▁given	-1810
▁immun	-1811
▁AN	-1812
▁significantly	-1813
ering	-1814
new	-1815
▁air	-1816
▁period	-1817
▁acid	-1818
▁bro	-1819
▁works	-1820
▁input	-1821
▁Cont	-1822
▁copy	-1823
ental	-1824
▁android	-1825
roller	-1826
▁caus	-1827
iver	-1828
▁full	-1829
html	-1830
ours	-1831
,”	-1832
▁/*	-1833
acy	-1834
▁men	-1835
ulated	-1836
▁University	-1837
LL	-1838
▁American	-1839
▁cancer	-1840
ances	-1841
ention	-1842
AP	-1843
AB	-1844
aps	-1845
▁,	-1846
▁various	-1847
ret	-1848
ources	-1849
▁individual	-1850
▁multiple	-1851
▁network	-1852
▁move	-1853
imal	-1854
▁turn	-1855
▁static	-1856
inc	-1857
▁links	-1858
Col	-1859
▁tum	-1860
▁?	-1861
▁little	-1862
enn	-1863
word	-1864
▁hard	-1865
▁String	-1866
▁concent	-1867
AC	-1868
▁config	-1869
asing	-1870
▁law	-1871
ography	-1872
▁dri	-1873
ieve	-1874
▁Te	-1875
uck	-1876
dro	-1877
mission	-1878
▁That	-1879
sy	-1880
▁previous	-1881
▁until	-1882
ume	-1883
▁lower	-1884
▁normal	-1885
iter	-1886
▁final	-1887
▁surface	-1888
▁answ	-1889
▁super	-1890
ffic	-1891
egr	-1892
OT	-1893
raft	-1894
oper	-1895
iles	-1896
co	-1897
▁frequ	-1898
▁gover	-1899
▁tre	-1900
▁});	-1901
ung	-1902
head	-1903
▁prob	-1904
▁standard	-1905
atal	-1906
▁along	-1907
iting	-1908
br	-1909
▁Im	-1910
▁Mar	-1911
▁often	-1912
util	-1913
▁give	-1914
▁company	-1915
▁devices	-1916
▁showed	-1917
▁assess	-1918
▁tool	-1919
▁opp	-1920
OS	-1921
box	-1922
▁ben	-1923
ogle	-1924
ogn	-1925
▁diagn	-1926
▁Eng	-1927
▁paramet	-1928
▁invention	-1929
▁Car	-1930
▁ann	-1931
▁why	-1932
▁names	-1933
ocus	-1934
IG	-1935
fl	-1936
▁decre	-1937
ift	-1938
aging	-1939
▁pain	-1940
itch	-1941
▁provided	-1942
▁States	-1943
▁least	-1944
▁times	-1945
ches	-1946
▁blood	-1947
▁files	-1948
anks	-1949
ather	-1950
▁among	-1951
though	-1952
plate	-1953
▁further	-1954
omy	-1955
▁En	-1956
▁server	-1957
Th	-1958
illion	-1959
heck	-1960
▁Do	-1961
▁early	-1962
▁$\	-1963
▁wind	-1964
▁exist	-1965
▁red	-1966
▁months	-1967
rc	-1968
▁complex	-1969
');	-1970
▁season	-1971
▁whether	-1972
▁May	-1973
▁things	-1974
ohn	-1975
class	-1976
▁creat	-1977
▁already	-1978
▁exec	-1979
ibility	-1980
▁series	-1981
To	-1982
++	-1983
▁solution	-1984
▁word	-1985
▁drug	-1986
fact	-1987
▁signal	-1988
▁respons	-1989
ley	-1990
iation	-1991
AD	-1992
▁methods	-1993
}{	-1994
▁complet	-1995
abase	-1996
▁null	-1997
▁column	-1998
ators	-1999
▁via	-2000
ising	-2001
▁implement	-2002
sub	-2003
['	-2004
ication	-2005
▁flu	-2006
ched	-2007
omet	-2008
▁Be	-2009
side	-2010
▁film	-2011
ones	-2012
gin	-2013
aring	-2014
ronic	-2015
▁OR	-2016
▁estab	-2017
leg	-2018
▁simple	-2019
▁conditions	-2020
ries	-2021
▁structure	-2022
▁cho	-2023
▁improve	-2024
▁exc	-2025
anguage	-2026
▁ask	-2027
▁System	-2028
ouble	-2029
minist	-2030
olic	-2031
▁ap	-2032
yth	-2033
▁patient	-2034
▁fix	-2035
▁special	-2036
pha	-2037
▁element	-2038
▁win	-2039
ories	-2040
▁plan	-2041
▁sum	-2042
ai	-2043
▁abs	-2044
ML	-2045
▁fore	-2046
▁done	-2047
ocal	-2048
MP	-2049
▁Ab	-2050
▁pub	-2051
▁performance	-2052
▁ox	-2053
▁big	-2054
▁leg	-2055
rec	-2056
ding	-2057
▁OF	-2058
ands	-2059
amm	-2060
▁dr	-2061
▁come	-2062
▁space	-2063
▁experience	-2064
▁Pr	-2065
IL	-2066
▁Int	-2067
▁address	-2068
▁correct	-2069
comm	-2070
▁flow	-2071
▁br	-2072
user	-2073
▁Our	-2074
ams	-2075
▁color	-2076
▁pa	-2077
▁false	-2078
ney	-2079
rror	-2080
▁Cent	-2081
Text	-2082
▁index	-2083
▁calc	-2084
▁separ	-2085
▁pattern	-2086
".	-2087
▁near	-2088
bum	-2089
▁ach	-2090
oma	-2091
ribute	-2092
inding	-2093
▁lik	-2094
▁Am	-2095
▁repl	-2096
▁max	-2097
▁quality	-2098
▁death	-2099
▁Man	-2100
▁related	-2101
td	-2102
▁bir	-2103
ocial	-2104
function	-2105
▁contact	-2106
rel	-2107
list	-2108
andom	-2109
▁represent	-2110
▁row	-2111
ibrary	-2112
upp	-2113
icon	-2114
rist	-2115
iated	-2116
▁Ass	-2117
▁general	-2118
_{	-2119
▁connect	-2120
onstr	-2121
▁step	-2122
▁bit	-2123
▁video	-2124
ison	-2125
▁block	-2126
inary	-2127
▁however	-2128
▁sec	-2129
▁County	-2130
aff	-2131
lor	-2132
▁surg	-2133
▁lot	-2134
▁services	-2135
▁cult	-2136
odes	-2137
II	-2138
cho	-2139
▁AP	-2140
ounds	-2141
▁making	-2142
▁environment	-2143
▁saf	-2144
frac	-2145
[]	-2146
nal	-2147
▁sequ	-2148
▁action	-2149
▁fri	-2150
****************	-2151
use	-2152
▁demonstr	-2153
▁base	-2154
▁never	-2155
▁amount	-2156
▁crit	-2157
ervice	-2158
▁looking	-2159
ences	-2160
▁offic	-2161
▁clear	-2162
▁products	-2163
▁Go	-2164
▁Not	-2165
▁account	-2166
php	-2167
eal	-2168
▁employ	-2169
aim	-2170
App	-2171
▁region	-2172
▁behav	-2173
ternational	-2174
▁More	-2175
▁deg	-2176
itted	-2177
']	-2178
▁default	-2179
▁tiss	-2180
▁CO	-2181
▁software	-2182
ctor	-2183
respon	-2184
▁Acc	-2185
urity	-2186
ortun	-2187
▁date	-2188
▁prog	-2189
based	-2190
▁market	-2191
▁growth	-2192
▁doing	-2193
▁past	-2194
▁features	-2195
▁issue	-2196
▁created	-2197
▁List	-2198
verage	-2199
ependent	-2200
▁performed	-2201
▁members	-2202
ino	-2203
atter	-2204
▁John	-2205
ires	-2206
▁consider	-2207
ps	-2208
▁relations	-2209
▁received	-2210
▁mar	-2211
oms	-2212
▁recept	-2213
ober	-2214
rad	-2215
▁cou	-2216
▁far	-2217
Object	-2218
▁express	-2219
▁factors	-2220
▁dom	-2221
▁/>	-2222
▁govern	-2223
▁instead	-2224
ae	-2225
▁host	-2226
▁Reg	-2227
▁discuss	-2228
________	-2229
artment	-2230
ING	-2231
▁added	-2232
Value	-2233
▁certain	-2234
▁Qu	-2235
ql	-2236
▁member	-2237
ilt	-2238
▁approach	-2239
ports	-2240
uture	-2241
path	-2242
▁prior	-2243
▁described	-2244
wards	-2245
▁getting	-2246
▁course	-2247
▁toget	-2248
▁integr	-2249
▁together	-2250
▁included	-2251
arr	-2252
ucle	-2253
▁search	-2254
ients	-2255
cing	-2256
▁tried	-2257
iate	-2258
book	-2259
▁Add	-2260
▁By	-2261
empt	-2262
▁Ed	-2263
CH	-2264
▁State	-2265
▁cannot	-2266
▁needs	-2267
icult	-2268
▁feel	-2269
ensive	-2270
year	-2271
▁Mon	-2272
▁mole	-2273
▁Now	-2274
sequ	-2275
oo	-2276
▁};	-2277
▁poly	-2278
ening	-2279
une	-2280
cret	-2281
▁hyp	-2282
▁Gener	-2283
';	-2284
▁focus	-2285
▁la	-2286
▁larg	-2287
wh	-2288
lation	-2289
atively	-2290
olution	-2291
▁Ser	-2292
ros	-2293
▁remov	-2294
▁Us	-2295
▁production	-2296
ids	-2297
▁parent	-2298
iction	-2299
▁subst	-2300
▁percent	-2301
ges	-2302
orage	-2303
▁External	-2304
obal	-2305
script	-2306
ese	-2307
Tr	-2308
▁bar	-2309
▁website	-2310
me	-2311
▁strong	-2312
umber	-2313
▁shown	-2314
▁observed	-2315
▁Cal	-2316
uk	-2317
▁break	-2318
▁Co	-2319
ender	-2320
▁measure	-2321
alf	-2322
▁veh	-2323
▁across	-2324
FF	-2325
▁pan	-2326
▁community	-2327
/-	-2328
eful	-2329
osph	-2330
▁Dist	-2331
▁pressure	-2332
▁dig	-2333
▁pay	-2334
▁types	-2335
▁Me	-2336
DE	-2337
amed	-2338
come	-2339
▁compet	-2340
IM	-2341
▁synt	-2342
aced	-2343
▁reported	-2344
uild	-2345
▁—	-2346
init	-2347
^{	-2348
▁National	-2349
met	-2350
anced	-2351
▁meet	-2352
Mod	-2353
umb	-2354
▁button	-2355
izing	-2356
){	-2357
▁developed	-2358
▁food	-2359
pose	-2360
▁reason	-2361
Im	-2362
ilit	-2363
▁temper	-2364
▁football	-2365
abor	-2366
iddle	-2367
▁match	-2368
▁miss	-2369
ns	-2370
▁autom	-2371
▁Cour	-2372
▁option	-2373
ague	-2374
▁love	-2375
▁according	-2376
▁become	-2377
AG	-2378
▁necess	-2379
pace	-2380
▁release	-2381
▁Med	-2382
imum	-2383
amb	-2384
▁chem	-2385
ergy	-2386
▁From	-2387
▁ang	-2388
....	-2389
▁package	-2390
▁mor	-2391
▁adj	-2392
▁message	-2393
▁respectively	-2394
▁gene	-2395
astic	-2396
▁running	-2397
ruction	-2398
aken	-2399
posed	-2400
▁Jan	-2401
▁job	-2402
▁difficult	-2403
▁seems	-2404
▁valid	-2405
ux	-2406
▁users	-2407
▁conduct	-2408
%)	-2409
iff	-2410
().	-2411
code	-2412
▁World	-2413
ager	-2414
augh	-2415
▁kind	-2416
▁mach	-2417
des	-2418
CL	-2419
iqu	-2420
$.	-2421
hel	-2422
cin	-2423
size	-2424
▁thing	-2425
▁/**	-2426
▁experim	-2427
▁$(	-2428
▁continu	-2429
resh	-2430
body	-2431
▁engine	-2432
ips	-2433
amic	-2434
▁five	-2435
▁once	-2436
▁inside	-2437
IR	-2438
▁$$	-2439
▁seen	-2440
▁album	-2441
▁etc	-2442
▁relationship	-2443
istance	-2444
▁memory	-2445
omic	-2446
pat	-2447
PE	-2448
▁weight	-2449
ython	-2450
▁Then	-2451
lib	-2452
▁Inst	-2453
▁inj	-2454
En	-2455
▁original	-2456
▁style	-2457
▁->	-2458
▁properties	-2459
pper	-2460
▁population	-2461
▁coll	-2462
▁points	-2463
▁primary	-2464
▁elements	-2465
QL	-2466
▁write	-2467
icles	-2468
▁Par	-2469
▁neg	-2470
SS	-2471
▁particip	-2472
▁says	-2473
input	-2474
roph	-2475
▁click	-2476
verse	-2477
▁indust	-2478
irm	-2479
▁property	-2480
▁administ	-2481
▁court	-2482
▁makes	-2483
▁track	-2484
▁today	-2485
▁cut	-2486
semb	-2487
▁events	-2488
▁op	-2489
▁problems	-2490
▁Aust	-2491
most	-2492
istic	-2493
ulate	-2494
ersion	-2495
ENT	-2496
CC	-2497
▁hold	-2498
File	-2499
▁stre	-2500
▁influ	-2501
▁species	-2502
='	-2503
▁cause	-2504
▁regard	-2505
oney	-2506
▁Rec	-2507
const	-2508
▁answer	-2509
obile	-2510
perty	-2511
▁magn	-2512
math	-2513
ev	-2514
HO	-2515
osure	-2516
uments	-2517
▁background	-2518
▁stop	-2519
itud	-2520
><	-2521
▁reve	-2522
▁variable	-2523
reen	-2524
▁online	-2525
▁arr	-2526
state	-2527
▁determine	-2528
▁Thanks	-2529
▁proced	-2530
▁sent	-2531
sole	-2532
▁limit	-2533
yz	-2534
▁‘	-2535
▁tell	-2536
utes	-2537
▁THE	-2538
▁cur	-2539
igned	-2540
▁energy	-2541
▁Min	-2542
lected	-2543
▁actually	-2544
istics	-2545
▁Art	-2546
▁Sub	-2547
▁includes	-2548
▁South	-2549
▁factor	-2550
ged	-2551
▁benef	-2552
▁provides	-2553
hy	-2554
▁young	-2555
ective	-2556
rix	-2557
▁heart	-2558
print	-2559
▁initial	-2560
Class	-2561
▁therapy	-2562
uly	-2563
▁rot	-2564
itional	-2565
▁currently	-2566
▁mix	-2567
▁Pol	-2568
▁mut	-2569
ried	-2570
▁fem	-2571
▁trad	-2572
iol	-2573
▁city	-2574
Qu	-2575
sl	-2576
ags	-2577
ait	-2578
eral	-2579
ster	-2580
lege	-2581
▁https	-2582
▁aim	-2583
▁Gu	-2584
ply	-2585
item	-2586
▁educ	-2587
▁length	-2588
▁needed	-2589
ached	-2590
lied	-2591
▁students	-2592
▁history	-2593
apan	-2594
ills	-2595
▁loss	-2596
▁house	-2597
▁command	-2598
ging	-2599
UN	-2600
));	-2601
duction	-2602
▁Ge	-2603
▁sem	-2604
arning	-2605
irl	-2606
▁effic	-2607
lication	-2608
field	-2609
▁Euro	-2610
index	-2611
▁operation	-2612
▁Court	-2613
isc	-2614
▁sus	-2615
▁away	-2616
off	-2617
CR	-2618
light	-2619
Set	-2620
▁mass	-2621
uation	-2622
▁database	-2623
},	-2624
▁query	-2625
▁fib	-2626
net	-2627
ults	-2628
▁enough	-2629
era	-2630
▁York	-2631
▁Any	-2632
Se	-2633
ta	-2634
▁particularly	-2635
mat	-2636
rome	-2637
rong	-2638
comes	-2639
oman	-2640
▁der	-2641
../	-2642
▁rout	-2643
▁Aut	-2644
▁additional	-2645
▁third	-2646
▁author	-2647
▁located	-2648
IV	-2649
TP	-2650
bb	-2651
▁management	-2652
▁item	-2653
▁surv	-2654
▁easy	-2655
ospital	-2656
▁Per	-2657
bar	-2658
ride	-2659
▁music	-2660
▁please	-2661
▁script	-2662
▁anim	-2663
▁month	-2664
inter	-2665
▁six	-2666
ief	-2667
▁dam	-2668
ains	-2669
tings	-2670
▁double	-2671
CO	-2672
▁country	-2673
▁close	-2674
▁sym	-2675
~~	-2676
▁future	-2677
atform	-2678
aled	-2679
▁prevent	-2680
▁difference	-2681
▁lines	-2682
Test	-2683
lev	-2684
▁Part	-2685
ites	-2686
▁perf	-2687
▁Further	-2688
Item	-2689
▁City	-2690
trans	-2691
oles	-2692
▁sat	-2693
▁Comp	-2694
▁functions	-2695
ike	-2696
▁song	-2697
▁language	-2698
▁Stud	-2699
▁consum	-2700
▁options	-2701
▁probably	-2702
▁yet	-2703
ufact	-2704
▁shows	-2705
▁reference	-2706
▁million	-2707
board	-2708
▁div	-2709
▁cross	-2710
IP	-2711
':	-2712
eks	-2713
▁feature	-2714
▁likely	-2715
dom	-2716
▁status	-2717
het	-2718
▁complete	-2719
▁profession	-2720
▁Copy	-2721
▁enh	-2722
▁obtained	-2723
annel	-2724
▁antib	-2725
▁recomm	-2726
amples	-2727
By	-2728
▁Some	-2729
▁deal	-2730
▁Public	-2731
▁Val	-2732
▁speed	-2733
Un	-2734
▁School	-2735
▁ur	-2736
▁quant	-2737
pecially	-2738
sel	-2739
isms	-2740
Sc	-2741
query	-2742
▁impl	-2743
map	-2744
▁media	-2745
▁random	-2746
▁discl	-2747
▁North	-2748
ework	-2749
▁chall	-2750
▁sil	-2751
▁pers	-2752
▁Your	-2753
▁started	-2754
ocation	-2755
▁recent	-2756
cher	-2757
▁entire	-2758
pre	-2759
oding	-2760
▁box	-2761
▁positive	-2762
▁stim	-2763
group	-2764
▁successful	-2765
▁front	-2766
▁brow	-2767
▁condition	-2768
ops	-2769
gl	-2770
////////	-2771
▁images	-2772
▁Get	-2773
▁social	-2774
like	-2775
▁hydro	-2776
▁terms	-2777
▁effective	-2778
/>	-2779
▁whole	-2780
unch	-2781
▁expect	-2782
}$	-2783
▁ill	-2784
ATE	-2785
▁coun	-2786
▁Christ	-2787
fil	-2788
Sh	-2789
onal	-2790
▁evidence	-2791
Par	-2792
▁relates	-2793
▁useful	-2794
We	-2795
▁width	-2796
illed	-2797
term	-2798
▁location	-2799
ided	-2800
▁title	-2801
▁impact	-2802
▁Also	-2803
▁Sw	-2804
uary	-2805
▁begin	-2806
▁accom	-2807
sembly	-2808
▁decl	-2809
▁Oct	-2810
▁While	-2811
▁sex	-2812
hesis	-2813
▁accept	-2814
down	-2815
▁store	-2816
define	-2817
rest	-2818
▁std	-2819
MS	-2820
▁tw	-2821
▁generally	-2822
nder	-2823
utions	-2824
▁others	-2825
▁reduced	-2826
irection	-2827
▁strateg	-2828
▁grad	-2829
▁Act	-2830
▁org	-2831
Exception	-2832
▁active	-2833
▁expected	-2834
ector	-2835
Int	-2836
indows	-2837
▁ey	-2838
▁technology	-2839
▁anti	-2840
ename	-2841
▁CD	-2842
▁applications	-2843
py	-2844
Error	-2845
▁unit	-2846
▁novel	-2847
▁Rep	-2848
now	-2849
▁ST	-2850
▁areas	-2851
https	-2852
▁Europe	-2853
Add	-2854
aged	-2855
ME	-2856
earch	-2857
▁designed	-2858
oat	-2859
!!	-2860
width	-2861
▁involved	-2862
ament	-2863
▁Japan	-2864
▁didn	-2865
▁weeks	-2866
▁IS	-2867
▁recogn	-2868
mail	-2869
bin	-2870
▁Please	-2871
▁games	-2872
▁instance	-2873
▁government	-2874
Form	-2875
▁computer	-2876
▁spect	-2877
Pl	-2878
bran	-2879
▁layer	-2880
unt	-2881
▁night	-2882
US	-2883
▁consist	-2884
lying	-2885
▁polit	-2886
ana	-2887
▁hours	-2888
▁According	-2889
▁AS	-2890
imate	-2891
▁hom	-2892
oe	-2893
hing	-2894
.)	-2895
more	-2896
▁building	-2897
ained	-2898
fr	-2899
▁cyt	-2900
▁High	-2901
ANT	-2902
▁live	-2903
▁First	-2904
ocyt	-2905
▁released	-2906
▁II	-2907
ascular	-2908
ero	-2909
cast	-2910
Time	-2911
▁email	-2912
▁former	-2913
ethyl	-2914
▁electro	-2915
▁echo	-2916
▁draw	-2917
▁Gr	-2918
▁medical	-2919
▁consid	-2920
ilities	-2921
▁tissue	-2922
OO	-2923
▁SE	-2924
▁components	-2925
▁idea	-2926
eter	-2927
aneous	-2928
rial	-2929
▁paper	-2930
raction	-2931
)-	-2932
▁published	-2933
▁sal	-2934
▁rather	-2935
ensity	-2936
▁Just	-2937
▁aud	-2938
active	-2939
▁Will	-2940
▁ver	-2941
vant	-2942
▁vit	-2943
▁anything	-2944
▁presence	-2945
').	-2946
actions	-2947
▁isol	-2948
point	-2949
▁clean	-2950
▁tumor	-2951
▁intro	-2952
▁screen	-2953
link	-2954
▁lat	-2955
Get	-2956
ners	-2957
▁took	-2958
▁defined	-2959
sec	-2960
▁camp	-2961
NS	-2962
▁training	-2963
▁questions	-2964
ises	-2965
▁Cor	-2966
▁refer	-2967
Ind	-2968
▁stress	-2969
oll	-2970
▁predict	-2971
atural	-2972
▁issues	-2973
▁items	-2974
").	-2975
ada	-2976
▁HT	-2977
top	-2978
sum	-2979
▁context	-2980
ony	-2981
▁Mc	-2982
▁fav	-2983
▁cardi	-2984
▁temperature	-2985
▁directly	-2986
▁DNA	-2987
▁quick	-2988
▁learn	-2989
bit	-2990
▁Since	-2991
▁bring	-2992
▁client	-2993
Key	-2994
▁someone	-2995
▁fine	-2996
▁compar	-2997
></	-2998
▁throw	-2999
▁seem	-3000
gn	-3001
▁vers	-3002
▁Aug	-3003
▁dyn	-3004
▁thought	-3005
▁maintain	-3006
▁produced	-3007
▁brain	-3008
▁Copyright	-3009
part	-3010
▁District	-3011
▁Dep	-3012
ledge	-3013
▁wrong	-3014
▁attempt	-3015
aches	-3016
▁article	-3017
▁personal	-3018
var	-3019
miss	-3020
▁half	-3021
▁land	-3022
▁Brit	-3023
▁manufact	-3024
ocol	-3025
▁+/-	-3026
▁__	-3027
▁Ne	-3028
▁El	-3029
▁fig	-3030
▁feed	-3031
span	-3032
▁offer	-3033
MA	-3034
Date	-3035
▁details	-3036
▁comes	-3037
▁models	-3038
}\	-3039
▁height	-3040
▁writing	-3041
zym	-3042
sych	-3043
▁Data	-3044
▁util	-3045
▁increasing	-3046
▁distributed	-3047
▁depend	-3048
tx	-3049
na	-3050
istry	-3051
▁vehicle	-3052
oses	-3053
▁March	-3054
▁necessary	-3055
▁taken	-3056
▁claim	-3057
▁update	-3058
rote	-3059
▁mount	-3060
▁stat	-3061
▁concer	-3062
▁transfer	-3063
hern	-3064
▁Hist	-3065
▁limited	-3066
rm	-3067
▁compl	-3068
▁story	-3069
▁construct	-3070
▁Fl	-3071
▁especially	-3072
▁parameters	-3073
▁Red	-3074
▁Apr	-3075
▁ever	-3076
▁identified	-3077
▁circuit	-3078
Path	-3079
HP	-3080
Requ	-3081
lin	-3082
▁node	-3083
▁Austral	-3084
ze	-3085
▁Gl	-3086
▁unique	-3087
▁section	-3088
▁NS	-3089
dis	-3090
▁agre	-3091
▁considered	-3092
▁selected	-3093
▁convention	-3094
table	-3095
▁contains	-3096
TH	-3097
title	-3098
▁contribut	-3099
acc	-3100
ming	-3101
▁!=	-3102
▁Bo	-3103
▁Germ	-3104
older	-3105
▁face	-3106
▁prec	-3107
oring	-3108
aratus	-3109
▁nucle	-3110
no	-3111
▁insert	-3112
▁plas	-3113
ds	-3114
▁upon	-3115
▁June	-3116
▁ID	-3117
▁looks	-3118
▁processing	-3119
lim	-3120
▁Sm	-3121
ottom	-3122
▁map	-3123
rew	-3124
▁Af	-3125
ects	-3126
▁ens	-3127
color	-3128
▁Sept	-3129
Array	-3130
▁Dr	-3131
itors	-3132
▁January	-3133
▁format	-3134
itis	-3135
▁practice	-3136
▁&&	-3137
cell	-3138
eta	-3139
▁ult	-3140
PO	-3141
▁uses	-3142
bon	-3143
▁apparatus	-3144
mitted	-3145
▁vs	-3146
▁written	-3147
▁played	-3148
HT	-3149
▁Sim	-3150
otic	-3151
▁greater	-3152
amin	-3153
lick	-3154
imately	-3155
vere	-3156
▁;	-3157
▁General	-3158
▁component	-3159
▁remove	-3160
born	-3161
▁thus	-3162
▁Su	-3163
▁came	-3164
▁built	-3165
▁syn	-3166
spec	-3167
▁);	-3168
▁gas	-3169
▁pie	-3170
▁exact	-3171
length	-3172
▁money	-3173
▁Bar	-3174
▁ability	-3175
rast	-3176
▁Fin	-3177
▁altern	-3178
▁capac	-3179
error	-3180
▁concentr	-3181
exp	-3182
▁ax	-3183
riate	-3184
Man	-3185
ymph	-3186
Re	-3187
ceed	-3188
▁complic	-3189
▁usually	-3190
▁Mod	-3191
▁upd	-3192
urch	-3193
▁storage	-3194
▁fast	-3195
tty	-3196
▁loop	-3197
ards	-3198
▁anyone	-3199
▁share	-3200
▁numbers	-3201
ulations	-3202
config	-3203
])	-3204
▁Pre	-3205
▁band	-3206
ampions	-3207
▁controll	-3208
▁compos	-3209
▁proper	-3210
▁tub	-3211
▁arch	-3212
change	-3213
ils	-3214
RI	-3215
▁except	-3216
▁applied	-3217
df	-3218
▁isn	-3219
▁Set	-3220
▁wall	-3221
▁player	-3222
▁п	-3223
joy	-3224
▁formed	-3225
▁held	-3226
▁sort	-3227
ternet	-3228
▁highly	-3229
▁phosph	-3230
▁deb	-3231
array	-3232
▁studied	-3233
▁behavior	-3234
ROM	-3235
}}	-3236
)$	-3237
▁cry	-3238
########	-3239
▁receptor	-3240
▁ess	-3241
encies	-3242
▁namespace	-3243
▁inject	-3244
▁established	-3245
▁treated	-3246
▁news	-3247
▁metab	-3248
▁determined	-3249
▁java	-3250
▁Although	-3251
nown	-3252
▁driv	-3253
▁July	-3254
▁Group	-3255
▁center	-3256
▁Web	-3257
vey	-3258
▁Feb	-3259
▁average	-3260
overed	-3261
▁module	-3262
▁simply	-3263
▁fire	-3264
do	-3265
uel	-3266
left	-3267
▁pick	-3268
ancy	-3269
▁Sun	-3270
▁library	-3271
▁War	-3272
▁April	-3273
iciency	-3274
▁everything	-3275
▁ste	-3276
abled	-3277
▁binding	-3278
▁CON	-3279
▁hot	-3280
▁mom	-3281
ouch	-3282
cember	-3283
▁opportun	-3284
▁clos	-3285
atur	-3286
ste	-3287
▁sympt	-3288
▁pict	-3289
▁///	-3290
GF	-3291
▁fall	-3292
content	-3293
▁econ	-3294
▁frequency	-3295
▁proteins	-3296
▁Pres	-3297
▁improved	-3298
▁recently	-3299
▁Dav	-3300
oon	-3301
vis	-3302
▁func	-3303
elling	-3304
▁reading	-3305
▁buy	-3306
▁phase	-3307
post	-3308
▁La	-3309
▁window	-3310
▁West	-3311
▁talk	-3312
anies	-3313
▁stri	-3314
PS	-3315
▁Post	-3316
▁Trans	-3317
As	-3318
▁accur	-3319
▁His	-3320
▁itself	-3321
▁male	-3322
opl	-3323
page	-3324
▁surgery	-3325
pass	-3326
▁avoid	-3327
▁mechanism	-3328
User	-3329
▁Google	-3330
▁black	-3331
▁differences	-3332
▁heat	-3333
Context	-3334
================	-3335
▁Of	-3336
iques	-3337
ovember	-3338
▁connection	-3339
▁allows	-3340
▁identify	-3341
▁official	-3342
▁send	-3343
▁minutes	-3344
grad	-3345
Query	-3346
▁stage	-3347
▁tim	-3348
ued	-3349
▁arter	-3350
▁rates	-3351
soft	-3352
▁materials	-3353
BC	-3354
▁station	-3355
▁Rel	-3356
▁physical	-3357
▁liter	-3358
▁Out	-3359
place	-3360
▁career	-3361
▁industry	-3362
▁]	-3363
rs	-3364
But	-3365
aily	-3366
▁dest	-3367
State	-3368
▁October	-3369
char	-3370
▁mal	-3371
▁execut	-3372
eger	-3373
▁room	-3374
▁resid	-3375
▁white	-3376
aving	-3377
▁liqu	-3378
eration	-3379
NU	-3380
▁lip	-3381
▁mice	-3382
▁dim	-3383
▁almost	-3384
▁findings	-3385
▁switch	-3386
iam	-3387
▁skin	-3388
reate	-3389
▁()	-3390
ened	-3391
rical	-3392
▁effort	-3393
▁became	-3394
▁Dis	-3395
▁membran	-3396
nes	-3397
▁distribution	-3398
▁named	-3399
▁rats	-3400
▁followed	-3401
▁polic	-3402
Event	-3403
▁pul	-3404
▁filter	-3405
▁Fran	-3406
Al	-3407
▁ri	-3408
▁went	-3409
▁metal	-3410
oud	-3411
Service	-3412
CE	-3413
▁<<	-3414
▁interface	-3415
▁December	-3416
aint	-3417
PD	-3418
▁Ang	-3419
▁Ag	-3420
eople	-3421
anged	-3422
▁Java	-3423
▁cover	-3424
▁sites	-3425
▁mg	-3426
▁quite	-3427
▁thread	-3428
▁Char	-3429
▁sample	-3430
enu	-3431
aching	-3432
related	-3433
ele	-3434
tual	-3435
acing	-3436
urg	-3437
▁told	-3438
▁longer	-3439
Controller	-3440
enced	-3441
▁town	-3442
md	-3443
▁mode	-3444
▁technique	-3445
▁goal	-3446
ama	-3447
label	-3448
▁reduce	-3449
With	-3450
ypes	-3451
"></	-3452
true	-3453
aries	-3454
button	-3455
used	-3456
ional	-3457
atives	-3458
▁August	-3459
ha	-3460
ithub	-3461
Request	-3462
▁famil	-3463
▁births	-3464
▁outside	-3465
▁template	-3466
▁perfect	-3467
▁correspon	-3468
▁September	-3469
▁console	-3470
CA	-3471
oke	-3472
%,	-3473
▁broad	-3474
▁cam	-3475
Ph	-3476
▁ir	-3477
pi	-3478
▁late	-3479
▁drive	-3480
▁hope	-3481
▁measured	-3482
▁setting	-3483
▁November	-3484
▁Br	-3485
flow	-3486
plit	-3487
▁NOT	-3488
▁cop	-3489
start	-3490
▁achieve	-3491
▁Open	-3492
CD	-3493
▁takes	-3494
▁machine	-3495
▁parts	-3496
db	-3497
▁force	-3498
▁Test	-3499
▁caused	-3500
▁analyz	-3501
▁knowledge	-3502
LO	-3503
());	-3504
▁Use	-3505
▁receive	-3506
▁concentration	-3507
▁label	-3508
osc	-3509
▁prep	-3510
▁therefore	-3511
ponent	-3512
▁taking	-3513
(),	-3514
▁motor	-3515
LECT	-3516
▁activities	-3517
▁squ	-3518
▁src	-3519
▁proposed	-3520
▁diagnosis	-3521
bs	-3522
▁AND	-3523
▁purch	-3524
▁attack	-3525
pty	-3526
da	-3527
mary	-3528
ken	-3529
▁jud	-3530
ESS	-3531
othe	-3532
hest	-3533
▁origin	-3534
▁Other	-3535
▁Using	-3536
\\	-3537
▁emb	-3538
host	-3539
▁enzym	-3540
▁lymph	-3541
▁href	-3542
▁Description	-3543
Config	-3544
ections	-3545
induced	-3546
▁collection	-3547
▁promot	-3548
▁ful	-3549
▁previously	-3550
layout	-3551
▁comment	-3552
▁conventional	-3553
▁direction	-3554
▁revealed	-3555
▁rights	-3556
▁continue	-3557
atin	-3558
▁variety	-3559
▁Park	-3560
ync	-3561
▁Spec	-3562
▁adjust	-3563
eed	-3564
▁download	-3565
▁district	-3566
raz	-3567
itude	-3568
▁stra	-3569
with	-3570
▁ground	-3571
▁regular	-3572
▁Pa	-3573
▁samples	-3574
erve	-3575
▁films	-3576
▁club	-3577
▁Ac	-3578
ille	-3579
atically	-3580
▁infection	-3581
▁functional	-3582
leep	-3583
▁multi	-3584
▁global	-3585
▁resistance	-3586
▁Field	-3587
▁Thus	-3588
▁:=	-3589
▁objects	-3590
▁capt	-3591
wise	-3592
▁bad	-3593
▁presented	-3594
▁formation	-3595
▁tests	-3596
asons	-3597
▁Inc	-3598
▁slow	-3599
▁natural	-3600
ifier	-3601
▁believe	-3602
eff	-3603
▁Fr	-3604
▁Up	-3605
coming	-3606
▁central	-3607
▁FROM	-3608
▁root	-3609
▁ball	-3610
▁statement	-3611
▁techniques	-3612
▁tour	-3613
▁Def	-3614
position	-3615
▁forward	-3616
param	-3617
▁cycl	-3618
ridge	-3619
▁communication	-3620
lier	-3621
▁mind	-3622
▁den	-3623
rim	-3624
och	-3625
pir	-3626
▁pair	-3627
▁mobile	-3628
▁File	-3629
EX	-3630
Def	-3631
For	-3632
▁security	-3633
▁containing	-3634
▁matter	-3635
xy	-3636
▁transport	-3637
({	-3638
RA	-3639
ham	-3640
reet	-3641
▁cat	-3642
▁aw	-3643
▁API	-3644
▁repe	-3645
▁English	-3646
RNA	-3647
xx	-3648
dev	-3649
Field	-3650
▁Over	-3651
style	-3652
▁subjects	-3653
▁Let	-3654
▁overall	-3655
▁||	-3656
arily	-3657
▁easily	-3658
(-	-3659
▁board	-3660
▁molecular	-3661
▁ratio	-3662
▁experi	-3663
▁words	-3664
▁generated	-3665
ula	-3666
▁requires	-3667
ights	-3668
odies	-3669
▁approx	-3670
▁cook	-3671
ocket	-3672
EST	-3673
icrosoft	-3674
▁blog	-3675
▁pretty	-3676
▁returns	-3677
xml	-3678
▁enjoy	-3679
base	-3680
▁substr	-3681
▁worked	-3682
▁relative	-3683
eline	-3684
pan	-3685
mark	-3686
operative	-3687
igen	-3688
▁ways	-3689
▁stay	-3690
▁Why	-3691
erved	-3692
▁hospital	-3693
▁Mark	-3694
▁platform	-3695
▁understanding	-3696
▁national	-3697
▁volt	-3698
▁incor	-3699
▁processes	-3700
ruary	-3701
▁enter	-3702
kg	-3703
ica	-3704
parent	-3705
where	-3706
▁living	-3707
▁fit	-3708
gment	-3709
▁characteristics	-3710
▁sn	-3711
▁Read	-3712
select	-3713
▁rap	-3714
known	-3715
▁price	-3716
▁Mich	-3717
conn	-3718
▁vent	-3719
▁Tw	-3720
rick	-3721
▁changed	-3722
▁approp	-3723
▁AD	-3724
▁в	-3725
▁nothing	-3726
▁typically	-3727
▁purpose	-3728
ades	-3729
count	-3730
lock	-3731
object	-3732
▁Windows	-3733
▁sequence	-3734
▁vill	-3735
▁volume	-3736
Ser	-3737
▁doc	-3738
▁save	-3739
▁phone	-3740
SD	-3741
comp	-3742
▁Ob	-3743
▁friend	-3744
▁occurre	-3745
RL	-3746
▁House	-3747
estern	-3748
pack	-3749
▁Bec	-3750
](	-3751
▁insp	-3752
ulin	-3753
Or	-3754
cd	-3755
▁graph	-3756
▁decreased	-3757
▁dose	-3758
▁detect	-3759
▁professional	-3760
ulating	-3761
▁connected	-3762
IF	-3763
▁sound	-3764
▁internal	-3765
▁extra	-3766
ographic	-3767
izes	-3768
▁JS	-3769
Model	-3770
▁testing	-3771
▁Afric	-3772
UL	-3773
txt	-3774
sk	-3775
▁companies	-3776
ugin	-3777
▁WH	-3778
▁combination	-3779
ieved	-3780
▁Found	-3781
▁chrom	-3782
Element	-3783
adem	-3784
▁plate	-3785
PL	-3786
▁mechanisms	-3787
▁tax	-3788
icip	-3789
orph	-3790
▁hit	-3791
▁url	-3792
aur	-3793
cel	-3794
omas	-3795
ressive	-3796
An	-3797
▁Em	-3798
▁decision	-3799
▁reaction	-3800
rape	-3801
▁convert	-3802
▁leading	-3803
igation	-3804
car	-3805
check	-3806
alpha	-3807
▁bone	-3808
▁girl	-3809
ded	-3810
tem	-3811
▁travel	-3812
ampionship	-3813
▁radi	-3814
oz	-3815
▁exhib	-3816
ocks	-3817
▁mess	-3818
▁hyper	-3819
▁plasma	-3820
▁basis	-3821
▁neuro	-3822
▁Mus	-3823
▁Center	-3824
▁Inter	-3825
▁chronic	-3826
urb	-3827
▁task	-3828
avas	-3829
hood	-3830
())	-3831
▁lack	-3832
то	-3833
▁stream	-3834
itory	-3835
▁ord	-3836
▁les	-3837
ias	-3838
▁wide	-3839
▁immed	-3840
iet	-3841
▁SO	-3842
▁International	-3843
▁du	-3844
▁Work	-3845
▁gives	-3846
inst	-3847
▁existing	-3848
▁demonstrated	-3849
pped	-3850
▁concentrations	-3851
▁office	-3852
)(	-3853
▁liquid	-3854
▁prol	-3855
pload	-3856
▁League	-3857
pite	-3858
▁advant	-3859
▁providing	-3860
web	-3861
pm	-3862
▁popular	-3863
illing	-3864
▁infl	-3865
acement	-3866
opic	-3867
rench	-3868
▁roll	-3869
fficient	-3870
▁RE	-3871
▁wor	-3872
``	-3873
▁cool	-3874
▁visual	-3875
aker	-3876
Map	-3877
▁ago	-3878
aves	-3879
Log	-3880
bor	-3881
Over	-3882
▁February	-3883
Of	-3884
apter	-3885
duc	-3886
▁uns	-3887
▁portion	-3888
▁estim	-3889
▁psych	-3890
open	-3891
enses	-3892
▁negative	-3893
ivery	-3894
Code	-3895
▁phen	-3896
Index	-3897
▁Har	-3898
andid	-3899
▁digital	-3900
▁controls	-3901
ifically	-3902
avascript	-3903
github	-3904
▁ge	-3905
▁missing	-3906
ociation	-3907
▁Two	-3908
▁TO	-3909
▁DE	-3910
json	-3911
▁gets	-3912
▁party	-3913
ipment	-3914
argin	-3915
oken	-3916
$,	-3917
▁Calif	-3918
▁secret	-3919
levision	-3920
Read	-3921
iring	-3922
avy	-3923
▁Therefore	-3924
▁с	-3925
▁jour	-3926
▁relatively	-3927
upport	-3928
▁occur	-3929
▁injury	-3930
▁reduction	-3931
▁variables	-3932
call	-3933
▁degree	-3934
olar	-3935
▁During	-3936
▁Ear	-3937
Image	-3938
▁Cons	-3939
▁Ant	-3940
▁mac	-3941
▁evaluated	-3942
▁failure	-3943
▁ANY	-3944
ees	-3945
image	-3946
▁structures	-3947
▁Dem	-3948
▁produce	-3949
▁contract	-3950
iler	-3951
ington	-3952
otype	-3953
▁apply	-3954
clusion	-3955
▁detection	-3956
▁behind	-3957
▁handle	-3958
▁separate	-3959
▁cred	-3960
▁Class	-3961
▁mention	-3962
▁liver	-3963
esis	-3964
"/>	-3965
▁affect	-3966
▁completely	-3967
▁extract	-3968
run	-3969
rier	-3970
▁monitor	-3971
▁virus	-3972
▁visit	-3973
On	-3974
▁solid	-3975
▁procedure	-3976
▁Most	-3977
▁watch	-3978
▁tools	-3979
▁streng	-3980
▁Health	-3981
▁detail	-3982
▁Bro	-3983
itter	-3984
▁tag	-3985
▁exerc	-3986
▁border	-3987
▁FOR	-3988
sm	-3989
▁investigated	-3990
ayers	-3991
acters	-3992
▁dog	-3993
inate	-3994
","	-3995
▁survival	-3996
cal	-3997
▁safety	-3998
▁induced	-3999
▁efficient	-4000
ico	-4001
▁road	-4002
▁essential	-4003
icity	-4004
▁NU	-4005
▁detected	-4006
FT	-4007
▁que	-4008
▁emerg	-4009
overy	-4010
▁frame	-4011
mar	-4012
▁British	-4013
gor	-4014
Line	-4015
▁Bel	-4016
▁acqu	-4017
▁beaut	-4018
▁favor	-4019
AA	-4020
▁score	-4021
▁creating	-4022
▁programs	-4023
▁individuals	-4024
▁Don	-4025
▁kin	-4026
cil	-4027
▁mm	-4028
ornia	-4029
=\	-4030
ned	-4031
void	-4032
▁diab	-4033
▁qual	-4034
▁asked	-4035
▁recommend	-4036
inct	-4037
▁Are	-4038
▁fields	-4039
▁activation	-4040
server	-4041
▁oil	-4042
ios	-4043
Button	-4044
▁resources	-4045
CS	-4046
▁College	-4047
▁although	-4048
▁establish	-4049
core	-4050
itable	-4051
▁education	-4052
De	-4053
▁viol	-4054
api	-4055
▁independent	-4056
▁wonder	-4057
▁damage	-4058
▁jo	-4059
▁mid	-4060
▁nan	-4061
▁wanted	-4062
▁friends	-4063
ounced	-4064
▁appears	-4065
ollow	-4066
zz	-4067
▁King	-4068
create	-4069
▁terminal	-4070
IB	-4071
▁imaging	-4072
▁hous	-4073
icians	-4074
▁led	-4075
▁trial	-4076
Ad	-4077
▁alpha	-4078
java	-4079
▁flex	-4080
▁acute	-4081
▁fixed	-4082
▁plant	-4083
▁exposure	-4084
bt	-4085
▁round	-4086
Color	-4087
▁beta	-4088
itation	-4089
▁symptoms	-4090
▁parameter	-4091
ellow	-4092
▁rapid	-4093
------	-4094
arter	-4095
▁auto	-4096
▁Ap	-4097
▁define	-4098
▁genes	-4099
Info	-4100
▁neur	-4101
▁Del	-4102
unc	-4103
ians	-4104
▁bound	-4105
alt	-4106
"]	-4107
▁latest	-4108
Aut	-4109
ressed	-4110
iance	-4111
istant	-4112
▁muscle	-4113
▁soon	-4114
section	-4115
▁bacter	-4116
▁states	-4117
▁prop	-4118
▁staff	-4119
▁international	-4120
▁н	-4121
▁lost	-4122
▁apprec	-4123
▁offers	-4124
▁Russ	-4125
▁birth	-4126
lymp	-4127
▁voltage	-4128
FL	-4129
ameter	-4130
max	-4131
▁San	-4132
unk	-4133
▁extends	-4134
▁core	-4135
rees	-4136
▁serum	-4137
DA	-4138
itute	-4139
▁walk	-4140
▁America	-4141
▁severe	-4142
▁protected	-4143
▁Sk	-4144
clus	-4145
ochem	-4146
yst	-4147
Size	-4148
option	-4149
▁California	-4150
▁End	-4151
▁Note	-4152
itution	-4153
▁membrane	-4154
▁learning	-4155
osing	-4156
All	-4157
▁basic	-4158
▁served	-4159
▁Department	-4160
▁intra	-4161
▁playing	-4162
▁starting	-4163
▁drop	-4164
▁female	-4165
▁radio	-4166
▁motion	-4167
▁optical	-4168
▁examined	-4169
android	-4170
DS	-4171
▁hor	-4172
▁Day	-4173
ostic	-4174
hent	-4175
ilder	-4176
▁synd	-4177
▁defin	-4178
>>	-4179
▁inn	-4180
▁mag	-4181
▁Form	-4182
▁healthy	-4183
mand	-4184
▁poor	-4185
▁Software	-4186
▁vitro	-4187
▁channel	-4188
ivo	-4189
itivity	-4190
▁directory	-4191
tes	-4192
Count	-4193
indow	-4194
▁animals	-4195
otal	-4196
▁**	-4197
info	-4198
erous	-4199
rapeut	-4200
ocr	-4201
▁wid	-4202
current	-4203
default	-4204
Des	-4205
▁WAR	-4206
gy	-4207
efore	-4208
▁extrem	-4209
▁ensure	-4210
▁throughout	-4211
ii	-4212
▁SQL	-4213
▁satis	-4214
irmed	-4215
DO	-4216
▁Sum	-4217
ondon	-4218
▁susp	-4219
▁Object	-4220
▁rev	-4221
▁larger	-4222
▁born	-4223
▁coming	-4224
ocytes	-4225
from	-4226
oice	-4227
onic	-4228
main	-4229
ECT	-4230
▁suff	-4231
▁PC	-4232
▁adding	-4233
▁constant	-4234
▁culture	-4235
▁Sen	-4236
▁bottom	-4237
PT	-4238
▁nil	-4239
ford	-4240
▁AM	-4241
la	-4242
▁<?	-4243
▁Ste	-4244
ancial	-4245
▁Att	-4246
mm	-4247
▁appropriate	-4248
ipher	-4249
▁forms	-4250
olid	-4251
▁electronic	-4252
MM	-4253
height	-4254
Out	-4255
▁President	-4256
attle	-4257
▁mort	-4258
agement	-4259
▁administration	-4260
▁($	-4261
▁characters	-4262
doc	-4263
enge	-4264
local	-4265
▁resulting	-4266
▁NO	-4267
▁Her	-4268
▁bool	-4269
Manager	-4270
▁trig	-4271
gorith	-4272
VER	-4273
alle	-4274
▁operating	-4275
▁India	-4276
selves	-4277
▁Rem	-4278
izer	-4279
ipe	-4280
struct	-4281
ulf	-4282
eria	-4283
click	-4284
▁mother	-4285
rie	-4286
▁responses	-4287
▁compr	-4288
▁transform	-4289
dir	-4290
▁Air	-4291
▁session	-4292
▁sense	-4293
img	-4294
▁Japanese	-4295
▁Off	-4296
▁adapt	-4297
▁somet	-4298
▁cast	-4299
▁View	-4300
room	-4301
Inter	-4302
▁capacity	-4303
▁contrast	-4304
▁influence	-4305
Ref	-4306
ITY	-4307
▁wa	-4308
▁hop	-4309
My	-4310
agon	-4311
hors	-4312
▁failed	-4313
▁concept	-4314
▁daily	-4315
▁Direct	-4316
▁commerc	-4317
▁bed	-4318
erate	-4319
▁assert	-4320
iat	-4321
▁remains	-4322
▁ple	-4323
egin	-4324
▁China	-4325
▁virtual	-4326
Fr	-4327
omin	-4328
ENSE	-4329
▁Tex	-4330
aling	-4331
▁Indian	-4332
iful	-4333
Table	-4334
ferences	-4335
▁pull	-4336
▁actual	-4337
▁evaluate	-4338
▁Jud	-4339
▁commit	-4340
etes	-4341
FA	-4342
▁places	-4343
▁police	-4344
rate	-4345
▁substant	-4346
▁bal	-4347
▁combined	-4348
▁reli	-4349
▁matrix	-4350
▁challeng	-4351
fort	-4352
orders	-4353
▁Because	-4354
DB	-4355
RANT	-4356
▁catal	-4357
▁comments	-4358
▁delivery	-4359
▁operations	-4360
Node	-4361
▁prefer	-4362
▁equipment	-4363
▁Date	-4364
▁UK	-4365
▁returned	-4366
Act	-4367
▁completed	-4368
▁Free	-4369
Group	-4370
▁tested	-4371
▁hypot	-4372
▁Each	-4373
apping	-4374
▁export	-4375
▁Ca	-4376
stream	-4377
ius	-4378
▁Mac	-4379
▁agg	-4380
▁scale	-4381
▁note	-4382
aining	-4383
▁Fe	-4384
amine	-4385
▁electric	-4386
ui	-4387
▁Met	-4388
ociety	-4389
▁David	-4390
▁domain	-4391
ln	-4392
▁Sy	-4393
riday	-4394
▁transl	-4395
▁panel	-4396
Americ	-4397
contain	-4398
▁critical	-4399
▁Name	-4400
','	-4401
▁projects	-4402
Hand	-4403
aign	-4404
node	-4405
ICENSE	-4406
▁moment	-4407
▁Fil	-4408
▁TV	-4409
ooth	-4410
▁couple	-4411
▁tox	-4412
▁alone	-4413
▁drugs	-4414
▁installed	-4415
▁Det	-4416
CP	-4417
▁WIT	-4418
▁external	-4419
rl	-4420
Box	-4421
rief	-4422
▁London	-4423
▁expert	-4424
Message	-4425
This	-4426
▁guid	-4427
▁customers	-4428
Is	-4429
rect	-4430
▁goes	-4431
ris	-4432
itect	-4433
▁countries	-4434
▁$('	-4435
▁electron	-4436
▁Ret	-4437
product	-4438
otherapy	-4439
(\	-4440
▁choose	-4441
▁leave	-4442
hetic	-4443
▁attention	-4444
heme	-4445
▁Mr	-4446
anted	-4447
▁classes	-4448
apache	-4449
▁correl	-4450
▁middle	-4451
uge	-4452
▁exception	-4453
Client	-4454
▁Coun	-4455
▁solutions	-4456
cs	-4457
▁fluid	-4458
▁magnetic	-4459
▁Vir	-4460
":"	-4461
▁cere	-4462
▁died	-4463
▁lung	-4464
▁aspect	-4465
▁Black	-4466
SP	-4467
undle	-4468
result	-4469
▁entry	-4470
std	-4471
▁notice	-4472
▁configuration	-4473
▁safe	-4474
hand	-4475
▁subsequ	-4476
▁Sch	-4477
Up	-4478
▁carcin	-4479
▁approximately	-4480
▁lib	-4481
▁television	-4482
He	-4483
sql	-4484
▁catch	-4485
▁choice	-4486
((	-4487
▁~	-4488
level	-4489
▁NULL	-4490
▁diseases	-4491
▁controller	-4492
aser	-4493
▁wire	-4494
▁inflamm	-4495
▁collect	-4496
elt	-4497
▁ms	-4498
▁whose	-4499
▁exactly	-4500
▁selection	-4501
▁oxid	-4502
New	-4503
▁medium	-4504
heet	-4505
ologic	-4506
▁reports	-4507
▁scan	-4508
phone	-4509
▁recorded	-4510
abs	-4511
▁indicate	-4512
▁About	-4513
▁Both	-4514
orial	-4515
ael	-4516
▁fully	-4517
▁increases	-4518
▁Main	-4519
▁association	-4520
▁removed	-4521
▁xml	-4522
▁desired	-4523
▁regarding	-4524
oric	-4525
▁maximum	-4526
ERE	-4527
▁Ital	-4528
▁vict	-4529
▁began	-4530
▁breast	-4531
▁Wed	-4532
▁mit	-4533
build	-4534
ialog	-4535
▁Service	-4536
▁whereas	-4537
BA	-4538
▁supply	-4539
▁candid	-4540
▁God	-4541
▁costs	-4542
▁batter	-4543
ocy	-4544
rav	-4545
▁hem	-4546
ping	-4547
▁Friday	-4548
▁everyone	-4549
▁deep	-4550
▁charge	-4551
▁expand	-4552
▁generate	-4553
▁movement	-4554
▁imm	-4555
duce	-4556
▁restrict	-4557
▁metabol	-4558
▁assembly	-4559
▁WARRANT	-4560
ida	-4561
idden	-4562
EM	-4563
cos	-4564
▁touch	-4565
▁older	-4566
▁customer	-4567
▁ut	-4568
hema	-4569
ptions	-4570
ensions	-4571
▁modify	-4572
▁hon	-4573
▁closed	-4574
oom	-4575
Script	-4576
▁molec	-4577
Content	-4578
▁war	-4579
Att	-4580
▁Cup	-4581
▁TH	-4582
Stream	-4583
▁Street	-4584
▁serious	-4585
▁policy	-4586
rapeutic	-4587
band	-4588
▁chemical	-4589
▁documentation	-4590
▁Many	-4591
{\	-4592
["	-4593
▁User	-4594
vas	-4595
▁opening	-4596
see	-4597
▁therm	-4598
▁appeal	-4599
lands	-4600
▁po	-4601
yles	-4602
ellular	-4603
icks	-4604
▁mouse	-4605
EL	-4606
▁lock	-4607
Action	-4608
▁moved	-4609
▁optim	-4610
▁})	-4611
▁vert	-4612
Layout	-4613
▁empty	-4614
▁placed	-4615
inner	-4616
▁records	-4617
ords	-4618
▁Foundation	-4619
▁argument	-4620
▁yield	-4621
DIT	-4622
css	-4623
▁decrease	-4624
hold	-4625
▁elev	-4626
▁advance	-4627
hat	-4628
▁exists	-4629
▁son	-4630
▁electrical	-4631
▁surgical	-4632
▁fet	-4633
▁developing	-4634
▁appe	-4635
▁font	-4636
▁HTML	-4637
▁allowed	-4638
▁substrate	-4639
▁pen	-4640
▁shape	-4641
▁figure	-4642
▁European	-4643
ibly	-4644
▁sometimes	-4645
▁highest	-4646
ishing	-4647
▁stored	-4648
▁green	-4649
▁rules	-4650
CK	-4651
PA	-4652
enty	-4653
last	-4654
▁fed	-4655
▁chain	-4656
▁Android	-4657
▁profile	-4658
▁interview	-4659
olean	-4660
▁operator	-4661
▁construction	-4662
▁Code	-4663
▁rare	-4664
ifest	-4665
▁moving	-4666
▁Another	-4667
▁Furthermore	-4668
▁continuous	-4669
▁Commun	-4670
overn	-4671
ologies	-4672
▁sources	-4673
:(	-4674
▁corresponding	-4675
$$	-4676
▁browser	-4677
find	-4678
▁seven	-4679
▁sleep	-4680
▁upper	-4681
▁sold	-4682
ado	-4683
going	-4684
▁Techn	-4685
▁pregn	-4686
▁bur	-4687
ara	-4688
▁carbon	-4689
▁fre	-4690
▁Version	-4691
▁syndrome	-4692
normal	-4693
missions	-4694
SA	-4695
▁opin	-4696
▁subs	-4697
ought	-4698
▁Such	-4699
mathbb	-4700
▁transmission	-4701
OL	-4702
ij	-4703
▁Face	-4704
▁eight	-4705
▁incorpor	-4706
▁join	-4707
Property	-4708
▁ON	-4709
ications	-4710
PR	-4711
▁implementation	-4712
rt	-4713
▁nature	-4714
CI	-4715
▁signals	-4716
anned	-4717
American	-4718
src	-4719
▁Championship	-4720
▁Log	-4721
faces	-4722
▁IL	-4723
▁Type	-4724
▁resol	-4725
▁Project	-4726
▁conducted	-4727
▁absol	-4728
free	-4729
▁Vis	-4730
▁isolated	-4731
▁Wash	-4732
▁stuff	-4733
▁supported	-4734
ares	-4735
document	-4736
▁situation	-4737
ygen	-4738
ponse	-4739
Version	-4740
▁vector	-4741
▁earlier	-4742
▁delay	-4743
▁CI	-4744
ilitary	-4745
▁award	-4746
▁cert	-4747
▁patterns	-4748
▁settings	-4749
▁units	-4750
write	-4751
▁gluc	-4752
▁compounds	-4753
▁nav	-4754
▁equal	-4755
▁linear	-4756
▁Back	-4757
ras	-4758
abric	-4759
▁degrees	-4760
▁evaluation	-4761
▁follows	-4762
arrow	-4763
helial	-4764
▁URL	-4765
▁Check	-4766
▁princ	-4767
ен	-4768
Fil	-4769
oto	-4770
▁village	-4771
king	-4772
▁ready	-4773
eric	-4774
den	-4775
▁{}	-4776
opath	-4777
▁density	-4778
dim	-4779
▁vivo	-4780
▁carry	-4781
dependent	-4782
'.	-4783
▁Mor	-4784
▁French	-4785
▁outcomes	-4786
ship	-4787
weight	-4788
defined	-4789
▁Republic	-4790
▁Sing	-4791
Override	-4792
▁Australia	-4793
acher	-4794
TO	-4795
▁thick	-4796
asc	-4797
endif	-4798
specific	-4799
▁""	-4800
▁ones	-4801
▁norm	-4802
▁Canada	-4803
▁prepar	-4804
ramework	-4805
▁modern	-4806
coh	-4807
▁float	-4808
▁regions	-4809
▁suggested	-4810
▁exercise	-4811
▁News	-4812
▁expressed	-4813
▁Lin	-4814
▁mig	-4815
press	-4816
▁cort	-4817
▁pharm	-4818
▁calls	-4819
▁conver	-4820
▁glass	-4821
ube	-4822
▁causes	-4823
▁regist	-4824
${	-4825
▁alternative	-4826
che	-4827
▁Circ	-4828
orge	-4829
ville	-4830
▁Texas	-4831
▁specifically	-4832
otes	-4833
▁outcome	-4834
omb	-4835
▁River	-4836
▁cryst	-4837
▁relevant	-4838
▁distance	-4839
UI	-4840
▁Mal	-4841
▁SELECT	-4842
iding	-4843
▁books	-4844
▁Monday	-4845
▁steps	-4846
▁license	-4847
▁gast	-4848
tag	-4849
▁deaths	-4850
▁errors	-4851
block	-4852
ductor	-4853
▁UN	-4854
▁diet	-4855
▁driver	-4856
▁prem	-4857
ranch	-4858
▁Port	-4859
▁meeting	-4860
ть	-4861
▁nut	-4862
▁responsible	-4863
ester	-4864
▁opportunity	-4865
▁Olymp	-4866
gu	-4867
hydro	-4868
▁Law	-4869
iately	-4870
angle	-4871
PP	-4872
Conn	-4873
beta	-4874
▁teams	-4875
can	-4876
▁shared	-4877
event	-4878
▁commercial	-4879
▁adult	-4880
▁inform	-4881
▁saw	-4882
▁coord	-4883
▁react	-4884
▁traditional	-4885
URL	-4886
rupt	-4887
ban	-4888
▁labor	-4889
▁folder	-4890
aa	-4891
▁shop	-4892
emia	-4893
▁alt	-4894
icated	-4895
bes	-4896
cat	-4897
▁gly	-4898
▁Time	-4899
▁joint	-4900
▁parents	-4901
▁EX	-4902
▁Dan	-4903
▁passed	-4904
rown	-4905
Us	-4906
▁counter	-4907
▁genetic	-4908
▁requirements	-4909
▁Hol	-4910
adian	-4911
▁Develop	-4912
▁container	-4913
iling	-4914
▁epis	-4915
wood	-4916
▁assum	-4917
uffer	-4918
▁decided	-4919
ART	-4920
▁controlled	-4921
source	-4922
▁park	-4923
▁quickly	-4924
ра	-4925
plant	-4926
▁Phil	-4927
▁star	-4928
Living	-4929
%.	-4930
={	-4931
ocard	-4932
▁reflect	-4933
▁Prov	-4934
reated	-4935
▁towards	-4936
▁situ	-4937
Cs	-4938
ician	-4939
▁satisf	-4940
orb	-4941
search	-4942
▁+=	-4943
▁<!	-4944
iers	-4945
weet	-4946
model	-4947
________________	-4948
return	-4949
iological	-4950
▁fund	-4951
▁spring	-4952
Ent	-4953
rypt	-4954
▁slight	-4955
▁manner	-4956
edia	-4957
▁pow	-4958
▁East	-4959
▁description	-4960
▁ign	-4961
▁buff	-4962
▁wrote	-4963
ny	-4964
ABLE	-4965
▁experimental	-4966
Source	-4967
▁Super	-4968
icens	-4969
rices	-4970
▁frag	-4971
▁stack	-4972
plicit	-4973
▁History	-4974
ools	-4975
▁ideas	-4976
▁giving	-4977
▁instr	-4978
▁families	-4979
▁showing	-4980
lo	-4981
▁eth	-4982
▁mer	-4983
▁picture	-4984
IO	-4985
▁df	-4986
▁cellular	-4987
wide	-4988
▁kid	-4989
ala	-4990
▁Ke	-4991
uster	-4992
asm	-4993
asks	-4994
▁student	-4995
▁announced	-4996
win	-4997
▁James	-4998
▁investigate	-4999
bu	-5000
▁excell	-5001
▁describe	-5002
▁replace	-5003
▁Every	-5004
inese	-5005
▁Apple	-5006
▁smaller	-5007
▁bond	-5008
▁affected	-5009
▁automatically	-5010
ria	-5011
▁Id	-5012
Inst	-5013
▁receiving	-5014
ointer	-5015
uesday	-5016
▁Div	-5017
▁<-	-5018
elcome	-5019
ili	-5020
▁occurred	-5021
Ed	-5022
sin	-5023
png	-5024
valid	-5025
▁comparison	-5026
▁protocol	-5027
▁woman	-5028
▁password	-5029
urance	-5030
▁neigh	-5031
gener	-5032
adding	-5033
▁Run	-5034
▁race	-5035
./	-5036
▁PM	-5037
▁tree	-5038
([	-5039
▁agents	-5040
EG	-5041
▁mis	-5042
▁measures	-5043
Number	-5044
olf	-5045
Be	-5046
▁yourself	-5047
dat	-5048
haps	-5049
▁PHP	-5050
▁ast	-5051
▁onto	-5052
request	-5053
lee	-5054
▁GNU	-5055
▁info	-5056
▁Program	-5057
▁Mem	-5058
▁nit	-5059
chron	-5060
▁nice	-5061
▁meaning	-5062
▁protect	-5063
estion	-5064
▁Satur	-5065
▁German	-5066
ls	-5067
rought	-5068
▁analys	-5069
▁assessment	-5070
stract	-5071
▁Thank	-5072
MO	-5073
▁confirmed	-5074
▁runs	-5075
▁progress	-5076
▁camera	-5077
▁resource	-5078
▁rule	-5079
▁worth	-5080
▁Association	-5081
▁immediately	-5082
▁pet	-5083
Trans	-5084
▁coupl	-5085
][	-5086
▁mortality	-5087
:\	-5088
▁Fed	-5089
▁Washington	-5090
▁dys	-5091
▁push	-5092
▁scient	-5093
inity	-5094
▁efficiency	-5095
▁eye	-5096
LA	-5097
rd	-5098
▁aware	-5099
▁Ev	-5100
▁president	-5101
▁piece	-5102
iform	-5103
▁[]	-5104
which	-5105
▁Rich	-5106
▁Paul	-5107
▁pept	-5108
▁legal	-5109
num	-5110
▁carried	-5111
▁ow	-5112
▁gold	-5113
▁sell	-5114
ignment	-5115
▁campaign	-5116
asket	-5117
▁algorith	-5118
▁lab	-5119
▁tempor	-5120
)\	-5121
spective	-5122
▁cart	-5123
▁assessed	-5124
CON	-5125
▁interaction	-5126
No	-5127
▁и	-5128
▁dynamic	-5129
▁Facebook	-5130
KE	-5131
Sub	-5132
▁Great	-5133
▁Che	-5134
force	-5135
▁Sunday	-5136
utive	-5137
usiness	-5138
gar	-5139
roke	-5140
▁bul	-5141
▁har	-5142
▁reach	-5143
▁therapeutic	-5144
ivil	-5145
▁chart	-5146
orter	-5147
▁financial	-5148
tee	-5149
Input	-5150
anges	-5151
▁secondary	-5152
▁repair	-5153
▁AR	-5154
▁fair	-5155
▁rows	-5156
▁directed	-5157
но	-5158
Load	-5159
▁regul	-5160
▁demand	-5161
▁Di	-5162
▁gave	-5163
gs	-5164
Not	-5165
▁rob	-5166
ka	-5167
nesday	-5168
hi	-5169
▁achieved	-5170
vest	-5171
▁Fire	-5172
▁Mult	-5173
ogenesis	-5174
QU	-5175
null	-5176
▁ion	-5177
▁cycle	-5178
ped	-5179
amily	-5180
▁saying	-5181
▁changing	-5182
▁columns	-5183
▁Internet	-5184
▁strategy	-5185
▁ten	-5186
▁summer	-5187
▁fram	-5188
▁Array	-5189
IES	-5190
▁ng	-5191
▁Does	-5192
▁blue	-5193
▁reasons	-5194
tra	-5195
ruit	-5196
Listener	-5197
TER	-5198
NO	-5199
And	-5200
hens	-5201
▁enzyme	-5202
XX	-5203
asis	-5204
▁cele	-5205
▁north	-5206
▁Tuesday	-5207
▁themselves	-5208
ership	-5209
▁behavi	-5210
▁bank	-5211
▁ampl	-5212
itative	-5213
▁beginning	-5214
▁extension	-5215
////////////////	-5216
▁tend	-5217
▁Current	-5218
▁agent	-5219
▁helps	-5220
▁generation	-5221
AV	-5222
▁ded	-5223
SH	-5224
▁die	-5225
▁shoot	-5226
▁Even	-5227
▁##	-5228
ursday	-5229
▁beautiful	-5230
▁advantage	-5231
▁PD	-5232
▁distinct	-5233
▁organization	-5234
Web	-5235
▁sales	-5236
ervices	-5237
first	-5238
▁enhance	-5239
za	-5240
ota	-5241
▁cardiac	-5242
▁inner	-5243
▁IP	-5244
▁fill	-5245
▁Pet	-5246
▁lives	-5247
▁morph	-5248
▁literature	-5249
▁Na	-5250
▁Saturday	-5251
▁conv	-5252
▁oral	-5253
▁maybe	-5254
▁apparent	-5255
▁collected	-5256
▁CT	-5257
▁Rober	-5258
inf	-5259
▁AT	-5260
pg	-5261
false	-5262
allel	-5263
message	-5264
▁largest	-5265
ictionary	-5266
▁highlight	-5267
ario	-5268
▁sen	-5269
▁advanced	-5270
▁Sur	-5271
Point	-5272
▁becomes	-5273
Result	-5274
▁discussed	-5275
nel	-5276
▁fat	-5277
▁scen	-5278
▁route	-5279
iveness	-5280
undred	-5281
▁movie	-5282
iment	-5283
▁guide	-5284
SQL	-5285
rogen	-5286
▁displ	-5287
raint	-5288
▁analyzed	-5289
▁Application	-5290
UB	-5291
▁CR	-5292
▁Text	-5293
ements	-5294
aved	-5295
▁hair	-5296
▁strength	-5297
▁political	-5298
▁±	-5299
▁preval	-5300
FC	-5301
roy	-5302
cohol	-5303
▁Wednesday	-5304
otox	-5305
▁finding	-5306
UD	-5307
Reg	-5308
▁door	-5309
▁south	-5310
orthern	-5311
izations	-5312
▁indicated	-5313
▁rock	-5314
ildren	-5315
iconductor	-5316
(){	-5317
▁fuel	-5318
century	-5319
▁Second	-5320
▁finally	-5321
▁peripher	-5322
lig	-5323
▁Best	-5324
▁England	-5325
▁fight	-5326
▁wild	-5327
▁encoding	-5328
akers	-5329
inated	-5330
▁sets	-5331
▁interested	-5332
irable	-5333
inger	-5334
▁serve	-5335
ini	-5336
▁attribut	-5337
▁sensitivity	-5338
▁к	-5339
sem	-5340
▁enable	-5341
▁driving	-5342
unit	-5343
creen	-5344
iatric	-5345
aughter	-5346
▁Govern	-5347
▁immune	-5348
writ	-5349
▁Try	-5350
▁interesting	-5351
▁compare	-5352
▁tit	-5353
pping	-5354
++)	-5355
▁Hel	-5356
▁html	-5357
DER	-5358
▁Dec	-5359
▁Book	-5360
▁Home	-5361
▁happen	-5362
▁occurs	-5363
▁pages	-5364
▁benefit	-5365
ifying	-5366
▁properly	-5367
▁Microsoft	-5368
Bar	-5369
▁surround	-5370
Rec	-5371
▁er	-5372
process	-5373
▁Thursday	-5374
▁vac	-5375
▁none	-5376
▁wait	-5377
asp	-5378
▁father	-5379
▁prepared	-5380
▁skills	-5381
cut	-5382
▁Mag	-5383
ateral	-5384
ellant	-5385
▁brand	-5386
▁clients	-5387
▁growing	-5388
▁synthesis	-5389
})	-5390
begin	-5391
▁header	-5392
▁Bi	-5393
▁Arch	-5394
▁solve	-5395
▁architect	-5396
ORT	-5397
erior	-5398
outhern	-5399
▁margin	-5400
▁challenge	-5401
yg	-5402
▁],	-5403
▁fresh	-5404
▁Pal	-5405
anging	-5406
People	-5407
▁opened	-5408
▁photos	-5409
▁morning	-5410
▁Python	-5411
iant	-5412
target	-5413
▁alter	-5414
▁floor	-5415
▁Mat	-5416
▁Under	-5417
'),	-5418
▁symb	-5419
▁chance	-5420
rian	-5421
▁recip	-5422
chem	-5423
▁ter	-5424
atever	-5425
▁renal	-5426
isions	-5427
▁menu	-5428
▁mentioned	-5429
▁manufacture	-5430
su	-5431
▁Leg	-5432
▁pump	-5433
ogenic	-5434
len	-5435
▁dro	-5436
▁epit	-5437
Default	-5438
▁UI	-5439
rh	-5440
▁Sl	-5441
▁Moreover	-5442
▁benefits	-5443
aught	-5444
icine	-5445
▁Club	-5446
▁Miss	-5447
▁ring	-5448
▁DO	-5449
▁Chinese	-5450
ро	-5451
draw	-5452
▁mel	-5453
▁tick	-5454
Click	-5455
▁brief	-5456
▁finished	-5457
▁otherwise	-5458
ycl	-5459
Page	-5460
▁dry	-5461
ontal	-5462
▁plans	-5463
▁lesions	-5464
▁inhibition	-5465
▁straight	-5466
google	-5467
men	-5468
▁director	-5469
▁protection	-5470
TR	-5471
▁Apache	-5472
▁Server	-5473
▁Lou	-5474
▁goals	-5475
▁involve	-5476
▁Bre	-5477
▁Long	-5478
imer	-5479
output	-5480
▁arm	-5481
▁Care	-5482
▁calling	-5483
▁survey	-5484
▁framework	-5485
poses	-5486
▁statist	-5487
▁OS	-5488
▁elim	-5489
▁successfully	-5490
oster	-5491
▁db	-5492
▁Rad	-5493
thlet	-5494
▁tumors	-5495
▁Custom	-5496
▁Tom	-5497
▁obvious	-5498
foo	-5499
▁Once	-5500
▁happy	-5501
▁Follow	-5502
lections	-5503
▁fabric	-5504
▁Patent	-5505
▁native	-5506
▁trou	-5507
grade	-5508
▁college	-5509
▁attached	-5510
show	-5511
▁Jack	-5512
monary	-5513
▁dead	-5514
inder	-5515
▁limitations	-5516
▁appoint	-5517
▁derived	-5518
▁disorders	-5519
ech	-5520
▁leads	-5521
▁repro	-5522
osition	-5523
author	-5524
▁diabetes	-5525
▁excellent	-5526
▁guess	-5527
▁procedures	-5528
aper	-5529
ytic	-5530
uman	-5531
uth	-5532
azine	-5533
email	-5534
▁Well	-5535
▁listed	-5536
▁horm	-5537
Base	-5538
bre	-5539
▁Que	-5540
activ	-5541
▁Council	-5542
aud	-5543
icate	-5544
▁tele	-5545
det	-5546
format	-5547
rum	-5548
▁appeared	-5549
sq	-5550
▁Michael	-5551
▁integrated	-5552
rot	-5553
▁correlation	-5554
ears	-5555
▁eyes	-5556
▁tab	-5557
▁Error	-5558
▁spread	-5559
ifications	-5560
agen	-5561
▁mic	-5562
▁surpr	-5563
At	-5564
Tem	-5565
hell	-5566
▁importance	-5567
▁improvement	-5568
lets	-5569
▁WHERE	-5570
▁commonly	-5571
▁correctly	-5572
next	-5573
▁Bas	-5574
▁tal	-5575
▁Research	-5576
▁recovery	-5577
▁referred	-5578
▁peak	-5579
▁shift	-5580
▁oxygen	-5581
actory	-5582
kin	-5583
▁Oh	-5584
▁-->	-5585
icensed	-5586
▁Mart	-5587
exec	-5588
illa	-5589
omal	-5590
▁environmental	-5591
▁Ben	-5592
ILITY	-5593
aming	-5594
▁White	-5595
urt	-5596
From	-5597
▁Tra	-5598
▁mes	-5599
append	-5600
▁authors	-5601
▁articles	-5602
prot	-5603
▁plays	-5604
▁Related	-5605
▁examples	-5606
▁hypert	-5607
▁suitable	-5608
▁Invention	-5609
▁receptors	-5610
Le	-5611
▁incidence	-5612
▁q	-5613
sey	-5614
▁obj	-5615
▁Mary	-5616
%;	-5617
??	-5618
ustr	-5619
▁sun	-5620
▁JSON	-5621
Bu	-5622
bug	-5623
usr	-5624
▁nor	-5625
▁interp	-5626
▁majority	-5627
▁TR	-5628
▁sufficient	-5629
PC	-5630
orption	-5631
=>	-5632
di	-5633
▁delete	-5634
▁complications	-5635
ago	-5636
▁happens	-5637
../../	-5638
▁characterized	-5639
▁semiconductor	-5640
▁mRNA	-5641
isation	-5642
▁MS	-5643
number	-5644
▁comfort	-5645
▁("	-5646
▁schools	-5647
▁HIV	-5648
▁PRO	-5649
▁injection	-5650
HOUT	-5651
▁easier	-5652
▁nearly	-5653
"),	-5654
project	-5655
▁ven	-5656
Select	-5657
▁wasn	-5658
▁toward	-5659
▁BOO	-5660
▁versus	-5661
▁explain	-5662
▁recording	-5663
▁CA	-5664
blog	-5665
▁resulted	-5666
rep	-5667
▁(!	-5668
ello	-5669
▁Good	-5670
ometry	-5671
Control	-5672
property	-5673
IST	-5674
▁Conn	-5675
Phone	-5676
▁Cong	-5677
▁valve	-5678
▁Before	-5679
▁marked	-5680
▁Its	-5681
args	-5682
▁neut	-5683
ipping	-5684
▁consequ	-5685
▁Sal	-5686
iled	-5687
▁Company	-5688
▁hundred	-5689
▁assay	-5690
▁adults	-5691
hab	-5692
▁diss	-5693
Create	-5694
Head	-5695
ambda	-5696
▁stock	-5697
▁updated	-5698
range	-5699
arant	-5700
▁hour	-5701
▁divid	-5702
SO	-5703
ted	-5704
fully	-5705
client	-5706
▁WITHOUT	-5707
▁register	-5708
Method	-5709
ochemical	-5710
frame	-5711
▁Elect	-5712
▁dynam	-5713
oday	-5714
▁disp	-5715
▁gain	-5716
encing	-5717
align	-5718
cence	-5719
ensional	-5720
idget	-5721
▁rail	-5722
reatment	-5723
▁shell	-5724
MB	-5725
▁trend	-5726
▁facilit	-5727
osa	-5728
▁photo	-5729
Component	-5730
▁efficacy	-5731
▁sheet	-5732
▁somew	-5733
▁Hy	-5734
▁polymer	-5735
Ass	-5736
aped	-5737
▁master	-5738
▁tissues	-5739
Ps	-5740
oul	-5741
▁smart	-5742
perties	-5743
Run	-5744
gest	-5745
▁retro	-5746
▁category	-5747
▁duration	-5748
▁messages	-5749
▁exposed	-5750
.*	-5751
ders	-5752
▁plus	-5753
import	-5754
You	-5755
azon	-5756
▁wood	-5757
▁override	-5758
home	-5759
Row	-5760
only	-5761
fortun	-5762
▁firm	-5763
ses	-5764
▁century	-5765
▁manager	-5766
racellular	-5767
ston	-5768
▁dark	-5769
ivalent	-5770
▁threat	-5771
▁capable	-5772
anger	-5773
▁Hall	-5774
▁military	-5775
▁suggests	-5776
icular	-5777
▁prolif	-5778
CF	-5779
iot	-5780
▁participants	-5781
▁animal	-5782
▁layout	-5783
▁insulin	-5784
▁measurements	-5785
root	-5786
▁Last	-5787
▁dram	-5788
▁Nor	-5789
▁wife	-5790
▁alert	-5791
▁sensitive	-5792
aby	-5793
bal	-5794
azing	-5795
JS	-5796
mt	-5797
▁confirm	-5798
▁Prof	-5799
▁plants	-5800
itc	-5801
▁"$	-5802
▁spent	-5803
▁Western	-5804
▁…	-5805
istan	-5806
▁approaches	-5807
▁edge	-5808
▁thinking	-5809
▁mechanical	-5810
▁sports	-5811
oes	-5812
▁underw	-5813
▁interactions	-5814
Dis	-5815
▁Person	-5816
▁circum	-5817
bol	-5818
▁coron	-5819
▁}}	-5820
▁signed	-5821
oyal	-5822
▁contents	-5823
ying	-5824
▁Green	-5825
▁housing	-5826
▁regulation	-5827
▁laser	-5828
ingu	-5829
▁json	-5830
itionally	-5831
yond	-5832
Format	-5833
▁attribute	-5834
Handler	-5835
▁python	-5836
ALL	-5837
filter	-5838
▁sensor	-5839
▁soft	-5840
ads	-5841
▁dou	-5842
MT	-5843
▁noted	-5844
ella	-5845
plete	-5846
▁Flor	-5847
▁alcohol	-5848
▁introduced	-5849
MD	-5850
attr	-5851
▁Vol	-5852
▁vary	-5853
▁Create	-5854
▁seconds	-5855
▁strategies	-5856
ipped	-5857
iology	-5858
▁hands	-5859
▁agreed	-5860
NET	-5861
▁EN	-5862
▁lov	-5863
▁minor	-5864
▁collabor	-5865
ensus	-5866
example	-5867
▁editor	-5868
▁implied	-5869
▁===	-5870
▁accum	-5871
▁modified	-5872
▁partners	-5873
▁monitoring	-5874
scopy	-5875
▁uint	-5876
▁battery	-5877
▁shot	-5878
ocyte	-5879
▁turned	-5880
▁purchase	-5881
▁Sec	-5882
▁zero	-5883
▁intended	-5884
▁Jer	-5885
▁frequently	-5886
ether	-5887
▁antibodies	-5888
LC	-5889
rey	-5890
▁deliver	-5891
▁Pe	-5892
ashion	-5893
)/	-5894
ests	-5895
fold	-5896
using	-5897
annels	-5898
cks	-5899
▁Carol	-5900
▁stable	-5901
brid	-5902
▁neu	-5903
aste	-5904
▁Play	-5905
▁beyond	-5906
essor	-5907
BS	-5908
та	-5909
▁ped	-5910
▁Circuit	-5911
ursor	-5912
▁artery	-5913
ca	-5914
▁glucose	-5915
▁views	-5916
▁deploy	-5917
rig	-5918
rip	-5919
amber	-5920
▁rank	-5921
▁mainly	-5922
▁transition	-5923
▁split	-5924
▁planning	-5925
▁resolution	-5926
chers	-5927
▁brought	-5928
▁encour	-5929
▁department	-5930
▁experiments	-5931
Pr	-5932
▁CP	-5933
="@	-5934
ATION	-5935
▁Only	-5936
asion	-5937
▁theory	-5938
▁Where	-5939
▁biological	-5940
▁compliance	-5941
ilk	-5942
▁Life	-5943
▁['	-5944
▁songs	-5945
▁metast	-5946
▁remember	-5947
▁train	-5948
▁assist	-5949
▁smooth	-5950
▁rh	-5951
match	-5952
▁sch	-5953
▁huge	-5954
▁USA	-5955
scope	-5956
▁minimum	-5957
▁intervention	-5958
how	-5959
amma	-5960
▁lig	-5961
▁CH	-5962
▁Make	-5963
▁Offic	-5964
▁Road	-5965
▁joined	-5966
▁tables	-5967
▁Yes	-5968
▁oste	-5969
▁fa	-5970
System	-5971
▁Results	-5972
▁bio	-5973
▁fans	-5974
▁Mex	-5975
▁pathway	-5976
▁stimulation	-5977
▁depending	-5978
ILE	-5979
▁Mount	-5980
fix	-5981
ums	-5982
▁kids	-5983
▁investigation	-5984
▁net	-5985
ovascular	-5986
uate	-5987
ya	-5988
[](	-5989
berg	-5990
then	-5991
▁IT	-5992
gent	-5993
oded	-5994
▁bow	-5995
▁cm	-5996
▁Church	-5997
rive	-5998
▁copyright	-5999
▁applicable	-6000
response	-6001
bing	-6002
▁stru	-6003
Response	-6004
EO	-6005
ARE	-6006
airs	-6007
obj	-6008
▁bud	-6009
▁debut	-6010
oration	-6011
▁partial	-6012
▁seat	-6013
control	-6014
▁nation	-6015
▁election	-6016
▁definition	-6017
▁Start	-6018
If	-6019
▁traffic	-6020
uled	-6021
▁workers	-6022
Fl	-6023
▁wave	-6024
van	-6025
▁CS	-6026
▁Rob	-6027
▁myself	-6028
▁criteria	-6029
Gener	-6030
▁coach	-6031
itar	-6032
▁[[	-6033
▁lif	-6034
▁tom	-6035
▁pool	-6036
Column	-6037
ancing	-6038
▁enhanced	-6039
▁Whe	-6040
▁simpl	-6041
▁science	-6042
TY	-6043
oprote	-6044
▁boot	-6045
umin	-6046
-----	-6047
▁filed	-6048
▁voice	-6049
▁Germany	-6050
DL	-6051
TE	-6052
)]	-6053
▁nodes	-6054
▁Gold	-6055
initely	-6056
▁flat	-6057
▁audio	-6058
UE	-6059
fe	-6060
oral	-6061
riend	-6062
▁Party	-6063
▁heavy	-6064
▁Product	-6065
IA	-6066
▁ER	-6067
olicy	-6068
▁mail	-6069
▁"/	-6070
▁по	-6071
▁![](	-6072
▁analog	-6073
▁launch	-6074
▁diagnostic	-6075
▁widely	-6076
▁peripheral	-6077
▁composition	-6078
SER	-6079
uma	-6080
▁pH	-6081
▁Step	-6082
▁imag	-6083
▁radiation	-6084
NF	-6085
▁demonstrate	-6086
"><	-6087
dule	-6088
▁vess	-6089
tenance	-6090
Application	-6091
▁removal	-6092
▁*)	-6093
▁opinion	-6094
▁George	-6095
▁mur	-6096
▁wants	-6097
▁linked	-6098
▁о	-6099
▁trials	-6100
▁Bu	-6101
▁typical	-6102
▁belong	-6103
▁slightly	-6104
Url	-6105
ById	-6106
▁heter	-6107
▁remote	-6108
▁arrest	-6109
▁signaling	-6110
▁Av	-6111
iller	-6112
▁burn	-6113
▁III	-6114
▁efforts	-6115
▁$("	-6116
endar	-6117
▁toler	-6118
▁innov	-6119
▁consult	-6120
▁MA	-6121
▁vascular	-6122
▁measurement	-6123
▁sett	-6124
▁advert	-6125
▁sexual	-6126
▁symbol	-6127
▁edit	-6128
▁epid	-6129
▁reserved	-6130
▁structural	-6131
ously	-6132
▁fish	-6133
▁capital	-6134
▁WARRANTIES	-6135
▁William	-6136
▁proport	-6137
AGE	-6138
cluded	-6139
hedule	-6140
▁displayed	-6141
yr	-6142
End	-6143
▁AL	-6144
▁Dev	-6145
▁Educ	-6146
{{	-6147
▁respond	-6148
▁parallel	-6149
▁Top	-6150
uries	-6151
cm	-6152
omer	-6153
ferent	-6154
ootball	-6155
▁thereby	-6156
▁weak	-6157
elines	-6158
▁trust	-6159
▁Central	-6160
################	-6161
)=	-6162
▁occup	-6163
▁unknown	-6164
▁cru	-6165
ipl	-6166
▁conc	-6167
▁seed	-6168
▁scores	-6169
▁wish	-6170
Status	-6171
▁France	-6172
uses	-6173
▁Alex	-6174
▁strain	-6175
▁iron	-6176
▁appearance	-6177
inn	-6178
▁retrie	-6179
▁actions	-6180
]]	-6181
itz	-6182
oly	-6183
Cell	-6184
▁bind	-6185
▁polym	-6186
▁annual	-6187
▁constit	-6188
▁Institute	-6189
▁competition	-6190
Eng	-6191
irt	-6192
▁IF	-6193
▁esc	-6194
▁Anal	-6195
▁leuk	-6196
unicip	-6197
Style	-6198
▁starts	-6199
▁experienced	-6200
▁matches	-6201
reek	-6202
etime	-6203
▁Music	-6204
summary	-6205
inations	-6206
▁FIG	-6207
Start	-6208
Equ	-6209
scale	-6210
▁journal	-6211
▁reached	-6212
▁favorite	-6213
▁agreement	-6214
edy	-6215
▁Call	-6216
▁plur	-6217
care	-6218
▁serial	-6219
ructions	-6220
▁disclosed	-6221
▁organic	-6222
del	-6223
omes	-6224
acent	-6225
▁Look	-6226
▁angle	-6227
▁deriv	-6228
estival	-6229
▁Tur	-6230
▁amb	-6231
▁pig	-6232
GB	-6233
▁setup	-6234
ultaneous	-6235
▁sust	-6236
▁vacc	-6237
VC	-6238
▁Virgin	-6239
▁despite	-6240
▁gun	-6241
▁nurs	-6242
▁carcinoma	-6243
▁rend	-6244
▁Board	-6245
▁render	-6246
▁alleg	-6247
▁apopt	-6248
▁thous	-6249
▁credit	-6250
▁bug	-6251
▁billion	-6252
▁interval	-6253
space	-6254
▁proceed	-6255
▁transplant	-6256
▁Key	-6257
▁raised	-6258
▁plug	-6259
▁shall	-6260
ABILITY	-6261
▁conven	-6262
aven	-6263
▁People	-6264
▁continued	-6265
%),	-6266
afe	-6267
▁Down	-6268
▁outer	-6269
▁teacher	-6270
▁antibody	-6271
▁Australian	-6272
Em	-6273
▁mixed	-6274
▁scope	-6275
▁jQuery	-6276
aph	-6277
Comp	-6278
ideos	-6279
rolog	-6280
DR	-6281
common	-6282
▁nuclear	-6283
▁extremely	-6284
▁haven	-6285
▁upload	-6286
▁consistent	-6287
EE	-6288
▁Bay	-6289
Server	-6290
status	-6291
▁Image	-6292
▁exchange	-6293
ет	-6294
▁depends	-6295
▁managed	-6296
▁Ig	-6297
ette	-6298
untu	-6299
▁molecules	-6300
ture	-6301
▁advice	-6302
iar	-6303
▁Sign	-6304
▁Three	-6305
▁drink	-6306
▁Build	-6307
▁abnormal	-6308
IND	-6309
▁Scott	-6310
▁unless	-6311
▁prevalence	-6312
▁<!--	-6313
ricular	-6314
▁secure	-6315
▁plastic	-6316
SL	-6317
ki	-6318
▁Ann	-6319
asure	-6320
▁noise	-6321
▁attract	-6322
abilities	-6323
▁Canadian	-6324
▁clearly	-6325
▁{{	-6326
▁Enter	-6327
▁posts	-6328
▁trade	-6329
ategories	-6330
▁requests	-6331
house	-6332
▁Kore	-6333
▁propos	-6334
MR	-6335
▁spot	-6336
▁Star	-6337
▁heard	-6338
▁throm	-6339
▁Florida	-6340
▁Network	-6341
▁SH	-6342
▁thin	-6343
▁Women	-6344
▁amino	-6345
▁Africa	-6346
▁particles	-6347
._	-6348
▁Like	-6349
▁cereb	-6350
▁PR	-6351
▁numerous	-6352
▁reducing	-6353
▁Ill	-6354
▁specified	-6355
▁${	-6356
▁Color	-6357
▁restaur	-6358
▁Patients	-6359
reshold	-6360
▁Robert	-6361
▁stimul	-6362
▁Sam	-6363
▁mill	-6364
terior	-6365
▁pharmac	-6366
▁expensive	-6367
NAME	-6368
module	-6369
▁scene	-6370
▁thanks	-6371
▁brother	-6372
▁extended	-6373
▁manufacturing	-6374
dr	-6375
iced	-6376
▁pal	-6377
▁explore	-6378
▁economic	-6379
▁contained	-6380
▁BY	-6381
▁RNA	-6382
▁hepat	-6383
▁aspects	-6384
yroid	-6385
▁Award	-6386
ona	-6387
resents	-6388
ructure	-6389
▁implic	-6390
▁versions	-6391
▁estimated	-6392
▁flag	-6393
▁Angel	-6394
▁forces	-6395
fortunately	-6396
mem	-6397
Frame	-6398
ogene	-6399
▁persist	-6400
ba	-6401
▁aden	-6402
▁coronary	-6403
ws	-6404
mas	-6405
▁bra	-6406
▁repeated	-6407
▁remaining	-6408
▁permissions	-6409
▁Big	-6410
▁debug	-6411
ilation	-6412
▁letter	-6413
▁Sil	-6414
ested	-6415
▁Find	-6416
▁laun	-6417
▁Design	-6418
▁arrang	-6419
▁documents	-6420
▁keys	-6421
▁Games	-6422
▁Requ	-6423
▁whatever	-6424
UP	-6425
rosis	-6426
▁ends	-6427
column	-6428
asketball	-6429
▁Business	-6430
Bl	-6431
fty	-6432
has	-6433
▁binary	-6434
▁church	-6435
▁Summer	-6436
▁Services	-6437
▁plurality	-6438
▁vot	-6439
uted	-6440
:"	-6441
isher	-6442
▁Review	-6443
▁Card	-6444
▁spir	-6445
▁Democr	-6446
▁Eff	-6447
▁hear	-6448
Open	-6449
Factory	-6450
▁objective	-6451
▁Finally	-6452
▁consumption	-6453
%).	-6454
▁desirable	-6455
aft	-6456
▁posted	-6457
▁purposes	-6458
▁technical	-6459
EC	-6460
dec	-6461
venue	-6462
▁Source	-6463
iny	-6464
▁smok	-6465
▁strings	-6466
sect	-6467
▁underlying	-6468
cles	-6469
cribe	-6470
▁Line	-6471
▁disch	-6472
▁antigen	-6473
▁stories	-6474
IONS	-6475
▁wheel	-6476
▁xmlns	-6477
▁prices	-6478
▁loading	-6479
ky	-6480
▁rect	-6481
ups	-6482
icial	-6483
inical	-6484
▁subsequent	-6485
▁appreciated	-6486
PM	-6487
▁?>	-6488
▁Inf	-6489
▁axis	-6490
▁farm	-6491
▁African	-6492
nament	-6493
▁neurons	-6494
osen	-6495
▁Bet	-6496
idity	-6497
▁quarter	-6498
cers	-6499
▁arguments	-6500
cis	-6501
▁PO	-6502
▁acids	-6503
▁plot	-6504
▁himself	-6505
▁cit	-6506
▁Show	-6507
▁constructor	-6508
▁ing	-6509
names	-6510
▁accuracy	-6511
▁Bill	-6512
println	-6513
gi	-6514
uls	-6515
▁"\	-6516
direct	-6517
fered	-6518
orney	-6519
▁cogn	-6520
▁Development	-6521
rehens	-6522
▁accel	-6523
▁Spring	-6524
▁internet	-6525
fit	-6526
▁Fore	-6527
▁Mont	-6528
>(	-6529
▁fluores	-6530
EW	-6531
▁feet	-6532
▁Smith	-6533
▁stability	-6534
fs	-6535
ye	-6536
ounce	-6537
service	-6538
olester	-6539
▁buffer	-6540
▁mental	-6541
▁accurate	-6542
▁orient	-6543
▁supports	-6544
description	-6545
+)	-6546
▁stem	-6547
▁BOOST	-6548
▁screening	-6549
▁authent	-6550
▁Spe	-6551
▁Stand	-6552
ervation	-6553
▁accompl	-6554
▁daughter	-6555
▁disorder	-6556
▁^	-6557
▁forming	-6558
▁employed	-6559
▁conversion	-6560
▁alloc	-6561
well	-6562
▁Head	-6563
▁writer	-6564
▁examine	-6565
▁examination	-6566
context	-6567
FS	-6568
sv	-6569
files	-6570
▁allowing	-6571
▁execute	-6572
▁disapp	-6573
▁represents	-6574
▁((	-6575
▁None	-6576
▁looked	-6577
▁underwent	-6578
▁Lu	-6579
anta	-6580
razil	-6581
▁Information	-6582
legate	-6583
▁employees	-6584
▁tun	-6585
ulator	-6586
▁sched	-6587
▁%>	-6588
▁af	-6589
arp	-6590
Work	-6591
▁Mad	-6592
▁Union	-6593
▁extent	-6594
▁married	-6595
▁analyses	-6596
▁channels	-6597
antic	-6598
▁disk	-6599
▁Office	-6600
▁malign	-6601
▁programming	-6602
True	-6603
▁adhes	-6604
▁describes	-6605
lang	-6606
▁Tor	-6607
▁Base	-6608
▁replacement	-6609
ре	-6610
env	-6611
▁Cam	-6612
▁Sol	-6613
▁emot	-6614
▁communities	-6615
▁Division	-6616
▁Tem	-6617
▁Four	-6618
▁warr	-6619
▁wear	-6620
▁paid	-6621
▁albums	-6622
▁layers	-6623
ura	-6624
licenses	-6625
rich	-6626
VD	-6627
▁claims	-6628
▁treatments	-6629
▁fan	-6630
▁manage	-6631
▁transcription	-6632
▁Louis	-6633
▁colon	-6634
▁celebr	-6635
▁pulmonary	-6636
clip	-6637
▁foo	-6638
▁Press	-6639
LICENSE	-6640
▁segment	-6641
▁powerful	-6642
▁networks	-6643
▁contribute	-6644
▁equivalent	-6645
▁Gen	-6646
ocker	-6647
nav	-6648
▁hab	-6649
▁cold	-6650
ansion	-6651
▁roles	-6652
▁Commission	-6653
ampl	-6654
▁Town	-6655
▁minim	-6656
▁relation	-6657
rael	-6658
▁overl	-6659
ango	-6660
▁Ber	-6661
izontal	-6662
▁printing	-6663
ncy	-6664
ometric	-6665
▁vehicles	-6666
▁interpret	-6667
▁Mo	-6668
▁Mot	-6669
▁Olympics	-6670
annot	-6671
▁icon	-6672
▁Island	-6673
▁mounted	-6674
bour	-6675
▁causing	-6676
xi	-6677
▁relationships	-6678
▁mostly	-6679
▁challenges	-6680
mic	-6681
▁jump	-6682
▁chlor	-6683
▁owner	-6684
]);	-6685
iki	-6686
▁Accordingly	-6687
Ob	-6688
▁Ir	-6689
lies	-6690
abil	-6691
▁ran	-6692
ifact	-6693
▁Power	-6694
▁token	-6695
ircraft	-6696
▁simultaneous	-6697
PI	-6698
ano	-6699
etry	-6700
▁calculated	-6701
cp	-6702
Ident	-6703
▁locations	-6704
▁whom	-6705
▁covered	-6706
▁Ep	-6707
▁Academ	-6708
activity	-6709
▁recommended	-6710
▁identification	-6711
infty	-6712
Options	-6713
standing	-6714
▁Today	-6715
ker	-6716
▁Camp	-6717
▁faster	-6718
osh	-6719
▁SD	-6720
Call	-6721
river	-6722
▁couldn	-6723
▁amazing	-6724
▁focused	-6725
omatic	-6726
▁Among	-6727
SC	-6728
uby	-6729
▁Hot	-6730
rapper	-6731
▁Search	-6732
▁square	-6733
UM	-6734
ga	-6735
▁excess	-6736
unct	-6737
▁Den	-6738
▁bill	-6739
▁fourth	-6740
GE	-6741
▁sand	-6742
▁guarant	-6743
ptr	-6744
▁Tour	-6745
▁histor	-6746
conf	-6747
▁Cle	-6748
▁Roman	-6749
▁warm	-6750
▁respir	-6751
plot	-6752
▁Cap	-6753
▁Mel	-6754
vider	-6755
}"	-6756
ett	-6757
▁Mass	-6758
▁mist	-6759
▁twice	-6760
antly	-6761
▁Lake	-6762
Builder	-6763
ociated	-6764
rolled	-6765
▁attach	-6766
Resource	-6767
irty	-6768
Activity	-6769
▁correlated	-6770
▁Exp	-6771
▁Thomas	-6772
▁experiment	-6773
ktop	-6774
▁residents	-6775
utch	-6776
▁•	-6777
▁Fre	-6778
▁Hill	-6779
atabase	-6780
▁stations	-6781
options	-6782
Mode	-6783
odium	-6784
▁hash	-6785
▁remained	-6786
Connection	-6787
▁positions	-6788
▁Cast	-6789
▁delet	-6790
▁girls	-6791
▁finish	-6792
▁van	-6793
▁hearing	-6794
▁algorithm	-6795
▁typed	-6796
▁maintenance	-6797
]:	-6798
rivate	-6799
▁killed	-6800
holder	-6801
▁py	-6802
idae	-6803
itial	-6804
▁aren	-6805
▁boost	-6806
▁resear	-6807
▁msg	-6808
omething	-6809
▁tube	-6810
▁weekend	-6811
▁compound	-6812
▁www	-6813
▁Event	-6814
Command	-6815
Instance	-6816
▁iPhone	-6817
iox	-6818
spect	-6819
▁Team	-6820
▁percentage	-6821
▁sed	-6822
▁assign	-6823
▁instrument	-6824
▁metabolism	-6825
▁branch	-6826
▁wat	-6827
Check	-6828
''	-6829
estinal	-6830
▁foreign	-6831
▁perhaps	-6832
case	-6833
igan	-6834
unte	-6835
eding	-6836
▁Model	-6837
▁tasks	-6838
▁median	-6839
▁replaced	-6840
▁implemented	-6841
POST	-6842
aine	-6843
onia	-6844
▁reson	-6845
ATH	-6846
umer	-6847
▁answers	-6848
emic	-6849
ctors	-6850
▁nine	-6851
▁ship	-6852
▁revers	-6853
▁foreach	-6854
▁Ver	-6855
▁Vict	-6856
="#	-6857
clusive	-6858
▁issued	-6859
▁["	-6860
ude	-6861
etch	-6862
▁Max	-6863
▁academ	-6864
▁attend	-6865
▁updates	-6866
▁confidence	-6867
@"	-6868
MPL	-6869
▁PA	-6870
▁exit	-6871
▁Society	-6872
asy	-6873
▁args	-6874
▁guys	-6875
▁syntax	-6876
background	-6877
boot	-6878
▁colors	-6879
▁offered	-6880
▁marketing	-6881
Thread	-6882
▁progn	-6883
▁stroke	-6884
---	-6885
obe	-6886
template	-6887
▁suggesting	-6888
▁potentially	-6889
dep	-6890
organ	-6891
▁raise	-6892
▁artist	-6893
▁~~	-6894
▁ads	-6895
▁usage	-6896
▁defend	-6897
▁victim	-6898
othing	-6899
▁loaded	-6900
▁administr	-6901
Label	-6902
▁dogs	-6903
▁promote	-6904
▁fraction	-6905
avel	-6906
▁Year	-6907
▁aged	-6908
▁windows	-6909
▁LI	-6910
▁True	-6911
ochond	-6912
▁strict	-6913
sd	-6914
west	-6915
xsl	-6916
▁mo	-6917
cler	-6918
▁rise	-6919
ytes	-6920
▁leader	-6921
▁patent	-6922
▁feedback	-6923
▁hypothesis	-6924
▁supporting	-6925
▁purs	-6926
▁passing	-6927
yy	-6928
▁::	-6929
▁kinase	-6930
oids	-6931
▁entered	-6932
▁aggreg	-6933
ICE	-6934
Filter	-6935
▁prevention	-6936
▁ok	-6937
▁theme	-6938
ITED	-6939
▁pip	-6940
▁kept	-6941
▁hybrid	-6942
▁replic	-6943
ernel	-6944
card	-6945
▁plane	-6946
▁assigned	-6947
▁Lib	-6948
▁biom	-6949
▁fashion	-6950
ifth	-6951
▁Mer	-6952
▁gall	-6953
▁sale	-6954
custom	-6955
▁Their	-6956
▁fract	-6957
▁effectively	-6958
▁inflammatory	-6959
just	-6960
▁reconst	-6961
▁continues	-6962
▁Management	-6963
▁subt	-6964
▁Method	-6965
▁Science	-6966
▁federal	-6967
▁transmit	-6968
reme	-6969
Write	-6970
enter	-6971
▁acet	-6972
▁conj	-6973
ulture	-6974
▁Const	-6975
▁broadcast	-6976
▁dependent	-6977
▁cache	-6978
▁balance	-6979
▁definitely	-6980
TA	-6981
▁pin	-6982
▁pix	-6983
▁Game	-6984
ли	-6985
▁Ins	-6986
crete	-6987
▁myocard	-6988
▁visible	-6989
AND	-6990
aks	-6991
asty	-6992
ena	-6993
ffee	-6994
▁relax	-6995
▁Director	-6996
adata	-6997
gress	-6998
▁holid	-6999
▁reliable	-7000
▁agree	-7001
▁д	-7002
imation	-7003
▁opportunities	-7004
rog	-7005
▁jobs	-7006
▁possibility	-7007
oder	-7008
after	-7009
eries	-7010
▁absence	-7011
▁pregnancy	-7012
apse	-7013
asts	-7014
▁unc	-7015
Range	-7016
▁elevated	-7017
▁Pub	-7018
etics	-7019
▁Next	-7020
▁diameter	-7021
▁vertical	-7022
▁technologies	-7023
\"	-7024
▁electrode	-7025
▁Grand	-7026
▁Bank	-7027
center	-7028
▁normally	-7029
▁Education	-7030
occ	-7031
▁ice	-7032
▁graft	-7033
▁latter	-7034
▁league	-7035
▁pictures	-7036
▁beg	-7037
▁pit	-7038
+\	-7039
▁Ok	-7040
License	-7041
▁uniform	-7042
▁Despite	-7043
non	-7044
▁CSS	-7045
ishes	-7046
▁breat	-7047
▁absolute	-7048
▁possibly	-7049
▁Oper	-7050
▁helped	-7051
▁intermed	-7052
▁surfaces	-7053
▁conference	-7054
▁tor	-7055
▁cards	-7056
▁detailed	-7057
▁reviewed	-7058
▁comprehens	-7059
▁>>	-7060
long	-7061
▁wouldn	-7062
agram	-7063
▁trigger	-7064
▁Tim	-7065
▁pil	-7066
close	-7067
▁Update	-7068
▁byte	-7069
▁assume	-7070
▁doll	-7071
▁insurance	-7072
▁wireless	-7073
▁represented	-7074
bi	-7075
▁Hand	-7076
▁Prior	-7077
▁Author	-7078
▁ble	-7079
▁emph	-7080
▁Return	-7081
▁recognition	-7082
$(	-7083
}(	-7084
mia	-7085
▁trip	-7086
▁lipid	-7087
▁Twitter	-7088
BM	-7089
BP	-7090
uty	-7091
▁$('#	-7092
▁shut	-7093
ounter	-7094
▁videos	-7095
▁officials	-7096
▁Pan	-7097
▁('	-7098
vector	-7099
▁pointer	-7100
ione	-7101
▁Pass	-7102
▁Commit	-7103
▁seeing	-7104
▁Virginia	-7105
Ext	-7106
ita	-7107
▁Aff	-7108
▁reviews	-7109
▁inhibitors	-7110
ua	-7111
▁Kh	-7112
usband	-7113
▁cable	-7114
▁oxide	-7115
essions	-7116
clipse	-7117
▁senior	-7118
▁Engine	-7119
▁markers	-7120
▁businesses	-7121
▁infections	-7122
▁HD	-7123
ainer	-7124
boost	-7125
static	-7126
▁humans	-7127
sqrt	-7128
▁Israel	-7129
▁regional	-7130
SR	-7131
▁hel	-7132
▁stages	-7133
Sp	-7134
Output	-7135
▁involving	-7136
▁recognized	-7137
▁=====	-7138
▁leaves	-7139
▁manually	-7140
▁standards	-7141
isl	-7142
month	-7143
▁flav	-7144
▁nerve	-7145
▁Instead	-7146
▁zone	-7147
▁emergency	-7148
amil	-7149
night	-7150
ificate	-7151
▁degrad	-7152
Template	-7153
▁Francis	-7154
▁practices	-7155
arc	-7156
some	-7157
▁Rock	-7158
▁permission	-7159
▁proliferation	-7160
▁os	-7161
▁apps	-7162
▁gran	-7163
▁boolean	-7164
Attribute	-7165
▁Register	-7166
▁coverage	-7167
▁explicit	-7168
▁Table	-7169
▁Carolina	-7170
▁Document	-7171
▁divided	-7172
▁lin	-7173
▁Edit	-7174
▁calcium	-7175
-\	-7176
bf	-7177
▁£	-7178
nam	-7179
cial	-7180
icago	-7181
eft	-7182
ien	-7183
ducing	-7184
▁Police	-7185
▁Ext	-7186
ockey	-7187
▁fiber	-7188
▁inhibitor	-7189
arden	-7190
▁thickness	-7191
SI	-7192
▁substantial	-7193
neum	-7194
▁crystal	-7195
▁handling	-7196
deg	-7197
▁Media	-7198
▁perman	-7199
-(	-7200
oret	-7201
▁cars	-7202
ora	-7203
ndef	-7204
▁gar	-7205
header	-7206
Grid	-7207
ariable	-7208
utorial	-7209
▁blocks	-7210
Per	-7211
jpg	-7212
▁git	-7213
▁lens	-7214
▁consec	-7215
▁strongly	-7216
yan	-7217
▁JO	-7218
▁pap	-7219
▁sulf	-7220
ivered	-7221
▁padding	-7222
bles	-7223
method	-7224
▁eventually	-7225
▁investment	-7226
ва	-7227
▁Frank	-7228
▁civil	-7229
▁grand	-7230
▁dedicated	-7231
INE	-7232
bra	-7233
▁embry	-7234
▁submit	-7235
,'	-7236
Token	-7237
▁------	-7238
▁retail	-7239
▁stores	-7240
▁variation	-7241
lt	-7242
vol	-7243
▁por	-7244
strap	-7245
▁stated	-7246
▁printed	-7247
▁upt	-7248
"}	-7249
ato	-7250
riage	-7251
▁becoming	-7252
▁Order	-7253
▁perspect	-7254
life	-7255
oute	-7256
▁~~~	-7257
ander	-7258
▁spend	-7259
▁thermal	-7260
▁interact	-7261
▁discussion	-7262
'],	-7263
acks	-7264
▁logic	-7265
▁Brazil	-7266
▁ton	-7267
ameters	-7268
▁machines	-7269
CV	-7270
phal	-7271
sible	-7272
▁aircraft	-7273
▁identity	-7274
ady	-7275
▁Real	-7276
▁Zeal	-7277
▁partner	-7278
ackage	-7279
▁ideal	-7280
enger	-7281
ortic	-7282
password	-7283
push	-7284
adder	-7285
▁EDIT	-7286
▁convers	-7287
▁regression	-7288
real	-7289
▁bytes	-7290
▁happened	-7291
ellig	-7292
▁invent	-7293
▁plugin	-7294
▁callback	-7295
remove	-7296
▁Click	-7297
▁manip	-7298
▁Dim	-7299
▁alk	-7300
ailed	-7301
shire	-7302
▁Linux	-7303
▁producing	-7304
Http	-7305
fill	-7306
Window	-7307
▁sides	-7308
▁Italian	-7309
▁Army	-7310
▁ahead	-7311
lectric	-7312
▁adequ	-7313
▁Richard	-7314
dict	-7315
▁relig	-7316
▁unsigned	-7317
▁Christian	-7318
▁login	-7319
▁presentation	-7320
TS	-7321
▁---	-7322
▁felt	-7323
▁scroll	-7324
▁footballers	-7325
▁differentiation	-7326
Build	-7327
▁gate	-7328
▁kidney	-7329
olesterol	-7330
DIR	-7331
sing	-7332
▁Based	-7333
▁shock	-7334
▁originally	-7335
CM	-7336
apped	-7337
▁parse	-7338
▁Hen	-7339
estic	-7340
▁luck	-7341
▁Control	-7342
eless	-7343
install	-7344
▁primarily	-7345
BU	-7346
▁nerv	-7347
▁pieces	-7348
▁MO	-7349
▁Los	-7350
store	-7351
display	-7352
▁compat	-7353
▁Zealand	-7354
pc	-7355
▁rich	-7356
▁metabolic	-7357
seud	-7358
▁egg	-7359
▁stick	-7360
▁unable	-7361
▁installation	-7362
*/	-7363
estamp	-7364
▁depth	-7365
▁meant	-7366
▁sport	-7367
▁tags	-7368
▁Function	-7369
▁>=	-7370
▁XML	-7371
astern	-7372
update	-7373
▁prompt	-7374
▁integer	-7375
▁Football	-7376
▁candidate	-7377
▁ca	-7378
okes	-7379
▁Jim	-7380
▁harm	-7381
▁dream	-7382
oscopic	-7383
▁Access	-7384
container	-7385
▁apoptosis	-7386
Exp	-7387
Pre	-7388
ican	-7389
▁Exec	-7390
▁asking	-7391
zen	-7392
itting	-7393
▁Additionally	-7394
▁IV	-7395
iginal	-7396
){#	-7397
treated	-7398
▁involves	-7399
▁mir	-7400
bound	-7401
▁entity	-7402
▁discovered	-7403
anal	-7404
lines	-7405
▁complicated	-7406
──	-7407
▁holding	-7408
▁Have	-7409
▁Mean	-7410
▁pathways	-7411
▁threshold	-7412
▁organizations	-7413
▁postoperative	-7414
ATA	-7415
Back	-7416
▁Ent	-7417
▁grid	-7418
access	-7419
apes	-7420
▁vote	-7421
▁budget	-7422
▁Special	-7423
▁strains	-7424
▁Sup	-7425
cluding	-7426
▁sections	-7427
anol	-7428
▁pri	-7429
▁persons	-7430
▁behaviour	-7431
umni	-7432
▁induction	-7433
road	-7434
▁Disc	-7435
▁rear	-7436
▁illustr	-7437
LS	-7438
font	-7439
▁strugg	-7440
▁sentence	-7441
▁```	-7442
▁rid	-7443
icient	-7444
expected	-7445
▁governing	-7446
copy	-7447
▁tail	-7448
▁reject	-7449
▁creates	-7450
▁concerns	-7451
connect	-7452
▁corpor	-7453
▁functionality	-7454
”.	-7455
rics	-7456
▁fer	-7457
▁Prot	-7458
▁grade	-7459
aid	-7460
Char	-7461
stic	-7462
▁Jul	-7463
▁spin	-7464
▁spaces	-7465
▁independ	-7466
rat	-7467
▁len	-7468
▁guitar	-7469
▁supposed	-7470
▁certainly	-7471
▁sequences	-7472
▁prove	-7473
▁signs	-7474
▁formula	-7475
oxy	-7476
▁Local	-7477
▁Unless	-7478
?>	-7479
▁Map	-7480
▁clar	-7481
▁husband	-7482
▁laboratory	-7483
▁experiences	-7484
▁Rh	-7485
▁Nov	-7486
▁meth	-7487
anguages	-7488
▁mission	-7489
▁cognitive	-7490
cor	-7491
IGHT	-7492
ipal	-7493
▁Human	-7494
▁extend	-7495
Util	-7496
▁seg	-7497
▁minute	-7498
ibraries	-7499
▁activated	-7500
loc	-7501
▁tract	-7502
oprotein	-7503
aws	-7504
burg	-7505
▁offering	-7506
btn	-7507
▁Atl	-7508
▁Wil	-7509
▁wed	-7510
▁thor	-7511
▁income	-7512
те	-7513
pop	-7514
clear	-7515
images	-7516
sim	-7517
onym	-7518
rine	-7519
▁$$\	-7520
▁temp	-7521
▁embed	-7522
▁specim	-7523
▁Hospital	-7524
▁extensive	-7525
Net	-7526
▁odd	-7527
▁synchron	-7528
▁DB	-7529
▁glut	-7530
advant	-7531
▁Studio	-7532
▁talking	-7533
▁Minister	-7534
dimensional	-7535
vm	-7536
ão	-7537
▁Tre	-7538
▁Jose	-7539
▁Take	-7540
▁lists	-7541
CG	-7542
ль	-7543
EXT	-7544
axis	-7545
hemat	-7546
▁Love	-7547
▁gone	-7548
▁poll	-7549
▁Royal	-7550
▁depression	-7551
▁preparation	-7552
():	-7553
▁..	-7554
▁cyl	-7555
▁Wood	-7556
▁copies	-7557
▁yes	-7558
▁Judge	-7559
PY	-7560
ola	-7561
▁\\	-7562
▁php	-7563
friend	-7564
▁injuries	-7565
▁voc	-7566
ergic	-7567
while	-7568
▁steel	-7569
▁hardware	-7570
▁inline	-7571
▁printf	-7572
outer	-7573
Module	-7574
▁Value	-7575
▁episode	-7576
,\	-7577
location	-7578
▁JavaScript	-7579
▁Cath	-7580
▁KIND	-7581
▁Committee	-7582
▁returning	-7583
GL	-7584
"))	-7585
assert	-7586
▁targets	-7587
git	-7588
▁Licensed	-7589
▁Government	-7590
▁Cr	-7591
▁miles	-7592
▁populations	-7593
bind	-7594
▁dismiss	-7595
ogg	-7596
▁Pop	-7597
▁duplic	-7598
Function	-7599
▁provider	-7600
Det	-7601
▁Rev	-7602
▁leaving	-7603
ри	-7604
ben	-7605
▁throws	-7606
▁reverse	-7607
▁warrant	-7608
▁packages	-7609
▁indicates	-7610
Width	-7611
times	-7612
▁waiting	-7613
▁operated	-7614
▁cardiovascular	-7615
WS	-7616
master	-7617
▁Victor	-7618
▁Medical	-7619
▁implant	-7620
ensor	-7621
istor	-7622
▁mand	-7623
▁entertain	-7624
▁facilities	-7625
▁Lim	-7626
anish	-7627
▁neck	-7628
▁Chief	-7629
▁gender	-7630
▁Penn	-7631
AY	-7632
▁§	-7633
abin	-7634
▁gro	-7635
depend	-7636
▁Subject	-7637
▁amounts	-7638
meta	-7639
▁Social	-7640
▁hormone	-7641
▁operate	-7642
▁Blue	-7643
▁Sand	-7644
ournal	-7645
▁capture	-7646
▁consists	-7647
Me	-7648
▁Which	-7649
ilateral	-7650
▁parties	-7651
▁division	-7652
▁buildings	-7653
▁delivered	-7654
Custom	-7655
▁CL	-7656
rawn	-7657
▁Old	-7658
aired	-7659
idine	-7660
▁spat	-7661
uits	-7662
▁ster	-7663
▁biggest	-7664
▁weather	-7665
▁redirect	-7666
(&	-7667
igin	-7668
orrow	-7669
▁Obama	-7670
Rep	-7671
angular	-7672
istribut	-7673
▁Supp	-7674
▁FA	-7675
▁raw	-7676
▁Swed	-7677
values	-7678
element	-7679
Configuration	-7680
atty	-7681
wrap	-7682
▁Plan	-7683
▁intake	-7684
▁manual	-7685
▁baseline	-7686
▁diagnosed	-7687
▁progression	-7688
inates	-7689
▁helpful	-7690
va	-7691
under	-7692
▁lots	-7693
▁greatly	-7694
▁specify	-7695
Vis	-7696
▁DC	-7697
▁IC	-7698
▁Dig	-7699
▁vel	-7700
Length	-7701
)^	-7702
itchen	-7703
▁practical	-7704
Reader	-7705
▁Brown	-7706
▁Trump	-7707
▁arriv	-7708
▁conflic	-7709
VM	-7710
Interface	-7711
▁reactions	-7712
child	-7713
▁Amazon	-7714
▁Library	-7715
▁supplement	-7716
▁Lo	-7717
▁Ter	-7718
▁aer	-7719
▁sea	-7720
▁knows	-7721
▁carrier	-7722
▁chromos	-7723
▁indicating	-7724
▁Sever	-7725
▁shaft	-7726
▁SP	-7727
▁union	-7728
▁bright	-7729
▁classic	-7730
▁explained	-7731
bur	-7732
▁Non	-7733
elled	-7734
▁topic	-7735
▁Russia	-7736
▁rapidly	-7737
▁rotation	-7738
Can	-7739
▁Land	-7740
▁Action	-7741
BI	-7742
dy	-7743
▁mamm	-7744
liament	-7745
▁adjacent	-7746
▁launched	-7747
BO	-7748
eps	-7749
pub	-7750
hort	-7751
vents	-7752
▁bott	-7753
▁ended	-7754
Project	-7755
▁filled	-7756
hpp	-7757
Bundle	-7758
▁Select	-7759
Location	-7760
▁keeping	-7761
domain	-7762
▁marker	-7763
▁inhibited	-7764
Title	-7765
ophil	-7766
spring	-7767
▁tight	-7768
▁transf	-7769
▁bacterial	-7770
kit	-7771
riers	-7772
▁arth	-7773
▁Peter	-7774
▁chief	-7775
▁stret	-7776
ja	-7777
▁Er	-7778
▁Men	-7779
bling	-7780
utely	-7781
factory	-7782
▁females	-7783
▁manifest	-7784
▁mitochond	-7785
▁$_	-7786
arts	-7787
▁hidden	-7788
▁silver	-7789
▁sounds	-7790
azz	-7791
▁dual	-7792
▁household	-7793
▁HTTP	-7794
▁iter	-7795
▁superior	-7796
menu	-7797
▁Prom	-7798
▁architecture	-7799
ifies	-7800
▁pancre	-7801
▁compile	-7802
▁м	-7803
kes	-7804
▁PS	-7805
▁Six	-7806
▁newly	-7807
▁vul	-7808
▁artists	-7809
▁enabled	-7810
)"	-7811
VE	-7812
▁Corpor	-7813
▁Visual	-7814
▁Example	-7815
▁Gal	-7816
▁homes	-7817
▁Academy	-7818
▁accident	-7819
javascript	-7820
Wh	-7821
lob	-7822
▁pure	-7823
Address	-7824
ogenous	-7825
mediated	-7826
anda	-7827
▁ren	-7828
▁Page	-7829
▁bath	-7830
▁east	-7831
▁Share	-7832
▁Chicago	-7833
▁adverse	-7834
▁Christmas	-7835
▁initially	-7836
▁determination	-7837
GA	-7838
DNA	-7839
ani	-7840
▁oppos	-7841
▁corner	-7842
▁Charles	-7843
▁bacteria	-7844
▁disadvant	-7845
isp	-7846
▁Matt	-7847
▁Georg	-7848
▁proof	-7849
▁scheme	-7850
▁registered	-7851
▁<=	-7852
▁checked	-7853
▁lateral	-7854
▁discloses	-7855
▁iOS	-7856
▁prox	-7857
ón	-7858
orry	-7859
▁peptide	-7860
▁mutations	-7861
▁performing	-7862
adow	-7863
▁putting	-7864
RT	-7865
}/	-7866
▁NA	-7867
▁Appe	-7868
▁laws	-7869
▁closely	-7870
▁evolution	-7871
▁mob	-7872
▁antagon	-7873
▁boy	-7874
legal	-7875
▁Tri	-7876
▁Wall	-7877
▁volunte	-7878
tn	-7879
▁aid	-7880
▁limits	-7881
pository	-7882
application	-7883
▁ink	-7884
▁sys	-7885
eting	-7886
▁sizes	-7887
▁Russian	-7888
▁founded	-7889
Exec	-7890
▁hyd	-7891
develop	-7892
▁resident	-7893
▁improving	-7894
▁respective	-7895
▁Times	-7896
▁serving	-7897
▁javascript	-7898
ema	-7899
oston	-7900
▁Secret	-7901
▁typedef	-7902
▁Du	-7903
▁PART	-7904
▁mask	-7905
lements	-7906
▁compiler	-7907
ulty	-7908
▁eat	-7909
▁ris	-7910
▁spl	-7911
iences	-7912
▁Point	-7913
▁Jo	-7914
iana	-7915
▁Wal	-7916
▁displays	-7917
dp	-7918
▁Az	-7919
iable	-7920
▁accommod	-7921
▁basically	-7922
DM	-7923
Tag	-7924
▁BAS	-7925
▁Security	-7926
▁respiratory	-7927
acet	-7928
▁crow	-7929
▁connections	-7930
Block	-7931
▁instructions	-7932
▁temperatures	-7933
^{-	-7934
▁BE	-7935
▁compens	-7936
▁winning	-7937
inus	-7938
ocom	-7939
▁initi	-7940
Provider	-7941
lambda	-7942
▁Exper	-7943
Off	-7944
kins	-7945
▁Math	-7946
▁bron	-7947
▁Should	-7948
▁exceed	-7949
DI	-7950
▁holds	-7951
▁Appeals	-7952
Mem	-7953
▁differ	-7954
▁chromat	-7955
▁consecutive	-7956
One	-7957
▁Water	-7958
▁notes	-7959
▁Comput	-7960
▁publish	-7961
▁Unfortunately	-7962
IX	-7963
▁bag	-7964
▁preced	-7965
▁RO	-7966
bert	-7967
▁Ire	-7968
language	-7969
▁facility	-7970
ACK	-7971
▁Rail	-7972
▁waste	-7973
▁Number	-7974
ractions	-7975
▁society	-7976
*)	-7977
FO	-7978
}{\	-7979
patic	-7980
▁Film	-7981
Entity	-7982
▁Earth	-7983
▁earth	-7984
▁thank	-7985
▁Ma	-7986
▁на	-7987
▁muc	-7988
▁endot	-7989
▁Support	-7990
▁flexible	-7991
▁hydrogen	-7992
▁Community	-7993
fa	-7994
irus	-7995
▁Bal	-7996
▁aimed	-7997
▁saved	-7998
▁studio	-7999
FIG	-8000
Users	-8001
▁forest	-8002
mut	-8003
ingly	-8004
▁Maybe	-8005
▁Congress	-8006
ifndef	-8007
▁aims	-8008
▁Jones	-8009
▁dress	-8010
▁Valley	-8011
▁ischem	-8012
ajax	-8013
anth	-8014
thread	-8015
replace	-8016
▁medicine	-8017
▁typename	-8018
▁google	-8019
▁proposal	-8020
>,	-8021
riter	-8022
ceived	-8023
▁doses	-8024
▁cluster	-8025
▁economy	-8026
▁suscept	-8027
ologically	-8028
▁cord	-8029
▁minimal	-8030
▁instances	-8031
Hel	-8032
tmp	-8033
Main	-8034
opsy	-8035
▁rig	-8036
▁Assembly	-8037
▁anc	-8038
▁attributes	-8039
esome	-8040
▁cohort	-8041
ventions	-8042
▁administered	-8043
Ab	-8044
FOR	-8045
bec	-8046
▁vision	-8047
▁charges	-8048
Down	-8049
▁salt	-8050
▁chair	-8051
Product	-8052
urrency	-8053
▁charged	-8054
cap	-8055
▁furn	-8056
Pan	-8057
▁narrow	-8058
▁thousands	-8059
▁surrounding	-8060
▁LO	-8061
▁Cir	-8062
▁Core	-8063
▁Lear	-8064
▁ment	-8065
Refere	-8066
idents	-8067
▁cathe	-8068
▁Kingdom	-8069
▁involvement	-8070
MI	-8071
▁np	-8072
▁Jew	-8073
erman	-8074
▁clock	-8075
▁<%	-8076
▁Hon	-8077
olved	-8078
Process	-8079
WE	-8080
uns	-8081
pers	-8082
haust	-8083
▁Jeff	-8084
▁pneum	-8085
▁Report	-8086
▁afford	-8087
▁Administ	-8088
contin	-8089
▁edition	-8090
▁feeling	-8091
▁warning	-8092
▁teaching	-8093
▁basketball	-8094
.'	-8095
jo	-8096
▁nm	-8097
acket	-8098
parse	-8099
▁======	-8100
▁athlet	-8101
▁Bur	-8102
admin	-8103
▁Link	-8104
▁chick	-8105
▁chosen	-8106
▁helping	-8107
Su	-8108
▁fo	-8109
icious	-8110
▁Cross	-8111
▁Light	-8112
GET	-8113
▁guy	-8114
ograp	-8115
▁uptake	-8116
▁expansion	-8117
stood	-8118
▁sweet	-8119
▁learned	-8120
▁trouble	-8121
▁acquired	-8122
▁portions	-8123
Mon	-8124
▁bird	-8125
▁payment	-8126
▁cleaning	-8127
▁Following	-8128
▁ul	-8129
ching	-8130
▁accepted	-8131
uzz	-8132
▁Jes	-8133
possible	-8134
▁intensity	-8135
▁Pak	-8136
▁Squ	-8137
ARY	-8138
igma	-8139
ritis	-8140
Header	-8141
▁executed	-8142
▁"""	-8143
▁Rest	-8144
jquery	-8145
▁Mexico	-8146
▁designs	-8147
▁Message	-8148
▁chamber	-8149
▁optimal	-8150
▁migration	-8151
▁comprehensive	-8152
yes	-8153
framework	-8154
▁schedule	-8155
oked	-8156
▁Phot	-8157
▁defe	-8158
▁west	-8159
▁depos	-8160
▁flash	-8161
▁opposite	-8162
(_	-8163
iph	-8164
wan	-8165
WARE	-8166
cons	-8167
▁Mur	-8168
imary	-8169
ospit	-8170
▁dialog	-8171
▁fragment	-8172
umes	-8173
▁baby	-8174
▁polar	-8175
▁offset	-8176
▁prison	-8177
▁wondering	-8178
mes	-8179
Core	-8180
▁Who	-8181
▁ban	-8182
adium	-8183
onald	-8184
▁beat	-8185
▁leaders	-8186
▁incident	-8187
▁phosphory	-8188
▁ventricular	-8189
▁rab	-8190
float	-8191
category	-8192
▁il	-8193
rocy	-8194
▁nic	-8195
▁beam	-8196
▁gear	-8197
people	-8198
▁colour	-8199
▁driven	-8200
▁repeat	-8201
▁transaction	-8202
mosp	-8203
▁swim	-8204
▁orders	-8205
▁coupled	-8206
}^	-8207
Buffer	-8208
plements	-8209
▁inflammation	-8210
enna	-8211
look	-8212
isters	-8213
▁industrial	-8214
▁myocardial	-8215
neg	-8216
▁grant	-8217
▁reality	-8218
▁famous	-8219
forms	-8220
▁cytok	-8221
▁cities	-8222
▁speech	-8223
▁mixture	-8224
oted	-8225
ading	-8226
▁street	-8227
▁sharing	-8228
ao	-8229
utf	-8230
CLUD	-8231
▁youth	-8232
alls	-8233
edom	-8234
▁destroy	-8235
▁configured	-8236
▁guidelines	-8237
▁controlling	-8238
ACE	-8239
rows	-8240
▁Process	-8241
▁executive	-8242
▁fant	-8243
........	-8244
▁judgment	-8245
auth	-8246
▁Pac	-8247
uable	-8248
uated	-8249
cdot	-8250
▁>>>	-8251
▁soc	-8252
▁tow	-8253
rophy	-8254
▁males	-8255
▁divers	-8256
▁LICENSE	-8257
▁drivers	-8258
Task	-8259
mean	-8260
split	-8261
water	-8262
▁adopt	-8263
▁welcome	-8264
▁requirement	-8265
PH	-8266
plates	-8267
▁datas	-8268
▁listen	-8269
▁municip	-8270
PRO	-8271
idi	-8272
stack	-8273
▁soil	-8274
ailable	-8275
▁agency	-8276
▁equation	-8277
cpp	-8278
▁permit	-8279
▁Muse	-8280
▁Awards	-8281
▁adoles	-8282
ensitive	-8283
▁conclusion	-8284
FFFF	-8285
▁gift	-8286
▁rent	-8287
illary	-8288
▁Organ	-8289
▁counsel	-8290
▁chemotherapy	-8291
ERS	-8292
Direct	-8293
▁decide	-8294
▁Supreme	-8295
▁rub	-8296
oplasm	-8297
▁wound	-8298
▁potent	-8299
▁creation	-8300
▁prostate	-8301
▁differential	-8302
▁quantitative	-8303
▁Bob	-8304
support	-8305
▁severity	-8306
cf	-8307
▁Pay	-8308
▁Scot	-8309
▁knew	-8310
cribed	-8311
filename	-8312
efficient	-8313
▁Michigan	-8314
'-	-8315
▁Boston	-8316
▁mapping	-8317
▁calculate	-8318
Link	-8319
system	-8320
▁prost	-8321
▁Series	-8322
▁broken	-8323
▁integration	-8324
tab	-8325
▁Italy	-8326
▁Angeles	-8327
▁selective	-8328
▁randomized	-8329
ElementById	-8330
▁significance	-8331
||	-8332
▁Lee	-8333
▁Early	-8334
▁sodium	-8335
▁frequent	-8336
▁execution	-8337
▁:)	-8338
▁Mike	-8339
▁excited	-8340
▁tournament	-8341
prise	-8342
▁Phys	-8343
▁Week	-8344
Target	-8345
python	-8346
▁Chris	-8347
▁funding	-8348
▁thereof	-8349
▁spectrum	-8350
▁scientific	-8351
icker	-8352
▁angi	-8353
person	-8354
jango	-8355
▁crim	-8356
▁sampl	-8357
▁Contact	-8358
▁Records	-8359
▁Currently	-8360
▁dysfunction	-8361
▁EV	-8362
iral	-8363
▁cup	-8364
raining	-8365
▁substantially	-8366
DD	-8367
HR	-8368
POSE	-8369
▁wel	-8370
users	-8371
▁Qual	-8372
▁dial	-8373
matrix	-8374
▁usual	-8375
ifferent	-8376
cr	-8377
etc	-8378
Null	-8379
▁synthes	-8380
▁considering	-8381
teen	-8382
Names	-8383
▁elected	-8384
Co	-8385
ASS	-8386
▁MER	-8387
▁Full	-8388
▁decor	-8389
▁attacks	-8390
▁instant	-8391
ULT	-8392
▁concern	-8393
▁creative	-8394
▁cash	-8395
▁mild	-8396
▁milk	-8397
▁hotel	-8398
▁estate	-8399
▁flight	-8400
iversal	-8401
▁cutting	-8402
each	-8403
ifts	-8404
▁hook	-8405
iro	-8406
▁ce	-8407
▁Haw	-8408
sites	-8409
▁Ohio	-8410
▁chip	-8411
▁neighbor	-8412
▁rac	-8413
oline	-8414
▁snow	-8415
▁matching	-8416
▁cholesterol	-8417
}.	-8418
Pass	-8419
▁Est	-8420
scape	-8421
▁Paris	-8422
STR	-8423
▁FIT	-8424
▁Mil	-8425
▁Ireland	-8426
▁sending	-8427
dig	-8428
▁Fort	-8429
▁weap	-8430
FTWARE	-8431
▁Family	-8432
▁covers	-8433
▁defense	-8434
▁distingu	-8435
▁scored	-8436
▁moderate	-8437
jax	-8438
roud	-8439
▁leak	-8440
▁orth	-8441
▁handler	-8442
▁Official	-8443
▁featured	-8444
allow	-8445
▁ordered	-8446
▁systemic	-8447
▁km	-8448
ULAR	-8449
SELECT	-8450
▁officer	-8451
▁Northern	-8452
▁undefined	-8453
▁categories	-8454
)?	-8455
typ	-8456
alid	-8457
▁PUR	-8458
▁Cell	-8459
▁exhaust	-8460
Collection	-8461
Case	-8462
▁Historic	-8463
getElementById	-8464
plet	-8465
▁curve	-8466
▁constructed	-8467
'))	-8468
▁Adv	-8469
▁gel	-8470
▁fails	-8471
▁resolve	-8472
▁arranged	-8473
▁arterial	-8474
▁composed	-8475
▁phenomen	-8476
▁modification	-8477
ptic	-8478
▁fly	-8479
▁span	-8480
▁Final	-8481
▁owners	-8482
▁Ram	-8483
▁funds	-8484
▁hypertension	-8485
tw	-8486
prop	-8487
▁Lead	-8488
▁Asian	-8489
▁reader	-8490
▁references	-8491
▁increasingly	-8492
▁tet	-8493
ansas	-8494
▁familiar	-8495
GR	-8496
ocl	-8497
▁thr	-8498
ricket	-8499
▁Je	-8500
▁lose	-8501
▁serves	-8502
▁Province	-8503
▁separated	-8504
▁maintained	-8505
fol	-8506
uid	-8507
▁suc	-8508
▁abuse	-8509
▁receiver	-8510
▁arrangement	-8511
▁dop	-8512
▁und	-8513
▁citiz	-8514
Session	-8515
▁intern	-8516
itutions	-8517
▁polymorph	-8518
▁assistance	-8519
AF	-8520
NESS	-8521
cean	-8522
high	-8523
inson	-8524
track	-8525
ectomy	-8526
▁researchers	-8527
OP	-8528
▁NY	-8529
ogram	-8530
xiety	-8531
▁Young	-8532
▁Technology	-8533
/.	-8534
uan	-8535
fast	-8536
ophy	-8537
ennis	-8538
▁align	-8539
▁forget	-8540
▁removing	-8541
▁constraint	-8542
▁incorporated	-8543
▁transplantation	-8544
”,	-8545
mid	-8546
entry	-8547
▁Those	-8548
▁forced	-8549
▁granted	-8550
▁inserted	-8551
▁completion	-8552
▁Contin	-8553
ffff	-8554
lers	-8555
▁caps	-8556
▁methyl	-8557
Document	-8558
▁illness	-8559
▁modules	-8560
▁entirely	-8561
▁situations	-8562
drop	-8563
udio	-8564
▁onset	-8565
▁veget	-8566
▁centre	-8567
you	-8568
▁mi	-8569
▁codes	-8570
▁servers	-8571
▁secretion	-8572
olit	-8573
inant	-8574
nergy	-8575
Access	-8576
otypes	-8577
▁peace	-8578
▁Iran	-8579
▁medal	-8580
▁stars	-8581
▁summary	-8582
▁circuits	-8583
Deb	-8584
gers	-8585
thal	-8586
ocity	-8587
▁professionals	-8588
▁Str	-8589
modules	-8590
esterday	-8591
▁consumer	-8592
Mat	-8593
ROR	-8594
▁Prem	-8595
▁Columb	-8596
▁impair	-8597
▁meta	-8598
▁blank	-8599
uing	-8600
▁Win	-8601
▁Creat	-8602
▁spirit	-8603
▁seasons	-8604
▁intermediate	-8605
ни	-8606
atre	-8607
▁Expl	-8608
▁Through	-8609
Args	-8610
second	-8611
▁Senate	-8612
formance	-8613
▁complexes	-8614
▁navigation	-8615
uous	-8616
▁cas	-8617
▁bits	-8618
▁apart	-8619
▁explan	-8620
▁measuring	-8621
nb	-8622
mode	-8623
▁Arts	-8624
▁predicted	-8625
atile	-8626
▁radical	-8627
▁Clinical	-8628
▁epithelial	-8629
Json	-8630
refix	-8631
▁owned	-8632
▁Conference	-8633
▁candidates	-8634
▁university	-8635
ifer	-8636
▁CONDIT	-8637
▁county	-8638
▁cookies	-8639
▁utility	-8640
▁anterior	-8641
vironments	-8642
{"	-8643
▁OK	-8644
circ	-8645
outs	-8646
week	-8647
First	-8648
▁mold	-8649
▁turns	-8650
aturing	-8651
▁characteristic	-8652
ju	-8653
END	-8654
▁Tag	-8655
▁cav	-8656
▁sear	-8657
▁turb	-8658
▁Martin	-8659
▁Spanish	-8660
▁SOFTWARE	-8661
▁advantages	-8662
HD	-8663
+/-	-8664
▁wrap	-8665
▁Micro	-8666
▁elder	-8667
▁Invest	-8668
▁recurre	-8669
▁announce	-8670
▁validation	-8671
▁classification	-8672
esity	-8673
▁draft	-8674
▁complement	-8675
HS	-8676
eds	-8677
aria	-8678
▁STAT	-8679
▁sac	-8680
▁Arab	-8681
▁truly	-8682
▁Several	-8683
▁happening	-8684
FR	-8685
▁HO	-8686
▁Net	-8687
itness	-8688
▁circumst	-8689
▁keyboard	-8690
INT	-8691
▁'/	-8692
▁MR	-8693
Oper	-8694
Post	-8695
apor	-8696
▁BASIS	-8697
▁Common	-8698
▁younger	-8699
▁languages	-8700
area	-8701
asia	-8702
hash	-8703
rary	-8704
▁battle	-8705
▁prospective	-8706
Part	-8707
join	-8708
▁obst	-8709
▁paint	-8710
▁compact	-8711
▁{"	-8712
sign	-8713
graph	-8714
▁Global	-8715
▁Command	-8716
▁committed	-8717
olve	-8718
empor	-8719
ighter	-8720
▁dates	-8721
▁accounts	-8722
▁cerebral	-8723
▁engineering	-8724
▁simultaneously	-8725
immun	-8726
▁CONT	-8727
▁audience	-8728
▁regulatory	-8729
▁understood	-8730
rin	-8731
▁Food	-8732
▁Gall	-8733
▁Word	-8734
▁advent	-8735
▁anywhere	-8736
▁resonance	-8737
ht	-8738
API	-8739
sort	-8740
▁recom	-8741
▁rough	-8742
▁viral	-8743
▁prepare	-8744
▁computers	-8745
▁CONDITIONS	-8746
▁periods	-8747
▁commands	-8748
▁valuable	-8749
dt	-8750
ali	-8751
keys	-8752
▁sql	-8753
▁Live	-8754
▁hole	-8755
▁forum	-8756
▁discrim	-8757
▁educational	-8758
NP	-8759
▁Ro	-8760
▁refere	-8761
)}	-8762
Te	-8763
spe	-8764
▁Notes	-8765
▁Similar	-8766
▁gastric	-8767
ViewController	-8768
msg	-8769
Menu	-8770
Spec	-8771
▁LED	-8772
Update	-8773
▁Given	-8774
▁econom	-8775
▁academic	-8776
aren	-8777
▁$("#	-8778
▁inher	-8779
▁spinal	-8780
mys	-8781
▁coast	-8782
▁genus	-8783
▁implements	-8784
shot	-8785
▁Content	-8786
▁effectiveness	-8787
ori	-8788
Book	-8789
mond	-8790
ymbol	-8791
▁seek	-8792
▁doctor	-8793
▁toxicity	-8794
Hz	-8795
final	-8796
▁mine	-8797
▁Right	-8798
▁sugar	-8799
▁PURPOSE	-8800
▁destination	-8801
PG	-8802
HTML	-8803
items	-8804
Integer	-8805
▁fibers	-8806
▁appointed	-8807
▁providers	-8808
MC	-8809
otrop	-8810
▁newsp	-8811
▁atmosp	-8812
▁neural	-8813
▁sector	-8814
▁greatest	-8815
▁libraries	-8816
▁compression	-8817
▁probability	-8818
▁coc	-8819
amide	-8820
▁nutr	-8821
params	-8822
▁smoking	-8823
▁cerv	-8824
▁Championships	-8825
▁gap	-8826
CHANT	-8827
▁magazine	-8828
▁communications	-8829
Const	-8830
▁fatty	-8831
▁mysql	-8832
▁alleged	-8833
▁Catholic	-8834
▁animation	-8835
hav	-8836
obs	-8837
▁Op	-8838
infl	-8839
oned	-8840
total	-8841
igration	-8842
▁proportion	-8843
▁restaurant	-8844
Dec	-8845
>();	-8846
gian	-8847
▁rural	-8848
▁yellow	-8849
▁infants	-8850
So	-8851
oxide	-8852
▁Asia	-8853
▁Task	-8854
aintiff	-8855
▁Museum	-8856
▁bought	-8857
▁mutation	-8858
▁gest	-8859
▁kill	-8860
▁subset	-8861
▁winter	-8862
▁Journal	-8863
▁separation	-8864
.</	-8865
Year	-8866
front	-8867
▁coffee	-8868
▁finger	-8869
▁styles	-8870
▁MERCHANT	-8871
▁variations	-8872
mac	-8873
▁EL	-8874
SERT	-8875
▁flo	-8876
▁sole	-8877
Change	-8878
▁multip	-8879
▁listing	-8880
UTF	-8881
gly	-8882
▁ORDER	-8883
▁FITNESS	-8884
Identifier	-8885
▁concerned	-8886
▁permanent	-8887
ст	-8888
▁$.	-8889
▁Ub	-8890
byte	-8891
else	-8892
▁Kar	-8893
▁Saf	-8894
▁Index	-8895
▁moves	-8896
▁statistically	-8897
oa	-8898
har	-8899
words	-8900
▁fell	-8901
▁cloud	-8902
Reference	-8903
erb	-8904
▁sper	-8905
▁False	-8906
▁hence	-8907
▁Southern	-8908
▁Middle	-8909
▁climate	-8910
▁Pakistan	-8911
Max	-8912
▁Kim	-8913
▁Track	-8914
▁tells	-8915
▁tutorial	-8916
▁exhibited	-8917
▁identical	-8918
Met	-8919
▁"<	-8920
▁ec	-8921
dist	-8922
▁Lord	-8923
▁roof	-8924
submit	-8925
▁MERCHANTABILITY	-8926
plex	-8927
alloc	-8928
▁PARTIC	-8929
▁Justice	-8930
▁perspective	-8931
▁lawy	-8932
▁physiological	-8933
rb	-8934
▁Var	-8935
selected	-8936
▁consumers	-8937
▁connecting	-8938
▁decades	-8939
▁largely	-8940
Container	-8941
▁attempts	-8942
▁estimate	-8943
▁perfectly	-8944
▁PARTICULAR	-8945
ira	-8946
ushed	-8947
▁asym	-8948
▁toxic	-8949
▁diverse	-8950
DT	-8951
Red	-8952
▁tips	-8953
▁awarded	-8954
▁experts	-8955
▁factory	-8956
▁promise	-8957
associated	-8958
▁worldwide	-8959
▁endothelial	-8960
▁translation	-8961
▁accumulation	-8962
VI	-8963
▁RT	-8964
▁js	-8965
docs	-8966
▁dent	-8967
Height	-8968
rowser	-8969
▁holiday	-8970
▁impossible	-8971
▁Jun	-8972
▁lap	-8973
▁Path	-8974
▁statements	-8975
ima	-8976
pie	-8977
▁з	-8978
Pop	-8979
▁HE	-8980
▁lived	-8981
ontaneous	-8982
lat	-8983
▁Sir	-8984
▁suit	-8985
urable	-8986
▁switching	-8987
▁convenient	-8988
Dev	-8989
▁Rew	-8990
▁lact	-8991
▁Radio	-8992
▁incred	-8993
▁propose	-8994
▁stopped	-8995
▁profiles	-8996
acle	-8997
▁Chem	-8998
iments	-8999
▁async	-9000
▁converted	-9001
▁decisions	-9002
shop	-9003
window	-9004
Adapter	-9005
▁bodies	-9006
▁%}	-9007
▁hal	-9008
icide	-9009
▁seal	-9010
▁craft	-9011
▁cooling	-9012
▁routine	-9013
iest	-9014
▁Typ	-9015
phosph	-9016
▁developer	-9017
▁Kn	-9018
screen	-9019
▁Change	-9020
positive	-9021
ylvan	-9022
▁pairs	-9023
▁spectro	-9024
ак	-9025
▁μ	-9026
▁crash	-9027
▁accord	-9028
▁Americans	-9029
lab	-9030
▁Bow	-9031
▁ske	-9032
dated	-9033
▁neither	-9034
▁Children	-9035
▁facilitate	-9036
exe	-9037
▁swe	-9038
acity	-9039
cache	-9040
▁asth	-9041
▁preferred	-9042
▁somewhere	-9043
▁subsequently	-9044
ycle	-9045
▁assem	-9046
obacter	-9047
▁Jersey	-9048
▁arrays	-9049
▁suspect	-9050
го	-9051
▁fruit	-9052
▁grown	-9053
profile	-9054
▁Compar	-9055
▁noticed	-9056
▁cultures	-9057
▁infected	-9058
▁partially	-9059
▁absolutely	-9060
There	-9061
isted	-9062
session	-9063
▁discharge	-9064
▁publication	-9065
bas	-9066
▁asc	-9067
▁Case	-9068
▁Term	-9069
▁walls	-9070
▁Exception	-9071
▁participate	-9072
yd	-9073
▁Video	-9074
=(	-9075
Sl	-9076
Sw	-9077
ени	-9078
▁Mic	-9079
iotic	-9080
token	-9081
uri	-9082
▁'<	-9083
foot	-9084
otyp	-9085
save	-9086
▁lay	-9087
Items	-9088
points	-9089
▁Watch	-9090
▁alumni	-9091
▁relief	-9092
▁Federal	-9093
localhost	-9094
▁catalyst	-9095
AME	-9096
Port	-9097
PDATE	-9098
claim	-9099
▁Places	-9100
▁coding	-9101
unctions	-9102
▁hepatic	-9103
▁Background	-9104
▁protective	-9105
username	-9106
tim	-9107
▁Low	-9108
media	-9109
▁adds	-9110
▁hospit	-9111
▁Festival	-9112
▁abstract	-9113
▁automatic	-9114
▁degradation	-9115
gal	-9116
jar	-9117
▁не	-9118
iser	-9119
▁tape	-9120
▁judge	-9121
▁targeted	-9122
▁representing	-9123
RS	-9124
bial	-9125
Debug	-9126
▁Study	-9127
▁macroph	-9128
▁spatial	-9129
▁produces	-9130
hot	-9131
▁knee	-9132
▁bearing	-9133
▁scheduled	-9134
help	-9135
▁Walk	-9136
▁motiv	-9137
▁denied	-9138
▁totally	-9139
▁applying	-9140
▁intracellular	-9141
hl	-9142
igr	-9143
▁cran	-9144
▁enum	-9145
▁therap	-9146
▁buttons	-9147
▁drawing	-9148
▁accompan	-9149
▁transformation	-9150
▁violence	-9151
▁immediate	-9152
icul	-9153
▁gra	-9154
CTION	-9155
▁carb	-9156
▁Altern	-9157
▁herein	-9158
▁implications	-9159
mult	-9160
obic	-9161
ongo	-9162
▁Dou	-9163
▁swit	-9164
Serial	-9165
▁Total	-9166
▁Johnson	-9167
▁evening	-9168
▁Property	-9169
▁dynamics	-9170
full	-9171
Search	-9172
)))	-9173
▁ru	-9174
▁kinds	-9175
ylvania	-9176
Settings	-9177
▁mediated	-9178
▁Po	-9179
▁ju	-9180
▁medi	-9181
▁malignant	-9182
}^{	-9183
eneration	-9184
ati	-9185
▁SU	-9186
▁Node	-9187
▁solar	-9188
▁speak	-9189
▁singer	-9190
▁carrying	-9191
▁interior	-9192
▁commission	-9193
ZE	-9194
▁Ha	-9195
anche	-9196
random	-9197
▁stabil	-9198
▁tracks	-9199
▁Whether	-9200
▁comfortable	-9201
Ms	-9202
Ret	-9203
ownt	-9204
endor	-9205
▁irrad	-9206
▁sustain	-9207
▁computed	-9208
▁criminal	-9209
Description	-9210
▁Corporation	-9211
▁CEO	-9212
▁kick	-9213
▁regex	-9214
amental	-9215
▁approved	-9216
eper	-9217
▁mater	-9218
agnetic	-9219
ponents	-9220
▁bridge	-9221
▁reliability	-9222
▁availability	-9223
Acc	-9224
door	-9225
Valid	-9226
▁loved	-9227
▁angular	-9228
▁kitchen	-9229
▁conclude	-9230
aka	-9231
oglob	-9232
types	-9233
▁Steve	-9234
▁trees	-9235
English	-9236
▁socket	-9237
▁talent	-9238
▁sensors	-9239
▁statistical	-9240
CB	-9241
▁Lat	-9242
power	-9243
▁earn	-9244
styles	-9245
▁Force	-9246
▁surve	-9247
▁urinary	-9248
}$$	-9249
stop	-9250
▁Equ	-9251
▁fear	-9252
▁worse	-9253
▁extern	-9254
▁dimensions	-9255
▁environments	-9256
HA	-9257
iams	-9258
▁Mid	-9259
rovers	-9260
▁Could	-9261
▁ultras	-9262
▁sessions	-9263
▁Gar	-9264
▁semi	-9265
atomic	-9266
▁admin	-9267
▁urban	-9268
articles	-9269
▁requiring	-9270
▁Hope	-9271
▁JOIN	-9272
▁Studies	-9273
▁believed	-9274
?)	-9275
▁iP	-9276
Current	-9277
▁enzymes	-9278
▁seeking	-9279
▁dang	-9280
▁Short	-9281
▁habit	-9282
library	-9283
▁dental	-9284
ez	-9285
fire	-9286
vals	-9287
▁Cook	-9288
ulatory	-9289
ographer	-9290
▁developers	-9291
▁leadership	-9292
▁thromb	-9293
▁checking	-9294
▁generating	-9295
WN	-9296
▁MT	-9297
step	-9298
▁drag	-9299
▁induce	-9300
▁specificity	-9301
[$	-9302
zip	-9303
late	-9304
▁Cro	-9305
▁worry	-9306
▁oxidative	-9307
▁reporting	-9308
▁Convention	-9309
▁(*	-9310
▁ye	-9311
Body	-9312
duces	-9313
▁shel	-9314
▁truck	-9315
▁topics	-9316
▁musical	-9317
▁microscopy	-9318
Cal	-9319
▁GL	-9320
THER	-9321
▁Did	-9322
▁prolong	-9323
ibilities	-9324
▁thoughts	-9325
▁Es	-9326
▁chat	-9327
methyl	-9328
▁heating	-9329
▁writers	-9330
BB	-9331
ito	-9332
riz	-9333
send	-9334
▁tank	-9335
▁warn	-9336
ariate	-9337
▁crime	-9338
▁planned	-9339
▁walking	-9340
▁improvements	-9341
▁Bul	-9342
[[	-9343
sis	-9344
▁Jr	-9345
▁SC	-9346
Child	-9347
Store	-9348
heast	-9349
▁myel	-9350
ynamic	-9351
▁altered	-9352
▁wherein	-9353
▁circumstances	-9354
AMP	-9355
▁Never	-9356
▁paras	-9357
▁island	-9358
▁discover	-9359
▁utilized	-9360
▁submitted	-9361
dl	-9362
Num	-9363
▁guest	-9364
▁taste	-9365
▁episodes	-9366
▁petition	-9367
▁suggestions	-9368
]{	-9369
oi	-9370
III	-9371
▁Jon	-9372
▁singles	-9373
▁suppress	-9374
fd	-9375
elle	-9376
plus	-9377
public	-9378
▁melan	-9379
▁stuck	-9380
▁copper	-9381
▁favour	-9382
▁reduces	-9383
▁policies	-9384
▁predomin	-9385
▁PT	-9386
TYPE	-9387
racle	-9388
▁unus	-9389
▁admitted	-9390
▁Ox	-9391
iples	-9392
should	-9393
▁proud	-9394
▁entries	-9395
▁presents	-9396
▁purchased	-9397
henyl	-9398
▁THIS	-9399
▁fibr	-9400
▁gang	-9401
▁neon	-9402
ruption	-9403
▁shopping	-9404
▁appreciate	-9405
wa	-9406
▁faith	-9407
▁depart	-9408
▁intent	-9409
▁vessel	-9410
▁dropped	-9411
wall	-9412
▁Way	-9413
▁strip	-9414
ultural	-9415
▁invalid	-9416
▁declared	-9417
▁addresses	-9418
▁apparently	-9419
▁Li	-9420
ilon	-9421
▁CUR	-9422
inois	-9423
naire	-9424
▁rein	-9425
▁Centre	-9426
▁attended	-9427
▁processor	-9428
▁searching	-9429
▁advertising	-9430
HECK	-9431
iano	-9432
▁cos	-9433
▁dil	-9434
Stack	-9435
▁maps	-9436
▁feeding	-9437
▁journey	-9438
▁absorption	-9439
▁oc	-9440
isting	-9441
plugin	-9442
▁begins	-9443
sylvania	-9444
▁Standard	-9445
▁officers	-9446
▁southern	-9447
▁undergoing	-9448
two	-9449
▁anch	-9450
▁lies	-9451
report	-9452
command	-9453
▁Indust	-9454
▁Little	-9455
▁northern	-9456
▁shipping	-9457
▁determining	-9458
dx	-9459
▁PL	-9460
▁Sn	-9461
dden	-9462
▁Lab	-9463
herent	-9464
=$	-9465
▁),	-9466
▁Bud	-9467
esides	-9468
▁wonderful	-9469
▁regardless	-9470
▁contribution	-9471
};	-9472
dem	-9473
▁Gra	-9474
▁acts	-9475
itudinal	-9476
▁representation	-9477
Gl	-9478
eras	-9479
▁veter	-9480
▁defects	-9481
▁nervous	-9482
▁childhood	-9483
impl	-9484
▁LIM	-9485
▁wet	-9486
arian	-9487
▁doubt	-9488
▁queue	-9489
▁brings	-9490
hal	-9491
▁Online	-9492
▁Sports	-9493
▁acting	-9494
▁ingred	-9495
▁partition	-9496
flu	-9497
craft	-9498
▁pilot	-9499
▁teeth	-9500
ologists	-9501
▁tolerance	-9502
Rem	-9503
rink	-9504
~~~~	-9505
▁Pen	-9506
▁tip	-9507
Level	-9508
▁actor	-9509
▁edges	-9510
▁Master	-9511
Position	-9512
▁Console	-9513
▁exciting	-9514
▁Stat	-9515
▁desc	-9516
metric	-9517
onymous	-9518
▁facing	-9519
▁classified	-9520
▁rod	-9521
unting	-9522
▁Config	-9523
▁faculty	-9524
▁passion	-9525
▁wedding	-9526
▁diabetic	-9527
VA	-9528
…]	-9529
sys	-9530
▁da	-9531
uple	-9532
▁phil	-9533
▁Store	-9534
▁letters	-9535
▁obesity	-9536
'];	-9537
▁{%	-9538
tree	-9539
▁api	-9540
▁pod	-9541
Found	-9542
▁Hard	-9543
▁river	-9544
▁anyway	-9545
OH	-9546
▁ч	-9547
awn	-9548
Tree	-9549
What	-9550
pool	-9551
▁thyroid	-9552
▁constitu	-9553
▁friendly	-9554
▁interventions	-9555
fox	-9556
▁Hi	-9557
etts	-9558
make	-9559
mits	-9560
▁intellig	-9561
▁synthetic	-9562
hr	-9563
▁Auto	-9564
lisher	-9565
▁surge	-9566
▁specimens	-9567
IED	-9568
bel	-9569
empty	-9570
▁sudden	-9571
▁willing	-9572
▁recommendations	-9573
BR	-9574
pet	-9575
▁ure	-9576
ellee	-9577
▁personnel	-9578
▁comprising	-9579
▁accompanied	-9580
URT	-9581
ynt	-9582
erer	-9583
uling	-9584
delete	-9585
address	-9586
▁figures	-9587
▁cultural	-9588
▁scanning	-9589
▁existence	-9590
▁HP	-9591
▁ty	-9592
addr	-9593
▁Sar	-9594
▁boys	-9595
ampion	-9596
Changed	-9597
▁Overall	-9598
▁Appellant	-9599
)),	-9600
▁Cat	-9601
▁Nav	-9602
cludes	-9603
▁Question	-9604
VID	-9605
ila	-9606
▁Ut	-9607
utable	-9608
▁risks	-9609
▁Manager	-9610
▁combust	-9611
▁competitive	-9612
EY	-9613
GS	-9614
[:	-9615
idase	-9616
▁Charl	-9617
▁OTHER	-9618
inating	-9619
▁lowest	-9620
▁elderly	-9621
nic	-9622
▁Due	-9623
chain	-9624
ployee	-9625
▁Wales	-9626
▁Though	-9627
▁ongoing	-9628
▁MP	-9629
ador	-9630
amps	-9631
olip	-9632
▁hip	-9633
login	-9634
▁drawn	-9635
▁append	-9636
▁formal	-9637
▁GP	-9638
▁MySQL	-9639
▁Andrew	-9640
▁anxiety	-9641
▁nursing	-9642
▁tracking	-9643
controller	-9644
▁processed	-9645
phi	-9646
that	-9647
Order	-9648
alian	-9649
isition	-9650
▁portable	-9651
▁warranty	-9652
▁statistics	-9653
gt	-9654
sex	-9655
vin	-9656
▁clim	-9657
▁golf	-9658
▁actress	-9659
▁standing	-9660
OK	-9661
edit	-9662
olin	-9663
▁Ken	-9664
▁forth	-9665
▁courses	-9666
component	-9667
▁occasion	-9668
▁accessible	-9669
▁ultrasound	-9670
▁LE	-9671
▁circle	-9672
▁critic	-9673
▁eating	-9674
▁missed	-9675
да	-9676
▁б	-9677
robl	-9678
scill	-9679
stein	-9680
▁Less	-9681
efully	-9682
▁matched	-9683
▁shouldn	-9684
▁shooting	-9685
▁registration	-9686
▁arms	-9687
▁bigger	-9688
▁centers	-9689
▁Ren	-9690
▁nec	-9691
ishop	-9692
Option	-9693
▁merge	-9694
aration	-9695
binding	-9696
▁collagen	-9697
▁recurrence	-9698
!)	-9699
onto	-9700
rous	-9701
▁closing	-9702
▁incorrect	-9703
▁institution	-9704
mu	-9705
▁Cu	-9706
▁Wis	-9707
Panel	-9708
▁coli	-9709
▁cytotox	-9710
▁insight	-9711
▁massive	-9712
ALS	-9713
uble	-9714
achine	-9715
▁plain	-9716
▁Appeal	-9717
▁fellow	-9718
(:	-9719
fin	-9720
agment	-9721
▁Broad	-9722
package	-9723
▁biopsy	-9724
▁fairly	-9725
ivariate	-9726
▁Connect	-9727
▁vitamin	-9728
▁Recently	-9729
▁comprises	-9730
EP	-9731
xs	-9732
None	-9733
ixed	-9734
double	-9735
▁promising	-9736
▁necessarily	-9737
▁spontaneous	-9738
▁representative	-9739
HOU	-9740
▁DI	-9741
▁McC	-9742
▁Bang	-9743
▁spons	-9744
▁accomp	-9745
forcement	-9746
▁molecule	-9747
▁computing	-9748
▁fluorescence	-9749
DC	-9750
▁CF	-9751
found	-9752
▁Turn	-9753
▁Irish	-9754
▁Output	-9755
▁vulner	-9756
▁texture	-9757
▁hundreds	-9758
▁requested	-9759
SED	-9760
arks	-9761
Cache	-9762
▁maintaining	-9763
?"	-9764
▁pipe	-9765
Record	-9766
▁Still	-9767
▁screw	-9768
▁truth	-9769
▁escape	-9770
▁timing	-9771
▁domains	-9772
▁affinity	-9773
▁watching	-9774
▁substance	-9775
eli	-9776
▁Van	-9777
insert	-9778
amination	-9779
▁transferred	-9780
▁Pennsylvania	-9781
▁consequences	-9782
eq	-9783
mo	-9784
strong	-9785
▁Ubuntu	-9786
▁lesion	-9787
▁somewhat	-9788
ло	-9789
▁###	-9790
▁hero	-9791
▁Energy	-9792
clerosis	-9793
▁infusion	-9794
▁Francisco	-9795
▁Hor	-9796
▁curl	-9797
▁heav	-9798
widget	-9799
▁reset	-9800
CLUDING	-9801
dominal	-9802
▁descript	-9803
aints	-9804
itled	-9805
▁intr	-9806
called	-9807
family	-9808
▁Major	-9809
▁counts	-9810
ibration	-9811
▁threads	-9812
▁vaccine	-9813
▁coupling	-9814
▁historical	-9815
▁occurrence	-9816
▁reasonable	-9817
▁transmitted	-9818
▁ко	-9819
aked	-9820
react	-9821
▁opens	-9822
ificial	-9823
,-	-9824
▁kg	-9825
▁brown	-9826
▁guard	-9827
▁nanop	-9828
▁Active	-9829
▁generic	-9830
▁Williams	-9831
▁clinically	-9832
▁comparable	-9833
tein	-9834
▁await	-9835
▁ol	-9836
dest	-9837
▁keeps	-9838
▁Station	-9839
)).	-9840
Enc	-9841
▁CM	-9842
itus	-9843
▁btn	-9844
▁san	-9845
▁Kent	-9846
▁markets	-9847
▁horizontal	-9848
▁fundamental	-9849
▁responsibility	-9850
mal	-9851
temp	-9852
ologist	-9853
▁reveal	-9854
artifact	-9855
emporary	-9856
▁possess	-9857
▁Illinois	-9858
▁healthcare	-9859
BL	-9860
HC	-9861
▁gastro	-9862
▁metall	-9863
▁selling	-9864
▁complexity	-9865
ер	-9866
Str	-9867
rox	-9868
sen	-9869
▁ery	-9870
omain	-9871
▁COURT	-9872
through	-9873
▁verify	-9874
▁neurolog	-9875
rastructure	-9876
ji	-9877
VAL	-9878
oir	-9879
▁Isl	-9880
▁ham	-9881
▁haz	-9882
letal	-9883
Writer	-9884
▁Py	-9885
▁Policy	-9886
▁signature	-9887
▁compatible	-9888
debug	-9889
▁Girl	-9890
▁Henry	-9891
▁winner	-9892
▁victory	-9893
eur	-9894
▁(-	-9895
▁Ul	-9896
hemas	-9897
▁wine	-9898
▁Brook	-9899
▁invas	-9900
▁indeed	-9901
▁routes	-9902
requency	-9903
▁Pacific	-9904
▁expanded	-9905
▁precision	-9906
▁resection	-9907
ка	-9908
▁cc	-9909
▁mini	-9910
▁Night	-9911
ributes	-9912
olecular	-9913
▁pediatric	-9914
HL	-9915
een	-9916
blem	-9917
▁glyc	-9918
▁hemat	-9919
▁neutral	-9920
▁partnership	-9921
▁./	-9922
SION	-9923
iliary	-9924
Storage	-9925
▁decline	-9926
▁confident	-9927
Obj	-9928
▁HR	-9929
anes	-9930
▁[…]	-9931
▁Saint	-9932
partial	-9933
▁exhibit	-9934
▁velocity	-9935
▁yesterday	-9936
▁controvers	-9937
▁introduction	-9938
▁independently	-9939
ci	-9940
aml	-9941
▁MRI	-9942
leton	-9943
shaped	-9944
▁scenario	-9945
▁chromatography	-9946
▁establishments	-9947
Arg	-9948
▁infar	-9949
▁Chrome	-9950
▁closer	-9951
▁sister	-9952
▁institutions	-9953
csv	-9954
ucks	-9955
▁CRE	-9956
▁React	-9957
ToString	-9958
▁obviously	-9959
▁Joe	-9960
eller	-9961
▁fetal	-9962
▁labels	-9963
toString	-9964
treatment	-9965
▁detecting	-9966
▁temporary	-9967
▁mitochondrial	-9968
!"	-9969
ORS	-9970
awa	-9971
▁AF	-9972
▁passes	-9973
▁affects	-9974
▁printer	-9975
▁resistant	-9976
erk	-9977
rea	-9978
illy	-9979
▁forg	-9980
buffer	-9981
▁oscill	-9982
▁succeed	-9983
▁varying	-9984
ле	-9985
ARCH	-9986
▁OUT	-9987
▁Sem	-9988
▁feas	-9989
▁styl	-9990
Values	-9991
▁trick	-9992
▁movies	-9993
irections	-9994
▁supplied	-9995
▁whenever	-9996
на	-9997
cha	-9998
Host	-9999
▁patch	-10000
▁Georgia	-10001
▁telephone	-10002
iaz	-10003
ashes	-10004
▁Spain	-10005
▁cheap	-10006
▁essentially	-10007
'>	-10008
NC	-10009
="{	-10010
ando	-10011
ikip	-10012
orem	-10013
ieving	-10014
▁asthma	-10015
▁checks	-10016
▁remark	-10017
cutaneous	-10018
▁Treatment	-10019
▁dimension	-10020
▁"_	-10021
▁lift	-10022
ometimes	-10023
▁ultimately	-10024
:[	-10025
▁FC	-10026
bits	-10027
▁hex	-10028
opathy	-10029
▁gather	-10030
▁plenty	-10031
▁declare	-10032
▁employee	-10033
ko	-10034
ся	-10035
ohist	-10036
▁Econ	-10037
▁sudo	-10038
▁pulse	-10039
▁buying	-10040
▁featuring	-10041
Go	-10042
La	-10043
▁ip	-10044
ococc	-10045
oggle	-10046
▁arbit	-10047
uce	-10048
▁fort	-10049
izable	-10050
▁probe	-10051
tration	-10052
▁convey	-10053
▁adapted	-10054
▁silicon	-10055
▁comparing	-10056
▁behavioral	-10057
▁neighborhood	-10058
*.	-10059
▁"%	-10060
ento	-10061
▁tel	-10062
Types	-10063
rance	-10064
▁resin	-10065
▁combine	-10066
▁Consider	-10067
▁adequate	-10068
▁catheter	-10069
▁considerable	-10070
Rel	-10071
▁END	-10072
▁env	-10073
entity	-10074
▁census	-10075
▁Welcome	-10076
▁disabled	-10077
▁seemed	-10078
▁parking	-10079
▁difficulty	-10080
ны	-10081
"));	-10082
FLAG	-10083
ulus	-10084
▁gon	-10085
achus	-10086
scopic	-10087
▁closure	-10088
▁Carl	-10089
▁Http	-10090
▁olig	-10091
bottom	-10092
▁mouth	-10093
▁visitors	-10094
▁websites	-10095
""	-10096
orrh	-10097
▁BUT	-10098
▁Pot	-10099
upload	-10100
▁Input	-10101
▁Route	-10102
▁reserv	-10103
Min	-10104
JSON	-10105
MENT	-10106
aque	-10107
▁ATP	-10108
▁Has	-10109
Enron	-10110
▁resc	-10111
▁WARRANTY	-10112
▁pm	-10113
views	-10114
Vector	-10115
abling	-10116
▁Daniel	-10117
▁concluded	-10118
▁photograph	-10119
PATH	-10120
▁Bon	-10121
▁Blog	-10122
▁leaf	-10123
ynchron	-10124
▁assays	-10125
ikipedia	-10126
▁discovery	-10127
Fe	-10128
▁CPU	-10129
cknow	-10130
▁Fund	-10131
▁Sher	-10132
▁Korea	-10133
▁bladder	-10134
▁electroph	-10135
BD	-10136
apper	-10137
igate	-10138
iture	-10139
▁Joseph	-10140
▁Gi	-10141
False	-10142
▁Country	-10143
▁acceler	-10144
▁hospitals	-10145
▁concerning	-10146
▁innovative	-10147
ryst	-10148
▁hide	-10149
acchar	-10150
uction	-10151
▁defic	-10152
cretion	-10153
ternoon	-10154
▁cortex	-10155
▁proved	-10156
▁analyze	-10157
▁theoret	-10158
▁inspired	-10159
▁politician	-10160
ко	-10161
ova	-10162
▁RA	-10163
▁PDF	-10164
▁Keep	-10165
▁facts	-10166
▁Previous	-10167
▁embedded	-10168
▁instruction	-10169
▁satisfaction	-10170
▁Lar	-10171
▁piv	-10172
▁tro	-10173
▁chest	-10174
▁Digital	-10175
▁claimed	-10176
▁quantity	-10177
itone	-10178
instance	-10179
▁enables	-10180
▁tomography	-10181
▁Ham	-10182
▁blow	-10183
▁elig	-10184
▁Oracle	-10185
Ge	-10186
Last	-10187
elly	-10188
rooms	-10189
linear	-10190
ravity	-10191
▁prime	-10192
▁caught	-10193
▁filters	-10194
transform	-10195
▁cervical	-10196
▁connector	-10197
Rule	-10198
ctal	-10199
▁anest	-10200
▁basal	-10201
▁clubs	-10202
▁fifth	-10203
▁promin	-10204
▁delayed	-10205
interface	-10206
▁repository	-10207
rr	-10208
xt	-10209
UNT	-10210
▁USE	-10211
▁APPE	-10212
▁merg	-10213
nesota	-10214
orters	-10215
▁Place	-10216
▁Santa	-10217
▁loads	-10218
▁dating	-10219
▁engines	-10220
▁accomplish	-10221
▁continuing	-10222
▁observations	-10223
▁phosphorylation	-10224
TC	-10225
▁Hou	-10226
▁vas	-10227
▁Jesus	-10228
▁knock	-10229
alities	-10230
iration	-10231
▁Career	-10232
ervative	-10233
▁producer	-10234
▁certificate	-10235
adi	-10236
lik	-10237
nec	-10238
oop	-10239
star	-10240
▁Ell	-10241
▁scr	-10242
ieves	-10243
▁Cost	-10244
▁affil	-10245
achusetts	-10246
▁segments	-10247
▁authorities	-10248
dk	-10249
leq	-10250
onin	-10251
▁Mov	-10252
▁Simple	-10253
▁placebo	-10254
▁Environment	-10255
▁derivatives	-10256
▁''	-10257
Impl	-10258
▁Ten	-10259
▁USB	-10260
Empty	-10261
video	-10262
▁Cond	-10263
▁Writ	-10264
▁ages	-10265
▁TABLE	-10266
▁posit	-10267
entials	-10268
▁Eastern	-10269
▁awesome	-10270
▁particle	-10271
▁randomly	-10272
:/	-10273
▁pel	-10274
▁deals	-10275
▁Britain	-10276
<<	-10277
Do	-10278
▁ps	-10279
▁fro	-10280
▁vibr	-10281
▁drama	-10282
▁decade	-10283
essional	-10284
▁crucial	-10285
▁validate	-10286
▁principal	-10287
&#	-10288
role	-10289
stim	-10290
▁Opt	-10291
▁lic	-10292
▁rooms	-10293
▁overcome	-10294
▁generator	-10295
Unit	-10296
layer	-10297
▁Email	-10298
hydroxy	-10299
▁alumin	-10300
▁params	-10301
▁screens	-10302
▁intraven	-10303
▁disclosure	-10304
▁AC	-10305
▁YO	-10306
cycl	-10307
▁PER	-10308
▁wra	-10309
arged	-10310
small	-10311
▁fees	-10312
▁tough	-10313
issions	-10314
▁Thread	-10315
▁readers	-10316
▁qualified	-10317
DP	-10318
LY	-10319
buf	-10320
▁bin	-10321
▁bon	-10322
▁Area	-10323
▁buck	-10324
ometer	-10325
▁Recent	-10326
▁bundle	-10327
▁honest	-10328
▁spokes	-10329
▁vocals	-10330
ammatory	-10331
▁realize	-10332
▁Colorado	-10333
▁composite	-10334
во	-10335
XML	-10336
rib	-10337
RECT	-10338
ader	-10339
auto	-10340
▁busy	-10341
▁pseud	-10342
▁utilize	-10343
▁bringing	-10344
▁withdraw	-10345
nc	-10346
pdf	-10347
▁dict	-10348
inition	-10349
▁coating	-10350
▁emotional	-10351
▁dictionary	-10352
▁biochemical	-10353
▁Lew	-10354
▁cir	-10355
eterm	-10356
omorph	-10357
▁platforms	-10358
eling	-10359
▁desire	-10360
▁locally	-10361
▁western	-10362
▁integral	-10363
▁infrastructure	-10364
▁Kong	-10365
▁Request	-10366
▁shorter	-10367
AK	-10368
LD	-10369
fish	-10370
ucid	-10371
ythm	-10372
▁Rod	-10373
ioxid	-10374
▁Know	-10375
ancies	-10376
▁Incre	-10377
▁faces	-10378
▁ranging	-10379
▁cultured	-10380
▁Ol	-10381
razy	-10382
utor	-10383
▁glob	-10384
earing	-10385
Windows	-10386
▁prelim	-10387
▁hypothes	-10388
▁managing	-10389
Left	-10390
pare	-10391
▁Age	-10392
merce	-10393
▁teen	-10394
▁Child	-10395
▁Space	-10396
▁queries	-10397
▁railway	-10398
operation	-10399
▁orientation	-10400
zo	-10401
adel	-10402
redit	-10403
▁Five	-10404
▁sitting	-10405
▁disposed	-10406
▁marriage	-10407
▁diversity	-10408
Top	-10409
war	-10410
Root	-10411
days	-10412
▁Box	-10413
device	-10414
▁aging	-10415
▁arrested	-10416
▁beneficial	-10417
▁extracellular	-10418
FILE	-10419
ellite	-10420
▁Print	-10421
article	-10422
▁Cancer	-10423
▁terror	-10424
▁clicking	-10425
:@"	-10426
▁Dar	-10427
▁Die	-10428
▁meat	-10429
▁trace	-10430
▁campus	-10431
▁fusion	-10432
▁spending	-10433
ih	-10434
ла	-10435
ARD	-10436
Auth	-10437
That	-10438
hour	-10439
iger	-10440
▁drain	-10441
▁Rewrite	-10442
▁Analysis	-10443
▁SET	-10444
▁houses	-10445
▁injured	-10446
▁treating	-10447
▁accordance	-10448
▁consideration	-10449
▁EU	-10450
oustic	-10451
▁crypt	-10452
▁earned	-10453
▁robust	-10454
▁challenging	-10455
++;	-10456
edge	-10457
▁cris	-10458
▁batch	-10459
▁beauty	-10460
▁authentication	-10461
wd	-10462
RACT	-10463
Equal	-10464
utter	-10465
▁stone	-10466
rically	-10467
▁UPDATE	-10468
▁retain	-10469
▁disable	-10470
▁deficiency	-10471
icted	-10472
renal	-10473
▁morb	-10474
▁picked	-10475
▁posterior	-10476
▁Republican	-10477
hex	-10478
imp	-10479
▁distal	-10480
▁trauma	-10481
▁historic	-10482
Am	-10483
opes	-10484
▁bench	-10485
▁ignore	-10486
▁proven	-10487
▁solved	-10488
▁Jackson	-10489
▁configure	-10490
▁Democratic	-10491
Pat	-10492
▁Cur	-10493
ophys	-10494
▁ease	-10495
▁sought	-10496
▁emission	-10497
NT	-10498
SM	-10499
irms	-10500
▁Ray	-10501
ceptor	-10502
orable	-10503
▁clust	-10504
▁viewing	-10505
including	-10506
▁transcript	-10507
▁Publication	-10508
▁championship	-10509
▁Wild	-10510
Binding	-10511
▁aortic	-10512
Selector	-10513
▁cancers	-10514
▁muscles	-10515
▁optional	-10516
▁inhibitory	-10517
▁conversation	-10518
SU	-10519
!!!	-10520
RON	-10521
▁ET	-10522
func	-10523
▁Ash	-10524
▁rom	-10525
▁Navy	-10526
▁alle	-10527
▁wearing	-10528
▁professor	-10529
▁alterations	-10530
▁weekly	-10531
▁religious	-10532
▁correction	-10533
idal	-10534
omot	-10535
your	-10536
▁Put	-10537
ellar	-10538
▁Bell	-10539
consin	-10540
▁reput	-10541
▁clinic	-10542
▁choices	-10543
▁vessels	-10544
artifactId	-10545
▁occurring	-10546
tools	-10547
handle	-10548
▁Small	-10549
▁bands	-10550
▁fault	-10551
▁macro	-10552
▁stands	-10553
▁runtime	-10554
Parameter	-10555
▁afternoon	-10556
▁preventing	-10557
"?>	-10558
hist	-10559
▁Far	-10560
▁Graph	-10561
▁deleted	-10562
▁contacts	-10563
▁variants	-10564
▁transparent	-10565
▁Massachusetts	-10566
eh	-10567
PAR	-10568
irth	-10569
Async	-10570
cloud	-10571
▁Coll	-10572
▁Load	-10573
▁agon	-10574
Player	-10575
orship	-10576
derived	-10577
▁sender	-10578
▁accompany	-10579
▁magnitude	-10580
Que	-10581
YPE	-10582
asal	-10583
mann	-10584
▁PCR	-10585
backs	-10586
ogether	-10587
▁kernel	-10588
▁Columbia	-10589
▁Download	-10590
▁abnormalities	-10591
Edit	-10592
▁sav	-10593
▁Hence	-10594
▁Would	-10595
▁slide	-10596
▁headers	-10597
▁captured	-10598
▁combustion	-10599
▁instruments	-10600
▁longitudinal	-10601
▁Administration	-10602
feed	-10603
zone	-10604
▁fee	-10605
▁fetch	-10606
▁param	-10607
▁Twenty	-10608
▁mutant	-10609
▁platelet	-10610
Doc	-10611
esc	-10612
ricts	-10613
▁rain	-10614
▁Stock	-10615
▁recru	-10616
▁hockey	-10617
▁saving	-10618
▁comprom	-10619
▁extraction	-10620
▁observation	-10621
bot	-10622
▁lect	-10623
^\	-10624
agg	-10625
▁DR	-10626
osin	-10627
▁Emp	-10628
▁Eric	-10629
▁Rule	-10630
▁puts	-10631
▁stere	-10632
▁magnet	-10633
EF	-10634
nn	-10635
REE	-10636
UTH	-10637
▁Sym	-10638
▁trim	-10639
▁renew	-10640
▁undert	-10641
▁concert	-10642
▁attorney	-10643
▁graphics	-10644
▁awareness	-10645
▁explanation	-10646
BV	-10647
▁Sus	-10648
apply	-10649
Dialog	-10650
ariant	-10651
▁agric	-10652
habilit	-10653
▁arrived	-10654
▁affecting	-10655
▁Parliament	-10656
▁restricted	-10657
inds	-10658
▁Stan	-10659
▁boat	-10660
▁hell	-10661
▁math	-10662
▁mere	-10663
schema	-10664
▁annot	-10665
▁fluor	-10666
riction	-10667
▁retrieve	-10668
LIB	-10669
▁Respon	-10670
▁contest	-10671
rus	-10672
▁SR	-10673
▁Interest	-10674
▁username	-10675
▁Minnesota	-10676
▁Represent	-10677
▁committee	-10678
Dir	-10679
bean	-10680
oven	-10681
rium	-10682
▁COPY	-10683
▁Coast	-10684
▁paths	-10685
▁isolates	-10686
,$	-10687
bian	-10688
▁athe	-10689
▁belief	-10690
internal	-10691
▁citizens	-10692
▁speaking	-10693
WOR	-10694
Hash	-10695
Long	-10696
andy	-10697
▁jur	-10698
igger	-10699
▁coil	-10700
▁beach	-10701
▁canvas	-10702
▁intact	-10703
▁nearby	-10704
▁precise	-10705
▁membranes	-10706
dump	-10707
peat	-10708
▁vag	-10709
ioned	-10710
▁Beach	-10711
▁Greek	-10712
▁incub	-10713
▁Database	-10714
▁influenced	-10715
▁physicians	-10716
▁pathogenesis	-10717
una	-10718
▁Ba	-10719
▁dump	-10720
player	-10721
▁upcoming	-10722
▁adjustment	-10723
▁ly	-10724
nerg	-10725
▁Aim	-10726
▁vast	-10727
icture	-10728
▁Trust	-10729
▁donor	-10730
▁managers	-10731
▁temporal	-10732
▁retrospective	-10733
▁pron	-10734
▁Photo	-10735
▁Default	-10736
▁calendar	-10737
▁inclusion	-10738
ocar	-10739
▁cum	-10740
omial	-10741
rient	-10742
▁heads	-10743
▁teach	-10744
forward	-10745
complete	-10746
▁turning	-10747
▁Attorney	-10748
▁domestic	-10749
▁Secretary	-10750
▁guarantee	-10751
▁capabilities	-10752
▁ALL	-10753
▁para	-10754
▁negot	-10755
▁inputs	-10756
▁mirror	-10757
▁disturb	-10758
▁logging	-10759
LR	-10760
▁Bad	-10761
igens	-10762
otide	-10763
▁enem	-10764
fiddle	-10765
istent	-10766
▁Below	-10767
▁Price	-10768
▁bypass	-10769
Properties	-10770
▁positioned	-10771
▁acquisition	-10772
YY	-10773
|\	-10774
IME	-10775
izz	-10776
▁nom	-10777
▁pun	-10778
stone	-10779
▁Conf	-10780
Widget	-10781
around	-10782
itudes	-10783
▁advoc	-10784
▁asset	-10785
▁analyt	-10786
▁awards	-10787
▁Account	-10788
▁blocked	-10789
▁trained	-10790
▁impaired	-10791
▁acceptable	-10792
Ag	-10793
▁IE	-10794
perf	-10795
Graph	-10796
▁bear	-10797
▁drum	-10798
letter	-10799
▁attempted	-10800
▁classical	-10801
▁identifying	-10802
KEY	-10803
bro	-10804
▁Sa	-10805
▁hint	-10806
▁tone	-10807
▁Works	-10808
▁urine	-10809
▁refers	-10810
children	-10811
▁efficiently	-10812
▁++	-10813
▁Wat	-10814
schemas	-10815
▁Integer	-10816
▁somehow	-10817
▁upgrade	-10818
▁agencies	-10819
▁residues	-10820
▁intestinal	-10821
.(	-10822
IVE	-10823
sol	-10824
▁UV	-10825
white	-10826
oscopy	-10827
▁corporate	-10828
▁decreases	-10829
rops	-10830
▁phr	-10831
aceut	-10832
▁Cert	-10833
▁aspir	-10834
▁barrier	-10835
vc	-10836
anna	-10837
▁img	-10838
inite	-10839
▁grab	-10840
▁spray	-10841
▁recover	-10842
▁guidance	-10843
▁maternal	-10844
Ke	-10845
▁Ak	-10846
▁EP	-10847
grid	-10848
▁ana	-10849
Local	-10850
scribe	-10851
▁Having	-10852
▁adjusted	-10853
sn	-10854
▁ub	-10855
enable	-10856
▁compiled	-10857
▁collaboration	-10858
plug	-10859
uint	-10860
gamma	-10861
ophag	-10862
▁mounting	-10863
▁exclusive	-10864
▁preliminary	-10865
DU	-10866
uts	-10867
uum	-10868
coma	-10869
news	-10870
▁Pur	-10871
Right	-10872
hered	-10873
linux	-10874
▁Hash	-10875
▁crack	-10876
▁stead	-10877
▁Import	-10878
▁guests	-10879
▁dietary	-10880
▁Scotland	-10881
connection	-10882
▁extending	-10883
UBL	-10884
orer	-10885
▁Pri	-10886
writer	-10887
▁Double	-10888
▁hoping	-10889
security	-10890
▁invasive	-10891
▁neuronal	-10892
▁movements	-10893
ega	-10894
berry	-10895
umatic	-10896
▁Senior	-10897
▁Element	-10898
▁studying	-10899
atom	-10900
▁Vill	-10901
▁seiz	-10902
uclear	-10903
▁Immun	-10904
▁infant	-10905
▁prefix	-10906
terminal	-10907
▁estimates	-10908
Prot	-10909
okin	-10910
▁pad	-10911
▁tap	-10912
omers	-10913
orous	-10914
▁Brad	-10915
▁grew	-10916
▁quad	-10917
abases	-10918
ulates	-10919
▁downt	-10920
▁unusual	-10921
▁insertion	-10922
▁progressive	-10923
▁participated	-10924
}$.	-10925
▁millions	-10926
▁Wisconsin	-10927
▁scientists	-10928
;;	-10929
CU	-10930
appa	-10931
▁Ltd	-10932
Files	-10933
Hello	-10934
▁Item	-10935
▁goods	-10936
▁schema	-10937
▁Personal	-10938
▁mountain	-10939
▁targeting	-10940
Del	-10941
Sec	-10942
▁Ira	-10943
actor	-10944
▁sick	-10945
▁phones	-10946
▁retire	-10947
▁imagine	-10948
▁adhesion	-10949
▁bleeding	-10950
▁Distribut	-10951
▁medication	-10952
ugby	-10953
athan	-10954
▁migr	-10955
▁pitch	-10956
▁antioxid	-10957
▁intervals	-10958
▁consisting	-10959
)+	-10960
.$	-10961
big	-10962
tool	-10963
▁cmd	-10964
"],	-10965
▁Mah	-10966
Utils	-10967
▁assets	-10968
▁hosted	-10969
▁oxidation	-10970
▁Si	-10971
bury	-10972
rell	-10973
▁hack	-10974
ceptions	-10975
▁Location	-10976
▁suffered	-10977
▁modulation	-10978
▁substrates	-10979
%%	-10980
oli	-10981
game	-10982
▁bass	-10983
▁derm	-10984
▁worst	-10985
▁acknow	-10986
▁pointed	-10987
▁tickets	-10988
Directory	-10989
aska	-10990
inator	-10991
▁feels	-10992
▁skill	-10993
▁Mobile	-10994
▁recruit	-10995
▁teachers	-10996
inflammatory	-10997
uv	-10998
▁"-	-10999
Show	-11000
aret	-11001
account	-11002
▁Market	-11003
▁variant	-11004
▁baseball	-11005
▁encourage	-11006
AX	-11007
je	-11008
ongs	-11009
prom	-11010
ucky	-11011
▁exch	-11012
▁ions	-11013
iotics	-11014
▁Write	-11015
▁powder	-11016
▁Initial	-11017
▁priority	-11018
▁automated	-11019
▁frequencies	-11020
CAT	-11021
chi	-11022
hus	-11023
empl	-11024
▁Boy	-11025
▁Ont	-11026
phase	-11027
▁titles	-11028
▁covering	-11029
▁filename	-11030
▁placement	-11031
▁recognize	-11032
▁administrative	-11033
ORE	-11034
ummy	-11035
▁Dub	-11036
burgh	-11037
▁Hong	-11038
▁bran	-11039
▁hipp	-11040
▁ride	-11041
▁marks	-11042
ocolate	-11043
▁Rights	-11044
▁torque	-11045
▁Install	-11046
cents	-11047
▁clot	-11048
▁finds	-11049
ho	-11050
aded	-11051
aptic	-11052
asters	-11053
▁cursor	-11054
▁genome	-11055
▁lights	-11056
▁Houston	-11057
▁OP	-11058
Each	-11059
wing	-11060
▁Hop	-11061
▁unw	-11062
elect	-11063
▁Bern	-11064
▁haem	-11065
▁flags	-11066
▁holes	-11067
comment	-11068
▁varied	-11069
▁Victoria	-11070
▁conflict	-11071
Rad	-11072
amy	-11073
pred	-11074
▁Fair	-11075
ository	-11076
▁confused	-11077
▁participation	-11078
SY	-11079
▁css	-11080
Entry	-11081
actic	-11082
ercul	-11083
inton	-11084
▁dust	-11085
porter	-11086
▁fibrobl	-11087
▁mathemat	-11088
▁|-	-11089
▁IgG	-11090
▁dos	-11091
raine	-11092
▁hall	-11093
▁ovar	-11094
Params	-11095
▁Labor	-11096
groupId	-11097
▁adopted	-11098
▁alignment	-11099
▁prolonged	-11100
odyn	-11101
▁lith	-11102
oclonal	-11103
▁dangerous	-11104
▁pancreatic	-11105
▁expressions	-11106
omat	-11107
▁TNF	-11108
stage	-11109
▁bulk	-11110
readable	-11111
▁witness	-11112
sequently	-11113
▁peptides	-11114
▁ArrayList	-11115
▁organized	-11116
▁transient	-11117
▁attachment	-11118
▁combinations	-11119
▁AV	-11120
neys	-11121
▁apt	-11122
ifiers	-11123
▁abund	-11124
▁moist	-11125
▁defect	-11126
▁propag	-11127
▁sizeof	-11128
▁unclear	-11129
▁designer	-11130
▁drinking	-11131
▁prognosis	-11132
SV	-11133
▁IR	-11134
mers	-11135
▁nod	-11136
▁Civil	-11137
license	-11138
▁Toronto	-11139
▁freedom	-11140
▁overflow	-11141
ochemistry	-11142
▁associations	-11143
ni	-11144
▁ic	-11145
ouri	-11146
umor	-11147
▁"",	-11148
▁Esc	-11149
▁Sea	-11150
▁adip	-11151
▁fert	-11152
season	-11153
▁employment	-11154
▁restriction	-11155
"];	-11156
▁Pu	-11157
Sign	-11158
▁Der	-11159
▁cer	-11160
▁lob	-11161
▁Camb	-11162
▁loan	-11163
queous	-11164
▁Muslim	-11165
▁trends	-11166
▁worker	-11167
▁cricket	-11168
microsoft	-11169
▁volunteers	-11170
When	-11171
icode	-11172
queue	-11173
▁Again	-11174
aturally	-11175
▁dealing	-11176
aceutical	-11177
▁Professor	-11178
fn	-11179
aze	-11180
▁Draw	-11181
▁Stack	-11182
▁tension	-11183
▁contamin	-11184
▁intention	-11185
▁terminals	-11186
pay	-11187
osine	-11188
utils	-11189
▁Norm	-11190
▁beer	-11191
▁quote	-11192
▁upgrad	-11193
▁injected	-11194
▁regularly	-11195
▁documented	-11196
Api	-11197
ITE	-11198
Sim	-11199
omp	-11200
req	-11201
ocon	-11202
▁VAL	-11203
▁spectrom	-11204
▁appellant	-11205
▁newspaper	-11206
▁SM	-11207
elli	-11208
▁mol	-11209
abeth	-11210
▁fewer	-11211
▁actors	-11212
▁shares	-11213
▁sheets	-11214
▁realized	-11215
▁therapies	-11216
▁explicitly	-11217
▁impairment	-11218
__(	-11219
ashed	-11220
▁Buff	-11221
hidden	-11222
▁resist	-11223
▁chicken	-11224
▁pregnant	-11225
▁dynamically	-11226
cur	-11227
ión	-11228
▁RF	-11229
▁DVD	-11230
▁INTO	-11231
▁Davis	-11232
▁plates	-11233
▁rating	-11234
▁redist	-11235
▁healing	-11236
▁athletes	-11237
▁MD	-11238
▁wavel	-11239
▁council	-11240
▁desktop	-11241
▁privacy	-11242
▁entering	-11243
▁atmosphere	-11244
▁commitment	-11245
anti	-11246
none	-11247
▁tou	-11248
▁tack	-11249
▁hosts	-11250
▁Option	-11251
▁quotes	-11252
▁dollars	-11253
▁joining	-11254
▁quantum	-11255
>&	-11256
▁emphas	-11257
▁nucleus	-11258
▁staining	-11259
▁entertainment	-11260
Gu	-11261
How	-11262
▁Comb	-11263
▁WITH	-11264
▁Queen	-11265
▁Argent	-11266
▁elections	-11267
AE	-11268
MAX	-11269
ols	-11270
▁Heart	-11271
▁ligand	-11272
▁losses	-11273
typename	-11274
▁scoring	-11275
resistant	-11276
▁footballer	-11277
▁communicate	-11278
MED	-11279
inyl	-11280
linked	-11281
▁STATES	-11282
▁needle	-11283
▁subjected	-11284
▁difficulties	-11285
agues	-11286
▁Plus	-11287
apshot	-11288
▁pixel	-11289
▁infect	-11290
▁ticket	-11291
▁damaged	-11292
▁opinions	-11293
▁physician	-11294
▁unexpected	-11295
▁DIS	-11296
aylor	-11297
ptide	-11298
▁hits	-11299
Equals	-11300
Sports	-11301
binant	-11302
commun	-11303
ophage	-11304
▁Prime	-11305
▁bunch	-11306
▁doors	-11307
▁increment	-11308
▁utilizing	-11309
vi	-11310
Mar	-11311
ORY	-11312
▁Ms	-11313
▁PK	-11314
▁Uk	-11315
Mark	-11316
▁iso	-11317
▁crew	-11318
▁scal	-11319
▁vein	-11320
▁insuff	-11321
▁murder	-11322
▁ratios	-11323
▁taught	-11324
▁extracted	-11325
▁persistent	-11326
▁reconstruction	-11327
aug	-11328
ela	-11329
esh	-11330
isa	-11331
vec	-11332
▁CC	-11333
▁bol	-11334
▁Silver	-11335
▁elucid	-11336
▁Without	-11337
▁Different	-11338
▁suffering	-11339
▁IO	-11340
▁];	-11341
ocamp	-11342
piece	-11343
essages	-11344
initial	-11345
▁Member	-11346
;}	-11347
▁ml	-11348
gypt	-11349
▁Help	-11350
▁Daily	-11351
▁Client	-11352
▁dispos	-11353
▁recipe	-11354
▁Mountain	-11355
▁equipped	-11356
▁ownership	-11357
▁capability	-11358
▁principles	-11359
mi	-11360
▁pd	-11361
pler	-11362
regon	-11363
▁Ball	-11364
iverse	-11365
prefix	-11366
▁interviews	-11367
▁functioning	-11368
`,	-11369
FIL	-11370
HER	-11371
Ptr	-11372
▁Bor	-11373
▁Jac	-11374
▁Loc	-11375
▁vice	-11376
leting	-11377
ocrine	-11378
▁panels	-11379
▁philos	-11380
▁filling	-11381
▁illegal	-11382
▁matters	-11383
▁nitrogen	-11384
▁morbidity	-11385
▁electrodes	-11386
▁separately	-11387
ilty	-11388
▁dot	-11389
itage	-11390
opher	-11391
▁meal	-11392
▁Liter	-11393
▁Phone	-11394
▁neighb	-11395
ountered	-11396
▁insights	-11397
▁sampling	-11398
pa	-11399
▁NFL	-11400
▁gem	-11401
equal	-11402
world	-11403
▁backup	-11404
▁planet	-11405
▁retired	-11406
▁Abstract	-11407
▁concrete	-11408
▁abdominal	-11409
▁morphology	-11410
▁presenting	-11411
▁dependencies	-11412
▁spectroscopy	-11413
===	-11414
^{\	-11415
▁SS	-11416
rand	-11417
▁Rog	-11418
▁coal	-11419
▁Level	-11420
▁refresh	-11421
▁{'	-11422
tures	-11423
▁debt	-11424
arters	-11425
lywood	-11426
verter	-11427
▁honor	-11428
▁regim	-11429
▁gained	-11430
▁relate	-11431
activated	-11432
▁coefficient	-11433
▁encountered	-11434
▁developmental	-11435
ес	-11436
▁э	-11437
mus	-11438
▁bat	-11439
▁Iraq	-11440
▁clip	-11441
▁rely	-11442
Offset	-11443
▁Third	-11444
▁waves	-11445
ifestyle	-11446
operator	-11447
▁ancient	-11448
▁extreme	-11449
▁Maryland	-11450
▁focusing	-11451
▁predictive	-11452
.-	-11453
▁ASP	-11454
▁Sat	-11455
▁Tai	-11456
▁jav	-11457
▁Express	-11458
▁Systems	-11459
▁monthly	-11460
▁victims	-11461
inic	-11462
orient	-11463
▁delta	-11464
▁Editor	-11465
▁aqueous	-11466
▁revenue	-11467
▁trading	-11468
containing	-11469
▁defendant	-11470
▁introduce	-11471
Bo	-11472
orp	-11473
nbsp	-11474
▁Bru	-11475
▁Ford	-11476
Schema	-11477
agraph	-11478
rophic	-11479
▁reactive	-11480
ami	-11481
▁gal	-11482
ierarch	-11483
transfer	-11484
▁questionnaire	-11485
ля	-11486
▁Gro	-11487
amous	-11488
▁king	-11489
Helper	-11490
▁Korean	-11491
▁territ	-11492
▁Section	-11493
▁passage	-11494
▁lighting	-11495
▁CG	-11496
▁Grid	-11497
▁solo	-11498
forming	-11499
mathcal	-11500
▁inhibit	-11501
mentioned	-11502
▁--------	-11503
▁fibrosis	-11504
▁reaching	-11505
▁expertise	-11506
▁interests	-11507
BOO	-11508
evin	-11509
amely	-11510
ortion	-11511
▁programme	-11512
▁uncertain	-11513
athy	-11514
emon	-11515
enth	-11516
▁cabin	-11517
checked	-11518
▁Poland	-11519
▁crisis	-11520
ilization	-11521
▁discount	-11522
Ac	-11523
SET	-11524
Tube	-11525
▁Rom	-11526
Media	-11527
adesh	-11528
ourse	-11529
▁bios	-11530
▁encl	-11531
▁boxes	-11532
▁horse	-11533
▁losing	-11534
ogeneous	-11535
▁anticip	-11536
▁Javascript	-11537
▁"^	-11538
▁Ra	-11539
▁Site	-11540
▁blade	-11541
▁finite	-11542
osterone	-11543
▁entities	-11544
▁provision	-11545
▁Additional	-11546
▁artificial	-11547
pu	-11548
▁Arm	-11549
▁logo	-11550
atable	-11551
border	-11552
oblast	-11553
▁limitation	-11554
")]	-11555
IGN	-11556
▁fle	-11557
break	-11558
fetch	-11559
▁dont	-11560
▁marg	-11561
engine	-11562
▁comedy	-11563
▁mature	-11564
▁nested	-11565
▁lymphocytes	-11566
▁localization	-11567
PF	-11568
mL	-11569
owa	-11570
Init	-11571
▁Nic	-11572
▁unf	-11573
vision	-11574
▁epidem	-11575
▁Angular	-11576
▁integrity	-11577
▁packaging	-11578
▁manufacturer	-11579
phones	-11580
▁blind	-11581
platform	-11582
▁Details	-11583
▁stronger	-11584
▁ingredients	-11585
mg	-11586
si	-11587
▁FO	-11588
▁vi	-11589
Func	-11590
Some	-11591
ista	-11592
▁Hal	-11593
ituted	-11594
jection	-11595
▁engage	-11596
Database	-11597
▁operators	-11598
▁variability	-11599
▁redistribute	-11600
▁psychological	-11601
▁GET	-11602
Param	-11603
▁$('.	-11604
▁Size	-11605
▁magic	-11606
illance	-11607
▁Region	-11608
▁twenty	-11609
▁telling	-11610
▁entitled	-11611
▁invasion	-11612
▁thorough	-11613
▁directions	-11614
▁phenomenon	-11615
▁enhancement	-11616
yo	-11617
don	-11618
loop	-11619
▁IMPL	-11620
▁prosec	-11621
▁surviv	-11622
▁breaking	-11623
habilitation	-11624
▁Mu	-11625
blue	-11626
pton	-11627
rank	-11628
▁....	-11629
rupted	-11630
▁falls	-11631
VERSION	-11632
▁Customer	-11633
▁prominent	-11634
▁chromosome	-11635
▁politicians	-11636
CUR	-11637
PCR	-11638
bell	-11639
▁lapt	-11640
▁virt	-11641
▁foods	-11642
▁gamma	-11643
▁perox	-11644
▁rotor	-11645
▁readily	-11646
▁scripts	-11647
▁suspected	-11648
▁prediction	-11649
▁suspension	-11650
▁interactive	-11651
-+	-11652
IE	-11653
han	-11654
oped	-11655
▁Fac	-11656
▁pulled	-11657
▁Highway	-11658
▁purified	-11659
hentication	-11660
ASE	-11661
▁Fox	-11662
cycle	-11663
▁Ariz	-11664
▁Kenn	-11665
▁Range	-11666
▁Round	-11667
▁advis	-11668
▁Turkey	-11669
▁garden	-11670
Selected	-11671
▁editing	-11672
▁circular	-11673
▁subgroup	-11674
regulation	-11675
▁admission	-11676
▁isolation	-11677
FD	-11678
TV	-11679
HTTP	-11680
Rect	-11681
They	-11682
▁Latin	-11683
country	-11684
▁cavity	-11685
▁drives	-11686
▁legend	-11687
▁visits	-11688
odynamic	-11689
▁cooking	-11690
▁fiction	-11691
▁cortical	-11692
▁simulation	-11693
▁contemporary	-11694
▁β	-11695
agma	-11696
▁numer	-11697
▁seats	-11698
success	-11699
▁breaks	-11700
▁politics	-11701
▁",	-11702
lium	-11703
▁NAS	-11704
▁cant	-11705
▁exert	-11706
▁volumes	-11707
▁mobility	-11708
▁algorithms	-11709
▁systematic	-11710
'])	-11711
IAM	-11712
▁Ah	-11713
uler	-11714
▁zip	-11715
▁Join	-11716
▁bias	-11717
▁cout	-11718
▁proxy	-11719
ococcus	-11720
▁deterior	-11721
▁promoter	-11722
▁foundation	-11723
PN	-11724
inv	-11725
...)	-11726
ROUP	-11727
▁Foo	-11728
▁compress	-11729
lux	-11730
Next	-11731
acco	-11732
appy	-11733
rays	-11734
▁pric	-11735
ategor	-11736
▁vital	-11737
▁racing	-11738
▁Stephen	-11739
Framework	-11740
▁antigens	-11741
▁Sometimes	-11742
]+	-11743
usc	-11744
oves	-11745
apers	-11746
hesia	-11747
patient	-11748
▁Player	-11749
▁IMPLIED	-11750
▁dataset	-11751
regulated	-11752
▁principle	-11753
nit	-11754
▁aug	-11755
▁tur	-11756
avage	-11757
▁Nick	-11758
▁giant	-11759
▁sperm	-11760
▁Jewish	-11761
▁intrac	-11762
urations	-11763
reference	-11764
▁interfer	-11765
▁hepatitis	-11766
▁prognostic	-11767
WI	-11768
"},	-11769
zer	-11770
▁DAM	-11771
RIGHT	-11772
anded	-11773
record	-11774
▁explos	-11775
▁slowly	-11776
▁enjoyed	-11777
▁opposed	-11778
▁referen	-11779
▁Building	-11780
▁gradient	-11781
▁carefully	-11782
aver	-11783
iber	-11784
▁Bol	-11785
uming	-11786
Runtime	-11787
herence	-11788
▁frames	-11789
▁aggressive	-11790
▁theoretical	-11791
oved	-11792
phia	-11793
oning	-11794
▁dinner	-11795
▁holder	-11796
▁router	-11797
ployment	-11798
▁anymore	-11799
▁knowing	-11800
▁fighting	-11801
▁graduate	-11802
▁informed	-11803
▁behaviors	-11804
▁regulated	-11805
▁implementing	-11806
FE	-11807
▁CN	-11808
▁Ly	-11809
odge	-11810
▁Luc	-11811
▁Mir	-11812
▁lie	-11813
▁arts	-11814
▁debate	-11815
▁painting	-11816
▁resolved	-11817
▁Typically	-11818
▁diffusion	-11819
▁interference	-11820
Day	-11821
Html	-11822
Print	-11823
otted	-11824
short	-11825
▁docs	-11826
▁Hello	-11827
▁epile	-11828
▁Oregon	-11829
▁marrow	-11830
▁rotate	-11831
▁Members	-11832
▁concepts	-11833
▁fracture	-11834
edu	-11835
iac	-11836
▁"#	-11837
gluc	-11838
▁Les	-11839
▁lets	-11840
itance	-11841
▁Marsh	-11842
▁generates	-11843
▁phenotype	-11844
▁contributions	-11845
(@	-11846
oup	-11847
▁про	-11848
iders	-11849
price	-11850
global	-11851
▁Delhi	-11852
▁lapar	-11853
channel	-11854
register	-11855
▁selector	-11856
▁protocols	-11857
uf	-11858
bad	-11859
ghan	-11860
ambig	-11861
izers	-11862
props	-11863
▁dies	-11864
▁Target	-11865
▁bottle	-11866
prototype	-11867
▁instruct	-11868
▁addressed	-11869
▁predeterm	-11870
▁coordinates	-11871
="/	-11872
▁FT	-11873
▁ABC	-11874
making	-11875
execute	-11876
▁UNITED	-11877
negative	-11878
▁posting	-11879
▁strange	-11880
▁stretch	-11881
▁visited	-11882
▁Executive	-11883
▁collections	-11884
▁synthesized	-11885
dc	-11886
▁EC	-11887
oval	-11888
▁wal	-11889
▁Eliz	-11890
▁Stre	-11891
▁colle	-11892
▁explo	-11893
▁Avenue	-11894
▁leukemia	-11895
▁intensive	-11896
▁flexibility	-11897
▁accompanying	-11898
away	-11899
ifty	-11900
▁Kat	-11901
ippet	-11902
▁Greg	-11903
▁Egypt	-11904
▁eryth	-11905
▁roots	-11906
▁cookie	-11907
▁recurs	-11908
▁summar	-11909
▁assumed	-11910
▁undergo	-11911
▁surprise	-11912
▁engagement	-11913
bc	-11914
IDS	-11915
▁за	-11916
raul	-11917
such	-11918
urse	-11919
▁Sent	-11920
▁embod	-11921
▁Sweden	-11922
▁ranges	-11923
Category	-11924
▁adapter	-11925
▁biomark	-11926
▁coaches	-11927
▁advances	-11928
▁complaint	-11929
▁hippocamp	-11930
▁prevented	-11931
ilst	-11932
▁Shop	-11933
▁Unit	-11934
▁rice	-11935
▁flood	-11936
Display	-11937
▁Observ	-11938
▁elastic	-11939
▁intravenous	-11940
▁macrophages	-11941
BT	-11942
▁α	-11943
▁na	-11944
Icon	-11945
disc	-11946
▁kil	-11947
ookie	-11948
osomal	-11949
▁occas	-11950
▁cycles	-11951
Delegate	-11952
▁licensed	-11953
▁indicator	-11954
▁translate	-11955
Pos	-11956
▁ov	-11957
move	-11958
etric	-11959
▁tall	-11960
iously	-11961
▁Chair	-11962
▁Dutch	-11963
▁attenu	-11964
▁cultiv	-11965
▁jquery	-11966
▁papers	-11967
islation	-11968
▁Indiana	-11969
▁lifetime	-11970
po	-11971
abc	-11972
aga	-11973
cmd	-11974
alty	-11975
▁KEY	-11976
ducer	-11977
patch	-11978
▁Very	-11979
ryption	-11980
▁CREATE	-11981
▁cancel	-11982
▁acoustic	-11983
▁indirect	-11984
▁Collection	-11985
▁у	-11986
Inv	-11987
grams	-11988
icing	-11989
Active	-11990
▁Excel	-11991
▁Hotel	-11992
▁Single	-11993
▁insect	-11994
adelphia	-11995
▁Gallery	-11996
▁restore	-11997
▁cylinder	-11998
▁visiting	-11999
▁alongside	-12000
▁manufacturers	-12001
▁VM	-12002
libs	-12003
speed	-12004
▁eleg	-12005
▁Sound	-12006
▁maxim	-12007
▁penet	-12008
▁Address	-12009
▁Private	-12010
▁transportation	-12011
AU	-12012
ти	-12013
sers	-12014
▁SER	-12015
▁Ven	-12016
green	-12017
▁cock	-12018
▁eligible	-12019
▁landscape	-12020
▁Redistribut	-12021
▁IM	-12022
arin	-12023
vely	-12024
▁Dam	-12025
▁Imp	-12026
azole	-12027
omics	-12028
▁engaged	-12029
▁Language	-12030
▁Multiple	-12031
▁supplies	-12032
dependency	-12033
intestinal	-12034
▁attempting	-12035
('/	-12036
▁ED	-12037
olds	-12038
ophageal	-12039
▁killing	-12040
▁crystall	-12041
▁endogenous	-12042
▁continuously	-12043
▁predetermined	-12044
LP	-12045
gb	-12046
▁Yet	-12047
▁cot	-12048
▁demo	-12049
amsung	-12050
▁ships	-12051
▁Airport	-12052
▁festival	-12053
▁fantastic	-12054
▁utilization	-12055
▁consistently	-12056
sa	-12057
aya	-12058
azy	-12059
rif	-12060
▁ES	-12061
▁Story	-12062
▁Golden	-12063
▁Season	-12064
▁Ontario	-12065
▁careful	-12066
▁encoded	-12067
stylesheet	-12068
▁assistant	-12069
▁designated	-12070
▁characterize	-12071
roc	-12072
▁bub	-12073
▁lit	-12074
inine	-12075
▁belt	-12076
▁legs	-12077
former	-12078
▁Cloud	-12079
▁modes	-12080
▁Vector	-12081
▁powers	-12082
▁shapes	-12083
▁equally	-12084
▁mistake	-12085
▁storing	-12086
clusively	-12087
▁assuming	-12088
properties	-12089
▁databases	-12090
▁correspond	-12091
Draw	-12092
wich	-12093
Email	-12094
metry	-12095
▁tech	-12096
▁alive	-12097
▁excit	-12098
▁Winter	-12099
▁vectors	-12100
▁Ministry	-12101
▁boundary	-12102
▁minister	-12103
▁phosphat	-12104
▁promotion	-12105
▁monoclonal	-12106
xp	-12107
Cond	-12108
▁Gre	-12109
▁era	-12110
Sheet	-12111
venth	-12112
▁Harr	-12113
▁soph	-12114
Loader	-12115
ailing	-12116
▁nomin	-12117
▁Effect	-12118
▁prints	-12119
▁Governor	-12120
▁dominant	-12121
Dictionary	-12122
▁retention	-12123
▁accurately	-12124
▁infarction	-12125
▁metastatic	-12126
tk	-12127
rag	-12128
▁).	-12129
Math	-12130
oxic	-12131
▁Git	-12132
engers	-12133
▁perme	-12134
Account	-12135
▁biology	-12136
▁Transport	-12137
^^	-12138
ods	-12139
('./	-12140
rans	-12141
▁dir	-12142
▁nob	-12143
gmail	-12144
▁obser	-12145
testing	-12146
clusions	-12147
▁assignment	-12148
)$.	-12149
axy	-12150
'));	-12151
roit	-12152
unes	-12153
▁Hun	-12154
▁lux	-12155
▁tea	-12156
▁ves	-12157
apple	-12158
▁Ryan	-12159
▁slot	-12160
folder	-12161
▁dance	-12162
▁verte	-12163
versely	-12164
▁rarely	-12165
▁fitness	-12166
▁Missouri	-12167
▁Something	-12168
▁recipient	-12169
▁highlights	-12170
▁personality	-12171
▁recombinant	-12172
Da	-12173
Art	-12174
Tab	-12175
bet	-12176
ighth	-12177
degree	-12178
sembled	-12179
packages	-12180
▁recurrent	-12181
▁transistor	-12182
▁residential	-12183
<?	-12184
Ca	-12185
▁fra	-12186
▁Anth	-12187
▁nick	-12188
necess	-12189
▁CHECK	-12190
▁Chall	-12191
estions	-12192
▁prohib	-12193
▁justice	-12194
▁moments	-12195
▁Particip	-12196
▁clearance	-12197
▁nanoparticles	-12198
cam	-12199
igm	-12200
lay	-12201
iami	-12202
▁arc	-12203
▁bic	-12204
apore	-12205
ensis	-12206
eties	-12207
▁sten	-12208
itored	-12209
▁undes	-12210
pletion	-12211
▁LIMITED	-12212
▁antenna	-12213
▁cancell	-12214
▁outdoor	-12215
▁champion	-12216
bow	-12217
iva	-12218
▁io	-12219
Copy	-12220
bool	-12221
▁mock	-12222
models	-12223
▁schiz	-12224
▁yards	-12225
▁Bridge	-12226
▁INSERT	-12227
iso	-12228
ugg	-12229
▁BR	-12230
ogly	-12231
olis	-12232
plan	-12233
▁WOR	-12234
Close	-12235
▁Self	-12236
▁hasn	-12237
▁mast	-12238
▁Wilson	-12239
▁nurses	-12240
▁pixels	-12241
▁evident	-12242
▁Training	-12243
▁competed	-12244
▁everyday	-12245
▁consisted	-12246
ND	-12247
fc	-12248
isol	-12249
offs	-12250
▁mim	-12251
Layer	-12252
World	-12253
▁irre	-12254
Parent	-12255
ophren	-12256
▁talks	-12257
▁reward	-12258
▁Returns	-12259
▁disadvantage	-12260
Car	-12261
▁Hay	-12262
hemes	-12263
theta	-12264
▁Save	-12265
▁duct	-12266
urname	-12267
▁Blood	-12268
▁grass	-12269
▁Athlet	-12270
▁Taylor	-12271
▁absorb	-12272
▁ending	-12273
▁chapter	-12274
▁receives	-12275
Parameters	-12276
▁eliminate	-12277
▁replacing	-12278
▁immunohist	-12279
▁projection	-12280
.",	-12281
BUT	-12282
UID	-12283
eck	-12284
task	-12285
▁Arg	-12286
▁digit	-12287
▁Depend	-12288
▁poorly	-12289
▁Philipp	-12290
▁Release	-12291
▁YouTube	-12292
▁explains	-12293
▁fragments	-12294
Any	-12295
="@+	-12296
▁Ide	-12297
▁ech	-12298
prene	-12299
▁Capt	-12300
▁germ	-12301
Return	-12302
mathbf	-12303
rocytes	-12304
▁charging	-12305
▁meetings	-12306
productive	-12307
trl	-12308
▁NEW	-12309
▁awk	-12310
▁Beaut	-12311
▁spots	-12312
▁squad	-12313
▁Status	-12314
▁promoted	-12315
▁pneumonia	-12316
iy	-12317
"){	-12318
UES	-12319
▁fi	-12320
risk	-12321
ulum	-12322
▁Tax	-12323
▁Init	-12324
▁Pers	-12325
▁Rose	-12326
▁cong	-12327
▁pert	-12328
▁Harry	-12329
▁Kevin	-12330
▁quiet	-12331
Timeout	-12332
▁Premier	-12333
▁ceremon	-12334
▁Meanwhile	-12335
El	-12336
yard	-12337
chrome	-12338
▁birds	-12339
▁cyclic	-12340
▁localized	-12341
▁seriously	-12342
▁susceptibility	-12343
OM	-12344
▁Ur	-12345
Hist	-12346
Mult	-12347
otid	-12348
▁Son	-12349
FLAGS	-12350
ogens	-12351
▁Perm	-12352
atalog	-12353
endant	-12354
▁Quant	-12355
▁Query	-12356
▁parad	-12357
▁storm	-12358
ethylene	-12359
▁handled	-12360
etherlands	-12361
▁displaying	-12362
▁adolescents	-12363
BJ	-12364
GC	-12365
▁LA	-12366
bled	-12367
ENRON	-12368
delta	-12369
isons	-12370
ordan	-12371
uting	-12372
▁cyst	-12373
▁slee	-12374
▁-----	-12375
▁Creek	-12376
reprene	-12377
▁Miller	-12378
▁organs	-12379
▁demands	-12380
▁attractive	-12381
-,	-12382
GT	-12383
iga	-12384
▁Ow	-12385
rait	-12386
▁eggs	-12387
ernate	-12388
▁Impro	-12389
▁Lewis	-12390
▁Pract	-12391
▁Future	-12392
▁Remove	-12393
▁acetyl	-12394
(*	-12395
(?	-12396
Sm	-12397
YP	-12398
ILL	-12399
See	-12400
▁SV	-12401
coll	-12402
▁Iss	-12403
genic	-12404
▁muse	-12405
profit	-12406
▁chose	-12407
▁inches	-12408
▁recall	-12409
oplasmic	-12410
sectional	-12411
▁Response	-12412
▁conductive	-12413
ки	-12414
pkg	-12415
ailure	-12416
ussion	-12417
▁spark	-12418
orectal	-12419
▁burden	-12420
▁ovarian	-12421
▁stimuli	-12422
controlled	-12423
▁Technical	-12424
Db	-12425
Non	-12426
▁([	-12427
ibli	-12428
maps	-12429
▁Cho	-12430
▁Inn	-12431
▁Sab	-12432
sters	-12433
▁Move	-12434
▁hang	-12435
▁ultr	-12436
margin	-12437
▁Title	-12438
▁juris	-12439
▁brands	-12440
▁venous	-12441
▁hydroly	-12442
attribute	-12443
frequency	-12444
▁Specific	-12445
▁approval	-12446
▁ischemia	-12447
▁Reference	-12448
▁recovered	-12449
▁containers	-12450
▁transactions	-12451
Ax	-12452
Did	-12453
URE	-12454
UST	-12455
agic	-12456
desc	-12457
▁Eval	-12458
▁wins	-12459
ingham	-12460
▁Brian	-12461
quality	-12462
▁founder	-12463
▁graduated	-12464
▁stimulated	-12465
▁suppression	-12466
elen	-12467
iley	-12468
hello	-12469
heimer	-12470
▁guilty	-12471
▁Between	-12472
▁applies	-12473
▁province	-12474
▁duplicate	-12475
▁Specifically	-12476
▁pg	-12477
four	-12478
▁!==	-12479
▁hur	-12480
watch	-12481
▁reads	-12482
▁weird	-12483
▁tumour	-12484
▁Arizona	-12485
▁promoting	-12486
▁deposition	-12487
▁reputation	-12488
▁modifications	-12489
xxxx	-12490
▁Row	-12491
▁onc	-12492
▁Pack	-12493
▁Stream	-12494
▁APPEALS	-12495
▁restart	-12496
▁Professional	-12497
ugh	-12498
FAULT	-12499
ologous	-12500
▁consent	-12501
▁indices	-12502
▁enrolled	-12503
▁irradiation	-12504
▁interpretation	-12505
erry	-12506
quir	-12507
▁'./	-12508
▁Cru	-12509
▁LLC	-12510
ouses	-12511
▁Band	-12512
▁bars	-12513
icting	-12514
shared	-12515
▁tooth	-12516
▁neurop	-12517
▁paying	-12518
▁widget	-12519
▁writes	-12520
Password	-12521
▁subscri	-12522
spectively	-12523
▁investigations	-12524
sur	-12525
Sing	-12526
acer	-12527
arth	-12528
wiki	-12529
▁Hig	-12530
▁POST	-12531
Device	-12532
▁Quick	-12533
▁moder	-12534
▁wheels	-12535
ashboard	-12536
resource	-12537
▁modeling	-12538
▁recipients	-12539
hol	-12540
FORM	-12541
affe	-12542
dose	-12543
▁Adam	-12544
▁Wars	-12545
Callback	-12546
▁aluminum	-12547
▁residual	-12548
▁obtaining	-12549
▁constantly	-12550
▁→	-12551
hew	-12552
rant	-12553
formed	-12554
▁oppon	-12555
▁Forest	-12556
iversary	-12557
▁ethanol	-12558
▁premium	-12559
▁sensory	-12560
bootstrap	-12561
effective	-12562
erculosis	-12563
sensitive	-12564
▁interfaces	-12565
▁conjunction	-12566
▁Nos	-12567
▁bab	-12568
gered	-12569
rared	-12570
▁Need	-12571
engths	-12572
▁races	-12573
download	-12574
▁performances	-12575
/"	-12576
uz	-12577
▁Sep	-12578
▁sin	-12579
chlor	-12580
pread	-12581
▁Ross	-12582
▁vapor	-12583
▁compute	-12584
▁discipl	-12585
▁emerging	-12586
▁LIABILITY	-12587
▁batteries	-12588
▁lifestyle	-12589
GP	-12590
dll	-12591
▁pic	-12592
apsed	-12593
ushing	-12594
▁Anton	-12595
changed	-12596
▁Kansas	-12597
▁phases	-12598
▁Display	-12599
▁secured	-12600
Populated	-12601
▁releases	-12602
▁naturally	-12603
▁reflected	-12604
▁distribute	-12605
]}	-12606
▁AB	-12607
Vert	-12608
cert	-12609
iner	-12610
fields	-12611
▁Edward	-12612
▁Perhaps	-12613
▁necrosis	-12614
▁strengthen	-12615
▁contributed	-12616
CN	-12617
APP	-12618
Med	-12619
oen	-12620
keep	-12621
when	-12622
▁lar	-12623
omega	-12624
visor	-12625
▁Gram	-12626
havior	-12627
offset	-12628
▁streets	-12629
▁Medicine	-12630
▁surprising	-12631
?”	-12632
▁DM	-12633
▁Aud	-12634
▁Dog	-12635
▁tries	-12636
▁searched	-12637
$-	-12638
Sql	-12639
ido	-12640
Pool	-12641
ques	-12642
▁Tal	-12643
eness	-12644
itzer	-12645
▁bags	-12646
▁Learn	-12647
▁consc	-12648
idation	-12649
▁assembl	-12650
▁clicked	-12651
▁suicide	-12652
▁junction	-12653
▁regulate	-12654
▁legislation	-12655
IAL	-12656
Nav	-12657
aryn	-12658
▁Eth	-12659
gebra	-12660
oting	-12661
▁rose	-12662
driver	-12663
ridges	-12664
▁sharp	-12665
▁Column	-12666
▁Integr	-12667
▁vacuum	-12668
▁defining	-12669
▁Elizabeth	-12670
▁Generally	-12671
tp	-12672
OSS	-12673
law	-12674
atar	-12675
▁Ros	-12676
▁bash	-12677
▁pist	-12678
▁Liver	-12679
WriteLine	-12680
▁Regional	-12681
annotation	-12682
▁monitored	-12683
▁calculations	-12684
▁um	-12685
Save	-12686
▁Bra	-12687
opter	-12688
▁thym	-12689
▁zinc	-12690
velope	-12691
▁packet	-12692
▁shield	-12693
▁suffer	-12694
▁Various	-12695
▁turbine	-12696
▁weapons	-12697
directory	-12698
▁excessive	-12699
emb	-12700
▁rs	-12701
quin	-12702
stat	-12703
▁Ask	-12704
▁Dun	-12705
▁hub	-12706
sheet	-12707
▁paste	-12708
contact	-12709
customer	-12710
anchester	-12711
▁proximal	-12712
▁perceived	-12713
▁permitted	-12714
▁derivative	-12715
▁disappoint	-12716
по	-12717
()->	-12718
ulpt	-12719
▁SDK	-12720
▁joy	-12721
dfrac	-12722
tered	-12723
likely	-12724
▁flows	-12725
▁Within	-12726
▁namely	-12727
▁hosting	-12728
activation	-12729
▁Basically	-12730
▁appointment	-12731
▁exclusively	-12732
(__	-12733
aping	-12734
oured	-12735
▁dipl	-12736
detail	-12737
▁Block	-12738
▁Files	-12739
▁trail	-12740
▁Result	-12741
▁tablet	-12742
▁Website	-12743
▁powered	-12744
("%	-12745
ONE	-12746
▁rib	-12747
Enter	-12748
▁Corp	-12749
▁Must	-12750
▁arom	-12751
▁bike	-12752
webkit	-12753
▁Agency	-12754
▁Parent	-12755
▁resort	-12756
▁Comment	-12757
▁univers	-12758
▁reporter	-12759
▁responded	-12760
▁replication	-12761
>::	-12762
▁GT	-12763
▁hors	-12764
▁iPad	-12765
results	-12766
▁Prince	-12767
▁lawyer	-12768
settings	-12769
▁focuses	-12770
▁NSString	-12771
▁bilateral	-12772
▁finishing	-12773
vy	-12774
де	-12775
inch	-12776
books	-12777
▁Tree	-12778
▁flux	-12779
▁Ident	-12780
▁Smart	-12781
▁timer	-12782
ynomial	-12783
▁butter	-12784
▁Include	-12785
▁Looking	-12786
▁Student	-12787
▁substances	-12788
▁accomplished	-12789
Ne	-12790
fx	-12791
▁Vo	-12792
PORT	-12793
also	-12794
▁nov	-12795
▁Jean	-12796
raulic	-12797
▁broke	-12798
▁cameras	-12799
▁heavily	-12800
▁rational	-12801
▁authority	-12802
▁Philadelphia	-12803
vo	-12804
-->	-12805
sed	-12806
NULL	-12807
aden	-12808
alam	-12809
▁MVC	-12810
anner	-12811
▁zoom	-12812
CONFIG	-12813
ectors	-12814
enders	-12815
▁Brand	-12816
▁aneur	-12817
▁merch	-12818
▁breath	-12819
▁timestamp	-12820
▁calculation	-12821
▁schizophren	-12822
▁participating	-12823
▁specification	-12824
▁Wi	-12825
AGES	-12826
▁sad	-12827
▁Miami	-12828
▁follic	-12829
▁mothers	-12830
▁overview	-12831
▁appearances	-12832
FP	-12833
Fi	-12834
aux	-12835
wait	-12836
▁Las	-12837
Match	-12838
agger	-12839
otion	-12840
shape	-12841
▁Side	-12842
▁bold	-12843
riends	-12844
stable	-12845
▁Guide	-12846
itutional	-12847
▁officially	-12848
ibl	-12849
eman	-12850
▁PET	-12851
aters	-12852
ennes	-12853
izard	-12854
▁Poly	-12855
ifting	-12856
ingers	-12857
▁infil	-12858
release	-12859
urgical	-12860
▁Record	-12861
▁Serial	-12862
▁aneurys	-12863
construct	-12864
▁electroly	-12865
▁passenger	-12866
▁publications	-12867
бо	-12868
Queue	-12869
▁bare	-12870
▁emails	-12871
collection	-12872
▁antibiotics	-12873
.[	-12874
WR	-12875
aki	-12876
enza	-12877
tags	-12878
▁<%=	-12879
▁Ast	-12880
▁kit	-12881
▁Marg	-12882
▁anth	-12883
▁coat	-12884
▁thumb	-12885
Members	-12886
exports	-12887
▁keyword	-12888
Microsoft	-12889
▁intelligence	-12890
pid	-12891
made	-12892
poly	-12893
▁Blu	-12894
▁CIR	-12895
▁Cit	-12896
▁cig	-12897
andas	-12898
orpor	-12899
▁Upon	-12900
▁lake	-12901
▁stops	-12902
itoneal	-12903
▁bronch	-12904
▁gaming	-12905
▁hypoth	-12906
Elements	-12907
▁markedly	-12908
unreadable	-12909
]*	-12910
▁﻿	-12911
Kit	-12912
▁'#	-12913
▁Ka	-12914
hard	-12915
zech	-12916
essed	-12917
Engine	-12918
rivial	-12919
▁docker	-12920
▁sorted	-12921
ogenetic	-12922
▁notification	-12923
=""	-12924
▁GR	-12925
EGIN	-12926
inea	-12927
omon	-12928
▁symp	-12929
▁till	-12930
▁trav	-12931
▁faced	-12932
▁Native	-12933
▁microM	-12934
▁Primary	-12935
▁invited	-12936
▁disability	-12937
▁enforcement	-12938
▁expectations	-12939
tic	-12940
▁DES	-12941
▁Button	-12942
▁ranged	-12943
required	-12944
idespread	-12945
▁activate	-12946
▁Alexander	-12947
▁sustained	-12948
▁Netherlands	-12949
▁demonstrates	-12950
odd	-12951
▁CE	-12952
Font	-12953
▁ker	-12954
▁{};	-12955
comput	-12956
▁Intel	-12957
diction	-12958
▁airport	-12959
Operation	-12960
dot	-12961
oga	-12962
Full	-12963
even	-12964
▁Kir	-12965
equals	-12966
wegian	-12967
▁reply	-12968
Enabled	-12969
Profile	-12970
▁legisl	-12971
▁profit	-12972
▁privile	-12973
▁sensing	-12974
▁listener	-12975
▁listening	-12976
▁phosphate	-12977
▁compensation	-12978
NR	-12979
_{\	-12980
pur	-12981
anine	-12982
Scroll	-12983
compat	-12984
effici	-12985
▁Later	-12986
▁Donald	-12987
▁mining	-12988
▁presum	-12989
▁Authors	-12990
▁minimize	-12991
▁Gh	-12992
▁Mit	-12993
ovine	-12994
▁Flow	-12995
▁cDNA	-12996
Editor	-12997
icking	-12998
▁Princ	-12999
▁dimin	-13000
▁smoke	-13001
assembly	-13002
variable	-13003
▁Samsung	-13004
▁Computer	-13005
▁unnecess	-13006
▁sequential	-13007
▁restaurants	-13008
=-	-13009
BE	-13010
══	-13011
glas	-13012
race	-13013
▁Cop	-13014
Press	-13015
about	-13016
▁Dave	-13017
▁FILE	-13018
olytic	-13019
▁Motor	-13020
▁fatal	-13021
created	-13022
resources	-13023
▁DateTime	-13024
enda	-13025
ixel	-13026
▁Ark	-13027
▁Emer	-13028
before	-13029
socket	-13030
toggle	-13031
▁spoke	-13032
▁rubber	-13033
analysis	-13034
▁scholar	-13035
▁signing	-13036
▁suspended	-13037
▁antagonist	-13038
▁methodology	-13039
lyn	-13040
Iter	-13041
gate	-13042
inery	-13043
▁cann	-13044
▁crazy	-13045
Channel	-13046
Program	-13047
▁Origin	-13048
▁waters	-13049
▁Firefox	-13050
rightarrow	-13051
▁Singapore	-13052
▁arthritis	-13053
▁preparing	-13054
▁adaptation	-13055
▁Engineering	-13056
▁constraints	-13057
bul	-13058
▁NE	-13059
asma	-13060
▁BBC	-13061
▁Num	-13062
▁bip	-13063
▁Calc	-13064
▁likes	-13065
▁wealth	-13066
▁Reading	-13067
▁harvest	-13068
▁mineral	-13069
▁amplitude	-13070
▁reception	-13071
▁selecting	-13072
Association	-13073
▁outstanding	-13074
oys	-13075
▁cd	-13076
▁Ess	-13077
▁Sky	-13078
▁crowd	-13079
▁sight	-13080
▁hemorrh	-13081
▁reveals	-13082
▁pathological	-13083
>.	-13084
TF	-13085
NOT	-13086
▁IGF	-13087
iasis	-13088
metic	-13089
semin	-13090
▁Drug	-13091
▁mile	-13092
▁Scale	-13093
▁doctors	-13094
▁failing	-13095
▁speaker	-13096
▁Cas	-13097
▁Syd	-13098
▁gam	-13099
▁Mill	-13100
overflow	-13101
▁Railway	-13102
▁refract	-13103
published	-13104
▁Manchester	-13105
pad	-13106
squ	-13107
bone	-13108
iper	-13109
irts	-13110
▁aqu	-13111
focus	-13112
vance	-13113
▁aside	-13114
▁Modern	-13115
▁benign	-13116
database	-13117
▁outputs	-13118
▁symbols	-13119
▁fractures	-13120
pal	-13121
▁NF	-13122
ERROR	-13123
▁Grad	-13124
living	-13125
rosine	-13126
▁Multi	-13127
▁absor	-13128
▁javax	-13129
▁boards	-13130
▁conjug	-13131
▁yields	-13132
checkbox	-13133
▁detector	-13134
▁ourselves	-13135
▁surveillance	-13136
▁Bat	-13137
agent	-13138
▁Burn	-13139
▁stom	-13140
▁ports	-13141
▁refrig	-13142
▁eastern	-13143
▁induces	-13144
▁Students	-13145
▁investors	-13146
▁downloaded	-13147
▁evaluating	-13148
▁В	-13149
bus	-13150
svg	-13151
▁mM	-13152
shift	-13153
▁birthday	-13154
▁arbitrary	-13155
▁cytokines	-13156
PUT	-13157
aba	-13158
nia	-13159
Rows	-13160
TEST	-13161
rule	-13162
▁Bit	-13163
super	-13164
▁actu	-13165
▁bread	-13166
padding	-13167
▁cylind	-13168
▁mixing	-13169
ensively	-13170
▁metadata	-13171
▁chemistry	-13172
▁converting	-13173
▁initialize	-13174
▁consequence	-13175
▁rehabilitation	-13176
ем	-13177
Bit	-13178
enz	-13179
ioid	-13180
norm	-13181
▁bid	-13182
otomy	-13183
▁stun	-13184
▁scenes	-13185
▁Eclipse	-13186
▁winners	-13187
▁registry	-13188
▁districts	-13189
▁elevation	-13190
▁fluorescent	-13191
'=>	-13192
jet	-13193
rose	-13194
Video	-13195
ionic	-13196
oviet	-13197
alling	-13198
▁Guard	-13199
▁Intro	-13200
▁clone	-13201
ducible	-13202
iography	-13203
▁hydroph	-13204
▁validity	-13205
▁affordable	-13206
▁concurrent	-13207
▁objectives	-13208
{}	-13209
ald	-13210
▁'\	-13211
orus	-13212
rons	-13213
▁Dise	-13214
▁Iowa	-13215
▁Rails	-13216
▁clause	-13217
▁illust	-13218
▁traits	-13219
▁solvent	-13220
▁delegate	-13221
?.	-13222
peg	-13223
city	-13224
▁Bed	-13225
▁Bry	-13226
▁twe	-13227
▁Corn	-13228
▁logs	-13229
printf	-13230
▁gland	-13231
▁loops	-13232
network	-13233
▁rising	-13234
▁analysed	-13235
▁executing	-13236
▁Everything	-13237
▁impressive	-13238
.:	-13239
eor	-13240
▁CV	-13241
▁Os	-13242
pons	-13243
▁alkal	-13244
▁cream	-13245
▁hopes	-13246
▁stiff	-13247
▁charts	-13248
▁enterprise	-13249
▁installing	-13250
▁manufactured	-13251
km	-13252
▁fn	-13253
▁вы	-13254
...]	-13255
▁Mun	-13256
▁proc	-13257
▁Sydney	-13258
▁rabbit	-13259
▁Olympic	-13260
▁Anderson	-13261
▁memories	-13262
▁ultrason	-13263
▁converter	-13264
▁dependence	-13265
▁dependency	-13266
▁influences	-13267
.\	-13268
▁dt	-13269
quad	-13270
▁Drive	-13271
Library	-13272
present	-13273
▁lovely	-13274
▁viewed	-13275
▁Activity	-13276
▁adhesive	-13277
▁rotating	-13278
▁rendering	-13279
▁decreasing	-13280
GO	-13281
ви	-13282
gow	-13283
▁#!	-13284
!!!!	-13285
▁Moh	-13286
olver	-13287
▁Dall	-13288
▁aband	-13289
▁banks	-13290
▁Patrick	-13291
▁flowers	-13292
▁offices	-13293
components	-13294
▁optimization	-13295
FB	-13296
SIZE	-13297
note	-13298
▁Raj	-13299
▁Boot	-13300
▁lunch	-13301
▁rings	-13302
elihood	-13303
▁curves	-13304
▁Natural	-13305
▁Quality	-13306
▁Examples	-13307
▁revision	-13308
▁Character	-13309
▁coordinate	-13310
▁innovation	-13311
▁positively	-13312
▁suggestion	-13313
▁widespread	-13314
▁operational	-13315
etary	-13316
rible	-13317
▁ajax	-13318
Section	-13319
▁facial	-13320
▁arteries	-13321
▁blocking	-13322
▁tomorrow	-13323
▁updating	-13324
▁complication	-13325
springframework	-13326
ALSE	-13327
bral	-13328
▁Alz	-13329
▁Pow	-13330
folio	-13331
oidal	-13332
ureau	-13333
▁fired	-13334
▁Afghan	-13335
▁strike	-13336
mentation	-13337
▁shoulder	-13338
▁Similarly	-13339
operatively	-13340
tar	-13341
whe	-13342
▁AFF	-13343
ceive	-13344
▁benz	-13345
amping	-13346
osomes	-13347
▁shots	-13348
counter	-13349
ocarcin	-13350
▁herself	-13351
▁rendered	-13352
▁ultimate	-13353
▁satellite	-13354
▁contributing	-13355
▁municipality	-13356
Op	-13357
nil	-13358
film	-13359
itol	-13360
rame	-13361
▁Tok	-13362
▁bot	-13363
▁enl	-13364
▁Staff	-13365
▁Islands	-13366
▁Theatre	-13367
▁Scottish	-13368
▁electrom	-13369
▁specialized	-13370
▁Alternatively	-13371
zero	-13372
▁Ped	-13373
▁Rap	-13374
▁tob	-13375
abama	-13376
ancel	-13377
Logger	-13378
▁Polit	-13379
▁corne	-13380
amilton	-13381
▁Safety	-13382
standard	-13383
▁Seattle	-13384
▁falling	-13385
▁explored	-13386
ASH	-13387
▁PI	-13388
inos	-13389
iors	-13390
▁Tech	-13391
iating	-13392
uitary	-13393
▁votes	-13394
▁marine	-13395
▁viruses	-13396
▁pathology	-13397
▁perception	-13398
Var	-13399
eval	-13400
pend	-13401
▁blot	-13402
▁tiny	-13403
errors	-13404
scroll	-13405
itioner	-13406
plugins	-13407
▁laptop	-13408
umerable	-13409
▁encrypt	-13410
▁implicit	-13411
▁operates	-13412
▁perfusion	-13413
▁medications	-13414
}_	-13415
мен	-13416
avor	-13417
leuk	-13418
▁Cou	-13419
equiv	-13420
▁odds	-13421
radius	-13422
▁yeast	-13423
▁Effects	-13424
▁achieving	-13425
:'	-13426
***	-13427
ahoo	-13428
▁nin	-13429
Admin	-13430
▁narr	-13431
olitan	-13432
ritish	-13433
blogger	-13434
▁atrial	-13435
▁enthus	-13436
▁enabling	-13437
▁stimulus	-13438
▁adventure	-13439
>;	-13440
wp	-13441
uct	-13442
▁JP	-13443
oths	-13444
asant	-13445
illin	-13446
insic	-13447
▁Balt	-13448
▁spell	-13449
▁vocal	-13450
▁Applic	-13451
▁Images	-13452
▁exports	-13453
efficients	-13454
▁musicians	-13455
ambiguation	-13456
▁electrically	-13457
▁restrictions	-13458
▁SW	-13459
▁gre	-13460
amate	-13461
mysql	-13462
paper	-13463
▁brake	-13464
holders	-13465
▁Malays	-13466
▁overload	-13467
▁apartment	-13468
ois	-13469
DATE	-13470
anim	-13471
▁RUN	-13472
▁batt	-13473
▁blah	-13474
▁laid	-13475
▁Books	-13476
▁forgot	-13477
▁Nothing	-13478
▁Swedish	-13479
▁suppose	-13480
▁downtown	-13481
▁surprised	-13482
=[	-13483
LED	-13484
uda	-13485
via	-13486
▁то	-13487
▁cuts	-13488
▁puzz	-13489
▁Swift	-13490
▁endif	-13491
▁belongs	-13492
▁fishing	-13493
▁immunos	-13494
▁prevents	-13495
▁Biography	-13496
▁Financial	-13497
▁initiation	-13498
▁compilation	-13499
ISA	-13500
May	-13501
acic	-13502
Scale	-13503
ancer	-13504
isely	-13505
three	-13506
▁Jenn	-13507
▁tied	-13508
▁Flash	-13509
▁outlet	-13510
▁Channel	-13511
▁Mexican	-13512
▁spectra	-13513
Repository	-13514
▁Assistant	-13515
▁bandwidth	-13516
▁preoperative	-13517
zy	-13518
▁П	-13519
aza	-13520
rex	-13521
▁NT	-13522
Tool	-13523
▁gym	-13524
▁dors	-13525
assium	-13526
render	-13527
vasive	-13528
▁auton	-13529
▁Berlin	-13530
▁metals	-13531
connected	-13532
▁extracts	-13533
ographical	-13534
▁elsewhere	-13535
▁positioning	-13536
(!	-13537
.<	-13538
]\	-13539
bat	-13540
tip	-13541
▁Say	-13542
▁mood	-13543
Please	-13544
▁antim	-13545
▁robot	-13546
▁conform	-13547
▁neonatal	-13548
▁colorectal	-13549
NG	-13550
PK	-13551
('.	-13552
▁".	-13553
▁BP	-13554
Aust	-13555
glut	-13556
▁ctx	-13557
▁lum	-13558
Login	-13559
▁Send	-13560
▁elic	-13561
▁focal	-13562
▁funny	-13563
primary	-13564
▁cheese	-13565
friendly	-13566
illation	-13567
▁emphasis	-13568
▁compartment	-13569
▁reproductive	-13570
abul	-13571
elve	-13572
▁Buy	-13573
▁Was	-13574
▁cin	-13575
▁pra	-13576
ctomy	-13577
score	-13578
tests	-13579
▁bomb	-13580
Socket	-13581
▁Azure	-13582
▁steam	-13583
Support	-13584
chanical	-13585
▁assault	-13586
▁nutrition	-13587
▁templates	-13588
▁metastasis	-13589
▁compositions	-13590
MW	-13591
($_	-13592
pol	-13593
▁%%	-13594
Java	-13595
racy	-13596
Olymp	-13597
arios	-13598
ateur	-13599
icket	-13600
illus	-13601
rowth	-13602
▁Tele	-13603
▁blast	-13604
▁tennis	-13605
vascular	-13606
oelectric	-13607
▁browsers	-13608
▁optimized	-13609
▁satisfied	-13610
▁retirement	-13611
DF	-13612
np	-13613
tif	-13614
▁SA	-13615
igue	-13616
orse	-13617
▁Nig	-13618
▁bull	-13619
▁duty	-13620
▁cited	-13621
▁sinus	-13622
ificant	-13623
oglobin	-13624
▁steady	-13625
▁rolling	-13626
▁situated	-13627
Make	-13628
acon	-13629
oker	-13630
phys	-13631
rent	-13632
▁Tel	-13633
▁Plot	-13634
▁auth	-13635
▁neph	-13636
Common	-13637
Parser	-13638
bourne	-13639
▁seeds	-13640
▁merely	-13641
▁carriers	-13642
▁hydraulic	-13643
▁reflection	-13644
'"	-13645
▁BC	-13646
▁Ni	-13647
▁Rot	-13648
▁jew	-13649
CTYPE	-13650
▁Insp	-13651
▁aver	-13652
▁nons	-13653
Person	-13654
Report	-13655
▁Bible	-13656
services	-13657
▁Working	-13658
generated	-13659
▁skeletal	-13660
▁chocolate	-13661
▁Performance	-13662
▁regulations	-13663
dn	-13664
osal	-13665
team	-13666
▁Lie	-13667
radio	-13668
▁Host	-13669
▁boss	-13670
region	-13671
▁Changes	-13672
▁diagram	-13673
▁labeled	-13674
▁entrance	-13675
▁geometry	-13676
▁ischemic	-13677
▁COPYRIGHT	-13678
▁attributed	-13679
▁settlement	-13680
hu	-13681
sun	-13682
PECT	-13683
arer	-13684
ilib	-13685
rend	-13686
▁MIT	-13687
UBLIC	-13688
▁REST	-13689
▁Synt	-13690
▁cats	-13691
▁pace	-13692
Center	-13693
Folder	-13694
▁Kelly	-13695
▁Assess	-13696
▁choosing	-13697
▁hierarch	-13698
▁»	-13699
atum	-13700
black	-13701
ritic	-13702
worth	-13703
▁Farm	-13704
▁Menu	-13705
▁Stop	-13706
carbon	-13707
jsfiddle	-13708
▁accused	-13709
▁Resource	-13710
▁traveling	-13711
▁initiative	-13712
Sn	-13713
Now	-13714
diff	-13715
hide	-13716
href	-13717
phyl	-13718
▁Wel	-13719
marks	-13720
Linear	-13721
oplastic	-13722
▁Besides	-13723
▁Problem	-13724
▁compete	-13725
▁lymphoma	-13726
▁relating	-13727
ensitivity	-13728
▁Framework	-13729
▁accessing	-13730
▁incredible	-13731
▁declaration	-13732
▁Ti	-13733
▁cis	-13734
▁plt	-13735
▁sid	-13736
oking	-13737
Policy	-13738
▁Death	-13739
▁chains	-13740
▁unlikely	-13741
▁SK	-13742
▁je	-13743
▁Tab	-13744
lined	-13745
natal	-13746
▁Lind	-13747
▁Priv	-13748
▁bowl	-13749
▁peer	-13750
▁skip	-13751
▁chips	-13752
Package	-13753
iologic	-13754
ylation	-13755
chemical	-13756
▁reserve	-13757
▁swimming	-13758
▁everywhere	-13759
plementation	-13760
OF	-13761
oni	-13762
▁FM	-13763
▁ME	-13764
ench	-13765
▁tmp	-13766
reset	-13767
Second	-13768
▁overe	-13769
regular	-13770
▁logged	-13771
▁maximal	-13772
▁Remember	-13773
▁declined	-13774
▁infectious	-13775
▁ui	-13776
endo	-13777
built	-13778
encode	-13779
immune	-13780
loader	-13781
▁Ocean	-13782
▁Psych	-13783
▁axial	-13784
▁stain	-13785
private	-13786
▁radius	-13787
▁raising	-13788
▁Kentucky	-13789
▁spectral	-13790
▁Expression	-13791
▁contamination	-13792
aco	-13793
pow	-13794
▁FL	-13795
▁{@	-13796
▁jun	-13797
caten	-13798
▁Json	-13799
▁Enron	-13800
▁alarm	-13801
British	-13802
Olympic	-13803
storage	-13804
▁VALUES	-13805
▁hazard	-13806
istration	-13807
ividually	-13808
▁Continue	-13809
cn	-13810
gnu	-13811
driv	-13812
iary	-13813
▁Dead	-13814
▁Hung	-13815
▁diox	-13816
▁hate	-13817
▁Eight	-13818
▁cytos	-13819
▁prize	-13820
▁tends	-13821
▁tubes	-13822
▁catalog	-13823
▁defines	-13824
▁descent	-13825
▁validated	-13826
▁antioxidant	-13827
▁displacement	-13828
▁spectrometry	-13829
("/	-13830
▁Ga	-13831
olen	-13832
▁Sud	-13833
▁при	-13834
▁soci	-13835
charge	-13836
etooth	-13837
▁sorry	-13838
▁congen	-13839
iplinary	-13840
▁Alabama	-13841
▁Profile	-13842
▁tobacco	-13843
▁chemicals	-13844
▁initiated	-13845
▁convenience	-13846
▁jurisdiction	-13847
ма	-13848
YES	-13849
vic	-13850
▁ра	-13851
Byte	-13852
▁rum	-13853
▁sew	-13854
▁Dark	-13855
accept	-13856
picker	-13857
pragma	-13858
▁Sales	-13859
▁Empire	-13860
▁multid	-13861
▁pushed	-13862
▁recycl	-13863
▁Capital	-13864
▁Democrats	-13865
▁polynomial	-13866
▁neurological	-13867
▁investigators	-13868
_;	-13869
abad	-13870
▁Emb	-13871
Trace	-13872
ermal	-13873
share	-13874
▁Poss	-13875
▁Tony	-13876
▁CURIAM	-13877
▁Jordan	-13878
▁thrown	-13879
▁neutroph	-13880
▁encounter	-13881
▁membership	-13882
▁wavelength	-13883
▁placeholder	-13884
BUG	-13885
LOG	-13886
tri	-13887
▁Rs	-13888
▁та	-13889
ubic	-13890
▁rhe	-13891
ilage	-13892
▁gent	-13893
▁limb	-13894
▁sink	-13895
▁trem	-13896
▁Sport	-13897
▁towns	-13898
western	-13899
▁Associ	-13900
▁Judges	-13901
▁Legisl	-13902
▁precip	-13903
▁atheros	-13904
▁Comments	-13905
▁Alzheimer	-13906
▁·	-13907
nut	-13908
oxia	-13909
▁taxes	-13910
epsilon	-13911
▁Atlantic	-13912
▁variance	-13913
▁publisher	-13914
▁personally	-13915
▁illustrated	-13916
disambiguation	-13917
ди	-13918
▁Ta	-13919
▁VS	-13920
ATCH	-13921
anga	-13922
echo	-13923
▁IFN	-13924
▁dish	-13925
▁slic	-13926
▁wing	-13927
▁Maria	-13928
▁Style	-13929
▁meets	-13930
ropical	-13931
▁anybody	-13932
▁bonding	-13933
▁cocaine	-13934
▁referring	-13935
▁metabolites	-13936
:-	-13937
EGF	-13938
▁INT	-13939
▁Bron	-13940
▁Pharm	-13941
▁repet	-13942
▁Oxford	-13943
▁Portug	-13944
▁Square	-13945
▁proton	-13946
▁Compared	-13947
▁consuming	-13948
▁differently	-13949
configuration	-13950
hs	-13951
ATP	-13952
psy	-13953
rost	-13954
▁Gas	-13955
Parse	-13956
pleted	-13957
▁Activ	-13958
▁fever	-13959
▁logical	-13960
▁Exchange	-13961
▁Products	-13962
▁moisture	-13963
▁arrangements	-13964
.’	-13965
oda	-13966
ryl	-13967
RIBUT	-13968
depth	-13969
▁mesh	-13970
limited	-13971
require	-13972
viously	-13973
▁cement	-13974
▁rescue	-13975
▁charset	-13976
▁disclaim	-13977
▁engineer	-13978
▁Consequently	-13979
alo	-13980
emet	-13981
▁req	-13982
bytes	-13983
ichia	-13984
mouse	-13985
▁Laid	-13986
▁Viet	-13987
▁glad	-13988
repeat	-13989
otropic	-13990
▁Random	-13991
▁Script	-13992
▁digits	-13993
▁flavor	-13994
▁gallery	-13995
▁Hamilton	-13996
▁Material	-13997
▁branches	-13998
▁acknowled	-13999
▁celebrate	-14000
▁documentary	-14001
;"	-14002
RES	-14003
Xml	-14004
▁LC	-14005
▁sup	-14006
QUEST	-14007
rival	-14008
▁Turk	-14009
▁trap	-14010
ozilla	-14011
▁rails	-14012
▁ultra	-14013
Objects	-14014
▁Indones	-14015
▁electricity	-14016
▁selectively	-14017
▁é	-14018
ISH	-14019
hyd	-14020
▁vo	-14021
▁Jay	-14022
▁Oak	-14023
▁Hart	-14024
▁Pier	-14025
rained	-14026
▁Stone	-14027
▁behalf	-14028
▁scales	-14029
▁pressed	-14030
▁checkbox	-14031
▁Resources	-14032
▁aggregation	-14033
▁announcement	-14034
lah	-14035
Your	-14036
▁hat	-14037
▁Utah	-14038
▁sees	-14039
Mutable	-14040
▁Thirty	-14041
▁Article	-14042
▁Limited	-14043
▁ignored	-14044
▁pleased	-14045
▁reaches	-14046
▁pipeline	-14047
▁catalytic	-14048
▁fractions	-14049
▁polymerase	-14050
▁relaxation	-14051
fly	-14052
oro	-14053
Mail	-14054
emat	-14055
────	-14056
▁BSD	-14057
▁jet	-14058
arest	-14059
▁Born	-14060
▁Lady	-14061
▁hurt	-14062
▁Norway	-14063
▁Posted	-14064
▁genomic	-14065
▁inherent	-14066
Expression	-14067
▁Plaintiff	-14068
▁literally	-14069
oj	-14070
five	-14071
mega	-14072
▁Sex	-14073
editor	-14074
▁Hawai	-14075
▁bonus	-14076
▁shoes	-14077
Details	-14078
▁CONFIG	-14079
▁decent	-14080
▁dispens	-14081
▁emerged	-14082
▁scatter	-14083
▁timeout	-14084
▁believes	-14085
▁improves	-14086
▁comprised	-14087
"+	-14088
]=	-14089
▁Unt	-14090
IRMED	-14091
▁celeb	-14092
▁wires	-14093
▁locked	-14094
▁Officer	-14095
▁categor	-14096
▁ligands	-14097
available	-14098
▁triggered	-14099
▁antibiotic	-14100
▁Republicans	-14101
▁radiotherapy	-14102
(/	-14103
arse	-14104
Bytes	-14105
aware	-14106
being	-14107
enron	-14108
▁thro	-14109
▁Clear	-14110
▁intel	-14111
▁numpy	-14112
▁speeds	-14113
▁Edition	-14114
▁trailer	-14115
▁answered	-14116
▁destroyed	-14117
▁"[	-14118
ANCE	-14119
dehy	-14120
▁Roy	-14121
PRESS	-14122
▁Being	-14123
▁portal	-14124
▁Success	-14125
Background	-14126
▁controversial	-14127
▁pharmaceutical	-14128
!”	-14129
eu	-14130
Mus	-14131
Use	-14132
rev	-14133
erred	-14134
estab	-14135
DOCTYPE	-14136
compile	-14137
ementia	-14138
▁backing	-14139
▁chances	-14140
▁delight	-14141
▁retinal	-14142
▁preserve	-14143
▁Component	-14144
▁vulnerable	-14145
▁coefficients	-14146
TM	-14147
▁az	-14148
USER	-14149
lear	-14150
▁fmt	-14151
party	-14152
▁resp	-14153
▁illum	-14154
ulative	-14155
▁Battle	-14156
▁graphic	-14157
▁chairman	-14158
▁assessing	-14159
▁assemblies	-14160
▁fibroblasts	-14161
ци	-14162
Mac	-14163
▁@"	-14164
LINE	-14165
ozyg	-14166
▁Fun	-14167
▁vec	-14168
▁multic	-14169
▁slower	-14170
▁combining	-14171
▁agreements	-14172
Err	-14173
Loc	-14174
ika	-14175
▁'%	-14176
▁CB	-14177
▁od	-14178
ENCE	-14179
hire	-14180
comit	-14181
▁Mand	-14182
▁shed	-14183
export	-14184
▁expat	-14185
Contact	-14186
endment	-14187
▁stomach	-14188
▁Archives	-14189
▁Sciences	-14190
▁polymers	-14191
▁Hollywood	-14192
▁gradually	-14193
▁TE	-14194
aspx	-14195
bage	-14196
▁"${	-14197
dates	-14198
uters	-14199
▁army	-14200
approp	-14201
▁Basic	-14202
▁Taiwan	-14203
▁Detroit	-14204
condition	-14205
▁Magazine	-14206
▁floating	-14207
▁ordinary	-14208
▁performs	-14209
▁sequencing	-14210
▁definitions	-14211
▁tuberculosis	-14212
Win	-14213
nan	-14214
▁Ye	-14215
RICT	-14216
beat	-14217
▁Veg	-14218
▁pup	-14219
After	-14220
ervlet	-14221
integer	-14222
▁parser	-14223
▁carotid	-14224
▁placing	-14225
▁roughly	-14226
▁soluble	-14227
▁retained	-14228
▁attending	-14229
▁circulation	-14230
▁inspiration	-14231
▁sufficiently	-14232
▁(“	-14233
▁CK	-14234
▁LT	-14235
auge	-14236
ynam	-14237
▁Han	-14238
heres	-14239
▁corn	-14240
Plugin	-14241
ellate	-14242
iances	-14243
ibular	-14244
▁fluct	-14245
criptor	-14246
▁combat	-14247
▁Stadium	-14248
▁acquire	-14249
▁condens	-14250
▁intense	-14251
▁communic	-14252
▁emissions	-14253
▁establishment	-14254
/?	-14255
ANG	-14256
CAA	-14257
she	-14258
▁GO	-14259
▁SL	-14260
orted	-14261
▁Pred	-14262
▁grep	-14263
Screen	-14264
▁Anyone	-14265
▁harder	-14266
▁reform	-14267
▁snippet	-14268
▁filtering	-14269
▁indication	-14270
▁revolution	-14271
▁AA	-14272
CRIP	-14273
stud	-14274
▁tie	-14275
▁что	-14276
EMENT	-14277
ifdef	-14278
▁Come	-14279
▁Fred	-14280
▁fold	-14281
angers	-14282
▁Diego	-14283
▁paragraph	-14284
▁accordingly	-14285
}-	-14286
▁≥	-14287
Tex	-14288
▁Ec	-14289
▁Occ	-14290
▁UIT	-14291
▁Fast	-14292
▁tast	-14293
▁Front	-14294
▁Month	-14295
▁bovine	-14296
▁impacts	-14297
▁permits	-14298
▁actively	-14299
▁endpoint	-14300
▁psychiatric	-14301
▁transformed	-14302
ERT	-14303
Hub	-14304
tle	-14305
});	-14306
John	-14307
ania	-14308
erty	-14309
prov	-14310
▁DOM	-14311
▁McD	-14312
erine	-14313
assets	-14314
urgery	-14315
▁Dream	-14316
▁remod	-14317
lectual	-14318
▁Dallas	-14319
▁themes	-14320
selector	-14321
▁clothes	-14322
▁emitting	-14323
▁complaints	-14324
▁preference	-14325
▁protecting	-14326
fi	-14327
enh	-14328
chol	-14329
▁Bus	-14330
erial	-14331
▁Cart	-14332
▁Crim	-14333
▁pigs	-14334
▁rigid	-14335
achment	-14336
▁voting	-14337
TextView	-14338
▁forever	-14339
▁savings	-14340
▁startup	-14341
▁Features	-14342
▁Township	-14343
▁clusters	-14344
▁organisms	-14345
▁metastases	-14346
▁networking	-14347
IH	-14348
▁×	-14349
}$,	-14350
жно	-14351
▁BL	-14352
▁Amb	-14353
▁Ruby	-14354
ulsion	-14355
▁Debug	-14356
▁brush	-14357
Network	-14358
Pointer	-14359
▁Credit	-14360
▁Travel	-14361
outheast	-14362
▁designing	-14363
ibliography	-14364
▁ventilation	-14365
▁individually	-14366
▁productivity	-14367
▁disadvantages	-14368
.),	-14369
REG	-14370
]).	-14371
obl	-14372
▁Ho	-14373
ials	-14374
▁miR	-14375
▁npm	-14376
there	-14377
sample	-14378
▁colleg	-14379
▁lambda	-14380
▁safely	-14381
▁weights	-14382
▁ceremony	-14383
▁deployed	-14384
▁Controller	-14385
▁entreprene	-14386
OUT	-14387
rak	-14388
▁NK	-14389
▁aux	-14390
aning	-14391
Handle	-14392
▁Phill	-14393
inction	-14394
quarters	-14395
▁closest	-14396
▁passive	-14397
▁AFFIRMED	-14398
▁appropri	-14399
▁associate	-14400
▁equations	-14401
▁Gab	-14402
▁cow	-14403
member	-14404
▁stent	-14405
▁flying	-14406
▁unders	-14407
iterator	-14408
▁shortly	-14409
enerative	-14410
▁clothing	-14411
▁thousand	-14412
▁substitute	-14413
MET	-14414
geq	-14415
ims	-14416
sea	-14417
bash	-14418
kind	-14419
mons	-14420
swer	-14421
▁FIF	-14422
▁[];	-14423
ships	-14424
▁Hold	-14425
▁GROUP	-14426
ointers	-14427
▁finance	-14428
▁Brazilian	-14429
▁boundaries	-14430
>'	-14431
Play	-14432
▁Nin	-14433
▁sync	-14434
ockets	-14435
▁Pages	-14436
▁Users	-14437
classes	-14438
comfort	-14439
▁Soviet	-14440
▁Things	-14441
▁novels	-14442
▁Individual	-14443
▁accommodate	-14444
▁distinguish	-14445
▁intersection	-14446
-)	-14447
KS	-14448
She	-14449
sky	-14450
once	-14451
▁Eag	-14452
▁oct	-14453
sigma	-14454
plasia	-14455
▁medic	-14456
▁Tennes	-14457
▁Neither	-14458
▁builder	-14459
▁endomet	-14460
▁formats	-14461
▁varchar	-14462
▁implants	-14463
▁designers	-14464
▁unnecessary	-14465
:#	-14466
\/	-14467
>";	-14468
▁bil	-14469
elson	-14470
route	-14471
▁Marc	-14472
▁scar	-14473
▁soul	-14474
▁Think	-14475
▁folks	-14476
mercial	-14477
▁digest	-14478
▁phrase	-14479
Interval	-14480
▁Forward	-14481
▁analyst	-14482
▁melanoma	-14483
▁households	-14484
▁inspection	-14485
gz	-14486
hn	-14487
UND	-14488
USE	-14489
ski	-14490
▁Bah	-14491
▁Fall	-14492
▁laugh	-14493
achelor	-14494
objects	-14495
▁Escher	-14496
▁airway	-14497
▁metric	-14498
▁sculpt	-14499
▁soccer	-14500
▁Created	-14501
▁appeals	-14502
▁Original	-14503
▁restored	-14504
▁tendency	-14505
▁photographer	-14506
+,	-14507
CLA	-14508
lan	-14509
wer	-14510
exit	-14511
hljs	-14512
idge	-14513
oler	-14514
▁Dor	-14515
▁Lyn	-14516
▁firms	-14517
▁sixth	-14518
▁buried	-14519
▁payments	-14520
▁predictors	-14521
ру	-14522
)$,	-14523
▁Da	-14524
burn	-14525
▁RAM	-14526
▁fru	-14527
▁lid	-14528
▁reb	-14529
recip	-14530
▁Arth	-14531
▁Gene	-14532
leukin	-14533
olysis	-14534
▁nasal	-14535
▁obese	-14536
▁overw	-14537
athered	-14538
ordered	-14539
▁PROVID	-14540
▁edited	-14541
▁granul	-14542
▁bedroom	-14543
▁integrate	-14544
▁recordings	-14545
▁regulating	-14546
▁translated	-14547
▁susceptible	-14548
:%	-14549
=\"	-14550
Bean	-14551
ctic	-14552
econ	-14553
irit	-14554
uant	-14555
udge	-14556
urer	-14557
▁Gil	-14558
▁INC	-14559
▁grey	-14560
▁Moore	-14561
▁elong	-14562
▁spine	-14563
▁stake	-14564
written	-14565
Customer	-14566
hydrogen	-14567
▁wrapper	-14568
▁forecast	-14569
▁expanding	-14570
▁operative	-14571
▁expressing	-14572
Av	-14573
hop	-14574
igo	-14575
▁LP	-14576
aron	-14577
▁Tool	-14578
▁wash	-14579
serial	-14580
typeof	-14581
▁Clark	-14582
▁loose	-14583
▁Advert	-14584
▁Notice	-14585
▁Temple	-14586
▁lacking	-14587
▁sealing	-14588
▁collecting	-14589
EventListener	-14590
▁discrimination	-14591
Div	-14592
Sum	-14593
]))	-14594
Only	-14595
.....	-14596
Place	-14597
floor	-14598
▁heated	-14599
▁metres	-14600
ilibrium	-14601
▁locking	-14602
▁Memorial	-14603
▁chloride	-14604
▁speakers	-14605
▁discontin	-14606
▁hopefully	-14607
▁streaming	-14608
▁universal	-14609
▁conservative	-14610
▁developments	-14611
NK	-14612
▁LL	-14613
▁NH	-14614
gres	-14615
owed	-14616
▁#!/	-14617
mount	-14618
urches	-14619
▁weigh	-14620
▁Austin	-14621
▁helper	-14622
▁immigr	-14623
▁roller	-14624
▁subunit	-14625
▁pollution	-14626
▁potassium	-14627
▁disclaimer	-14628
▁contributes	-14629
▁considerably	-14630
NER	-14631
Our	-14632
▁ML	-14633
Home	-14634
fall	-14635
ippi	-14636
aphyl	-14637
ocytic	-14638
▁decom	-14639
▁imped	-14640
▁synth	-14641
gorithm	-14642
▁pocket	-14643
facebook	-14644
▁dioxide	-14645
▁heading	-14646
▁preview	-14647
▁similarly	-14648
▁responsive	-14649
▁accessories	-14650
ис	-14651
eld	-14652
olk	-14653
}</	-14654
▁MB	-14655
apis	-14656
uity	-14657
▁Ban	-14658
itate	-14659
lated	-14660
oside	-14661
pages	-14662
▁gray	-14663
ackets	-14664
lahoma	-14665
makers	-14666
protein	-14667
▁suppressed	-14668
▁preferences	-14669
▁possibilities	-14670
ipt	-14671
▁PH	-14672
▁si	-14673
▁со	-14674
Lock	-14675
decl	-14676
Author	-14677
▁coinc	-14678
▁inequ	-14679
▁hydrox	-14680
▁Nations	-14681
▁reversed	-14682
▁deployment	-14683
▁standardized	-14684
AML	-14685
MIN	-14686
hou	-14687
pin	-14688
atis	-14689
▁cul	-14690
Delete	-14691
subset	-14692
▁expon	-14693
▁polys	-14694
▁arrive	-14695
▁hereby	-14696
▁saline	-14697
ropolitan	-14698
▁accessed	-14699
▁switches	-14700
▁consensus	-14701
▁describing	-14702
▁specialist	-14703
▁Escherichia	-14704
▁LD	-14705
▁pp	-14706
Axis	-14707
Find	-14708
Role	-14709
▁tar	-14710
Mouse	-14711
third	-14712
▁tire	-14713
atitis	-14714
▁loves	-14715
▁fitted	-14716
▁packed	-14717
▁Suppose	-14718
▁implies	-14719
plication	-14720
▁Advanced	-14721
▁vacation	-14722
▁tradition	-14723
▁Production	-14724
▁referenced	-14725
▁photography	-14726
▁qualitative	-14727
▁insufficient	-14728
Sk	-14729
sf	-14730
.).	-14731
REF	-14732
tor	-14733
iere	-14734
izon	-14735
zyme	-14736
▁Fig	-14737
▁Jam	-14738
Space	-14739
▁Brow	-14740
hedral	-14741
minute	-14742
▁ester	-14743
▁logger	-14744
▁murine	-14745
▁ranked	-14746
▁timely	-14747
▁weapon	-14748
disabled	-14749
▁Getting	-14750
▁limiting	-14751
▁Tennessee	-14752
▁Comparison	-14753
▁guaranteed	-14754
▁remarkable	-14755
▁repeatedly	-14756
▁sustainable	-14757
>';	-14758
iev	-14759
STAT	-14760
▁Hom	-14761
▁Job	-14762
azines	-14763
▁dollar	-14764
▁Summary	-14765
▁penalty	-14766
▁phospholip	-14767
▁destruction	-14768
?:	-14769
▁WE	-14770
Sequ	-14771
ften	-14772
nals	-14773
CRIPT	-14774
▁lamp	-14775
▁verb	-14776
▁Allen	-14777
▁balls	-14778
pattern	-14779
▁deeper	-14780
▁whilst	-14781
Platform	-14782
agulation	-14783
▁ensuring	-14784
▁physically	-14785
▁anniversary	-14786
Ins	-14787
try	-14788
Game	-14789
lass	-14790
sized	-14791
stery	-14792
ubern	-14793
▁Iron	-14794
▁Vice	-14795
▁tang	-14796
mented	-14797
▁bases	-14798
▁tower	-14799
▁Memory	-14800
▁Survey	-14801
▁defeat	-14802
▁remind	-14803
▁governed	-14804
▁soldiers	-14805
▁stenosis	-14806
▁competing	-14807
▁DA	-14808
▁PE	-14809
▁Zn	-14810
arma	-14811
ethe	-14812
vard	-14813
ariju	-14814
owner	-14815
▁bump	-14816
factor	-14817
▁Match	-14818
▁Speed	-14819
▁fraud	-14820
Generic	-14821
emetery	-14822
▁clarify	-14823
▁newborn	-14824
▁infinite	-14825
▁certified	-14826
▁className	-14827
▁plaintiff	-14828
▁prototype	-14829
▁schizophrenia	-14830
▁EM	-14831
mage	-14832
▁ARE	-14833
▁Ott	-14834
rence	-14835
▁fits	-14836
▁jury	-14837
bridge	-14838
istors	-14839
▁Sorry	-14840
▁slice	-14841
▁Bureau	-14842
▁Michel	-14843
▁microm	-14844
▁shaped	-14845
arijuana	-14846
▁backend	-14847
▁opposition	-14848
ctx	-14849
▁Fa	-14850
▁Il	-14851
▁mL	-14852
▁csv	-14853
▁mos	-14854
▁tib	-14855
imity	-14856
units	-14857
▁Font	-14858
▁repo	-14859
▁Jason	-14860
▁enemy	-14861
▁newer	-14862
History	-14863
▁cattle	-14864
▁horses	-14865
▁rhythm	-14866
ableView	-14867
icrobial	-14868
▁ratings	-14869
▁currency	-14870
▁Instagram	-14871
▁configurations	-14872
Auto	-14873
Many	-14874
▁'',	-14875
▁Cub	-14876
▁Hur	-14877
Tests	-14878
uties	-14879
▁sends	-14880
windows	-14881
▁Queens	-14882
etically	-14883
▁recipes	-14884
▁industries	-14885
▁pronounced	-14886
EV	-14887
TT	-14888
▁FR	-14889
links	-14890
ptive	-14891
▁Prop	-14892
▁STATE	-14893
theless	-14894
▁atomic	-14895
▁dementia	-14896
▁relevance	-14897
▁micrograms	-14898
Sportspeople	-14899
▁generations	-14900
SK	-14901
▁Ale	-14902
▁Inv	-14903
▁NMR	-14904
▁idi	-14905
PTION	-14906
▁Song	-14907
Upload	-14908
arcoma	-14909
▁Large	-14910
▁gases	-14911
▁ocean	-14912
ulators	-14913
▁Bishop	-14914
▁PUBLIC	-14915
▁django	-14916
▁meters	-14917
▁watched	-14918
▁readonly	-14919
▁allocated	-14920
▁meaningful	-14921
▁struggling	-14922
▁simulations	-14923
cb	-14924
Rest	-14925
rock	-14926
alert	-14927
antom	-14928
▁TODO	-14929
irtual	-14930
▁Alber	-14931
▁swing	-14932
▁Garden	-14933
▁Unlike	-14934
▁disput	-14935
products	-14936
▁Context	-14937
▁brothers	-14938
▁exhibits	-14939
▁conducting	-14940
▁downstream	-14941
▁comparative	-14942
nu	-14943
HPP	-14944
Lin	-14945
ruby	-14946
ouver	-14947
▁Room	-14948
▁lett	-14949
cephal	-14950
▁Fifth	-14951
▁Seven	-14952
scanned	-14953
▁frozen	-14954
▁unlike	-14955
▁figured	-14956
▁therein	-14957
▁barriers	-14958
▁immunore	-14959
▁survived	-14960
▁appearing	-14961
▁expecting	-14962
▁colleagues	-14963
▁investigating	-14964
*-	-14965
jan	-14966
lav	-14967
sup	-14968
Area	-14969
Span	-14970
itts	-14971
▁Gib	-14972
▁Joh	-14973
▁bor	-14974
imore	-14975
▁Body	-14976
▁deck	-14977
▁mism	-14978
▁tons	-14979
▁Entity	-14980
▁Junior	-14981
▁induct	-14982
▁microg	-14983
▁varies	-14984
Services	-14985
▁notable	-14986
▁wrapped	-14987
▁furniture	-14988
▁mammalian	-14989
▁delivering	-14990
▁exhibition	-14991
▁Nevertheless	-14992
SF	-14993
kw	-14994
nai	-14995
pic	-14996
READ	-14997
icut	-14998
olly	-14999
▁Dop	-15000
▁ISO	-15001
alone	-15002
opsis	-15003
exists	-15004
verted	-15005
▁sheep	-15006
▁orange	-15007
▁voters	-15008
▁Methods	-15009
▁solving	-15010
▁allergic	-15011
▁engaging	-15012
▁Entertain	-15013
▁likelihood	-15014
▁publishing	-15015
▁recruitment	-15016
”)	-15017
imb	-15018
angi	-15019
▁CYP	-15020
egers	-15021
issue	-15022
▁Bull	-15023
▁Crit	-15024
usions	-15025
ostream	-15026
▁oldest	-15027
Fragment	-15028
▁Affairs	-15029
▁archive	-15030
▁carries	-15031
▁onclick	-15032
▁Partners	-15033
▁artifact	-15034
▁Louisiana	-15035
▁estimation	-15036
--------------	-15037
job	-15038
']);	-15039
mask	-15040
rele	-15041
▁TRUE	-15042
outube	-15043
▁Girls	-15044
▁Disney	-15045
▁typeof	-15046
▁femoral	-15047
▁optimize	-15048
▁delicious	-15049
▁medalists	-15050
▁producers	-15051
▁violation	-15052
Br	-15053
ICA	-15054
Flow	-15055
coln	-15056
rint	-15057
▁YOU	-15058
atted	-15059
ented	-15060
uther	-15061
▁Anti	-15062
▁Ever	-15063
▁Fact	-15064
▁Rome	-15065
▁chap	-15066
▁cyto	-15067
▁bowel	-15068
wrapper	-15069
▁Living	-15070
▁Module	-15071
▁asympt	-15072
ogeneity	-15073
▁prophyl	-15074
▁streams	-15075
▁tonight	-15076
▁tubular	-15077
▁fixation	-15078
▁Cambridge	-15079
▁Otherwise	-15080
’.	-15081
hole	-15082
what	-15083
Total	-15084
▁Role	-15085
▁cure	-15086
acious	-15087
ceiver	-15088
▁EVENT	-15089
Android	-15090
imental	-15091
▁cortic	-15092
▁guided	-15093
▁pounds	-15094
▁refuge	-15095
▁ruling	-15096
DateTime	-15097
Security	-15098
▁Mission	-15099
▁leakage	-15100
orporated	-15101
something	-15102
▁pointing	-15103
▁dismissed	-15104
▁manipulation	-15105
▁predominantly	-15106
)|	-15107
UC	-15108
npm	-15109
▁AI	-15110
WORD	-15111
airy	-15112
stan	-15113
[...]
