{
  "version": "1.0",
  "truncation": null,
  "padding": null,
  "added_tokens": [
    {
      "id": 0,
      "content": "<pad>",
      "single_word": false,
      "lstrip": false,
      "rstrip": false,
      "normalized": false,
      "special": true
    },
    {
      "id": 1,
      "content": "<unk>",
      "single_word": false,
      "lstrip": false,
      "rstrip": false,
      "normalized": false,
      "special": true
    },
    {
      "id": 2,
      "content": "<s>",
      "single_word": false,
      "lstrip": false,
      "rstrip": false,
      "normalized": false,
      "special": true
    },
    {
      "id": 3,
      "content": "</s>",
      "single_word": false,
      "lstrip": false,
      "rstrip": false,
      "normalized": false,
      "special": true
    }
  ],
  "normalizer": null,
  "pre_tokenizer": {
    "type": "Metaspace",
    "replacement": "▁",
    "prepend_scheme": "never",
    "split": false
  },
  "post_processor": {
    "type": "TemplateProcessing",
    "single": [
      {
        "SpecialToken": {
          "id": "<s>",
          "type_id": 0
        }
      },
      {
        "Sequence": {
          "id": "A",
          "type_id": 0
        }
      }
    ],
    "pair": [
      {
        "SpecialToken": {
          "id": "<s>",
          "type_id": 0
        }
      },
      {
        "Sequence": {
          "id": "A",
          "type_id": 0
        }
      },
      {
        "SpecialToken": {
          "id": "<s>",
          "type_id": 1
        }
      },
      {
        "Sequence": {
          "id": "B",
          "type_id": 1
        }
      }
    ],
    "special_tokens": {
      "<s>": {
        "id": "<s>",
        "ids": [
          2
        ],
        "tokens": [
          "<s>"
        ]
      }
    }
  },
  "decoder": {
    "type": "Sequence",
    "decoders": [
      {
        "type": "Replace",
        "pattern": {
          "String": "▁"
        },
        "content": " "
      },
      {
        "type": "ByteFallback"
      },
      {
        "type": "Fuse"
      }
    ]
  },
  "model": {
    "type": "BPE",
    "dropout": null,
    "unk_token": "<unk>",
    "continuing_subword_prefix": null,
    "end_of_word_suffix": null,
    "fuse_unk": true,
    "byte_fallback": true,
    "ignore_merges": false,
    "vocab": {
      "<pad>": 0,
      "<unk>": 1,
      "<s>": 2,
      "</s>": 3,
      "<0x00>": 4,
      "<0x01>": 5,
      "<0x02>": 6,
      "<0x03>": 7,
      "<0x04>": 8,
      "<0x05>": 9,
      "<0x06>": 10,
      "<0x07>": 11,
      "<0x08>": 12,
      "<0x09>": 13,
      "<0x0A>": 14,
      "<0x0B>": 15,
      "<0x0C>": 16,
      "<0x0D>": 17,
      "<0x0E>": 18,
      "<0x0F>": 19,
      "<0x10>": 20,
      "<0x11>": 21,
      "<0x12>": 22,
      "<0x13>": 23,
      "<0x14>": 24,
      "<0x15>": 25,
      "<0x16>": 26,
      "<0x17>": 27,
      "<0x18>": 28,
      "<0x19>": 29,
      "<0x1A>": 30,
      "<0x1B>": 31,
      "<0x1C>": 32,
      "<0x1D>": 33,
      "<0x1E>": 34,
      "<0x1F>": 35,
      "<0x20>": 36,
      "<0x21>": 37,
      "<0x22>": 38,
      "<0x23>": 39,
      "<0x24>": 40,
      "<0x25>": 41,
      "<0x26>": 42,
      "<0x27>": 43,
      "<0x28>": 44,
      "<0x29>": 45,
      "<0x2A>": 46,
      "<0x2B>": 47,
      "<0x2C>": 48,
      "<0x2D>": 49,
      "<0x2E>": 50,
      "<0x2F>": 51,
      "<0x30>": 52,
      "<0x31>": 53,
      "<0x32>": 54,
      "<0x33>": 55,
      "<0x34>": 56,
      "<0x35>": 57,
      "<0x36>": 58,
      "<0x37>": 59,
      "<0x38>": 60,
      "<0x39>": 61,
      "<0x3A>": 62,
      "<0x3B>": 63,
      "<0x3C>": 64,
      "<0x3D>": 65,
      "<0x3E>": 66,
      "<0x3F>": 67,
      "<0x40>": 68,
      "<0x41>": 69,
      "<0x42>": 70,
      "<0x43>": 71,
      "<0x44>": 72,
      "<0x45>": 73,
      "<0x46>": 74,
      "<0x47>": 75,
      "<0x48>": 76,
      "<0x49>": 77,
      "<0x4A>": 78,
      "<0x4B>": 79,
      "<0x4C>": 80,
      "<0x4D>": 81,
      "<0x4E>": 82,
      "<0x4F>": 83,
      "<0x50>": 84,
      "<0x51>": 85,
      "<0x52>": 86,
      "<0x53>": 87,
      "<0x54>": 88,
      "<0x55>": 89,
      "<0x56>": 90,
      "<0x57>": 91,
      "<0x58>": 92,
      "<0x59>": 93,
      "<0x5A>": 94,
      "<0x5B>": 95,
      "<0x5C>": 96,
      "<0x5D>": 97,
      "<0x5E>": 98,
      "<0x5F>": 99,
      "<0x60>": 100,
      "<0x61>": 101,
      "<0x62>": 102,
      "<0x63>": 103,
      "<0x64>": 104,
      "<0x65>": 105,
      "<0x66>": 106,
      "<0x67>": 107,
      "<0x68>": 108,
      "<0x69>": 109,
      "<0x6A>": 110,
      "<0x6B>": 111,
      "<0x6C>": 112,
      "<0x6D>": 113,
      "<0x6E>": 114,
      "<0x6F>": 115,
      "<0x70>": 116,
      "<0x71>": 117,
      "<0x72>": 118,
      "<0x73>": 119,
      "<0x74>": 120,
      "<0x75>": 121,
      "<0x76>": 122,
      "<0x77>": 123,
      "<0x78>": 124,
      "<0x79>": 125,
      "<0x7A>": 126,
      "<0x7B>": 127,
      "<0x7C>": 128,
      "<0x7D>": 129,
      "<0x7E>": 130,
      "<0x7F>": 131,
      "<0x80>": 132,
      "<0x81>": 133,
      "<0x82>": 134,
      "<0x83>": 135,
      "<0x84>": 136,
      "<0x85>": 137,
      "<0x86>": 138,
      "<0x87>": 139,
      "<0x88>": 140,
      "<0x89>": 141,
      "<0x8A>": 142,
      "<0x8B>": 143,
      "<0x8C>": 144,
      "<0x8D>": 145,
      "<0x8E>": 146,
      "<0x8F>": 147,
      "<0x90>": 148,
      "<0x91>": 149,
      "<0x92>": 150,
      "<0x93>": 151,
      "<0x94>": 152,
      "<0x95>": 153,
      "<0x96>": 154,
      "<0x97>": 155,
      "<0x98>": 156,
      "<0x99>": 157,
      "<0x9A>": 158,
      "<0x9B>": 159,
      "<0x9C>": 160,
      "<0x9D>": 161,
      "<0x9E>": 162,
      "<0x9F>": 163,
      "<0xA0>": 164,
      "<0xA1>": 165,
      "<0xA2>": 166,
      "<0xA3>": 167,
      "<0xA4>": 168,
      "<0xA5>": 169,
      "<0xA6>": 170,
      "<0xA7>": 171,
      "<0xA8>": 172,
      "<0xA9>": 173,
      "<0xAA>": 174,
      "<0xAB>": 175,
      "<0xAC>": 176,
      "<0xAD>": 177,
      "<0xAE>": 178,
      "<0xAF>": 179,
      "<0xB0>": 180,
      "<0xB1>": 181,
      "<0xB2>": 182,
      "<0xB3>": 183,
      "<0xB4>": 184,
      "<0xB5>": 185,
      "<0xB6>": 186,
      "<0xB7>": 187,
      "<0xB8>": 188,
      "<0xB9>": 189,
      "<0xBA>": 190,
      "<0xBB>": 191,
      "<0xBC>": 192,
      "<0xBD>": 193,
      "<0xBE>": 194,
      "<0xBF>": 195,
      "<0xC0>": 196,
      "<0xC1>": 197,
      "<0xC2>": 198,
      "<0xC3>": 199,
      "<0xC4>": 200,
      "<0xC5>": 201,
      "<0xC6>": 202,
      "<0xC7>": 203,
      "<0xC8>": 204,
      "<0xC9>": 205,
      "<0xCA>": 206,
      "<0xCB>": 207,
      "<0xCC>": 208,
      "<0xCD>": 209,
      "<0xCE>": 210,
      "<0xCF>": 211,
      "<0xD0>": 212,
      "<0xD1>": 213,
      "<0xD2>": 214,
      "<0xD3>": 215,
      "<0xD4>": 216,
      "<0xD5>": 217,
      "<0xD6>": 218,
      "<0xD7>": 219,
      "<0xD8>": 220,
      "<0xD9>": 221,
      "<0xDA>": 222,
      "<0xDB>": 223,
      "<0xDC>": 224,
      "<0xDD>": 225,
      "<0xDE>": 226,
      "<0xDF>": 227,
      "<0xE0>": 228,
      "<0xE1>": 229,
      "<0xE2>": 230,
      "<0xE3>": 231,
      "<0xE4>": 232,
      "<0xE5>": 233,
      "<0xE6>": 234,
      "<0xE7>": 235,
      "<0xE8>": 236,
      "<0xE9>": 237,
      "<0xEA>": 238,
      "<0xEB>": 239,
      "<0xEC>": 240,
      "<0xED>": 241,
      "<0xEE>": 242,
      "<0xEF>": 243,
      "<0xF0>": 244,
      "<0xF1>": 245,
      "<0xF2>": 246,
      "<0xF3>": 247,
      "<0xF4>": 248,
      "<0xF5>": 249,
      "<0xF6>": 250,
      "<0xF7>": 251,
      "<0xF8>": 252,
      "<0xF9>": 253,
      "<0xFA>": 254,
      "<0xFB>": 255,
      "<0xFC>": 256,
      "<0xFD>": 257,
      "<0xFE>": 258,
      "<0xFF>": 259,
      "▁t": 260,
      "▁a": 261,
      "in": 262,
      "he": 263,
      "re": 264,
      "on": 265,
      "er": 266,
      "at": 267,
      "▁the": 268,
      "▁s": 269,
      "or": 270,
      "en": 271,
      "▁c": 272,
      "▁o": 273,
      "is": 274,
      "it": 275,
      "▁w": 276,
      "es": 277,
      "▁p": 278,
      "al": 279,
      "an": 280,
      "ed": 281,
      "▁f": 282,
      "▁an": 283,
      "ing": 284,
      "▁in": 285,
      "▁b": 286,
      "ic": 287,
      "ion": 288,
      "ar": 289,
      "▁of": 290,
      "ou": 291,
      "▁m": 292,
      "▁d": 293,
      "le": 294,
      "▁to": 295,
      "ro": 296,
      "as": 297,
      "▁and": 298,
      "ct": 299,
      "ent": 300,
      "▁re": 301,
      "▁h": 302,
      "et": 303,
      "▁th": 304,
      "om": 305,
      "st": 306,
      "▁n": 307,
      "▁T": 308,
      "el": 309,
      "il": 310,
      "▁I": 311,
      "▁l": 312,
      "▁e": 313,
      "id": 314,
      "▁A": 315,
      "▁C": 316,
      "ut": 317,
      "ve": 318,
      "am": 319,
      "▁is": 320,
      "ol": 321,
      "▁S": 322,
      "ation": 323,
      "us": 324,
      "im": 325,
      "ot": 326,
      "▁g": 327,
      "ur": 328,
      "ac": 329,
      "▁for": 330,
      "ig": 331,
      "▁(": 332,
      "ow": 333,
      "ly": 334,
      "un": 335,
      "ay": 336,
      "ul": 337,
      "ad": 338,
      "▁st": 339,
      "▁on": 340,
      "ith": 341,
      "▁be": 342,
      "ate": 343,
      "ver": 344,
      "ce": 345,
      "▁y": 346,
      "if": 347,
      "▁with": 348,
      "od": 349,
      "se": 350,
      "ch": 351,
      "ter": 352,
      "ag": 353,
      "▁pro": 354,
      "▁con": 355,
      "▁The": 356,
      "▁M": 357,
      "▁P": 358,
      "▁that": 359,
      "ir": 360,
      "▁v": 361,
      "▁as": 362,
      "em": 363,
      "um": 364,
      "ab": 365,
      "▁you": 366,
      "ect": 367,
      "▁it": 368,
      "ri": 369,
      "▁B": 370,
      "op": 371,
      "--": 372,
      "ist": 373,
      "▁al": 374,
      "pp": 375,
      "ere": 376,
      "est": 377,
      "ra": 378,
      "res": 379,
      "▁D": 380,
      "▁H": 381,
      "qu": 382,
      "▁F": 383,
      "oc": 384,
      "▁ex": 385,
      "os": 386,
      "▁W": 387,
      "her": 388,
      "▁com": 389,
      "▁\"": 390,
      "▁=": 391,
      "▁R": 392,
      "▁de": 393,
      "th": 394,
      "ers": 395,
      "▁wh": 396,
      "▁or": 397,
      "▁us": 398,
      "rom": 399,
      "ess": 400,
      "iv": 401,
      "▁r": 402,
      "ment": 403,
      "▁are": 404,
      "▁N": 405,
      "▁was": 406,
      "ant": 407,
      "▁L": 408,
      "ew": 409,
      "ity": 410,
      "ill": 411,
      "▁su": 412,
      "nt": 413,
      "ort": 414,
      "ke": 415,
      "pt": 416,
      "▁by": 417,
      "and": 418,
      "ore": 419,
      "▁at": 420,
      "▁E": 421,
      "▁this": 422,
      "▁he": 423,
      "▁se": 424,
      "ive": 425,
      "igh": 426,
      "ain": 427,
      "▁ha": 428,
      "pe": 429,
      "nd": 430,
      "▁from": 431,
      "ction": 432,
      "og": 433,
      "end": 434,
      "▁O": 435,
      "ated": 436,
      "ud": 437,
      "ld": 438,
      "pl": 439,
      "▁G": 440,
      "ine": 441,
      "▁ch": 442,
      "art": 443,
      "▁{": 444,
      "▁<": 445,
      "ies": 446,
      "▁not": 447,
      "▁}": 448,
      "ory": 449,
      "ure": 450,
      ");": 451,
      "age": 452,
      "all": 453,
      "ial": 454,
      "▁can": 455,
      "ame": 456,
      "▁have": 457,
      "ell": 458,
      "▁sh": 459,
      "ical": 460,
      "per": 461,
      "▁im": 462,
      "ue": 463,
      "ult": 464,
      "//": 465,
      "▁un": 466,
      "ight": 467,
      "ex": 468,
      "ase": 469,
      "iz": 470,
      "▁$": 471,
      "ff": 472,
      "cl": 473,
      "▁cl": 474,
      "rou": 475,
      "ass": 476,
      "able": 477,
      "our": 478,
      "ust": 479,
      "ost": 480,
      "ge": 481,
      "▁res": 482,
      "ib": 483,
      "▁In": 484,
      "ub": 485,
      "▁comp": 486,
      "▁U": 487,
      "▁ad": 488,
      "▁tr": 489,
      "▁we": 490,
      "out": 491,
      "ack": 492,
      "orm": 493,
      "ard": 494,
      "▁le": 495,
      "ich": 496,
      "ould": 497,
      "ide": 498,
      "▁pl": 499,
      "are": 500,
      "▁int": 501,
      "▁J": 502,
      "act": 503,
      "▁cont": 504,
      "ip": 505,
      "ast": 506,
      "ile": 507,
      "du": 508,
      "ire": 509,
      "▁Th": 510,
      "▁*": 511,
      "ans": 512,
      "der": 513,
      "▁ne": 514,
      "up": 515,
      "ents": 516,
      "ap": 517,
      "----": 518,
      "ome": 519,
      "ign": 520,
      "..": 521,
      "▁app": 522,
      "▁do": 523,
      "▁whe": 524,
      "ork": 525,
      "▁ab": 526,
      "ind": 527,
      "ice": 528,
      "cc": 529,
      "▁but": 530,
      "▁-": 531,
      "ph": 532,
      "▁j": 533,
      ").": 534,
      "ions": 535,
      "ary": 536,
      "▁will": 537,
      "▁were": 538,
      "ia": 539,
      "▁which": 540,
      "ther": 541,
      "▁has": 542,
      "ok": 543,
      "▁k": 544,
      "▁all": 545,
      "**": 546,
      "▁dis": 547,
      "port": 548,
      "lic": 549,
      "ateg": 550,
      "▁me": 551,
      "=\"": 552,
      "ress": 553,
      "int": 554,
      "ens": 555,
      "ong": 556,
      "gh": 557,
      "ear": 558,
      "ous": 559,
      "▁your": 560,
      "▁'": 561,
      "so": 562,
      "▁if": 563,
      "av": 564,
      "one": 565,
      "ace": 566,
      "ations": 567,
      "ak": 568,
      "▁St": 569,
      "ef": 570,
      "▁per": 571,
      "con": 572,
      "ject": 573,
      "ime": 574,
      "ber": 575,
      "ategory": 576,
      "▁en": 577,
      "ail": 578,
      "ance": 579,
      "ru": 580,
      "form": 581,
      "vel": 582,
      "▁ar": 583,
      "ord": 584,
      "ata": 585,
      "ition": 586,
      "▁pat": 587,
      "ach": 588,
      "▁pre": 589,
      "),": 590,
      "cre": 591,
      "▁out": 592,
      "▁V": 593,
      "▁Category": 594,
      "ite": 595,
      "com": 596,
      "ring": 597,
      "ll": 598,
      "▁K": 599,
      "ode": 600,
      "ally": 601,
      "urn": 602,
      "ry": 603,
      "eth": 604,
      "ext": 605,
      "ep": 606,
      "▁my": 607,
      "ang": 608,
      "ors": 609,
      "▁li": 610,
      "lect": 611,
      "▁qu": 612,
      "▁new": 613,
      "▁one": 614,
      "ely": 615,
      "▁so": 616,
      "▁sy": 617,
      "erv": 618,
      "▁Y": 619,
      "ple": 620,
      "ence": 621,
      "ount": 622,
      "▁fun": 623,
      "==": 624,
      "te": 625,
      "ific": 626,
      "▁go": 627,
      "ound": 628,
      "▁//": 629,
      "▁more": 630,
      "▁up": 631,
      "▁ret": 632,
      "reat": 633,
      "▁[": 634,
      "▁#": 635,
      "fere": 636,
      "ose": 637,
      "ake": 638,
      "ook": 639,
      "▁work": 640,
      "▁ev": 641,
      "ype": 642,
      "▁This": 643,
      "own": 644,
      "▁also": 645,
      "ces": 646,
      "clud": 647,
      "low": 648,
      "▁part": 649,
      "ric": 650,
      "▁It": 651,
      "▁use": 652,
      "▁sp": 653,
      "ob": 654,
      "▁get": 655,
      "iew": 656,
      "vers": 657,
      "()": 658,
      "▁man": 659,
      "▁there": 660,
      "\",": 661,
      "pec": 662,
      "▁other": 663,
      "▁ro": 664,
      "ree": 665,
      "ates": 666,
      "cri": 667,
      "ular": 668,
      "▁am": 669,
      "tern": 670,
      "ys": 671,
      "get": 672,
      "we": 673,
      "ks": 674,
      "▁Q": 675,
      "very": 676,
      "▁their": 677,
      "ont": 678,
      "▁when": 679,
      "tt": 680,
      "fter": 681,
      "▁been": 682,
      "▁ob": 683,
      "▁bet": 684,
      "ft": 685,
      "stem": 686,
      "▁val": 687,
      "▁any": 688,
      "▁var": 689,
      "▁col": 690,
      "▁dif": 691,
      "irst": 692,
      "wo": 693,
      "ie": 694,
      "ove": 695,
      "__": 696,
      "▁add": 697,
      "ild": 698,
      "▁ass": 699,
      "ays": 700,
      "▁stud": 701,
      "ced": 702,
      "▁des": 703,
      "▁may": 704,
      "▁using": 705,
      "▁Ch": 706,
      "▁gen": 707,
      "▁te": 708,
      "▁time": 709,
      "▁act": 710,
      "▁ag": 711,
      "ased": 712,
      "▁acc": 713,
      "▁like": 714,
      "▁sub": 715,
      "▁exp": 716,
      "▁some": 717,
      "aus": 718,
      "▁function": 719,
      "▁rec": 720,
      "ian": 721,
      "▁need": 722,
      "ater": 723,
      "▁ind": 724,
      "▁they": 725,
      "▁kn": 726,
      "▁class": 727,
      "ov": 728,
      "ath": 729,
      "▁sc": 730,
      "▁over": 731,
      "pro": 732,
      "erm": 733,
      "▁than": 734,
      "▁trans": 735,
      "▁comm": 736,
      "▁pati": 737,
      "vent": 738,
      "▁return": 739,
      "▁no": 740,
      "▁eff": 741,
      "ublic": 742,
      "▁rel": 743,
      "▁We": 744,
      "ish": 745,
      "▁sa": 746,
      "▁its": 747,
      "row": 748,
      "ied": 749,
      "ec": 750,
      "iss": 751,
      "ick": 752,
      "▁his": 753,
      "▁ph": 754,
      "▁would": 755,
      "roup": 756,
      "▁form": 757,
      "gr": 758,
      "▁mod": 759,
      "▁about": 760,
      "olog": 761,
      "pon": 762,
      "▁year": 763,
      "▁into": 764,
      "ual": 765,
      "▁under": 766,
      "ings": 767,
      "cess": 768,
      "▁who": 769,
      "ption": 770,
      "▁set": 771,
      "▁data": 772,
      "ock": 773,
      "ark": 774,
      "▁sign": 775,
      "ating": 776,
      "▁def": 777,
      "▁bl": 778,
      "▁cell": 779,
      "▁prov": 780,
      "ink": 781,
      "ative": 782,
      "--------": 783,
      "ck": 784,
      "▁two": 785,
      "▁reg": 786,
      "▁/": 787,
      "hed": 788,
      "ert": 789,
      "St": 790,
      "▁includ": 791,
      "put": 792,
      "▁first": 793,
      "▁fol": 794,
      "▁.": 795,
      "▁\\": 796,
      "les": 797,
      "▁i": 798,
      "rit": 799,
      "ize": 800,
      "▁only": 801,
      "▁pos": 802,
      "but": 803,
      "▁differe": 804,
      "▁spec": 805,
      "▁after": 806,
      "ange": 807,
      "io": 808,
      "▁det": 809,
      "▁pr": 810,
      "▁inter": 811,
      "▁off": 812,
      "oth": 813,
      "▁result": 814,
      "▁“": 815,
      "▁how": 816,
      "ne": 817,
      "▁had": 818,
      "ments": 819,
      "ble": 820,
      "▁system": 821,
      "▁em": 822,
      "▁co": 823,
      "▁pres": 824,
      "▁:": 825,
      "▁end": 826,
      "ix": 827,
      "▁such": 828,
      "▁+": 829,
      "iel": 830,
      "▁ac": 831,
      "****": 832,
      "ough": 833,
      "ox": 834,
      "▁patients": 835,
      "▁requ": 836,
      "▁produ": 837,
      "▁used": 838,
      "ious": 839,
      "ss": 840,
      "ween": 841,
      "</": 842,
      "inal": 843,
      "urre": 844,
      "▁our": 845,
      "yp": 846,
      "ethod": 847,
      "▁these": 848,
      "',": 849,
      "ttp": 850,
      "ility": 851,
      "ient": 852,
      "ax": 853,
      "(\"": 854,
      "▁pe": 855,
      "▁sur": 856,
      "ade": 857,
      "▁inst": 858,
      "rough": 859,
      "▁between": 860,
      "ER": 861,
      "uring": 862,
      "oint": 863,
      "ause": 864,
      "▁public": 865,
      "▁import": 866,
      "ruct": 867,
      "▁How": 868,
      "▁want": 869,
      "▁what": 870,
      "velop": 871,
      "ield": 872,
      "ng": 873,
      "▁them": 874,
      "oad": 875,
      "▁just": 876,
      "ood": 877,
      "▁fe": 878,
      "▁num": 879,
      "als": 880,
      "▁He": 881,
      "ible": 882,
      "▁follow": 883,
      "ull": 884,
      "▁You": 885,
      "▁bec": 886,
      "▁cons": 887,
      "▁inv": 888,
      "▁fl": 889,
      "ting": 890,
      "cy": 891,
      "▁Un": 892,
      "▁then": 893,
      "err": 894,
      "▁Re": 895,
      "old": 896,
      "hes": 897,
      "round": 898,
      "hen": 899,
      "▁att": 900,
      "ool": 901,
      "ures": 902,
      "▁high": 903,
      "ues": 904,
      "elf": 905,
      "...": 906,
      "▁supp": 907,
      "▁play": 908,
      "▁show": 909,
      "▁Se": 910,
      "mer": 911,
      "\":": 912,
      "ning": 913,
      "ics": 914,
      "ug": 915,
      "▁should": 916,
      "▁fil": 917,
      "▁inf": 918,
      "▁ser": 919,
      "▁If": 920,
      "▁rem": 921,
      "red": 922,
      "ople": 923,
      "▁exam": 924,
      "oid": 925,
      "ically": 926,
      "▁incre": 927,
      "▁effect": 928,
      "\">": 929,
      "▁where": 930,
      "ribut": 931,
      "▁loc": 932,
      "ery": 933,
      "rol": 934,
      "▁char": 935,
      "://": 936,
      "▁method": 937,
      "sp": 938,
      "ract": 939,
      "▁group": 940,
      "▁Wh": 941,
      "▁sim": 942,
      "fore": 943,
      "▁ext": 944,
      "('": 945,
      "ray": 946,
      "oy": 947,
      "ise": 948,
      "▁@": 949,
      "▁&": 950,
      "ident": 951,
      "nce": 952,
      "ict": 953,
      "ited": 954,
      "▁through": 955,
      "ins": 956,
      "▁test": 957,
      "ever": 958,
      "▁pol": 959,
      "day": 960,
      "yl": 961,
      "ined": 962,
      "ton": 963,
      "irect": 964,
      "▁</": 965,
      "▁|": 966,
      "sh": 967,
      "ages": 968,
      "▁different": 969,
      "▁gener": 970,
      "▁develop": 971,
      "pert": 972,
      "ON": 973,
      "▁bu": 974,
      "▁said": 975,
      "▁cor": 976,
      "▁ke": 977,
      "val": 978,
      "▁dist": 979,
      "ational": 980,
      "▁back": 981,
      "ized": 982,
      "arch": 983,
      "▁call": 984,
      "ities": 985,
      "▁const": 986,
      "urrent": 987,
      "▁mem": 988,
      "read": 989,
      "ms": 990,
      "cept": 991,
      "▁well": 992,
      "▁does": 993,
      "▁An": 994,
      "▁di": 995,
      "ron": 996,
      "ered": 997,
      "lp": 998,
      "▁file": 999,
      "IN": 1000,
      "▁type": 1001,
      "▁know": 1002,
      "ices": 1003,
      "atic": 1004,
      "ection": 1005,
      "oci": 1006,
      "▁Pro": 1007,
      "its": 1008,
      "▁could": 1009,
      "▁her": 1010,
      "let": 1011,
      "▁Al": 1012,
      "aw": 1013,
      "cent": 1014,
      "▁most": 1015,
      "▁way": 1016,
      "ower": 1017,
      "uc": 1018,
      "▁mon": 1019,
      "▁make": 1020,
      "ense": 1021,
      "▁Ex": 1022,
      "▁car": 1023,
      "▁process": 1024,
      "▁che": 1025,
      "▁Com": 1026,
      "▁serv": 1027,
      "▁For": 1028,
      "cond": 1029,
      "ected": 1030,
      "();": 1031,
      "====": 1032,
      "pos": 1033,
      "▁code": 1034,
      "ines": 1035,
      "▁look": 1036,
      "ator": 1037,
      "▁found": 1038,
      "tr": 1039,
      "▁people": 1040,
      "▁As": 1041,
      "▁each": 1042,
      "ases": 1043,
      "▁med": 1044,
      "▁name": 1045,
      "▁dev": 1046,
      "▁help": 1047,
      "▁Ar": 1048,
      "ons": 1049,
      "ner": 1050,
      "▁aut": 1051,
      "▁sol": 1052,
      "▁ent": 1053,
      "▁cre": 1054,
      "li": 1055,
      "▁par": 1056,
      "ale": 1057,
      "▁sm": 1058,
      "ily": 1059,
      "▁find": 1060,
      "raph": 1061,
      "ym": 1062,
      "atch": 1063,
      "rap": 1064,
      "ames": 1065,
      "▁value": 1066,
      "pen": 1067,
      "In": 1068,
      "formation": 1069,
      "▁see": 1070,
      "riv": 1071,
      "view": 1072,
      "par": 1073,
      "▁years": 1074,
      "▁both": 1075,
      "▁activ": 1076,
      "cript": 1077,
      "ward": 1078,
      "::": 1079,
      "ES": 1080,
      "amp": 1081,
      "gram": 1082,
      "▁run": 1083,
      "▁study": 1084,
      "▁she": 1085,
      "ody": 1086,
      "▁list": 1087,
      "ature": 1088,
      "oot": 1089,
      "ired": 1090,
      "▁ant": 1091,
      "▁respon": 1092,
      "ource": 1093,
      "eng": 1094,
      "▁x": 1095,
      "name": 1096,
      "app": 1097,
      "▁same": 1098,
      "ml": 1099,
      "cer": 1100,
      "AR": 1101,
      "▁el": 1102,
      "ash": 1103,
      "ran": 1104,
      "▁during": 1105,
      "ared": 1106,
      "▁present": 1107,
      "ww": 1108,
      "other": 1109,
      "▁number": 1110,
      "▁level": 1111,
      "##": 1112,
      "▁here": 1113,
      "▁long": 1114,
      "AT": 1115,
      "ince": 1116,
      "▁conf": 1117,
      "▁anal": 1118,
      "chn": 1119,
      "to": 1120,
      "IT": 1121,
      "set": 1122,
      "▁min": 1123,
      "ren": 1124,
      "ution": 1125,
      "nces": 1126,
      "▁start": 1127,
      "▁elect": 1128,
      "sc": 1129,
      "ument": 1130,
      "▁partic": 1131,
      "▁read": 1132,
      "▁ele": 1133,
      "▁proble": 1134,
      "▁tra": 1135,
      "▁because": 1136,
      "▁post": 1137,
      "pr": 1138,
      "ively": 1139,
      "▁oper": 1140,
      "▁ins": 1141,
      "▁met": 1142,
      "itt": 1143,
      "▁perform": 1144,
      "ression": 1145,
      "▁don": 1146,
      "▁treat": 1147,
      "ality": 1148,
      "▁every": 1149,
      "vention": 1150,
      "▁fact": 1151,
      "▁err": 1152,
      "arg": 1153,
      "roll": 1154,
      "wn": 1155,
      "any": 1156,
      "▁signific": 1157,
      "▁while": 1158,
      "))": 1159,
      "▁There": 1160,
      "ulation": 1161,
      "▁–": 1162,
      "▁provid": 1163,
      "min": 1164,
      "opy": 1165,
      "▁cells": 1166,
      "▁gu": 1167,
      "air": 1168,
      "ement": 1169,
      "alth": 1170,
      "uch": 1171,
      "▁art": 1172,
      "eg": 1173,
      "ium": 1174,
      "▁case": 1175,
      "▁right": 1176,
      "lease": 1177,
      "▁many": 1178,
      "ization": 1179,
      "EN": 1180,
      "acter": 1181,
      "ful": 1182,
      "orld": 1183,
      "▁vari": 1184,
      "ole": 1185,
      "▁try": 1186,
      "▁av": 1187,
      "▁And": 1188,
      "OR": 1189,
      "▁applic": 1190,
      "▁main": 1191,
      "ved": 1192,
      "▁som": 1193,
      "▁being": 1194,
      "▁before": 1195,
      "▁So": 1196,
      "gg": 1197,
      "▁now": 1198,
      "tain": 1199,
      "rop": 1200,
      "▁current": 1201,
      "▁following": 1202,
      "▁again": 1203,
      "erson": 1204,
      "▁line": 1205,
      "▁bel": 1206,
      "▁very": 1207,
      "▁significant": 1208,
      "▁information": 1209,
      "ann": 1210,
      "▁example": 1211,
      "ife": 1212,
      "ency": 1213,
      "az": 1214,
      "▁control": 1215,
      "fer": 1216,
      "▁second": 1217,
      "els": 1218,
      "ser": 1219,
      "ason": 1220,
      "▁gr": 1221,
      "line": 1222,
      "▁To": 1223,
      "▁did": 1224,
      "ral": 1225,
      "land": 1226,
      "gan": 1227,
      "ond": 1228,
      "ten": 1229,
      "ually": 1230,
      "▁struct": 1231,
      "ving": 1232,
      "▁New": 1233,
      "▁object": 1234,
      "ST": 1235,
      "▁Sh": 1236,
      "ants": 1237,
      "▁even": 1238,
      "->": 1239,
      "▁those": 1240,
      "ified": 1241,
      "▁direct": 1242,
      "▁support": 1243,
      "led": 1244,
      "▁tri": 1245,
      "pect": 1246,
      "▁mult": 1247,
      "▁>": 1248,
      "ead": 1249,
      "ener": 1250,
      "way": 1251,
      "CT": 1252,
      "▁hand": 1253,
      "▁state": 1254,
      "▁program": 1255,
      "▁dep": 1256,
      "yt": 1257,
      "str": 1258,
      "ify": 1259,
      "roid": 1260,
      "ology": 1261,
      "▁poss": 1262,
      "hem": 1263,
      "ision": 1264,
      "irc": 1265,
      "▁point": 1266,
      "▁But": 1267,
      "▁exper": 1268,
      "▁str": 1269,
      "▁without": 1270,
      "▁gl": 1271,
      "yn": 1272,
      "▁techn": 1273,
      "agn": 1274,
      "de": 1275,
      "ute": 1276,
      "div": 1277,
      "version": 1278,
      "duct": 1279,
      "ctions": 1280,
      "dd": 1281,
      "face": 1282,
      "icro": 1283,
      "hip": 1284,
      "NA": 1285,
      "▁ed": 1286,
      "ists": 1287,
      "ven": 1288,
      "▁great": 1289,
      "▁design": 1290,
      "▁non": 1291,
      "que": 1292,
      "ished": 1293,
      "aking": 1294,
      "▁rat": 1295,
      "▁report": 1296,
      "▁down": 1297,
      "▁user": 1298,
      "▁results": 1299,
      "be": 1300,
      "▁Cl": 1301,
      "ware": 1302,
      "▁http": 1303,
      "ave": 1304,
      "▁made": 1305,
      "▁three": 1306,
      "▁No": 1307,
      "▁However": 1308,
      "ts": 1309,
      "▁good": 1310,
      "ism": 1311,
      "▁rece": 1312,
      "ential": 1313,
      "▁De": 1314,
      "ior": 1315,
      "Cont": 1316,
      "med": 1317,
      "meric": 1318,
      "orn": 1319,
      "SE": 1320,
      "play": 1321,
      "▁Is": 1322,
      "▁contain": 1323,
      "▁chang": 1324,
      "▁quest": 1325,
      "▁pass": 1326,
      "▁child": 1327,
      "imes": 1328,
      "ouse": 1329,
      "▁dec": 1330,
      "▁rep": 1331,
      "ustom": 1332,
      "lex": 1333,
      "LE": 1334,
      "▁count": 1335,
      "son": 1336,
      "********": 1337,
      "▁ear": 1338,
      "ives": 1339,
      "▁redu": 1340,
      "▁fr": 1341,
      "oh": 1342,
      "▁est": 1343,
      "▁open": 1344,
      "ek": 1345,
      "▁sing": 1346,
      "▁cent": 1347,
      "▁treatment": 1348,
      "Name": 1349,
      "▁typ": 1350,
      "▁Ref": 1351,
      "▁string": 1352,
      "▁tem": 1353,
      "____": 1354,
      "▁associ": 1355,
      "ital": 1356,
      "▁conn": 1357,
      "ault": 1358,
      "▁disc": 1359,
      "▁fam": 1360,
      "of": 1361,
      "▁order": 1362,
      "bl": 1363,
      "ier": 1364,
      "▁App": 1365,
      "aj": 1366,
      "ration": 1367,
      "chool": 1368,
      "▁X": 1369,
      "ems": 1370,
      "▁care": 1371,
      "ivers": 1372,
      "ternal": 1373,
      "▁last": 1374,
      "▁=>": 1375,
      "▁commun": 1376,
      "▁product": 1377,
      "bers": 1378,
      "----------------": 1379,
      "ID": 1380,
      "erg": 1381,
      "mun": 1382,
      "ule": 1383,
      "rid": 1384,
      "ograph": 1385,
      "ocument": 1386,
      "itive": 1387,
      "▁hy": 1388,
      "▁lead": 1389,
      "ets": 1390,
      "ural": 1391,
      "over": 1392,
      "rict": 1393,
      "icense": 1394,
      "atus": 1395,
      "▁opt": 1396,
      "ination": 1397,
      "▁cond": 1398,
      "right": 1399,
      "▁web": 1400,
      "ank": 1401,
      "▁mark": 1402,
      "▁appro": 1403,
      "▁problem": 1404,
      "▁prote": 1405,
      "work": 1406,
      "ters": 1407,
      "oun": 1408,
      "ross": 1409,
      "ah": 1410,
      "ane": 1411,
      "▁project": 1412,
      "▁Con": 1413,
      "itions": 1414,
      "▁%": 1415,
      "ccess": 1416,
      "▁ra": 1417,
      "AN": 1418,
      "\")": 1419,
      "▁including": 1420,
      "hib": 1421,
      "ability": 1422,
      "IC": 1423,
      "▁path": 1424,
      "ience": 1425,
      "▁cour": 1426,
      "Ex": 1427,
      "plic": 1428,
      "▁within": 1429,
      "▁meas": 1430,
      "ething": 1431,
      "▁del": 1432,
      "ness": 1433,
      "▁On": 1434,
      "▁ident": 1435,
      "rac": 1436,
      "ths": 1437,
      "Id": 1438,
      "man": 1439,
      "▁select": 1440,
      "arge": 1441,
      "ysis": 1442,
      "arent": 1443,
      "▁impro": 1444,
      "ows": 1445,
      "▁think": 1446,
      "▁pop": 1447,
      "▁cle": 1448,
      "def": 1449,
      "▁--": 1450,
      "▁much": 1451,
      "Pro": 1452,
      "ask": 1453,
      "umn": 1454,
      "▁mat": 1455,
      "▁vis": 1456,
      "▁adv": 1457,
      "here": 1458,
      "▁prot": 1459,
      "yle": 1460,
      "▁Refere": 1461,
      "▁hum": 1462,
      "▁field": 1463,
      "▁provide": 1464,
      "http": 1465,
      "urs": 1466,
      "▁descri": 1467,
      "▁small": 1468,
      "▁All": 1469,
      "▁*/": 1470,
      "▁error": 1471,
      "AL": 1472,
      "▁health": 1473,
      "iving": 1474,
      "ording": 1475,
      "▁own": 1476,
      "▁invest": 1477,
      "▁determ": 1478,
      "▁addition": 1479,
      "file": 1480,
      "▁term": 1481,
      "▁head": 1482,
      "iness": 1483,
      "arget": 1484,
      "▁My": 1485,
      "ote": 1486,
      "▁corre": 1487,
      "requ": 1488,
      "▁iss": 1489,
      "▁still": 1490,
      "View": 1491,
      "▁team": 1492,
      "ived": 1493,
      "▁lim": 1494,
      "▁equ": 1495,
      "add": 1496,
      "▁day": 1497,
      "▁dise": 1498,
      "▁Pl": 1499,
      "▁bi": 1500,
      "▁u": 1501,
      "▁specific": 1502,
      "▁ve": 1503,
      "▁top": 1504,
      "arm": 1505,
      "▁When": 1506,
      "▁sugg": 1507,
      "ured": 1508,
      "uss": 1509,
      "▁suggest": 1510,
      "ission": 1511,
      "▁avail": 1512,
      "urther": 1513,
      "Cl": 1514,
      "],": 1515,
      "omen": 1516,
      "date": 1517,
      "▁change": 1518,
      "▁best": 1519,
      "cont": 1520,
      "▁occ": 1521,
      "▁Z": 1522,
      "ball": 1523,
      "▁dem": 1524,
      "osis": 1525,
      "▁References": 1526,
      "ately": 1527,
      "▁void": 1528,
      "serv": 1529,
      "au": 1530,
      "ently": 1531,
      "String": 1532,
      ".,": 1533,
      "ider": 1534,
      "amet": 1535,
      "▁Tr": 1536,
      "ream": 1537,
      "▁take": 1538,
      "ession": 1539,
      "▁mus": 1540,
      "▁print": 1541,
      "▁writ": 1542,
      "▁view": 1543,
      "▁Americ": 1544,
      "▁access": 1545,
      "▁low": 1546,
      "▁cap": 1547,
      "col": 1548,
      "ither": 1549,
      "ava": 1550,
      "▁character": 1551,
      "less": 1552,
      "vert": 1553,
      "rite": 1554,
      "▁Sc": 1555,
      "ety": 1556,
      "▁based": 1557,
      "▁aff": 1558,
      "akes": 1559,
      "▁something": 1560,
      "▁pot": 1561,
      "▁sk": 1562,
      "▁stand": 1563,
      ".\"": 1564,
      "▁known": 1565,
      "rain": 1566,
      "▁bus": 1567,
      "essage": 1568,
      "ially": 1569,
      "▁rest": 1570,
      "osed": 1571,
      "▁build": 1572,
      "▁person": 1573,
      "▁id": 1574,
      "iven": 1575,
      "▁What": 1576,
      "▁These": 1577,
      "▁!": 1578,
      "▁since": 1579,
      "▁another": 1580,
      "▁key": 1581,
      "▁model": 1582,
      "stand": 1583,
      "▁ref": 1584,
      "▁text": 1585,
      "ED": 1586,
      "▁eas": 1587,
      "key": 1588,
      "att": 1589,
      "▁inc": 1590,
      "▁fin": 1591,
      "ma": 1592,
      "▁Ind": 1593,
      "itor": 1594,
      "▁Col": 1595,
      "bed": 1596,
      "▁must": 1597,
      "und": 1598,
      "▁create": 1599,
      "ends": 1600,
      "ength": 1601,
      "ways": 1602,
      "ope": 1603,
      "vious": 1604,
      "▁hig": 1605,
      "▁contin": 1606,
      "▁rese": 1607,
      "icle": 1608,
      "clude": 1609,
      "▁grow": 1610,
      "▁possible": 1611,
      "▁bre": 1612,
      "org": 1613,
      "self": 1614,
      "bo": 1615,
      "▁local": 1616,
      "▁Le": 1617,
      "chan": 1618,
      "ystem": 1619,
      "▁around": 1620,
      "not": 1621,
      "by": 1622,
      "ram": 1623,
      "ivid": 1624,
      "tml": 1625,
      "iron": 1626,
      "unction": 1627,
      "back": 1628,
      "▁clin": 1629,
      "▁available": 1630,
      "];": 1631,
      "▁device": 1632,
      "▁sl": 1633,
      "aterial": 1634,
      "por": 1635,
      "orth": 1636,
      "▁image": 1637,
      "lu": 1638,
      "etic": 1639,
      "type": 1640,
      "lection": 1641,
      "ormal": 1642,
      "itle": 1643,
      "ological": 1644,
      "▁pur": 1645,
      "▁life": 1646,
      "▁particular": 1647,
      "▁bo": 1648,
      "▁log": 1649,
      "▁having": 1650,
      "idth": 1651,
      "▁propert": 1652,
      "▁imp": 1653,
      "▁size": 1654,
      "isk": 1655,
      "RO": 1656,
      "▁single": 1657,
      "string": 1658,
      "sw": 1659,
      "▁check": 1660,
      "ET": 1661,
      "▁z": 1662,
      "▁place": 1663,
      "alse": 1664,
      "load": 1665,
      "▁him": 1666,
      "▁bas": 1667,
      "action": 1668,
      "▁power": 1669,
      "▁init": 1670,
      "ik": 1671,
      "ploy": 1672,
      "ibr": 1673,
      "▁self": 1674,
      "mon": 1675,
      "▁though": 1676,
      "the": 1677,
      "▁vol": 1678,
      "▁version": 1679,
      "▁pack": 1680,
      "▁true": 1681,
      "apt": 1682,
      "\");": 1683,
      "AS": 1684,
      "ury": 1685,
      "▁Res": 1686,
      "▁Can": 1687,
      "aces": 1688,
      "▁world": 1689,
      "▁rad": 1690,
      "▁expl": 1691,
      "etwork": 1692,
      "▁record": 1693,
      "▁light": 1694,
      "):": 1695,
      "alk": 1696,
      "aut": 1697,
      "ache": 1698,
      "reg": 1699,
      "ference": 1700,
      "ogen": 1701,
      "▁against": 1702,
      "eb": 1703,
      "ification": 1704,
      "ott": 1705,
      "data": 1706,
      "▁beh": 1707,
      "ilar": 1708,
      "▁application": 1709,
      "▁circ": 1710,
      "▁home": 1711,
      "▁array": 1712,
      "▁priv": 1713,
      "▁organ": 1714,
      "▁sit": 1715,
      "▁important": 1716,
      "mod": 1717,
      "▁comb": 1718,
      "hor": 1719,
      "▁less": 1720,
      "▁et": 1721,
      "▁cal": 1722,
      "▁free": 1723,
      "▁let": 1724,
      "List": 1725,
      "ina": 1726,
      "▁hist": 1727,
      "')": 1728,
      "text": 1729,
      "ining": 1730,
      "▁development": 1731,
      "ception": 1732,
      "▁Ph": 1733,
      "▁micro": 1734,
      "uro": 1735,
      "▁area": 1736,
      "▁associated": 1737,
      "abel": 1738,
      "▁activity": 1739,
      "▁include": 1740,
      "oss": 1741,
      "▁manag": 1742,
      "UR": 1743,
      "▁question": 1744,
      "▁large": 1745,
      "▁port": 1746,
      "cular": 1747,
      "gen": 1748,
      "▁table": 1749,
      "epend": 1750,
      "UT": 1751,
      "ably": 1752,
      "mb": 1753,
      "this": 1754,
      "raw": 1755,
      "▁Pat": 1756,
      "The": 1757,
      "anc": 1758,
      "ivity": 1759,
      "▁sw": 1760,
      "▁better": 1761,
      "▁above": 1762,
      "lished": 1763,
      "inks": 1764,
      "▁License": 1765,
      "IS": 1766,
      "lish": 1767,
      "▁response": 1768,
      "ars": 1769,
      "▁page": 1770,
      "▁custom": 1771,
      "▁really": 1772,
      "▁material": 1773,
      "▁require": 1774,
      "////": 1775,
      "alu": 1776,
      "▁)": 1777,
      "▁mov": 1778,
      "▁mechan": 1779,
      "▁event": 1780,
      "ique": 1781,
      "▁say": 1782,
      "atory": 1783,
      "mit": 1784,
      "▁sever": 1785,
      "Ch": 1786,
      "▁put": 1787,
      "▁_": 1788,
      "▁water": 1789,
      "ftware": 1790,
      "($": 1791,
      "my": 1792,
      "Com": 1793,
      "▁human": 1794,
      "▁working": 1795,
      "til": 1796,
      "▁eng": 1797,
      "▁increased": 1798,
      "iversity": 1799,
      "▁tot": 1800,
      "opt": 1801,
      "▁able": 1802,
      "▁four": 1803,
      "▁Bl": 1804,
      "▁press": 1805,
      "▁Sp": 1806,
      "▁service": 1807,
      "▁respect": 1808,
      "▁else": 1809,
      "▁At": 1810,
      "ails": 1811,
      "▁Or": 1812,
      "Type": 1813,
      "idence": 1814,
      "iple": 1815,
      "▁disease": 1816,
      "▁site": 1817,
      "▁values": 1818,
      "▁==": 1819,
      "thing": 1820,
      "▁display": 1821,
      "▁either": 1822,
      "erest": 1823,
      "ground": 1824,
      "uff": 1825,
      "ajor": 1826,
      "▁orig": 1827,
      "ger": 1828,
      "▁left": 1829,
      "▁indic": 1830,
      "for": 1831,
      "▁might": 1832,
      "iod": 1833,
      "It": 1834,
      "▁few": 1835,
      "▁distribut": 1836,
      "▁invol": 1837,
      "▁age": 1838,
      "▁days": 1839,
      "▁levels": 1840,
      "▁mot": 1841,
      "ension": 1842,
      "▁Ad": 1843,
      "Con": 1844,
      "ird": 1845,
      "▁evalu": 1846,
      "========": 1847,
      "▁old": 1848,
      "▁analysis": 1849,
      "idd": 1850,
      "outh": 1851,
      "▁real": 1852,
      "▁changes": 1853,
      "▁prom": 1854,
      "▁won": 1855,
      "▁spe": 1856,
      "▁game": 1857,
      "▁sens": 1858,
      "mp": 1859,
      "rem": 1860,
      "ump": 1861,
      "▁investig": 1862,
      "▁content": 1863,
      "cle": 1864,
      "time": 1865,
      "ides": 1866,
      "▁allow": 1867,
      "▁card": 1868,
      "▁position": 1869,
      "▁next": 1870,
      "AM": 1871,
      "oph": 1872,
      "▁She": 1873,
      "viron": 1874,
      "ored": 1875,
      "ules": 1876,
      "▁family": 1877,
      "▁mean": 1878,
      "▁children": 1879,
      "▁body": 1880,
      "bject": 1881,
      "duced": 1882,
      "arn": 1883,
      "ves": 1884,
      "▁week": 1885,
      "resent": 1886,
      "▁success": 1887,
      ".”": 1888,
      "▁...": 1889,
      "cription": 1890,
      "ideo": 1891,
      "lete": 1892,
      "ayer": 1893,
      "▁They": 1894,
      "▁With": 1895,
      "].": 1896,
      "www": 1897,
      "equ": 1898,
      "▁expression": 1899,
      "fig": 1900,
      "RE": 1901,
      "fo": 1902,
      "▁effects": 1903,
      "ples": 1904,
      "Val": 1905,
      "▁happ": 1906,
      "▁Here": 1907,
      "▁sure": 1908,
      "▁prof": 1909,
      "lement": 1910,
      "Data": 1911,
      "uit": 1912,
      "▁United": 1913,
      "▁going": 1914,
      "ended": 1915,
      "ern": 1916,
      "▁review": 1917,
      "▁business": 1918,
      "ittle": 1919,
      "▁es": 1920,
      "atures": 1921,
      "Ar": 1922,
      "ee": 1923,
      "oin": 1924,
      "ari": 1925,
      "rug": 1926,
      "go": 1927,
      "▁See": 1928,
      "ertain": 1929,
      "ush": 1930,
      "▁document": 1931,
      "▁higher": 1932,
      "enc": 1933,
      "▁IN": 1934,
      "ror": 1935,
      "▁side": 1936,
      "ending": 1937,
      "erc": 1938,
      "▁load": 1939,
      "▁private": 1940,
      "test": 1941,
      "js": 1942,
      "▁source": 1943,
      "▁ide": 1944,
      "▁cost": 1945,
      "ler": 1946,
      "▁common": 1947,
      "ables": 1948,
      "ref": 1949,
      "####": 1950,
      "▁rele": 1951,
      "▁ep": 1952,
      "▁rate": 1953,
      "▁too": 1954,
      "▁understand": 1955,
      "ised": 1956,
      "▁enc": 1957,
      "▁phot": 1958,
      "include": 1959,
      "▁similar": 1960,
      "▁target": 1961,
      "▁keep": 1962,
      "ape": 1963,
      "usion": 1964,
      "▁due": 1965,
      "▁risk": 1966,
      "▁several": 1967,
      "angu": 1968,
      "▁},": 1969,
      "▁systems": 1970,
      "▁required": 1971,
      "ample": 1972,
      "osp": 1973,
      "▁compon": 1974,
      "uration": 1975,
      "ION": 1976,
      "▁pred": 1977,
      "url": 1978,
      "▁cases": 1979,
      "▁appear": 1980,
      "▁potential": 1981,
      "ty": 1982,
      "▁obtain": 1983,
      "▁install": 1984,
      "rapy": 1985,
      "oor": 1986,
      "▁trying": 1987,
      "▁studies": 1988,
      "▁Des": 1989,
      "ividual": 1990,
      "▁called": 1991,
      "px": 1992,
      "ici": 1993,
      "▁book": 1994,
      "▁arg": 1995,
      "▁clinical": 1996,
      ",\"": 1997,
      "ales": 1998,
      "▁cr": 1999,
      "▁total": 2000,
      "▁compared": 2001,
      "▁women": 2002,
      "value": 2003,
      "ey": 2004,
      "▁observ": 2005,
      "▁US": 2006,
      "site": 2007,
      "▁protein": 2008,
      "▁After": 2009,
      "▁later": 2010,
      "▁Count": 2011,
      "▁school": 2012,
      "ores": 2013,
      "▁scre": 2014,
      "ister": 2015,
      "ayout": 2016,
      "▁output": 2017,
      "▁comput": 2018,
      "ats": 2019,
      "▁inhib": 2020,
      "▁range": 2021,
      "▁means": 2022,
      "▁increase": 2023,
      "ots": 2024,
      "aster": 2025,
      "plement": 2026,
      "order": 2027,
      "af": 2028,
      "HE": 2029,
      "▁short": 2030,
      "ready": 2031,
      "▁dat": 2032,
      "ling": 2033,
      "▁fail": 2034,
      "▁prim": 2035,
      "▁phys": 2036,
      "▁doesn": 2037,
      "▁link": 2038,
      "▁request": 2039,
      "▁One": 2040,
      "ene": 2041,
      "▁major": 2042,
      "ember": 2043,
      "log": 2044,
      "▁lo": 2045,
      "▁groups": 2046,
      "ival": 2047,
      "▁always": 2048,
      "▁foot": 2049,
      "▁interest": 2050,
      "▁players": 2051,
      "▁vir": 2052,
      "▁pract": 2053,
      "\";": 2054,
      "▁below": 2055,
      "▁role": 2056,
      "▁diff": 2057,
      "▁remain": 2058,
      "▁subject": 2059,
      "▁got": 2060,
      "rior": 2061,
      "▁cy": 2062,
      "▁fac": 2063,
      "Res": 2064,
      "▁research": 2065,
      "vironment": 2066,
      "▁`": 2067,
      "ipp": 2068,
      "mber": 2069,
      "▁given": 2070,
      "▁immun": 2071,
      "▁AN": 2072,
      "▁significantly": 2073,
      "ering": 2074,
      "new": 2075,
      "▁air": 2076,
      "▁period": 2077,
      "▁acid": 2078,
      "▁bro": 2079,
      "▁works": 2080,
      "▁input": 2081,
      "▁Cont": 2082,
      "▁copy": 2083,
      "ental": 2084,
      "▁android": 2085,
      "roller": 2086,
      "▁caus": 2087,
      "iver": 2088,
      "▁full": 2089,
      "html": 2090,
      "ours": 2091,
      ",”": 2092,
      "▁/*": 2093,
      "acy": 2094,
      "▁men": 2095,
      "ulated": 2096,
      "▁University": 2097,
      "LL": 2098,
      "▁American": 2099,
      "▁cancer": 2100,
      "ances": 2101,
      "ention": 2102,
      "AP": 2103,
      "AB": 2104,
      "aps": 2105,
      "▁,": 2106,
      "▁various": 2107,
      "ret": 2108,
      "ources": 2109,
      "▁individual": 2110,
      "▁multiple": 2111,
      "▁network": 2112,
      "▁move": 2113,
      "imal": 2114,
      "▁turn": 2115,
      "▁static": 2116,
      "inc": 2117,
      "▁links": 2118,
      "Col": 2119,
      "▁tum": 2120,
      "▁?": 2121,
      "▁little": 2122,
      "enn": 2123,
      "word": 2124,
      "▁hard": 2125,
      "▁String": 2126,
      "▁concent": 2127,
      "AC": 2128,
      "▁config": 2129,
      "asing": 2130,
      "▁law": 2131,
      "ography": 2132,
      "▁dri": 2133,
      "ieve": 2134,
      "▁Te": 2135,
      "uck": 2136,
      "dro": 2137,
      "mission": 2138,
      "▁That": 2139,
      "sy": 2140,
      "▁previous": 2141,
      "▁until": 2142,
      "ume": 2143,
      "▁lower": 2144,
      "▁normal": 2145,
      "iter": 2146,
      "▁final": 2147,
      "▁surface": 2148,
      "▁answ": 2149,
      "▁super": 2150,
      "ffic": 2151,
      "egr": 2152,
      "OT": 2153,
      "raft": 2154,
      "oper": 2155,
      "iles": 2156,
      "co": 2157,
      "▁frequ": 2158,
      "▁gover": 2159,
      "▁tre": 2160,
      "▁});": 2161,
      "ung": 2162,
      "head": 2163,
      "▁prob": 2164,
      "▁standard": 2165,
      "atal": 2166,
      "▁along": 2167,
      "iting": 2168,
      "br": 2169,
      "▁Im": 2170,
      "▁Mar": 2171,
      "▁often": 2172,
      "util": 2173,
      "▁give": 2174,
      "▁company": 2175,
      "▁devices": 2176,
      "▁showed": 2177,
      "▁assess": 2178,
      "▁tool": 2179,
      "▁opp": 2180,
      "OS": 2181,
      "box": 2182,
      "▁ben": 2183,
      "ogle": 2184,
      "ogn": 2185,
      "▁diagn": 2186,
      "▁Eng": 2187,
      "▁paramet": 2188,
      "▁invention": 2189,
      "▁Car": 2190,
      "▁ann": 2191,
      "▁why": 2192,
      "▁names": 2193,
      "ocus": 2194,
      "IG": 2195,
      "fl": 2196,
      "▁decre": 2197,
      "ift": 2198,
      "aging": 2199,
      "▁pain": 2200,
      "itch": 2201,
      "▁provided": 2202,
      "▁States": 2203,
      "▁least": 2204,
      "▁times": 2205,
      "ches": 2206,
      "▁blood": 2207,
      "▁files": 2208,
      "anks": 2209,
      "ather": 2210,
      "▁among": 2211,
      "though": 2212,
      "plate": 2213,
      "▁further": 2214,
      "omy": 2215,
      "▁En": 2216,
      "▁server": 2217,
      "Th": 2218,
      "illion": 2219,
      "heck": 2220,
      "▁Do": 2221,
      "▁early": 2222,
      "▁$\\": 2223,
      "▁wind": 2224,
      "▁exist": 2225,
      "▁red": 2226,
      "▁months": 2227,
      "rc": 2228,
      "▁complex": 2229,
      "');": 2230,
      "▁season": 2231,
      "▁whether": 2232,
      "▁May": 2233,
      "▁things": 2234,
      "ohn": 2235,
      "class": 2236,
      "▁creat": 2237,
      "▁already": 2238,
      "▁exec": 2239,
      "ibility": 2240,
      "▁series": 2241,
      "To": 2242,
      "++": 2243,
      "▁solution": 2244,
      "▁word": 2245,
      "▁drug": 2246,
      "fact": 2247,
      "▁signal": 2248,
      "▁respons": 2249,
      "ley": 2250,
      "iation": 2251,
      "AD": 2252,
      "▁methods": 2253,
      "}{": 2254,
      "▁complet": 2255,
      "abase": 2256,
      "▁null": 2257,
      "▁column": 2258,
      "ators": 2259,
      "▁via": 2260,
      "ising": 2261,
      "▁implement": 2262,
      "sub": 2263,
      "['": 2264,
      "ication": 2265,
      "▁flu": 2266,
      "ched": 2267,
      "omet": 2268,
      "▁Be": 2269,
      "side": 2270,
      "▁film": 2271,
      "ones": 2272,
      "gin": 2273,
      "aring": 2274,
      "ronic": 2275,
      "▁OR": 2276,
      "▁estab": 2277,
      "leg": 2278,
      "▁simple": 2279,
      "▁conditions": 2280,
      "ries": 2281,
      "▁structure": 2282,
      "▁cho": 2283,
      "▁improve": 2284,
      "▁exc": 2285,
      "anguage": 2286,
      "▁ask": 2287,
      "▁System": 2288,
      "ouble": 2289,
      "minist": 2290,
      "olic": 2291,
      "▁ap": 2292,
      "yth": 2293,
      "▁patient": 2294,
      "▁fix": 2295,
      "▁special": 2296,
      "pha": 2297,
      "▁element": 2298,
      "▁win": 2299,
      "ories": 2300,
      "▁plan": 2301,
      "▁sum": 2302,
      "ai": 2303,
      "▁abs": 2304,
      "ML": 2305,
      "▁fore": 2306,
      "▁done": 2307,
      "ocal": 2308,
      "MP": 2309,
      "▁Ab": 2310,
      "▁pub": 2311,
      "▁performance": 2312,
      "▁ox": 2313,
      "▁big": 2314,
      "▁leg": 2315,
      "rec": 2316,
      "ding": 2317,
      "▁OF": 2318,
      "ands": 2319,
      "amm": 2320,
      "▁dr": 2321,
      "▁come": 2322,
      "▁space": 2323,
      "▁experience": 2324,
      "▁Pr": 2325,
      "IL": 2326,
      "▁Int": 2327,
      "▁address": 2328,
      "▁correct": 2329,
      "comm": 2330,
      "▁flow": 2331,
      "▁br": 2332,
      "user": 2333,
      "▁Our": 2334,
      "ams": 2335,
      "▁color": 2336,
      "▁pa": 2337,
      "▁false": 2338,
      "ney": 2339,
      "rror": 2340,
      "▁Cent": 2341,
      "Text": 2342,
      "▁index": 2343,
      "▁calc": 2344,
      "▁separ": 2345,
      "▁pattern": 2346,
      "\".": 2347,
      "▁near": 2348,
      "bum": 2349,
      "▁ach": 2350,
      "oma": 2351,
      "ribute": 2352,
      "inding": 2353,
      "▁lik": 2354,
      "▁Am": 2355,
      "▁repl": 2356,
      "▁max": 2357,
      "▁quality": 2358,
      "▁death": 2359,
      "▁Man": 2360,
      "▁related": 2361,
      "td": 2362,
      "▁bir": 2363,
      "ocial": 2364,
      "function": 2365,
      "▁contact": 2366,
      "rel": 2367,
      "list": 2368,
      "andom": 2369,
      "▁represent": 2370,
      "▁row": 2371,
      "ibrary": 2372,
      "upp": 2373,
      "icon": 2374,
      "rist": 2375,
      "iated": 2376,
      "▁Ass": 2377,
      "▁general": 2378,
      "_{": 2379,
      "▁connect": 2380,
      "onstr": 2381,
      "▁step": 2382,
      "▁bit": 2383,
      "▁video": 2384,
      "ison": 2385,
      "▁block": 2386,
      "inary": 2387,
      "▁however": 2388,
      "▁sec": 2389,
      "▁County": 2390,
      "aff": 2391,
      "lor": 2392,
      "▁surg": 2393,
      "▁lot": 2394,
      "▁services": 2395,
      "▁cult": 2396,
      "odes": 2397,
      "II": 2398,
      "cho": 2399,
      "▁AP": 2400,
      "ounds": 2401,
      "▁making": 2402,
      "▁environment": 2403,
      "▁saf": 2404,
      "frac": 2405,
      "[]": 2406,
      "nal": 2407,
      "▁sequ": 2408,
      "▁action": 2409,
      "▁fri": 2410,
      "****************": 2411,
      "use": 2412,
      "▁demonstr": 2413,
      "▁base": 2414,
      "▁never": 2415,
      "▁amount": 2416,
      "▁crit": 2417,
      "ervice": 2418,
      "▁looking": 2419,
      "ences": 2420,
      "▁offic": 2421,
      "▁clear": 2422,
      "▁products": 2423,
      "▁Go": 2424,
      "▁Not": 2425,
      "▁account": 2426,
      "php": 2427,
      "eal": 2428,
      "▁employ": 2429,
      "aim": 2430,
      "App": 2431,
      "▁region": 2432,
      "▁behav": 2433,
      "ternational": 2434,
      "▁More": 2435,
      "▁deg": 2436,
      "itted": 2437,
      "']": 2438,
      "▁default": 2439,
      "▁tiss": 2440,
      "▁CO": 2441,
      "▁software": 2442,
      "ctor": 2443,
      "respon": 2444,
      "▁Acc": 2445,
      "urity": 2446,
      "ortun": 2447,
      "▁date": 2448,
      "▁prog": 2449,
      "based": 2450,
      "▁market": 2451,
      "▁growth": 2452,
      "▁doing": 2453,
      "▁past": 2454,
      "▁features": 2455,
      "▁issue": 2456,
      "▁created": 2457,
      "▁List": 2458,
      "verage": 2459,
      "ependent": 2460,
      "▁performed": 2461,
      "▁members": 2462,
      "ino": 2463,
      "atter": 2464,
      "▁John": 2465,
      "ires": 2466,
      "▁consider": 2467,
      "ps": 2468,
      "▁relations": 2469,
      "▁received": 2470,
      "▁mar": 2471,
      "oms": 2472,
      "▁recept": 2473,
      "ober": 2474,
      "rad": 2475,
      "▁cou": 2476,
      "▁far": 2477,
      "Object": 2478,
      "▁express": 2479,
      "▁factors": 2480,
      "▁dom": 2481,
      "▁/>": 2482,
      "▁govern": 2483,
      "▁instead": 2484,
      "ae": 2485,
      "▁host": 2486,
      "▁Reg": 2487,
      "▁discuss": 2488,
      "________": 2489,
      "artment": 2490,
      "ING": 2491,
      "▁added": 2492,
      "Value": 2493,
      "▁certain": 2494,
      "▁Qu": 2495,
      "ql": 2496,
      "▁member": 2497,
      "ilt": 2498,
      "▁approach": 2499,
      "ports": 2500,
      "uture": 2501,
      "path": 2502,
      "▁prior": 2503,
      "▁described": 2504,
      "wards": 2505,
      "▁getting": 2506,
      "▁course": 2507,
      "▁toget": 2508,
      "▁integr": 2509,
      "▁together": 2510,
      "▁included": 2511,
      "arr": 2512,
      "ucle": 2513,
      "▁search": 2514,
      "ients": 2515,
      "cing": 2516,
      "▁tried": 2517,
      "iate": 2518,
      "book": 2519,
      "▁Add": 2520,
      "▁By": 2521,
      "empt": 2522,
      "▁Ed": 2523,
      "CH": 2524,
      "▁State": 2525,
      "▁cannot": 2526,
      "▁needs": 2527,
      "icult": 2528,
      "▁feel": 2529,
      "ensive": 2530,
      "year": 2531,
      "▁Mon": 2532,
      "▁mole": 2533,
      "▁Now": 2534,
      "sequ": 2535,
      "oo": 2536,
      "▁};": 2537,
      "▁poly": 2538,
      "ening": 2539,
      "une": 2540,
      "cret": 2541,
      "▁hyp": 2542,
      "▁Gener": 2543,
      "';": 2544,
      "▁focus": 2545,
      "▁la": 2546,
      "▁larg": 2547,
      "wh": 2548,
      "lation": 2549,
      "atively": 2550,
      "olution": 2551,
      "▁Ser": 2552,
      "ros": 2553,
      "▁remov": 2554,
      "▁Us": 2555,
      "▁production": 2556,
      "ids": 2557,
      "▁parent": 2558,
      "iction": 2559,
      "▁subst": 2560,
      "▁percent": 2561,
      "ges": 2562,
      "orage": 2563,
      "▁External": 2564,
      "obal": 2565,
      "script": 2566,
      "ese": 2567,
      "Tr": 2568,
      "▁bar": 2569,
      "▁website": 2570,
      "me": 2571,
      "▁strong": 2572,
      "umber": 2573,
      "▁shown": 2574,
      "▁observed": 2575,
      "▁Cal": 2576,
      "uk": 2577,
      "▁break": 2578,
      "▁Co": 2579,
      "ender": 2580,
      "▁measure": 2581,
      "alf": 2582,
      "▁veh": 2583,
      "▁across": 2584,
      "FF": 2585,
      "▁pan": 2586,
      "▁community": 2587,
      "/-": 2588,
      "eful": 2589,
      "osph": 2590,
      "▁Dist": 2591,
      "▁pressure": 2592,
      "▁dig": 2593,
      "▁pay": 2594,
      "▁types": 2595,
      "▁Me": 2596,
      "DE": 2597,
      "amed": 2598,
      "come": 2599,
      "▁compet": 2600,
      "IM": 2601,
      "▁synt": 2602,
      "aced": 2603,
      "▁reported": 2604,
      "uild": 2605,
      "▁—": 2606,
      "init": 2607,
      "^{": 2608,
      "▁National": 2609,
      "met": 2610,
      "anced": 2611,
      "▁meet": 2612,
      "Mod": 2613,
      "umb": 2614,
      "▁button": 2615,
      "izing": 2616,
      "){": 2617,
      "▁developed": 2618,
      "▁food": 2619,
      "pose": 2620,
      "▁reason": 2621,
      "Im": 2622,
      "ilit": 2623,
      "▁temper": 2624,
      "▁football": 2625,
      "abor": 2626,
      "iddle": 2627,
      "▁match": 2628,
      "▁miss": 2629,
      "ns": 2630,
      "▁autom": 2631,
      "▁Cour": 2632,
      "▁option": 2633,
      "ague": 2634,
      "▁love": 2635,
      "▁according": 2636,
      "▁become": 2637,
      "AG": 2638,
      "▁necess": 2639,
      "pace": 2640,
      "▁release": 2641,
      "▁Med": 2642,
      "imum": 2643,
      "amb": 2644,
      "▁chem": 2645,
      "ergy": 2646,
      "▁From": 2647,
      "▁ang": 2648,
      "....": 2649,
      "▁package": 2650,
      "▁mor": 2651,
      "▁adj": 2652,
      "▁message": 2653,
      "▁respectively": 2654,
      "▁gene": 2655,
      "astic": 2656,
      "▁running": 2657,
      "ruction": 2658,
      "aken": 2659,
      "posed": 2660,
      "▁Jan": 2661,
      "▁job": 2662,
      "▁difficult": 2663,
      "▁seems": 2664,
      "▁valid": 2665,
      "ux": 2666,
      "▁users": 2667,
      "▁conduct": 2668,
      "%)": 2669,
      "iff": 2670,
      "().": 2671,
      "code": 2672,
      "▁World": 2673,
      "ager": 2674,
      "augh": 2675,
      "▁kind": 2676,
      "▁mach": 2677,
      "des": 2678,
      "CL": 2679,
      "iqu": 2680,
      "$.": 2681,
      "hel": 2682,
      "cin": 2683,
      "size": 2684,
      "▁thing": 2685,
      "▁/**": 2686,
      "▁experim": 2687,
      "▁$(": 2688,
      "▁continu": 2689,
      "resh": 2690,
      "body": 2691,
      "▁engine": 2692,
      "ips": 2693,
      "amic": 2694,
      "▁five": 2695,
      "▁once": 2696,
      "▁inside": 2697,
      "IR": 2698,
      "▁$$": 2699,
      "▁seen": 2700,
      "▁album": 2701,
      "▁etc": 2702,
      "▁relationship": 2703,
      "istance": 2704,
      "▁memory": 2705,
      "omic": 2706,
      "pat": 2707,
      "PE": 2708,
      "▁weight": 2709,
      "ython": 2710,
      "▁Then": 2711,
      "lib": 2712,
      "▁Inst": 2713,
      "▁inj": 2714,
      "En": 2715,
      "▁original": 2716,
      "▁style": 2717,
      "▁->": 2718,
      "▁properties": 2719,
      "pper": 2720,
      "▁population": 2721,
      "▁coll": 2722,
      "▁points": 2723,
      "▁primary": 2724,
      "▁elements": 2725,
      "QL": 2726,
      "▁write": 2727,
      "icles": 2728,
      "▁Par": 2729,
      "▁neg": 2730,
      "SS": 2731,
      "▁particip": 2732,
      "▁says": 2733,
      "input": 2734,
      "roph": 2735,
      "▁click": 2736,
      "verse": 2737,
      "▁indust": 2738,
      "irm": 2739,
      "▁property": 2740,
      "▁administ": 2741,
      "▁court": 2742,
      "▁makes": 2743,
      "▁track": 2744,
      "▁today": 2745,
      "▁cut": 2746,
      "semb": 2747,
      "▁events": 2748,
      "▁op": 2749,
      "▁problems": 2750,
      "▁Aust": 2751,
      "most": 2752,
      "istic": 2753,
      "ulate": 2754,
      "ersion": 2755,
      "ENT": 2756,
      "CC": 2757,
      "▁hold": 2758,
      "File": 2759,
      "▁stre": 2760,
      "▁influ": 2761,
      "▁species": 2762,
      "='": 2763,
      "▁cause": 2764,
      "▁regard": 2765,
      "oney": 2766,
      "▁Rec": 2767,
      "const": 2768,
      "▁answer": 2769,
      "obile": 2770,
      "perty": 2771,
      "▁magn": 2772,
      "math": 2773,
      "ev": 2774,
      "HO": 2775,
      "osure": 2776,
      "uments": 2777,
      "▁background": 2778,
      "▁stop": 2779,
      "itud": 2780,
      "><": 2781,
      "▁reve": 2782,
      "▁variable": 2783,
      "reen": 2784,
      "▁online": 2785,
      "▁arr": 2786,
      "state": 2787,
      "▁determine": 2788,
      "▁Thanks": 2789,
      "▁proced": 2790,
      "▁sent": 2791,
      "sole": 2792,
      "▁limit": 2793,
      "yz": 2794,
      "▁‘": 2795,
      "▁tell": 2796,
      "utes": 2797,
      "▁THE": 2798,
      "▁cur": 2799,
      "igned": 2800,
      "▁energy": 2801,
      "▁Min": 2802,
      "lected": 2803,
      "▁actually": 2804,
      "istics": 2805,
      "▁Art": 2806,
      "▁Sub": 2807,
      "▁includes": 2808,
      "▁South": 2809,
      "▁factor": 2810,
      "ged": 2811,
      "▁benef": 2812,
      "▁provides": 2813,
      "hy": 2814,
      "▁young": 2815,
      "ective": 2816,
      "rix": 2817,
      "▁heart": 2818,
      "print": 2819,
      "▁initial": 2820,
      "Class": 2821,
      "▁therapy": 2822,
      "uly": 2823,
      "▁rot": 2824,
      "itional": 2825,
      "▁currently": 2826,
      "▁mix": 2827,
      "▁Pol": 2828,
      "▁mut": 2829,
      "ried": 2830,
      "▁fem": 2831,
      "▁trad": 2832,
      "iol": 2833,
      "▁city": 2834,
      "Qu": 2835,
      "sl": 2836,
      "ags": 2837,
      "ait": 2838,
      "eral": 2839,
      "ster": 2840,
      "lege": 2841,
      "▁https": 2842,
      "▁aim": 2843,
      "▁Gu": 2844,
      "ply": 2845,
      "item": 2846,
      "▁educ": 2847,
      "▁length": 2848,
      "▁needed": 2849,
      "ached": 2850,
      "lied": 2851,
      "▁students": 2852,
      "▁history": 2853,
      "apan": 2854,
      "ills": 2855,
      "▁loss": 2856,
      "▁house": 2857,
      "▁command": 2858,
      "ging": 2859,
      "UN": 2860,
      "));": 2861,
      "duction": 2862,
      "▁Ge": 2863,
      "▁sem": 2864,
      "arning": 2865,
      "irl": 2866,
      "▁effic": 2867,
      "lication": 2868,
      "field": 2869,
      "▁Euro": 2870,
      "index": 2871,
      "▁operation": 2872,
      "▁Court": 2873,
      "isc": 2874,
      "▁sus": 2875,
      "▁away": 2876,
      "off": 2877,
      "CR": 2878,
      "light": 2879,
      "Set": 2880,
      "▁mass": 2881,
      "uation": 2882,
      "▁database": 2883,
      "},": 2884,
      "▁query": 2885,
      "▁fib": 2886,
      "net": 2887,
      "ults": 2888,
      "▁enough": 2889,
      "era": 2890,
      "▁York": 2891,
      "▁Any": 2892,
      "Se": 2893,
      "ta": 2894,
      "▁particularly": 2895,
      "mat": 2896,
      "rome": 2897,
      "rong": 2898,
      "comes": 2899,
      "oman": 2900,
      "▁der": 2901,
      "../": 2902,
      "▁rout": 2903,
      "▁Aut": 2904,
      "▁additional": 2905,
      "▁third": 2906,
      "▁author": 2907,
      "▁located": 2908,
      "IV": 2909,
      "TP": 2910,
      "bb": 2911,
      "▁management": 2912,
      "▁item": 2913,
      "▁surv": 2914,
      "▁easy": 2915,
      "ospital": 2916,
      "▁Per": 2917,
      "bar": 2918,
      "ride": 2919,
      "▁music": 2920,
      "▁please": 2921,
      "▁script": 2922,
      "▁anim": 2923,
      "▁month": 2924,
      "inter": 2925,
      "▁six": 2926,
      "ief": 2927,
      "▁dam": 2928,
      "ains": 2929,
      "tings": 2930,
      "▁double": 2931,
      "CO": 2932,
      "▁country": 2933,
      "▁close": 2934,
      "▁sym": 2935,
      "~~": 2936,
      "▁future": 2937,
      "atform": 2938,
      "aled": 2939,
      "▁prevent": 2940,
      "▁difference": 2941,
      "▁lines": 2942,
      "Test": 2943,
      "lev": 2944,
      "▁Part": 2945,
      "ites": 2946,
      "▁perf": 2947,
      "▁Further": 2948,
      "Item": 2949,
      "▁City": 2950,
      "trans": 2951,
      "oles": 2952,
      "▁sat": 2953,
      "▁Comp": 2954,
      "▁functions": 2955,
      "ike": 2956,
      "▁song": 2957,
      "▁language": 2958,
      "▁Stud": 2959,
      "▁consum": 2960,
      "▁options": 2961,
      "▁probably": 2962,
      "▁yet": 2963,
      "ufact": 2964,
      "▁shows": 2965,
      "▁reference": 2966,
      "▁million": 2967,
      "board": 2968,
      "▁div": 2969,
      "▁cross": 2970,
      "IP": 2971,
      "':": 2972,
      "eks": 2973,
      "▁feature": 2974,
      "▁likely": 2975,
      "dom": 2976,
      "▁status": 2977,
      "het": 2978,
      "▁complete": 2979,
      "▁profession": 2980,
      "▁Copy": 2981,
      "▁enh": 2982,
      "▁obtained": 2983,
      "annel": 2984,
      "▁antib": 2985,
      "▁recomm": 2986,
      "amples": 2987,
      "By": 2988,
      "▁Some": 2989,
      "▁deal": 2990,
      "▁Public": 2991,
      "▁Val": 2992,
      "▁speed": 2993,
      "Un": 2994,
      "▁School": 2995,
      "▁ur": 2996,
      "▁quant": 2997,
      "pecially": 2998,
      "sel": 2999,
      "isms": 3000,
      "Sc": 3001,
      "query": 3002,
      "▁impl": 3003,
      "map": 3004,
      "▁media": 3005,
      "▁random": 3006,
      "▁discl": 3007,
      "▁North": 3008,
      "ework": 3009,
      "▁chall": 3010,
      "▁sil": 3011,
      "▁pers": 3012,
      "▁Your": 3013,
      "▁started": 3014,
      "ocation": 3015,
      "▁recent": 3016,
      "cher": 3017,
      "▁entire": 3018,
      "pre": 3019,
      "oding": 3020,
      "▁box": 3021,
      "▁positive": 3022,
      "▁stim": 3023,
      "group": 3024,
      "▁successful": 3025,
      "▁front": 3026,
      "▁brow": 3027,
      "▁condition": 3028,
      "ops": 3029,
      "gl": 3030,
      "////////": 3031,
      "▁images": 3032,
      "▁Get": 3033,
      "▁social": 3034,
      "like": 3035,
      "▁hydro": 3036,
      "▁terms": 3037,
      "▁effective": 3038,
      "/>": 3039,
      "▁whole": 3040,
      "unch": 3041,
      "▁expect": 3042,
      "}$": 3043,
      "▁ill": 3044,
      "ATE": 3045,
      "▁coun": 3046,
      "▁Christ": 3047,
      "fil": 3048,
      "Sh": 3049,
      "onal": 3050,
      "▁evidence": 3051,
      "Par": 3052,
      "▁relates": 3053,
      "▁useful": 3054,
      "We": 3055,
      "▁width": 3056,
      "illed": 3057,
      "term": 3058,
      "▁location": 3059,
      "ided": 3060,
      "▁title": 3061,
      "▁impact": 3062,
      "▁Also": 3063,
      "▁Sw": 3064,
      "uary": 3065,
      "▁begin": 3066,
      "▁accom": 3067,
      "sembly": 3068,
      "▁decl": 3069,
      "▁Oct": 3070,
      "▁While": 3071,
      "▁sex": 3072,
      "hesis": 3073,
      "▁accept": 3074,
      "down": 3075,
      "▁store": 3076,
      "define": 3077,
      "rest": 3078,
      "▁std": 3079,
      "MS": 3080,
      "▁tw": 3081,
      "▁generally": 3082,
      "nder": 3083,
      "utions": 3084,
      "▁others": 3085,
      "▁reduced": 3086,
      "irection": 3087,
      "▁strateg": 3088,
      "▁grad": 3089,
      "▁Act": 3090,
      "▁org": 3091,
      "Exception": 3092,
      "▁active": 3093,
      "▁expected": 3094,
      "ector": 3095,
      "Int": 3096,
      "indows": 3097,
      "▁ey": 3098,
      "▁technology": 3099,
      "▁anti": 3100,
      "ename": 3101,
      "▁CD": 3102,
      "▁applications": 3103,
      "py": 3104,
      "Error": 3105,
      "▁unit": 3106,
      "▁novel": 3107,
      "▁Rep": 3108,
      "now": 3109,
      "▁ST": 3110,
      "▁areas": 3111,
      "https": 3112,
      "▁Europe": 3113,
      "Add": 3114,
      "aged": 3115,
      "ME": 3116,
      "earch": 3117,
      "▁designed": 3118,
      "oat": 3119,
      "!!": 3120,
      "width": 3121,
      "▁involved": 3122,
      "ament": 3123,
      "▁Japan": 3124,
      "▁didn": 3125,
      "▁weeks": 3126,
      "▁IS": 3127,
      "▁recogn": 3128,
      "mail": 3129,
      "bin": 3130,
      "▁Please": 3131,
      "▁games": 3132,
      "▁instance": 3133,
      "▁government": 3134,
      "Form": 3135,
      "▁computer": 3136,
      "▁spect": 3137,
      "Pl": 3138,
      "bran": 3139,
      "▁layer": 3140,
      "unt": 3141,
      "▁night": 3142,
      "US": 3143,
      "▁consist": 3144,
      "lying": 3145,
      "▁polit": 3146,
      "ana": 3147,
      "▁hours": 3148,
      "▁According": 3149,
      "▁AS": 3150,
      "imate": 3151,
      "▁hom": 3152,
      "oe": 3153,
      "hing": 3154,
      ".)": 3155,
      "more": 3156,
      "▁building": 3157,
      "ained": 3158,
      "fr": 3159,
      "▁cyt": 3160,
      "▁High": 3161,
      "ANT": 3162,
      "▁live": 3163,
      "▁First": 3164,
      "ocyt": 3165,
      "▁released": 3166,
      "▁II": 3167,
      "ascular": 3168,
      "ero": 3169,
      "cast": 3170,
      "Time": 3171,
      "▁email": 3172,
      "▁former": 3173,
      "ethyl": 3174,
      "▁electro": 3175,
      "▁echo": 3176,
      "▁draw": 3177,
      "▁Gr": 3178,
      "▁medical": 3179,
      "▁consid": 3180,
      "ilities": 3181,
      "▁tissue": 3182,
      "OO": 3183,
      "▁SE": 3184,
      "▁components": 3185,
      "▁idea": 3186,
      "eter": 3187,
      "aneous": 3188,
      "rial": 3189,
      "▁paper": 3190,
      "raction": 3191,
      ")-": 3192,
      "▁published": 3193,
      "▁sal": 3194,
      "▁rather": 3195,
      "ensity": 3196,
      "▁Just": 3197,
      "▁aud": 3198,
      "active": 3199,
      "▁Will": 3200,
      "▁ver": 3201,
      "vant": 3202,
      "▁vit": 3203,
      "▁anything": 3204,
      "▁presence": 3205,
      "').": 3206,
      "actions": 3207,
      "▁isol": 3208,
      "point": 3209,
      "▁clean": 3210,
      "▁tumor": 3211,
      "▁intro": 3212,
      "▁screen": 3213,
      "link": 3214,
      "▁lat": 3215,
      "Get": 3216,
      "ners": 3217,
      "▁took": 3218,
      "▁defined": 3219,
      "sec": 3220,
      "▁camp": 3221,
      "NS": 3222,
      "▁training": 3223,
      "▁questions": 3224,
      "ises": 3225,
      "▁Cor": 3226,
      "▁refer": 3227,
      "Ind": 3228,
      "▁stress": 3229,
      "oll": 3230,
      "▁predict": 3231,
      "atural": 3232,
      "▁issues": 3233,
      "▁items": 3234,
      "\").": 3235,
      "ada": 3236,
      "▁HT": 3237,
      "top": 3238,
      "sum": 3239,
      "▁context": 3240,
      "ony": 3241,
      "▁Mc": 3242,
      "▁fav": 3243,
      "▁cardi": 3244,
      "▁temperature": 3245,
      "▁directly": 3246,
      "▁DNA": 3247,
      "▁quick": 3248,
      "▁learn": 3249,
      "bit": 3250,
      "▁Since": 3251,
      "▁bring": 3252,
      "▁client": 3253,
      "Key": 3254,
      "▁someone": 3255,
      "▁fine": 3256,
      "▁compar": 3257,
      "></": 3258,
      "▁throw": 3259,
      "▁seem": 3260,
      "gn": 3261,
      "▁vers": 3262,
      "▁Aug": 3263,
      "▁dyn": 3264,
      "▁thought": 3265,
      "▁maintain": 3266,
      "▁produced": 3267,
      "▁brain": 3268,
      "▁Copyright": 3269,
      "part": 3270,
      "▁District": 3271,
      "▁Dep": 3272,
      "ledge": 3273,
      "▁wrong": 3274,
      "▁attempt": 3275,
      "aches": 3276,
      "▁article": 3277,
      "▁personal": 3278,
      "var": 3279,
      "miss": 3280,
      "▁half": 3281,
      "▁land": 3282,
      "▁Brit": 3283,
      "▁manufact": 3284,
      "ocol": 3285,
      "▁+/-": 3286,
      "▁__": 3287,
      "▁Ne": 3288,
      "▁El": 3289,
      "▁fig": 3290,
      "▁feed": 3291,
      "span": 3292,
      "▁offer": 3293,
      "MA": 3294,
      "Date": 3295,
      "▁details": 3296,
      "▁comes": 3297,
      "▁models": 3298,
      "}\\": 3299,
      "▁height": 3300,
      "▁writing": 3301,
      "zym": 3302,
      "sych": 3303,
      "▁Data": 3304,
      "▁util": 3305,
      "▁increasing": 3306,
      "▁distributed": 3307,
      "▁depend": 3308,
      "tx": 3309,
      "na": 3310,
      "istry": 3311,
      "▁vehicle": 3312,
      "oses": 3313,
      "▁March": 3314,
      "▁necessary": 3315,
      "▁taken": 3316,
      "▁claim": 3317,
      "▁update": 3318,
      "rote": 3319,
      "▁mount": 3320,
      "▁stat": 3321,
      "▁concer": 3322,
      "▁transfer": 3323,
      "hern": 3324,
      "▁Hist": 3325,
      "▁limited": 3326,
      "rm": 3327,
      "▁compl": 3328,
      "▁story": 3329,
      "▁construct": 3330,
      "▁Fl": 3331,
      "▁especially": 3332,
      "▁parameters": 3333,
      "▁Red": 3334,
      "▁Apr": 3335,
      "▁ever": 3336,
      "▁identified": 3337,
      "▁circuit": 3338,
      "Path": 3339,
      "HP": 3340,
      "Requ": 3341,
      "lin": 3342,
      "▁node": 3343,
      "▁Austral": 3344,
      "ze": 3345,
      "▁Gl": 3346,
      "▁unique": 3347,
      "▁section": 3348,
      "▁NS": 3349,
      "dis": 3350,
      "▁agre": 3351,
      "▁considered": 3352,
      "▁selected": 3353,
      "▁convention": 3354,
      "table": 3355,
      "▁contains": 3356,
      "TH": 3357,
      "title": 3358,
      "▁contribut": 3359,
      "acc": 3360,
      "ming": 3361,
      "▁!=": 3362,
      "▁Bo": 3363,
      "▁Germ": 3364,
      "older": 3365,
      "▁face": 3366,
      "▁prec": 3367,
      "oring": 3368,
      "aratus": 3369,
      "▁nucle": 3370,
      "no": 3371,
      "▁insert": 3372,
      "▁plas": 3373,
      "ds": 3374,
      "▁upon": 3375,
      "▁June": 3376,
      "▁ID": 3377,
      "▁looks": 3378,
      "▁processing": 3379,
      "lim": 3380,
      "▁Sm": 3381,
      "ottom": 3382,
      "▁map": 3383,
      "rew": 3384,
      "▁Af": 3385,
      "ects": 3386,
      "▁ens": 3387,
      "color": 3388,
      "▁Sept": 3389,
      "Array": 3390,
      "▁Dr": 3391,
      "itors": 3392,
      "▁January": 3393,
      "▁format": 3394,
      "itis": 3395,
      "▁practice": 3396,
      "▁&&": 3397,
      "cell": 3398,
      "eta": 3399,
      "▁ult": 3400,
      "PO": 3401,
      "▁uses": 3402,
      "bon": 3403,
      "▁apparatus": 3404,
      "mitted": 3405,
      "▁vs": 3406,
      "▁written": 3407,
      "▁played": 3408,
      "HT": 3409,
      "▁Sim": 3410,
      "otic": 3411,
      "▁greater": 3412,
      "amin": 3413,
      "lick": 3414,
      "imately": 3415,
      "vere": 3416,
      "▁;": 3417,
      "▁General": 3418,
      "▁component": 3419,
      "▁remove": 3420,
      "born": 3421,
      "▁thus": 3422,
      "▁Su": 3423,
      "▁came": 3424,
      "▁built": 3425,
      "▁syn": 3426,
      "spec": 3427,
      "▁);": 3428,
      "▁gas": 3429,
      "▁pie": 3430,
      "▁exact": 3431,
      "length": 3432,
      "▁money": 3433,
      "▁Bar": 3434,
      "▁ability": 3435,
      "rast": 3436,
      "▁Fin": 3437,
      "▁altern": 3438,
      "▁capac": 3439,
      "error": 3440,
      "▁concentr": 3441,
      "exp": 3442,
      "▁ax": 3443,
      "riate": 3444,
      "Man": 3445,
      "ymph": 3446,
      "Re": 3447,
      "ceed": 3448,
      "▁complic": 3449,
      "▁usually": 3450,
      "▁Mod": 3451,
      "▁upd": 3452,
      "urch": 3453,
      "▁storage": 3454,
      "▁fast": 3455,
      "tty": 3456,
      "▁loop": 3457,
      "ards": 3458,
      "▁anyone": 3459,
      "▁share": 3460,
      "▁numbers": 3461,
      "ulations": 3462,
      "config": 3463,
      "])": 3464,
      "▁Pre": 3465,
      "▁band": 3466,
      "ampions": 3467,
      "▁controll": 3468,
      "▁compos": 3469,
      "▁proper": 3470,
      "▁tub": 3471,
      "▁arch": 3472,
      "change": 3473,
      "ils": 3474,
      "RI": 3475,
      "▁except": 3476,
      "▁applied": 3477,
      "df": 3478,
      "▁isn": 3479,
      "▁Set": 3480,
      "▁wall": 3481,
      "▁player": 3482,
      "▁п": 3483,
      "joy": 3484,
      "▁formed": 3485,
      "▁held": 3486,
      "▁sort": 3487,
      "ternet": 3488,
      "▁highly": 3489,
      "▁phosph": 3490,
      "▁deb": 3491,
      "array": 3492,
      "▁studied": 3493,
      "▁behavior": 3494,
      "ROM": 3495,
      "}}": 3496,
      ")$": 3497,
      "▁cry": 3498,
      "########": 3499,
      "▁receptor": 3500,
      "▁ess": 3501,
      "encies": 3502,
      "▁namespace": 3503,
      "▁inject": 3504,
      "▁established": 3505,
      "▁treated": 3506,
      "▁news": 3507,
      "▁metab": 3508,
      "▁determined": 3509,
      "▁java": 3510,
      "▁Although": 3511,
      "nown": 3512,
      "▁driv": 3513,
      "▁July": 3514,
      "▁Group": 3515,
      "▁center": 3516,
      "▁Web": 3517,
      "vey": 3518,
      "▁Feb": 3519,
      "▁average": 3520,
      "overed": 3521,
      "▁module": 3522,
      "▁simply": 3523,
      "▁fire": 3524,
      "do": 3525,
      "uel": 3526,
      "left": 3527,
      "▁pick": 3528,
      "ancy": 3529,
      "▁Sun": 3530,
      "▁library": 3531,
      "▁War": 3532,
      "▁April": 3533,
      "iciency": 3534,
      "▁everything": 3535,
      "▁ste": 3536,
      "abled": 3537,
      "▁binding": 3538,
      "▁CON": 3539,
      "▁hot": 3540,
      "▁mom": 3541,
      "ouch": 3542,
      "cember": 3543,
      "▁opportun": 3544,
      "▁clos": 3545,
      "atur": 3546,
      "ste": 3547,
      "▁sympt": 3548,
      "▁pict": 3549,
      "▁///": 3550,
      "GF": 3551,
      "▁fall": 3552,
      "content": 3553,
      "▁econ": 3554,
      "▁frequency": 3555,
      "▁proteins": 3556,
      "▁Pres": 3557,
      "▁improved": 3558,
      "▁recently": 3559,
      "▁Dav": 3560,
      "oon": 3561,
      "vis": 3562,
      "▁func": 3563,
      "elling": 3564,
      "▁reading": 3565,
      "▁buy": 3566,
      "▁phase": 3567,
      "post": 3568,
      "▁La": 3569,
      "▁window": 3570,
      "▁West": 3571,
      "▁talk": 3572,
      "anies": 3573,
      "▁stri": 3574,
      "PS": 3575,
      "▁Post": 3576,
      "▁Trans": 3577,
      "As": 3578,
      "▁accur": 3579,
      "▁His": 3580,
      "▁itself": 3581,
      "▁male": 3582,
      "opl": 3583,
      "page": 3584,
      "▁surgery": 3585,
      "pass": 3586,
      "▁avoid": 3587,
      "▁mechanism": 3588,
      "User": 3589,
      "▁Google": 3590,
      "▁black": 3591,
      "▁differences": 3592,
      "▁heat": 3593,
      "Context": 3594,
      "================": 3595,
      "▁Of": 3596,
      "iques": 3597,
      "ovember": 3598,
      "▁connection": 3599,
      "▁allows": 3600,
      "▁identify": 3601,
      "▁official": 3602,
      "▁send": 3603,
      "▁minutes": 3604,
      "grad": 3605,
      "Query": 3606,
      "▁stage": 3607,
      "▁tim": 3608,
      "ued": 3609,
      "▁arter": 3610,
      "▁rates": 3611,
      "soft": 3612,
      "▁materials": 3613,
      "BC": 3614,
      "▁station": 3615,
      "▁Rel": 3616,
      "▁physical": 3617,
      "▁liter": 3618,
      "▁Out": 3619,
      "place": 3620,
      "▁career": 3621,
      "▁industry": 3622,
      "▁]": 3623,
      "rs": 3624,
      "But": 3625,
      "aily": 3626,
      "▁dest": 3627,
      "State": 3628,
      "▁October": 3629,
      "char": 3630,
      "▁mal": 3631,
      "▁execut": 3632,
      "eger": 3633,
      "▁room": 3634,
      "▁resid": 3635,
      "▁white": 3636,
      "aving": 3637,
      "▁liqu": 3638,
      "eration": 3639,
      "NU": 3640,
      "▁lip": 3641,
      "▁mice": 3642,
      "▁dim": 3643,
      "▁almost": 3644,
      "▁findings": 3645,
      "▁switch": 3646,
      "iam": 3647,
      "▁skin": 3648,
      "reate": 3649,
      "▁()": 3650,
      "ened": 3651,
      "rical": 3652,
      "▁effort": 3653,
      "▁became": 3654,
      "▁Dis": 3655,
      "▁membran": 3656,
      "nes": 3657,
      "▁distribution": 3658,
      "▁named": 3659,
      "▁rats": 3660,
      "▁followed": 3661,
      "▁polic": 3662,
      "Event": 3663,
      "▁pul": 3664,
      "▁filter": 3665,
      "▁Fran": 3666,
      "Al": 3667,
      "▁ri": 3668,
      "▁went": 3669,
      "▁metal": 3670,
      "oud": 3671,
      "Service": 3672,
      "CE": 3673,
      "▁<<": 3674,
      "▁interface": 3675,
      "▁December": 3676,
      "aint": 3677,
      "PD": 3678,
      "▁Ang": 3679,
      "▁Ag": 3680,
      "eople": 3681,
      "anged": 3682,
      "▁Java": 3683,
      "▁cover": 3684,
      "▁sites": 3685,
      "▁mg": 3686,
      "▁quite": 3687,
      "▁thread": 3688,
      "▁Char": 3689,
      "▁sample": 3690,
      "enu": 3691,
      "aching": 3692,
      "related": 3693,
      "ele": 3694,
      "tual": 3695,
      "acing": 3696,
      "urg": 3697,
      "▁told": 3698,
      "▁longer": 3699,
      "Controller": 3700,
      "enced": 3701,
      "▁town": 3702,
      "md": 3703,
      "▁mode": 3704,
      "▁technique": 3705,
      "▁goal": 3706,
      "ama": 3707,
      "label": 3708,
      "▁reduce": 3709,
      "With": 3710,
      "ypes": 3711,
      "\"></": 3712,
      "true": 3713,
      "aries": 3714,
      "button": 3715,
      "used": 3716,
      "ional": 3717,
      "atives": 3718,
      "▁August": 3719,
      "ha": 3720,
      "ithub": 3721,
      "Request": 3722,
      "▁famil": 3723,
      "▁births": 3724,
      "▁outside": 3725,
      "▁template": 3726,
      "▁perfect": 3727,
      "▁correspon": 3728,
      "▁September": 3729,
      "▁console": 3730,
      "CA": 3731,
      "oke": 3732,
      "%,": 3733,
      "▁broad": 3734,
      "▁cam": 3735,
      "Ph": 3736,
      "▁ir": 3737,
      "pi": 3738,
      "▁late": 3739,
      "▁drive": 3740,
      "▁hope": 3741,
      "▁measured": 3742,
      "▁setting": 3743,
      "▁November": 3744,
      "▁Br": 3745,
      "flow": 3746,
      "plit": 3747,
      "▁NOT": 3748,
      "▁cop": 3749,
      "start": 3750,
      "▁achieve": 3751,
      "▁Open": 3752,
      "CD": 3753,
      "▁takes": 3754,
      "▁machine": 3755,
      "▁parts": 3756,
      "db": 3757,
      "▁force": 3758,
      "▁Test": 3759,
      "▁caused": 3760,
      "▁analyz": 3761,
      "▁knowledge": 3762,
      "LO": 3763,
      "());": 3764,
      "▁Use": 3765,
      "▁receive": 3766,
      "▁concentration": 3767,
      "▁label": 3768,
      "osc": 3769,
      "▁prep": 3770,
      "▁therefore": 3771,
      "ponent": 3772,
      "▁taking": 3773,
      "(),": 3774,
      "▁motor": 3775,
      "LECT": 3776,
      "▁activities": 3777,
      "▁squ": 3778,
      "▁src": 3779,
      "▁proposed": 3780,
      "▁diagnosis": 3781,
      "bs": 3782,
      "▁AND": 3783,
      "▁purch": 3784,
      "▁attack": 3785,
      "pty": 3786,
      "da": 3787,
      "mary": 3788,
      "ken": 3789,
      "▁jud": 3790,
      "ESS": 3791,
      "othe": 3792,
      "hest": 3793,
      "▁origin": 3794,
      "▁Other": 3795,
      "▁Using": 3796,
      "\\\\": 3797,
      "▁emb": 3798,
      "host": 3799,
      "▁enzym": 3800,
      "▁lymph": 3801,
      "▁href": 3802,
      "▁Description": 3803,
      "Config": 3804,
      "ections": 3805,
      "induced": 3806,
      "▁collection": 3807,
      "▁promot": 3808,
      "▁ful": 3809,
      "▁previously": 3810,
      "layout": 3811,
      "▁comment": 3812,
      "▁conventional": 3813,
      "▁direction": 3814,
      "▁revealed": 3815,
      "▁rights": 3816,
      "▁continue": 3817,
      "atin": 3818,
      "▁variety": 3819,
      "▁Park": 3820,
      "ync": 3821,
      "▁Spec": 3822,
      "▁adjust": 3823,
      "eed": 3824,
      "▁download": 3825,
      "▁district": 3826,
      "raz": 3827,
      "itude": 3828,
      "▁stra": 3829,
      "with": 3830,
      "▁ground": 3831,
      "▁regular": 3832,
      "▁Pa": 3833,
      "▁samples": 3834,
      "erve": 3835,
      "▁films": 3836,
      "▁club": 3837,
      "▁Ac": 3838,
      "ille": 3839,
      "atically": 3840,
      "▁infection": 3841,
      "▁functional": 3842,
      "leep": 3843,
      "▁multi": 3844,
      "▁global": 3845,
      "▁resistance": 3846,
      "▁Field": 3847,
      "▁Thus": 3848,
      "▁:=": 3849,
      "▁objects": 3850,
      "▁capt": 3851,
      "wise": 3852,
      "▁bad": 3853,
      "▁presented": 3854,
      "▁formation": 3855,
      "▁tests": 3856,
      "asons": 3857,
      "▁Inc": 3858,
      "▁slow": 3859,
      "▁natural": 3860,
      "ifier": 3861,
      "▁believe": 3862,
      "eff": 3863,
      "▁Fr": 3864,
      "▁Up": 3865,
      "coming": 3866,
      "▁central": 3867,
      "▁FROM": 3868,
      "▁root": 3869,
      "▁ball": 3870,
      "▁statement": 3871,
      "▁techniques": 3872,
      "▁tour": 3873,
      "▁Def": 3874,
      "position": 3875,
      "▁forward": 3876,
      "param": 3877,
      "▁cycl": 3878,
      "ridge": 3879,
      "▁communication": 3880,
      "lier": 3881,
      "▁mind": 3882,
      "▁den": 3883,
      "rim": 3884,
      "och": 3885,
      "pir": 3886,
      "▁pair": 3887,
      "▁mobile": 3888,
      "▁File": 3889,
      "EX": 3890,
      "Def": 3891,
      "For": 3892,
      "▁security": 3893,
      "▁containing": 3894,
      "▁matter": 3895,
      "xy": 3896,
      "▁transport": 3897,
      "({": 3898,
      "RA": 3899,
      "ham": 3900,
      "reet": 3901,
      "▁cat": 3902,
      "▁aw": 3903,
      "▁API": 3904,
      "▁repe": 3905,
      "▁English": 3906,
      "RNA": 3907,
      "xx": 3908,
      "dev": 3909,
      "Field": 3910,
      "▁Over": 3911,
      "style": 3912,
      "▁subjects": 3913,
      "▁Let": 3914,
      "▁overall": 3915,
      "▁||": 3916,
      "arily": 3917,
      "▁easily": 3918,
      "(-": 3919,
      "▁board": 3920,
      "▁molecular": 3921,
      "▁ratio": 3922,
      "▁experi": 3923,
      "▁words": 3924,
      "▁generated": 3925,
      "ula": 3926,
      "▁requires": 3927,
      "ights": 3928,
      "odies": 3929,
      "▁approx": 3930,
      "▁cook": 3931,
      "ocket": 3932,
      "EST": 3933,
      "icrosoft": 3934,
      "▁blog": 3935,
      "▁pretty": 3936,
      "▁returns": 3937,
      "xml": 3938,
      "▁enjoy": 3939,
      "base": 3940,
      "▁substr": 3941,
      "▁worked": 3942,
      "▁relative": 3943,
      "eline": 3944,
      "pan": 3945,
      "mark": 3946,
      "operative": 3947,
      "igen": 3948,
      "▁ways": 3949,
      "▁stay": 3950,
      "▁Why": 3951,
      "erved": 3952,
      "▁hospital": 3953,
      "▁Mark": 3954,
      "▁platform": 3955,
      "▁understanding": 3956,
      "▁national": 3957,
      "▁volt": 3958,
      "▁incor": 3959,
      "▁processes": 3960,
      "ruary": 3961,
      "▁enter": 3962,
      "kg": 3963,
      "ica": 3964,
      "parent": 3965,
      "where": 3966,
      "▁living": 3967,
      "▁fit": 3968,
      "gment": 3969,
      "▁characteristics": 3970,
      "▁sn": 3971,
      "▁Read": 3972,
      "select": 3973,
      "▁rap": 3974,
      "known": 3975,
      "▁price": 3976,
      "▁Mich": 3977,
      "conn": 3978,
      "▁vent": 3979,
      "▁Tw": 3980,
      "rick": 3981,
      "▁changed": 3982,
      "▁approp": 3983,
      "▁AD": 3984,
      "▁в": 3985,
      "▁nothing": 3986,
      "▁typically": 3987,
      "▁purpose": 3988,
      "ades": 3989,
      "count": 3990,
      "lock": 3991,
      "object": 3992,
      "▁Windows": 3993,
      "▁sequence": 3994,
      "▁vill": 3995,
      "▁volume": 3996,
      "Ser": 3997,
      "▁doc": 3998,
      "▁save": 3999,
      "▁phone": 4000,
      "SD": 4001,
      "comp": 4002,
      "▁Ob": 4003,
      "▁friend": 4004,
      "▁occurre": 4005,
      "RL": 4006,
      "▁House": 4007,
      "estern": 4008,
      "pack": 4009,
      "▁Bec": 4010,
      "](": 4011,
      "▁insp": 4012,
      "ulin": 4013,
      "Or": 4014,
      "cd": 4015,
      "▁graph": 4016,
      "▁decreased": 4017,
      "▁dose": 4018,
      "▁detect": 4019,
      "▁professional": 4020,
      "ulating": 4021,
      "▁connected": 4022,
      "IF": 4023,
      "▁sound": 4024,
      "▁internal": 4025,
      "▁extra": 4026,
      "ographic": 4027,
      "izes": 4028,
      "▁JS": 4029,
      "Model": 4030,
      "▁testing": 4031,
      "▁Afric": 4032,
      "UL": 4033,
      "txt": 4034,
      "sk": 4035,
      "▁companies": 4036,
      "ugin": 4037,
      "▁WH": 4038,
      "▁combination": 4039,
      "ieved": 4040,
      "▁Found": 4041,
      "▁chrom": 4042,
      "Element": 4043,
      "adem": 4044,
      "▁plate": 4045,
      "PL": 4046,
      "▁mechanisms": 4047,
      "▁tax": 4048,
      "icip": 4049,
      "orph": 4050,
      "▁hit": 4051,
      "▁url": 4052,
      "aur": 4053,
      "cel": 4054,
      "omas": 4055,
      "ressive": 4056,
      "An": 4057,
      "▁Em": 4058,
      "▁decision": 4059,
      "▁reaction": 4060,
      "rape": 4061,
      "▁convert": 4062,
      "▁leading": 4063,
      "igation": 4064,
      "car": 4065,
      "check": 4066,
      "alpha": 4067,
      "▁bone": 4068,
      "▁girl": 4069,
      "ded": 4070,
      "tem": 4071,
      "▁travel": 4072,
      "ampionship": 4073,
      "▁radi": 4074,
      "oz": 4075,
      "▁exhib": 4076,
      "ocks": 4077,
      "▁mess": 4078,
      "▁hyper": 4079,
      "▁plasma": 4080,
      "▁basis": 4081,
      "▁neuro": 4082,
      "▁Mus": 4083,
      "▁Center": 4084,
      "▁Inter": 4085,
      "▁chronic": 4086,
      "urb": 4087,
      "▁task": 4088,
      "avas": 4089,
      "hood": 4090,
      "())": 4091,
      "▁lack": 4092,
      "то": 4093,
      "▁stream": 4094,
      "itory": 4095,
      "▁ord": 4096,
      "▁les": 4097,
      "ias": 4098,
      "▁wide": 4099,
      "▁immed": 4100,
      "iet": 4101,
      "▁SO": 4102,
      "▁International": 4103,
      "▁du": 4104,
      "▁Work": 4105,
      "▁gives": 4106,
      "inst": 4107,
      "▁existing": 4108,
      "▁demonstrated": 4109,
      "pped": 4110,
      "▁concentrations": 4111,
      "▁office": 4112,
      ")(": 4113,
      "▁liquid": 4114,
      "▁prol": 4115,
      "pload": 4116,
      "▁League": 4117,
      "pite": 4118,
      "▁advant": 4119,
      "▁providing": 4120,
      "web": 4121,
      "pm": 4122,
      "▁popular": 4123,
      "illing": 4124,
      "▁infl": 4125,
      "acement": 4126,
      "opic": 4127,
      "rench": 4128,
      "▁roll": 4129,
      "fficient": 4130,
      "▁RE": 4131,
      "▁wor": 4132,
      "``": 4133,
      "▁cool": 4134,
      "▁visual": 4135,
      "aker": 4136,
      "Map": 4137,
      "▁ago": 4138,
      "aves": 4139,
      "Log": 4140,
      "bor": 4141,
      "Over": 4142,
      "▁February": 4143,
      "Of": 4144,
      "apter": 4145,
      "duc": 4146,
      "▁uns": 4147,
      "▁portion": 4148,
      "▁estim": 4149,
      "▁psych": 4150,
      "open": 4151,
      "enses": 4152,
      "▁negative": 4153,
      "ivery": 4154,
      "Code": 4155,
      "▁phen": 4156,
      "Index": 4157,
      "▁Har": 4158,
      "andid": 4159,
      "▁digital": 4160,
      "▁controls": 4161,
      "ifically": 4162,
      "avascript": 4163,
      "github": 4164,
      "▁ge": 4165,
      "▁missing": 4166,
      "ociation": 4167,
      "▁Two": 4168,
      "▁TO": 4169,
      "▁DE": 4170,
      "json": 4171,
      "▁gets": 4172,
      "▁party": 4173,
      "ipment": 4174,
      "argin": 4175,
      "oken": 4176,
      "$,": 4177,
      "▁Calif": 4178,
      "▁secret": 4179,
      "levision": 4180,
      "Read": 4181,
      "iring": 4182,
      "avy": 4183,
      "▁Therefore": 4184,
      "▁с": 4185,
      "▁jour": 4186,
      "▁relatively": 4187,
      "upport": 4188,
      "▁occur": 4189,
      "▁injury": 4190,
      "▁reduction": 4191,
      "▁variables": 4192,
      "call": 4193,
      "▁degree": 4194,
      "olar": 4195,
      "▁During": 4196,
      "▁Ear": 4197,
      "Image": 4198,
      "▁Cons": 4199,
      "▁Ant": 4200,
      "▁mac": 4201,
      "▁evaluated": 4202,
      "▁failure": 4203,
      "▁ANY": 4204,
      "ees": 4205,
      "image": 4206,
      "▁structures": 4207,
      "▁Dem": 4208,
      "▁produce": 4209,
      "▁contract": 4210,
      "iler": 4211,
      "ington": 4212,
      "otype": 4213,
      "▁apply": 4214,
      "clusion": 4215,
      "▁detection": 4216,
      "▁behind": 4217,
      "▁handle": 4218,
      "▁separate": 4219,
      "▁cred": 4220,
      "▁Class": 4221,
      "▁mention": 4222,
      "▁liver": 4223,
      "esis": 4224,
      "\"/>": 4225,
      "▁affect": 4226,
      "▁completely": 4227,
      "▁extract": 4228,
      "run": 4229,
      "rier": 4230,
      "▁monitor": 4231,
      "▁virus": 4232,
      "▁visit": 4233,
      "On": 4234,
      "▁solid": 4235,
      "▁procedure": 4236,
      "▁Most": 4237,
      "▁watch": 4238,
      "▁tools": 4239,
      "▁streng": 4240,
      "▁Health": 4241,
      "▁detail": 4242,
      "▁Bro": 4243,
      "itter": 4244,
      "▁tag": 4245,
      "▁exerc": 4246,
      "▁border": 4247,
      "▁FOR": 4248,
      "sm": 4249,
      "▁investigated": 4250,
      "ayers": 4251,
      "acters": 4252,
      "▁dog": 4253,
      "inate": 4254,
      "\",\"": 4255,
      "▁survival": 4256,
      "cal": 4257,
      "▁safety": 4258,
      "▁induced": 4259,
      "▁efficient": 4260,
      "ico": 4261,
      "▁road": 4262,
      "▁essential": 4263,
      "icity": 4264,
      "▁NU": 4265,
      "▁detected": 4266,
      "FT": 4267,
      "▁que": 4268,
      "▁emerg": 4269,
      "overy": 4270,
      "▁frame": 4271,
      "mar": 4272,
      "▁British": 4273,
      "gor": 4274,
      "Line": 4275,
      "▁Bel": 4276,
      "▁acqu": 4277,
      "▁beaut": 4278,
      "▁favor": 4279,
      "AA": 4280,
      "▁score": 4281,
      "▁creating": 4282,
      "▁programs": 4283,
      "▁individuals": 4284,
      "▁Don": 4285,
      "▁kin": 4286,
      "cil": 4287,
      "▁mm": 4288,
      "ornia": 4289,
      "=\\": 4290,
      "ned": 4291,
      "void": 4292,
      "▁diab": 4293,
      "▁qual": 4294,
      "▁asked": 4295,
      "▁recommend": 4296,
      "inct": 4297,
      "▁Are": 4298,
      "▁fields": 4299,
      "▁activation": 4300,
      "server": 4301,
      "▁oil": 4302,
      "ios": 4303,
      "Button": 4304,
      "▁resources": 4305,
      "CS": 4306,
      "▁College": 4307,
      "▁although": 4308,
      "▁establish": 4309,
      "core": 4310,
      "itable": 4311,
      "▁education": 4312,
      "De": 4313,
      "▁viol": 4314,
      "api": 4315,
      "▁independent": 4316,
      "▁wonder": 4317,
      "▁damage": 4318,
      "▁jo": 4319,
      "▁mid": 4320,
      "▁nan": 4321,
      "▁wanted": 4322,
      "▁friends": 4323,
      "ounced": 4324,
      "▁appears": 4325,
      "ollow": 4326,
      "zz": 4327,
      "▁King": 4328,
      "create": 4329,
      "▁terminal": 4330,
      "IB": 4331,
      "▁imaging": 4332,
      "▁hous": 4333,
      "icians": 4334,
      "▁led": 4335,
      "▁trial": 4336,
      "Ad": 4337,
      "▁alpha": 4338,
      "java": 4339,
      "▁flex": 4340,
      "▁acute": 4341,
      "▁fixed": 4342,
      "▁plant": 4343,
      "▁exposure": 4344,
      "bt": 4345,
      "▁round": 4346,
      "Color": 4347,
      "▁beta": 4348,
      "itation": 4349,
      "▁symptoms": 4350,
      "▁parameter": 4351,
      "ellow": 4352,
      "▁rapid": 4353,
      "------": 4354,
      "arter": 4355,
      "▁auto": 4356,
      "▁Ap": 4357,
      "▁define": 4358,
      "▁genes": 4359,
      "Info": 4360,
      "▁neur": 4361,
      "▁Del": 4362,
      "unc": 4363,
      "ians": 4364,
      "▁bound": 4365,
      "alt": 4366,
      "\"]": 4367,
      "▁latest": 4368,
      "Aut": 4369,
      "ressed": 4370,
      "iance": 4371,
      "istant": 4372,
      "▁muscle": 4373,
      "▁soon": 4374,
      "section": 4375,
      "▁bacter": 4376,
      "▁states": 4377,
      "▁prop": 4378,
      "▁staff": 4379,
      "▁international": 4380,
      "▁н": 4381,
      "▁lost": 4382,
      "▁apprec": 4383,
      "▁offers": 4384,
      "▁Russ": 4385,
      "▁birth": 4386,
      "lymp": 4387,
      "▁voltage": 4388,
      "FL": 4389,
      "ameter": 4390,
      "max": 4391,
      "▁San": 4392,
      "unk": 4393,
      "▁extends": 4394,
      "▁core": 4395,
      "rees": 4396,
      "▁serum": 4397,
      "DA": 4398,
      "itute": 4399,
      "▁walk": 4400,
      "▁America": 4401,
      "▁severe": 4402,
      "▁protected": 4403,
      "▁Sk": 4404,
      "clus": 4405,
      "ochem": 4406,
      "yst": 4407,
      "Size": 4408,
      "option": 4409,
      "▁California": 4410,
      "▁End": 4411,
      "▁Note": 4412,
      "itution": 4413,
      "▁membrane": 4414,
      "▁learning": 4415,
      "osing": 4416,
      "All": 4417,
      "▁basic": 4418,
      "▁served": 4419,
      "▁Department": 4420,
      "▁intra": 4421,
      "▁playing": 4422,
      "▁starting": 4423,
      "▁drop": 4424,
      "▁female": 4425,
      "▁radio": 4426,
      "▁motion": 4427,
      "▁optical": 4428,
      "▁examined": 4429,
      "android": 4430,
      "DS": 4431,
      "▁hor": 4432,
      "▁Day": 4433,
      "ostic": 4434,
      "hent": 4435,
      "ilder": 4436,
      "▁synd": 4437,
      "▁defin": 4438,
      ">>": 4439,
      "▁inn": 4440,
      "▁mag": 4441,
      "▁Form": 4442,
      "▁healthy": 4443,
      "mand": 4444,
      "▁poor": 4445,
      "▁Software": 4446,
      "▁vitro": 4447,
      "▁channel": 4448,
      "ivo": 4449,
      "itivity": 4450,
      "▁directory": 4451,
      "tes": 4452,
      "Count": 4453,
      "indow": 4454,
      "▁animals": 4455,
      "otal": 4456,
      "▁**": 4457,
      "info": 4458,
      "erous": 4459,
      "rapeut": 4460,
      "ocr": 4461,
      "▁wid": 4462,
      "current": 4463,
      "default": 4464,
      "Des": 4465,
      "▁WAR": 4466,
      "gy": 4467,
      "efore": 4468,
      "▁extrem": 4469,
      "▁ensure": 4470,
      "▁throughout": 4471,
      "ii": 4472,
      "▁SQL": 4473,
      "▁satis": 4474,
      "irmed": 4475,
      "DO": 4476,
      "▁Sum": 4477,
      "ondon": 4478,
      "▁susp": 4479,
      "▁Object": 4480,
      "▁rev": 4481,
      "▁larger": 4482,
      "▁born": 4483,
      "▁coming": 4484,
      "ocytes": 4485,
      "from": 4486,
      "oice": 4487,
      "onic": 4488,
      "main": 4489,
      "ECT": 4490,
      "▁suff": 4491,
      "▁PC": 4492,
      "▁adding": 4493,
      "▁constant": 4494,
      "▁culture": 4495,
      "▁Sen": 4496,
      "▁bottom": 4497,
      "PT": 4498,
      "▁nil": 4499,
      "ford": 4500,
      "▁AM": 4501,
      "la": 4502,
      "▁<?": 4503,
      "▁Ste": 4504,
      "ancial": 4505,
      "▁Att": 4506,
      "mm": 4507,
      "▁appropriate": 4508,
      "ipher": 4509,
      "▁forms": 4510,
      "olid": 4511,
      "▁electronic": 4512,
      "MM": 4513,
      "height": 4514,
      "Out": 4515,
      "▁President": 4516,
      "attle": 4517,
      "▁mort": 4518,
      "agement": 4519,
      "▁administration": 4520,
      "▁($": 4521,
      "▁characters": 4522,
      "doc": 4523,
      "enge": 4524,
      "local": 4525,
      "▁resulting": 4526,
      "▁NO": 4527,
      "▁Her": 4528,
      "▁bool": 4529,
      "Manager": 4530,
      "▁trig": 4531,
      "gorith": 4532,
      "VER": 4533,
      "alle": 4534,
      "▁operating": 4535,
      "▁India": 4536,
      "selves": 4537,
      "▁Rem": 4538,
      "izer": 4539,
      "ipe": 4540,
      "struct": 4541,
      "ulf": 4542,
      "eria": 4543,
      "click": 4544,
      "▁mother": 4545,
      "rie": 4546,
      "▁responses": 4547,
      "▁compr": 4548,
      "▁transform": 4549,
      "dir": 4550,
      "▁Air": 4551,
      "▁session": 4552,
      "▁sense": 4553,
      "img": 4554,
      "▁Japanese": 4555,
      "▁Off": 4556,
      "▁adapt": 4557,
      "▁somet": 4558,
      "▁cast": 4559,
      "▁View": 4560,
      "room": 4561,
      "Inter": 4562,
      "▁capacity": 4563,
      "▁contrast": 4564,
      "▁influence": 4565,
      "Ref": 4566,
      "ITY": 4567,
      "▁wa": 4568,
      "▁hop": 4569,
      "My": 4570,
      "agon": 4571,
      "hors": 4572,
      "▁failed": 4573,
      "▁concept": 4574,
      "▁daily": 4575,
      "▁Direct": 4576,
      "▁commerc": 4577,
      "▁bed": 4578,
      "erate": 4579,
      "▁assert": 4580,
      "iat": 4581,
      "▁remains": 4582,
      "▁ple": 4583,
      "egin": 4584,
      "▁China": 4585,
      "▁virtual": 4586,
      "Fr": 4587,
      "omin": 4588,
      "ENSE": 4589,
      "▁Tex": 4590,
      "aling": 4591,
      "▁Indian": 4592,
      "iful": 4593,
      "Table": 4594,
      "ferences": 4595,
      "▁pull": 4596,
      "▁actual": 4597,
      "▁evaluate": 4598,
      "▁Jud": 4599,
      "▁commit": 4600,
      "etes": 4601,
      "FA": 4602,
      "▁places": 4603,
      "▁police": 4604,
      "rate": 4605,
      "▁substant": 4606,
      "▁bal": 4607,
      "▁combined": 4608,
      "▁reli": 4609,
      "▁matrix": 4610,
      "▁challeng": 4611,
      "fort": 4612,
      "orders": 4613,
      "▁Because": 4614,
      "DB": 4615,
      "RANT": 4616,
      "▁catal": 4617,
      "▁comments": 4618,
      "▁delivery": 4619,
      "▁operations": 4620,
      "Node": 4621,
      "▁prefer": 4622,
      "▁equipment": 4623,
      "▁Date": 4624,
      "▁UK": 4625,
      "▁returned": 4626,
      "Act": 4627,
      "▁completed": 4628,
      "▁Free": 4629,
      "Group": 4630,
      "▁tested": 4631,
      "▁hypot": 4632,
      "▁Each": 4633,
      "apping": 4634,
      "▁export": 4635,
      "▁Ca": 4636,
      "stream": 4637,
      "ius": 4638,
      "▁Mac": 4639,
      "▁agg": 4640,
      "▁scale": 4641,
      "▁note": 4642,
      "aining": 4643,
      "▁Fe": 4644,
      "amine": 4645,
      "▁electric": 4646,
      "ui": 4647,
      "▁Met": 4648,
      "ociety": 4649,
      "▁David": 4650,
      "▁domain": 4651,
      "ln": 4652,
      "▁Sy": 4653,
      "riday": 4654,
      "▁transl": 4655,
      "▁panel": 4656,
      "Americ": 4657,
      "contain": 4658,
      "▁critical": 4659,
      "▁Name": 4660,
      "','": 4661,
      "▁projects": 4662,
      "Hand": 4663,
      "aign": 4664,
      "node": 4665,
      "ICENSE": 4666,
      "▁moment": 4667,
      "▁Fil": 4668,
      "▁TV": 4669,
      "ooth": 4670,
      "▁couple": 4671,
      "▁tox": 4672,
      "▁alone": 4673,
      "▁drugs": 4674,
      "▁installed": 4675,
      "▁Det": 4676,
      "CP": 4677,
      "▁WIT": 4678,
      "▁external": 4679,
      "rl": 4680,
      "Box": 4681,
      "rief": 4682,
      "▁London": 4683,
      "▁expert": 4684,
      "Message": 4685,
      "This": 4686,
      "▁guid": 4687,
      "▁customers": 4688,
      "Is": 4689,
      "rect": 4690,
      "▁goes": 4691,
      "ris": 4692,
      "itect": 4693,
      "▁countries": 4694,
      "▁$('": 4695,
      "▁electron": 4696,
      "▁Ret": 4697,
      "product": 4698,
      "otherapy": 4699,
      "(\\": 4700,
      "▁choose": 4701,
      "▁leave": 4702,
      "hetic": 4703,
      "▁attention": 4704,
      "heme": 4705,
      "▁Mr": 4706,
      "anted": 4707,
      "▁classes": 4708,
      "apache": 4709,
      "▁correl": 4710,
      "▁middle": 4711,
      "uge": 4712,
      "▁exception": 4713,
      "Client": 4714,
      "▁Coun": 4715,
      "▁solutions": 4716,
      "cs": 4717,
      "▁fluid": 4718,
      "▁magnetic": 4719,
      "▁Vir": 4720,
      "\":\"": 4721,
      "▁cere": 4722,
      "▁died": 4723,
      "▁lung": 4724,
      "▁aspect": 4725,
      "▁Black": 4726,
      "SP": 4727,
      "undle": 4728,
      "result": 4729,
      "▁entry": 4730,
      "std": 4731,
      "▁notice": 4732,
      "▁configuration": 4733,
      "▁safe": 4734,
      "hand": 4735,
      "▁subsequ": 4736,
      "▁Sch": 4737,
      "Up": 4738,
      "▁carcin": 4739,
      "▁approximately": 4740,
      "▁lib": 4741,
      "▁television": 4742,
      "He": 4743,
      "sql": 4744,
      "▁catch": 4745,
      "▁choice": 4746,
      "((": 4747,
      "▁~": 4748,
      "level": 4749,
      "▁NULL": 4750,
      "▁diseases": 4751,
      "▁controller": 4752,
      "aser": 4753,
      "▁wire": 4754,
      "▁inflamm": 4755,
      "▁collect": 4756,
      "elt": 4757,
      "▁ms": 4758,
      "▁whose": 4759,
      "▁exactly": 4760,
      "▁selection": 4761,
      "▁oxid": 4762,
      "New": 4763,
      "▁medium": 4764,
      "heet": 4765,
      "ologic": 4766,
      "▁reports": 4767,
      "▁scan": 4768,
      "phone": 4769,
      "▁recorded": 4770,
      "abs": 4771,
      "▁indicate": 4772,
      "▁About": 4773,
      "▁Both": 4774,
      "orial": 4775,
      "ael": 4776,
      "▁fully": 4777,
      "▁increases": 4778,
      "▁Main": 4779,
      "▁association": 4780,
      "▁removed": 4781,
      "▁xml": 4782,
      "▁desired": 4783,
      "▁regarding": 4784,
      "oric": 4785,
      "▁maximum": 4786,
      "ERE": 4787,
      "▁Ital": 4788,
      "▁vict": 4789,
      "▁began": 4790,
      "▁breast": 4791,
      "▁Wed": 4792,
      "▁mit": 4793,
      "build": 4794,
      "ialog": 4795,
      "▁Service": 4796,
      "▁whereas": 4797,
      "BA": 4798,
      "▁supply": 4799,
      "▁candid": 4800,
      "▁God": 4801,
      "▁costs": 4802,
      "▁batter": 4803,
      "ocy": 4804,
      "rav": 4805,
      "▁hem": 4806,
      "ping": 4807,
      "▁Friday": 4808,
      "▁everyone": 4809,
      "▁deep": 4810,
      "▁charge": 4811,
      "▁expand": 4812,
      "▁generate": 4813,
      "▁movement": 4814,
      "▁imm": 4815,
      "duce": 4816,
      "▁restrict": 4817,
      "▁metabol": 4818,
      "▁assembly": 4819,
      "▁WARRANT": 4820,
      "ida": 4821,
      "idden": 4822,
      "EM": 4823,
      "cos": 4824,
      "▁touch": 4825,
      "▁older": 4826,
      "▁customer": 4827,
      "▁ut": 4828,
      "hema": 4829,
      "ptions": 4830,
      "ensions": 4831,
      "▁modify": 4832,
      "▁hon": 4833,
      "▁closed": 4834,
      "oom": 4835,
      "Script": 4836,
      "▁molec": 4837,
      "Content": 4838,
      "▁war": 4839,
      "Att": 4840,
      "▁Cup": 4841,
      "▁TH": 4842,
      "Stream": 4843,
      "▁Street": 4844,
      "▁serious": 4845,
      "▁policy": 4846,
      "rapeutic": 4847,
      "band": 4848,
      "▁chemical": 4849,
      "▁documentation": 4850,
      "▁Many": 4851,
      "{\\": 4852,
      "[\"": 4853,
      "▁User": 4854,
      "vas": 4855,
      "▁opening": 4856,
      "see": 4857,
      "▁therm": 4858,
      "▁appeal": 4859,
      "lands": 4860,
      "▁po": 4861,
      "yles": 4862,
      "ellular": 4863,
      "icks": 4864,
      "▁mouse": 4865,
      "EL": 4866,
      "▁lock": 4867,
      "Action": 4868,
      "▁moved": 4869,
      "▁optim": 4870,
      "▁})": 4871,
      "▁vert": 4872,
      "Layout": 4873,
      "▁empty": 4874,
      "▁placed": 4875,
      "inner": 4876,
      "▁records": 4877,
      "ords": 4878,
      "▁Foundation": 4879,
      "▁argument": 4880,
      "▁yield": 4881,
      "DIT": 4882,
      "css": 4883,
      "▁decrease": 4884,
      "hold": 4885,
      "▁elev": 4886,
      "▁advance": 4887,
      "hat": 4888,
      "▁exists": 4889,
      "▁son": 4890,
      "▁electrical": 4891,
      "▁surgical": 4892,
      "▁fet": 4893,
      "▁developing": 4894,
      "▁appe": 4895,
      "▁font": 4896,
      "▁HTML": 4897,
      "▁allowed": 4898,
      "▁substrate": 4899,
      "▁pen": 4900,
      "▁shape": 4901,
      "▁figure": 4902,
      "▁European": 4903,
      "ibly": 4904,
      "▁sometimes": 4905,
      "▁highest": 4906,
      "ishing": 4907,
      "▁stored": 4908,
      "▁green": 4909,
      "▁rules": 4910,
      "CK": 4911,
      "PA": 4912,
      "enty": 4913,
      "last": 4914,
      "▁fed": 4915,
      "▁chain": 4916,
      "▁Android": 4917,
      "▁profile": 4918,
      "▁interview": 4919,
      "olean": 4920,
      "▁operator": 4921,
      "▁construction": 4922,
      "▁Code": 4923,
      "▁rare": 4924,
      "ifest": 4925,
      "▁moving": 4926,
      "▁Another": 4927,
      "▁Furthermore": 4928,
      "▁continuous": 4929,
      "▁Commun": 4930,
      "overn": 4931,
      "ologies": 4932,
      "▁sources": 4933,
      ":(": 4934,
      "▁corresponding": 4935,
      "$$": 4936,
      "▁browser": 4937,
      "find": 4938,
      "▁seven": 4939,
      "▁sleep": 4940,
      "▁upper": 4941,
      "▁sold": 4942,
      "ado": 4943,
      "going": 4944,
      "▁Techn": 4945,
      "▁pregn": 4946,
      "▁bur": 4947,
      "ara": 4948,
      "▁carbon": 4949,
      "▁fre": 4950,
      "▁Version": 4951,
      "▁syndrome": 4952,
      "normal": 4953,
      "missions": 4954,
      "SA": 4955,
      "▁opin": 4956,
      "▁subs": 4957,
      "ought": 4958,
      "▁Such": 4959,
      "mathbb": 4960,
      "▁transmission": 4961,
      "OL": 4962,
      "ij": 4963,
      "▁Face": 4964,
      "▁eight": 4965,
      "▁incorpor": 4966,
      "▁join": 4967,
      "Property": 4968,
      "▁ON": 4969,
      "ications": 4970,
      "PR": 4971,
      "▁implementation": 4972,
      "rt": 4973,
      "▁nature": 4974,
      "CI": 4975,
      "▁signals": 4976,
      "anned": 4977,
      "American": 4978,
      "src": 4979,
      "▁Championship": 4980,
      "▁Log": 4981,
      "faces": 4982,
      "▁IL": 4983,
      "▁Type": 4984,
      "▁resol": 4985,
      "▁Project": 4986,
      "▁conducted": 4987,
      "▁absol": 4988,
      "free": 4989,
      "▁Vis": 4990,
      "▁isolated": 4991,
      "▁Wash": 4992,
      "▁stuff": 4993,
      "▁supported": 4994,
      "ares": 4995,
      "document": 4996,
      "▁situation": 4997,
      "ygen": 4998,
      "ponse": 4999,
      "Version": 5000,
      "▁vector": 5001,
      "▁earlier": 5002,
      "▁delay": 5003,
      "▁CI": 5004,
      "ilitary": 5005,
      "▁award": 5006,
      "▁cert": 5007,
      "▁patterns": 5008,
      "▁settings": 5009,
      "▁units": 5010,
      "write": 5011,
      "▁gluc": 5012,
      "▁compounds": 5013,
      "▁nav": 5014,
      "▁equal": 5015,
      "▁linear": 5016,
      "▁Back": 5017,
      "ras": 5018,
      "abric": 5019,
      "▁degrees": 5020,
      "▁evaluation": 5021,
      "▁follows": 5022,
      "arrow": 5023,
      "helial": 5024,
      "▁URL": 5025,
      "▁Check": 5026,
      "▁princ": 5027,
      "ен": 5028,
      "Fil": 5029,
      "oto": 5030,
      "▁village": 5031,
      "king": 5032,
      "▁ready": 5033,
      "eric": 5034,
      "den": 5035,
      "▁{}": 5036,
      "opath": 5037,
      "▁density": 5038,
      "dim": 5039,
      "▁vivo": 5040,
      "▁carry": 5041,
      "dependent": 5042,
      "'.": 5043,
      "▁Mor": 5044,
      "▁French": 5045,
      "▁outcomes": 5046,
      "ship": 5047,
      "weight": 5048,
      "defined": 5049,
      "▁Republic": 5050,
      "▁Sing": 5051,
      "Override": 5052,
      "▁Australia": 5053,
      "acher": 5054,
      "TO": 5055,
      "▁thick": 5056,
      "asc": 5057,
      "endif": 5058,
      "specific": 5059,
      "▁\"\"": 5060,
      "▁ones": 5061,
      "▁norm": 5062,
      "▁Canada": 5063,
      "▁prepar": 5064,
      "ramework": 5065,
      "▁modern": 5066,
      "coh": 5067,
      "▁float": 5068,
      "▁regions": 5069,
      "▁suggested": 5070,
      "▁exercise": 5071,
      "▁News": 5072,
      "▁expressed": 5073,
      "▁Lin": 5074,
      "▁mig": 5075,
      "press": 5076,
      "▁cort": 5077,
      "▁pharm": 5078,
      "▁calls": 5079,
      "▁conver": 5080,
      "▁glass": 5081,
      "ube": 5082,
      "▁causes": 5083,
      "▁regist": 5084,
      "${": 5085,
      "▁alternative": 5086,
      "che": 5087,
      "▁Circ": 5088,
      "orge": 5089,
      "ville": 5090,
      "▁Texas": 5091,
      "▁specifically": 5092,
      "otes": 5093,
      "▁outcome": 5094,
      "omb": 5095,
      "▁River": 5096,
      "▁cryst": 5097,
      "▁relevant": 5098,
      "▁distance": 5099,
      "UI": 5100,
      "▁Mal": 5101,
      "▁SELECT": 5102,
      "iding": 5103,
      "▁books": 5104,
      "▁Monday": 5105,
      "▁steps": 5106,
      "▁license": 5107,
      "▁gast": 5108,
      "tag": 5109,
      "▁deaths": 5110,
      "▁errors": 5111,
      "block": 5112,
      "ductor": 5113,
      "▁UN": 5114,
      "▁diet": 5115,
      "▁driver": 5116,
      "▁prem": 5117,
      "ranch": 5118,
      "▁Port": 5119,
      "▁meeting": 5120,
      "ть": 5121,
      "▁nut": 5122,
      "▁responsible": 5123,
      "ester": 5124,
      "▁opportunity": 5125,
      "▁Olymp": 5126,
      "gu": 5127,
      "hydro": 5128,
      "▁Law": 5129,
      "iately": 5130,
      "angle": 5131,
      "PP": 5132,
      "Conn": 5133,
      "beta": 5134,
      "▁teams": 5135,
      "can": 5136,
      "▁shared": 5137,
      "event": 5138,
      "▁commercial": 5139,
      "▁adult": 5140,
      "▁inform": 5141,
      "▁saw": 5142,
      "▁coord": 5143,
      "▁react": 5144,
      "▁traditional": 5145,
      "URL": 5146,
      "rupt": 5147,
      "ban": 5148,
      "▁labor": 5149,
      "▁folder": 5150,
      "aa": 5151,
      "▁shop": 5152,
      "emia": 5153,
      "▁alt": 5154,
      "icated": 5155,
      "bes": 5156,
      "cat": 5157,
      "▁gly": 5158,
      "▁Time": 5159,
      "▁joint": 5160,
      "▁parents": 5161,
      "▁EX": 5162,
      "▁Dan": 5163,
      "▁passed": 5164,
      "rown": 5165,
      "Us": 5166,
      "▁counter": 5167,
      "▁genetic": 5168,
      "▁requirements": 5169,
      "▁Hol": 5170,
      "adian": 5171,
      "▁Develop": 5172,
      "▁container": 5173,
      "iling": 5174,
      "▁epis": 5175,
      "wood": 5176,
      "▁assum": 5177,
      "uffer": 5178,
      "▁decided": 5179,
      "ART": 5180,
      "▁controlled": 5181,
      "source": 5182,
      "▁park": 5183,
      "▁quickly": 5184,
      "ра": 5185,
      "plant": 5186,
      "▁Phil": 5187,
      "▁star": 5188,
      "Living": 5189,
      "%.": 5190,
      "={": 5191,
      "ocard": 5192,
      "▁reflect": 5193,
      "▁Prov": 5194,
      "reated": 5195,
      "▁towards": 5196,
      "▁situ": 5197,
      "Cs": 5198,
      "ician": 5199,
      "▁satisf": 5200,
      "orb": 5201,
      "search": 5202,
      "▁+=": 5203,
      "▁<!": 5204,
      "iers": 5205,
      "weet": 5206,
      "model": 5207,
      "________________": 5208,
      "return": 5209,
      "iological": 5210,
      "▁fund": 5211,
      "▁spring": 5212,
      "Ent": 5213,
      "rypt": 5214,
      "▁slight": 5215,
      "▁manner": 5216,
      "edia": 5217,
      "▁pow": 5218,
      "▁East": 5219,
      "▁description": 5220,
      "▁ign": 5221,
      "▁buff": 5222,
      "▁wrote": 5223,
      "ny": 5224,
      "ABLE": 5225,
      "▁experimental": 5226,
      "Source": 5227,
      "▁Super": 5228,
      "icens": 5229,
      "rices": 5230,
      "▁frag": 5231,
      "▁stack": 5232,
      "plicit": 5233,
      "▁History": 5234,
      "ools": 5235,
      "▁ideas": 5236,
      "▁giving": 5237,
      "▁instr": 5238,
      "▁families": 5239,
      "▁showing": 5240,
      "lo": 5241,
      "▁eth": 5242,
      "▁mer": 5243,
      "▁picture": 5244,
      "IO": 5245,
      "▁df": 5246,
      "▁cellular": 5247,
      "wide": 5248,
      "▁kid": 5249,
      "ala": 5250,
      "▁Ke": 5251,
      "uster": 5252,
      "asm": 5253,
      "asks": 5254,
      "▁student": 5255,
      "▁announced": 5256,
      "win": 5257,
      "▁James": 5258,
      "▁investigate": 5259,
      "bu": 5260,
      "▁excell": 5261,
      "▁describe": 5262,
      "▁replace": 5263,
      "▁Every": 5264,
      "inese": 5265,
      "▁Apple": 5266,
      "▁smaller": 5267,
      "▁bond": 5268,
      "▁affected": 5269,
      "▁automatically": 5270,
      "ria": 5271,
      "▁Id": 5272,
      "Inst": 5273,
      "▁receiving": 5274,
      "ointer": 5275,
      "uesday": 5276,
      "▁Div": 5277,
      "▁<-": 5278,
      "elcome": 5279,
      "ili": 5280,
      "▁occurred": 5281,
      "Ed": 5282,
      "sin": 5283,
      "png": 5284,
      "valid": 5285,
      "▁comparison": 5286,
      "▁protocol": 5287,
      "▁woman": 5288,
      "▁password": 5289,
      "urance": 5290,
      "▁neigh": 5291,
      "gener": 5292,
      "adding": 5293,
      "▁Run": 5294,
      "▁race": 5295,
      "./": 5296,
      "▁PM": 5297,
      "▁tree": 5298,
      "([": 5299,
      "▁agents": 5300,
      "EG": 5301,
      "▁mis": 5302,
      "▁measures": 5303,
      "Number": 5304,
      "olf": 5305,
      "Be": 5306,
      "▁yourself": 5307,
      "dat": 5308,
      "haps": 5309,
      "▁PHP": 5310,
      "▁ast": 5311,
      "▁onto": 5312,
      "request": 5313,
      "lee": 5314,
      "▁GNU": 5315,
      "▁info": 5316,
      "▁Program": 5317,
      "▁Mem": 5318,
      "▁nit": 5319,
      "chron": 5320,
      "▁nice": 5321,
      "▁meaning": 5322,
      "▁protect": 5323,
      "estion": 5324,
      "▁Satur": 5325,
      "▁German": 5326,
      "ls": 5327,
      "rought": 5328,
      "▁analys": 5329,
      "▁assessment": 5330,
      "stract": 5331,
      "▁Thank": 5332,
      "MO": 5333,
      "▁confirmed": 5334,
      "▁runs": 5335,
      "▁progress": 5336,
      "▁camera": 5337,
      "▁resource": 5338,
      "▁rule": 5339,
      "▁worth": 5340,
      "▁Association": 5341,
      "▁immediately": 5342,
      "▁pet": 5343,
      "Trans": 5344,
      "▁coupl": 5345,
      "][": 5346,
      "▁mortality": 5347,
      ":\\": 5348,
      "▁Fed": 5349,
      "▁Washington": 5350,
      "▁dys": 5351,
      "▁push": 5352,
      "▁scient": 5353,
      "inity": 5354,
      "▁efficiency": 5355,
      "▁eye": 5356,
      "LA": 5357,
      "rd": 5358,
      "▁aware": 5359,
      "▁Ev": 5360,
      "▁president": 5361,
      "▁piece": 5362,
      "iform": 5363,
      "▁[]": 5364,
      "which": 5365,
      "▁Rich": 5366,
      "▁Paul": 5367,
      "▁pept": 5368,
      "▁legal": 5369,
      "num": 5370,
      "▁carried": 5371,
      "▁ow": 5372,
      "▁gold": 5373,
      "▁sell": 5374,
      "ignment": 5375,
      "▁campaign": 5376,
      "asket": 5377,
      "▁algorith": 5378,
      "▁lab": 5379,
      "▁tempor": 5380,
      ")\\": 5381,
      "spective": 5382,
      "▁cart": 5383,
      "▁assessed": 5384,
      "CON": 5385,
      "▁interaction": 5386,
      "No": 5387,
      "▁и": 5388,
      "▁dynamic": 5389,
      "▁Facebook": 5390,
      "KE": 5391,
      "Sub": 5392,
      "▁Great": 5393,
      "▁Che": 5394,
      "force": 5395,
      "▁Sunday": 5396,
      "utive": 5397,
      "usiness": 5398,
      "gar": 5399,
      "roke": 5400,
      "▁bul": 5401,
      "▁har": 5402,
      "▁reach": 5403,
      "▁therapeutic": 5404,
      "ivil": 5405,
      "▁chart": 5406,
      "orter": 5407,
      "▁financial": 5408,
      "tee": 5409,
      "Input": 5410,
      "anges": 5411,
      "▁secondary": 5412,
      "▁repair": 5413,
      "▁AR": 5414,
      "▁fair": 5415,
      "▁rows": 5416,
      "▁directed": 5417,
      "но": 5418,
      "Load": 5419,
      "▁regul": 5420,
      "▁demand": 5421,
      "▁Di": 5422,
      "▁gave": 5423,
      "gs": 5424,
      "Not": 5425,
      "▁rob": 5426,
      "ka": 5427,
      "nesday": 5428,
      "hi": 5429,
      "▁achieved": 5430,
      "vest": 5431,
      "▁Fire": 5432,
      "▁Mult": 5433,
      "ogenesis": 5434,
      "QU": 5435,
      "null": 5436,
      "▁ion": 5437,
      "▁cycle": 5438,
      "ped": 5439,
      "amily": 5440,
      "▁saying": 5441,
      "▁changing": 5442,
      "▁columns": 5443,
      "▁Internet": 5444,
      "▁strategy": 5445,
      "▁ten": 5446,
      "▁summer": 5447,
      "▁fram": 5448,
      "▁Array": 5449,
      "IES": 5450,
      "▁ng": 5451,
      "▁Does": 5452,
      "▁blue": 5453,
      "▁reasons": 5454,
      "tra": 5455,
      "ruit": 5456,
      "Listener": 5457,
      "TER": 5458,
      "NO": 5459,
      "And": 5460,
      "hens": 5461,
      "▁enzyme": 5462,
      "XX": 5463,
      "asis": 5464,
      "▁cele": 5465,
      "▁north": 5466,
      "▁Tuesday": 5467,
      "▁themselves": 5468,
      "ership": 5469,
      "▁behavi": 5470,
      "▁bank": 5471,
      "▁ampl": 5472,
      "itative": 5473,
      "▁beginning": 5474,
      "▁extension": 5475,
      "////////////////": 5476,
      "▁tend": 5477,
      "▁Current": 5478,
      "▁agent": 5479,
      "▁helps": 5480,
      "▁generation": 5481,
      "AV": 5482,
      "▁ded": 5483,
      "SH": 5484,
      "▁die": 5485,
      "▁shoot": 5486,
      "▁Even": 5487,
      "▁##": 5488,
      "ursday": 5489,
      "▁beautiful": 5490,
      "▁advantage": 5491,
      "▁PD": 5492,
      "▁distinct": 5493,
      "▁organization": 5494,
      "Web": 5495,
      "▁sales": 5496,
      "ervices": 5497,
      "first": 5498,
      "▁enhance": 5499,
      "za": 5500,
      "ota": 5501,
      "▁cardiac": 5502,
      "▁inner": 5503,
      "▁IP": 5504,
      "▁fill": 5505,
      "▁Pet": 5506,
      "▁lives": 5507,
      "▁morph": 5508,
      "▁literature": 5509,
      "▁Na": 5510,
      "▁Saturday": 5511,
      "▁conv": 5512,
      "▁oral": 5513,
      "▁maybe": 5514,
      "▁apparent": 5515,
      "▁collected": 5516,
      "▁CT": 5517,
      "▁Rober": 5518,
      "inf": 5519,
      "▁AT": 5520,
      "pg": 5521,
      "false": 5522,
      "allel": 5523,
      "message": 5524,
      "▁largest": 5525,
      "ictionary": 5526,
      "▁highlight": 5527,
      "ario": 5528,
      "▁sen": 5529,
      "▁advanced": 5530,
      "▁Sur": 5531,
      "Point": 5532,
      "▁becomes": 5533,
      "Result": 5534,
      "▁discussed": 5535,
      "nel": 5536,
      "▁fat": 5537,
      "▁scen": 5538,
      "▁route": 5539,
      "iveness": 5540,
      "undred": 5541,
      "▁movie": 5542,
      "iment": 5543,
      "▁guide": 5544,
      "SQL": 5545,
      "rogen": 5546,
      "▁displ": 5547,
      "raint": 5548,
      "▁analyzed": 5549,
      "▁Application": 5550,
      "UB": 5551,
      "▁CR": 5552,
      "▁Text": 5553,
      "ements": 5554,
      "aved": 5555,
      "▁hair": 5556,
      "▁strength": 5557,
      "▁political": 5558,
      "▁±": 5559,
      "▁preval": 5560,
      "FC": 5561,
      "roy": 5562,
      "cohol": 5563,
      "▁Wednesday": 5564,
      "otox": 5565,
      "▁finding": 5566,
      "UD": 5567,
      "Reg": 5568,
      "▁door": 5569,
      "▁south": 5570,
      "orthern": 5571,
      "izations": 5572,
      "▁indicated": 5573,
      "▁rock": 5574,
      "ildren": 5575,
      "iconductor": 5576,
      "(){": 5577,
      "▁fuel": 5578,
      "century": 5579,
      "▁Second": 5580,
      "▁finally": 5581,
      "▁peripher": 5582,
      "lig": 5583,
      "▁Best": 5584,
      "▁England": 5585,
      "▁fight": 5586,
      "▁wild": 5587,
      "▁encoding": 5588,
      "akers": 5589,
      "inated": 5590,
      "▁sets": 5591,
      "▁interested": 5592,
      "irable": 5593,
      "inger": 5594,
      "▁serve": 5595,
      "ini": 5596,
      "▁attribut": 5597,
      "▁sensitivity": 5598,
      "▁к": 5599,
      "sem": 5600,
      "▁enable": 5601,
      "▁driving": 5602,
      "unit": 5603,
      "creen": 5604,
      "iatric": 5605,
      "aughter": 5606,
      "▁Govern": 5607,
      "▁immune": 5608,
      "writ": 5609,
      "▁Try": 5610,
      "▁interesting": 5611,
      "▁compare": 5612,
      "▁tit": 5613,
      "pping": 5614,
      "++)": 5615,
      "▁Hel": 5616,
      "▁html": 5617,
      "DER": 5618,
      "▁Dec": 5619,
      "▁Book": 5620,
      "▁Home": 5621,
      "▁happen": 5622,
      "▁occurs": 5623,
      "▁pages": 5624,
      "▁benefit": 5625,
      "ifying": 5626,
      "▁properly": 5627,
      "▁Microsoft": 5628,
      "Bar": 5629,
      "▁surround": 5630,
      "Rec": 5631,
      "▁er": 5632,
      "process": 5633,
      "▁Thursday": 5634,
      "▁vac": 5635,
      "▁none": 5636,
      "▁wait": 5637,
      "asp": 5638,
      "▁father": 5639,
      "▁prepared": 5640,
      "▁skills": 5641,
      "cut": 5642,
      "▁Mag": 5643,
      "ateral": 5644,
      "ellant": 5645,
      "▁brand": 5646,
      "▁clients": 5647,
      "▁growing": 5648,
      "▁synthesis": 5649,
      "})": 5650,
      "begin": 5651,
      "▁header": 5652,
      "▁Bi": 5653,
      "▁Arch": 5654,
      "▁solve": 5655,
      "▁architect": 5656,
      "ORT": 5657,
      "erior": 5658,
      "outhern": 5659,
      "▁margin": 5660,
      "▁challenge": 5661,
      "yg": 5662,
      "▁],": 5663,
      "▁fresh": 5664,
      "▁Pal": 5665,
      "anging": 5666,
      "People": 5667,
      "▁opened": 5668,
      "▁photos": 5669,
      "▁morning": 5670,
      "▁Python": 5671,
      "iant": 5672,
      "target": 5673,
      "▁alter": 5674,
      "▁floor": 5675,
      "▁Mat": 5676,
      "▁Under": 5677,
      "'),": 5678,
      "▁symb": 5679,
      "▁chance": 5680,
      "rian": 5681,
      "▁recip": 5682,
      "chem": 5683,
      "▁ter": 5684,
      "atever": 5685,
      "▁renal": 5686,
      "isions": 5687,
      "▁menu": 5688,
      "▁mentioned": 5689,
      "▁manufacture": 5690,
      "su": 5691,
      "▁Leg": 5692,
      "▁pump": 5693,
      "ogenic": 5694,
      "len": 5695,
      "▁dro": 5696,
      "▁epit": 5697,
      "Default": 5698,
      "▁UI": 5699,
      "rh": 5700,
      "▁Sl": 5701,
      "▁Moreover": 5702,
      "▁benefits": 5703,
      "aught": 5704,
      "icine": 5705,
      "▁Club": 5706,
      "▁Miss": 5707,
      "▁ring": 5708,
      "▁DO": 5709,
      "▁Chinese": 5710,
      "ро": 5711,
      "draw": 5712,
      "▁mel": 5713,
      "▁tick": 5714,
      "Click": 5715,
      "▁brief": 5716,
      "▁finished": 5717,
      "▁otherwise": 5718,
      "ycl": 5719,
      "Page": 5720,
      "▁dry": 5721,
      "ontal": 5722,
      "▁plans": 5723,
      "▁lesions": 5724,
      "▁inhibition": 5725,
      "▁straight": 5726,
      "google": 5727,
      "men": 5728,
      "▁director": 5729,
      "▁protection": 5730,
      "TR": 5731,
      "▁Apache": 5732,
      "▁Server": 5733,
      "▁Lou": 5734,
      "▁goals": 5735,
      "▁involve": 5736,
      "▁Bre": 5737,
      "▁Long": 5738,
      "imer": 5739,
      "output": 5740,
      "▁arm": 5741,
      "▁Care": 5742,
      "▁calling": 5743,
      "▁survey": 5744,
      "▁framework": 5745,
      "poses": 5746,
      "▁statist": 5747,
      "▁OS": 5748,
      "▁elim": 5749,
      "▁successfully": 5750,
      "oster": 5751,
      "▁db": 5752,
      "▁Rad": 5753,
      "thlet": 5754,
      "▁tumors": 5755,
      "▁Custom": 5756,
      "▁Tom": 5757,
      "▁obvious": 5758,
      "foo": 5759,
      "▁Once": 5760,
      "▁happy": 5761,
      "▁Follow": 5762,
      "lections": 5763,
      "▁fabric": 5764,
      "▁Patent": 5765,
      "▁native": 5766,
      "▁trou": 5767,
      "grade": 5768,
      "▁college": 5769,
      "▁attached": 5770,
      "show": 5771,
      "▁Jack": 5772,
      "monary": 5773,
      "▁dead": 5774,
      "inder": 5775,
      "▁limitations": 5776,
      "▁appoint": 5777,
      "▁derived": 5778,
      "▁disorders": 5779,
      "ech": 5780,
      "▁leads": 5781,
      "▁repro": 5782,
      "osition": 5783,
      "author": 5784,
      "▁diabetes": 5785,
      "▁excellent": 5786,
      "▁guess": 5787,
      "▁procedures": 5788,
      "aper": 5789,
      "ytic": 5790,
      "uman": 5791,
      "uth": 5792,
      "azine": 5793,
      "email": 5794,
      "▁Well": 5795,
      "▁listed": 5796,
      "▁horm": 5797,
      "Base": 5798,
      "bre": 5799,
      "▁Que": 5800,
      "activ": 5801,
      "▁Council": 5802,
      "aud": 5803,
      "icate": 5804,
      "▁tele": 5805,
      "det": 5806,
      "format": 5807,
      "rum": 5808,
      "▁appeared": 5809,
      "sq": 5810,
      "▁Michael": 5811,
      "▁integrated": 5812,
      "rot": 5813,
      "▁correlation": 5814,
      "ears": 5815,
      "▁eyes": 5816,
      "▁tab": 5817,
      "▁Error": 5818,
      "▁spread": 5819,
      "ifications": 5820,
      "agen": 5821,
      "▁mic": 5822,
      "▁surpr": 5823,
      "At": 5824,
      "Tem": 5825,
      "hell": 5826,
      "▁importance": 5827,
      "▁improvement": 5828,
      "lets": 5829,
      "▁WHERE": 5830,
      "▁commonly": 5831,
      "▁correctly": 5832,
      "next": 5833,
      "▁Bas": 5834,
      "▁tal": 5835,
      "▁Research": 5836,
      "▁recovery": 5837,
      "▁referred": 5838,
      "▁peak": 5839,
      "▁shift": 5840,
      "▁oxygen": 5841,
      "actory": 5842,
      "kin": 5843,
      "▁Oh": 5844,
      "▁-->": 5845,
      "icensed": 5846,
      "▁Mart": 5847,
      "exec": 5848,
      "illa": 5849,
      "omal": 5850,
      "▁environmental": 5851,
      "▁Ben": 5852,
      "ILITY": 5853,
      "aming": 5854,
      "▁White": 5855,
      "urt": 5856,
      "From": 5857,
      "▁Tra": 5858,
      "▁mes": 5859,
      "append": 5860,
      "▁authors": 5861,
      "▁articles": 5862,
      "prot": 5863,
      "▁plays": 5864,
      "▁Related": 5865,
      "▁examples": 5866,
      "▁hypert": 5867,
      "▁suitable": 5868,
      "▁Invention": 5869,
      "▁receptors": 5870,
      "Le": 5871,
      "▁incidence": 5872,
      "▁q": 5873,
      "sey": 5874,
      "▁obj": 5875,
      "▁Mary": 5876,
      "%;": 5877,
      "??": 5878,
      "ustr": 5879,
      "▁sun": 5880,
      "▁JSON": 5881,
      "Bu": 5882,
      "bug": 5883,
      "usr": 5884,
      "▁nor": 5885,
      "▁interp": 5886,
      "▁majority": 5887,
      "▁TR": 5888,
      "▁sufficient": 5889,
      "PC": 5890,
      "orption": 5891,
      "=>": 5892,
      "di": 5893,
      "▁delete": 5894,
      "▁complications": 5895,
      "ago": 5896,
      "▁happens": 5897,
      "../../": 5898,
      "▁characterized": 5899,
      "▁semiconductor": 5900,
      "▁mRNA": 5901,
      "isation": 5902,
      "▁MS": 5903,
      "number": 5904,
      "▁comfort": 5905,
      "▁(\"": 5906,
      "▁schools": 5907,
      "▁HIV": 5908,
      "▁PRO": 5909,
      "▁injection": 5910,
      "HOUT": 5911,
      "▁easier": 5912,
      "▁nearly": 5913,
      "\"),": 5914,
      "project": 5915,
      "▁ven": 5916,
      "Select": 5917,
      "▁wasn": 5918,
      "▁toward": 5919,
      "▁BOO": 5920,
      "▁versus": 5921,
      "▁explain": 5922,
      "▁recording": 5923,
      "▁CA": 5924,
      "blog": 5925,
      "▁resulted": 5926,
      "rep": 5927,
      "▁(!": 5928,
      "ello": 5929,
      "▁Good": 5930,
      "ometry": 5931,
      "Control": 5932,
      "property": 5933,
      "IST": 5934,
      "▁Conn": 5935,
      "Phone": 5936,
      "▁Cong": 5937,
      "▁valve": 5938,
      "▁Before": 5939,
      "▁marked": 5940,
      "▁Its": 5941,
      "args": 5942,
      "▁neut": 5943,
      "ipping": 5944,
      "▁consequ": 5945,
      "▁Sal": 5946,
      "iled": 5947,
      "▁Company": 5948,
      "▁hundred": 5949,
      "▁assay": 5950,
      "▁adults": 5951,
      "hab": 5952,
      "▁diss": 5953,
      "Create": 5954,
      "Head": 5955,
      "ambda": 5956,
      "▁stock": 5957,
      "▁updated": 5958,
      "range": 5959,
      "arant": 5960,
      "▁hour": 5961,
      "▁divid": 5962,
      "SO": 5963,
      "ted": 5964,
      "fully": 5965,
      "client": 5966,
      "▁WITHOUT": 5967,
      "▁register": 5968,
      "Method": 5969,
      "ochemical": 5970,
      "frame": 5971,
      "▁Elect": 5972,
      "▁dynam": 5973,
      "oday": 5974,
      "▁disp": 5975,
      "▁gain": 5976,
      "encing": 5977,
      "align": 5978,
      "cence": 5979,
      "ensional": 5980,
      "idget": 5981,
      "▁rail": 5982,
      "reatment": 5983,
      "▁shell": 5984,
      "MB": 5985,
      "▁trend": 5986,
      "▁facilit": 5987,
      "osa": 5988,
      "▁photo": 5989,
      "Component": 5990,
      "▁efficacy": 5991,
      "▁sheet": 5992,
      "▁somew": 5993,
      "▁Hy": 5994,
      "▁polymer": 5995,
      "Ass": 5996,
      "aped": 5997,
      "▁master": 5998,
      "▁tissues": 5999,
      "Ps": 6000,
      "oul": 6001,
      "▁smart": 6002,
      "perties": 6003,
      "Run": 6004,
      "gest": 6005,
      "▁retro": 6006,
      "▁category": 6007,
      "▁duration": 6008,
      "▁messages": 6009,
      "▁exposed": 6010,
      ".*": 6011,
      "ders": 6012,
      "▁plus": 6013,
      "import": 6014,
      "You": 6015,
      "azon": 6016,
      "▁wood": 6017,
      "▁override": 6018,
      "home": 6019,
      "Row": 6020,
      "only": 6021,
      "fortun": 6022,
      "▁firm": 6023,
      "ses": 6024,
      "▁century": 6025,
      "▁manager": 6026,
      "racellular": 6027,
      "ston": 6028,
      "▁dark": 6029,
      "ivalent": 6030,
      "▁threat": 6031,
      "▁capable": 6032,
      "anger": 6033,
      "▁Hall": 6034,
      "▁military": 6035,
      "▁suggests": 6036,
      "icular": 6037,
      "▁prolif": 6038,
      "CF": 6039,
      "iot": 6040,
      "▁participants": 6041,
      "▁animal": 6042,
      "▁layout": 6043,
      "▁insulin": 6044,
      "▁measurements": 6045,
      "root": 6046,
      "▁Last": 6047,
      "▁dram": 6048,
      "▁Nor": 6049,
      "▁wife": 6050,
      "▁alert": 6051,
      "▁sensitive": 6052,
      "aby": 6053,
      "bal": 6054,
      "azing": 6055,
      "JS": 6056,
      "mt": 6057,
      "▁confirm": 6058,
      "▁Prof": 6059,
      "▁plants": 6060,
      "itc": 6061,
      "▁\"$": 6062,
      "▁spent": 6063,
      "▁Western": 6064,
      "▁…": 6065,
      "istan": 6066,
      "▁approaches": 6067,
      "▁edge": 6068,
      "▁thinking": 6069,
      "▁mechanical": 6070,
      "▁sports": 6071,
      "oes": 6072,
      "▁underw": 6073,
      "▁interactions": 6074,
      "Dis": 6075,
      "▁Person": 6076,
      "▁circum": 6077,
      "bol": 6078,
      "▁coron": 6079,
      "▁}}": 6080,
      "▁signed": 6081,
      "oyal": 6082,
      "▁contents": 6083,
      "ying": 6084,
      "▁Green": 6085,
      "▁housing": 6086,
      "▁regulation": 6087,
      "▁laser": 6088,
      "ingu": 6089,
      "▁json": 6090,
      "itionally": 6091,
      "yond": 6092,
      "Format": 6093,
      "▁attribute": 6094,
      "Handler": 6095,
      "▁python": 6096,
      "ALL": 6097,
      "filter": 6098,
      "▁sensor": 6099,
      "▁soft": 6100,
      "ads": 6101,
      "▁dou": 6102,
      "MT": 6103,
      "▁noted": 6104,
      "ella": 6105,
      "plete": 6106,
      "▁Flor": 6107,
      "▁alcohol": 6108,
      "▁introduced": 6109,
      "MD": 6110,
      "attr": 6111,
      "▁Vol": 6112,
      "▁vary": 6113,
      "▁Create": 6114,
      "▁seconds": 6115,
      "▁strategies": 6116,
      "ipped": 6117,
      "iology": 6118,
      "▁hands": 6119,
      "▁agreed": 6120,
      "NET": 6121,
      "▁EN": 6122,
      "▁lov": 6123,
      "▁minor": 6124,
      "▁collabor": 6125,
      "ensus": 6126,
      "example": 6127,
      "▁editor": 6128,
      "▁implied": 6129,
      "▁===": 6130,
      "▁accum": 6131,
      "▁modified": 6132,
      "▁partners": 6133,
      "▁monitoring": 6134,
      "scopy": 6135,
      "▁uint": 6136,
      "▁battery": 6137,
      "▁shot": 6138,
      "ocyte": 6139,
      "▁turned": 6140,
      "▁purchase": 6141,
      "▁Sec": 6142,
      "▁zero": 6143,
      "▁intended": 6144,
      "▁Jer": 6145,
      "▁frequently": 6146,
      "ether": 6147,
      "▁antibodies": 6148,
      "LC": 6149,
      "rey": 6150,
      "▁deliver": 6151,
      "▁Pe": 6152,
      "ashion": 6153,
      ")/": 6154,
      "ests": 6155,
      "fold": 6156,
      "using": 6157,
      "annels": 6158,
      "cks": 6159,
      "▁Carol": 6160,
      "▁stable": 6161,
      "brid": 6162,
      "▁neu": 6163,
      "aste": 6164,
      "▁Play": 6165,
      "▁beyond": 6166,
      "essor": 6167,
      "BS": 6168,
      "та": 6169,
      "▁ped": 6170,
      "▁Circuit": 6171,
      "ursor": 6172,
      "▁artery": 6173,
      "ca": 6174,
      "▁glucose": 6175,
      "▁views": 6176,
      "▁deploy": 6177,
      "rig": 6178,
      "rip": 6179,
      "amber": 6180,
      "▁rank": 6181,
      "▁mainly": 6182,
      "▁transition": 6183,
      "▁split": 6184,
      "▁planning": 6185,
      "▁resolution": 6186,
      "chers": 6187,
      "▁brought": 6188,
      "▁encour": 6189,
      "▁department": 6190,
      "▁experiments": 6191,
      "Pr": 6192,
      "▁CP": 6193,
      "=\"@": 6194,
      "ATION": 6195,
      "▁Only": 6196,
      "asion": 6197,
      "▁theory": 6198,
      "▁Where": 6199,
      "▁biological": 6200,
      "▁compliance": 6201,
      "ilk": 6202,
      "▁Life": 6203,
      "▁['": 6204,
      "▁songs": 6205,
      "▁metast": 6206,
      "▁remember": 6207,
      "▁train": 6208,
      "▁assist": 6209,
      "▁smooth": 6210,
      "▁rh": 6211,
      "match": 6212,
      "▁sch": 6213,
      "▁huge": 6214,
      "▁USA": 6215,
      "scope": 6216,
      "▁minimum": 6217,
      "▁intervention": 6218,
      "how": 6219,
      "amma": 6220,
      "▁lig": 6221,
      "▁CH": 6222,
      "▁Make": 6223,
      "▁Offic": 6224,
      "▁Road": 6225,
      "▁joined": 6226,
      "▁tables": 6227,
      "▁Yes": 6228,
      "▁oste": 6229,
      "▁fa": 6230,
      "System": 6231,
      "▁Results": 6232,
      "▁bio": 6233,
      "▁fans": 6234,
      "▁Mex": 6235,
      "▁pathway": 6236,
      "▁stimulation": 6237,
      "▁depending": 6238,
      "ILE": 6239,
      "▁Mount": 6240,
      "fix": 6241,
      "ums": 6242,
      "▁kids": 6243,
      "▁investigation": 6244,
      "▁net": 6245,
      "ovascular": 6246,
      "uate": 6247,
      "ya": 6248,
      "[](": 6249,
      "berg": 6250,
      "then": 6251,
      "▁IT": 6252,
      "gent": 6253,
      "oded": 6254,
      "▁bow": 6255,
      "▁cm": 6256,
      "▁Church": 6257,
      "rive": 6258,
      "▁copyright": 6259,
      "▁applicable": 6260,
      "response": 6261,
      "bing": 6262,
      "▁stru": 6263,
      "Response": 6264,
      "EO": 6265,
      "ARE": 6266,
      "airs": 6267,
      "obj": 6268,
      "▁bud": 6269,
      "▁debut": 6270,
      "oration": 6271,
      "▁partial": 6272,
      "▁seat": 6273,
      "control": 6274,
      "▁nation": 6275,
      "▁election": 6276,
      "▁definition": 6277,
      "▁Start": 6278,
      "If": 6279,
      "▁traffic": 6280,
      "uled": 6281,
      "▁workers": 6282,
      "Fl": 6283,
      "▁wave": 6284,
      "van": 6285,
      "▁CS": 6286,
      "▁Rob": 6287,
      "▁myself": 6288,
      "▁criteria": 6289,
      "Gener": 6290,
      "▁coach": 6291,
      "itar": 6292,
      "▁[[": 6293,
      "▁lif": 6294,
      "▁tom": 6295,
      "▁pool": 6296,
      "Column": 6297,
      "ancing": 6298,
      "▁enhanced": 6299,
      "▁Whe": 6300,
      "▁simpl": 6301,
      "▁science": 6302,
      "TY": 6303,
      "oprote": 6304,
      "▁boot": 6305,
      "umin": 6306,
      "-----": 6307,
      "▁filed": 6308,
      "▁voice": 6309,
      "▁Germany": 6310,
      "DL": 6311,
      "TE": 6312,
      ")]": 6313,
      "▁nodes": 6314,
      "▁Gold": 6315,
      "initely": 6316,
      "▁flat": 6317,
      "▁audio": 6318,
      "UE": 6319,
      "fe": 6320,
      "oral": 6321,
      "riend": 6322,
      "▁Party": 6323,
      "▁heavy": 6324,
      "▁Product": 6325,
      "IA": 6326,
      "▁ER": 6327,
      "olicy": 6328,
      "▁mail": 6329,
      "▁\"/": 6330,
      "▁по": 6331,
      "▁![](": 6332,
      "▁analog": 6333,
      "▁launch": 6334,
      "▁diagnostic": 6335,
      "▁widely": 6336,
      "▁peripheral": 6337,
      "▁composition": 6338,
      "SER": 6339,
      "uma": 6340,
      "▁pH": 6341,
      "▁Step": 6342,
      "▁imag": 6343,
      "▁radiation": 6344,
      "NF": 6345,
      "▁demonstrate": 6346,
      "\"><": 6347,
      "dule": 6348,
      "▁vess": 6349,
      "tenance": 6350,
      "Application": 6351,
      "▁removal": 6352,
      "▁*)": 6353,
      "▁opinion": 6354,
      "▁George": 6355,
      "▁mur": 6356,
      "▁wants": 6357,
      "▁linked": 6358,
      "▁о": 6359,
      "▁trials": 6360,
      "▁Bu": 6361,
      "▁typical": 6362,
      "▁belong": 6363,
      "▁slightly": 6364,
      "Url": 6365,
      "ById": 6366,
      "▁heter": 6367,
      "▁remote": 6368,
      "▁arrest": 6369,
      "▁signaling": 6370,
      "▁Av": 6371,
      "iller": 6372,
      "▁burn": 6373,
      "▁III": 6374,
      "▁efforts": 6375,
      "▁$(\"": 6376,
      "endar": 6377,
      "▁toler": 6378,
      "▁innov": 6379,
      "▁consult": 6380,
      "▁MA": 6381,
      "▁vascular": 6382,
      "▁measurement": 6383,
      "▁sett": 6384,
      "▁advert": 6385,
      "▁sexual": 6386,
      "▁symbol": 6387,
      "▁edit": 6388,
      "▁epid": 6389,
      "▁reserved": 6390,
      "▁structural": 6391,
      "ously": 6392,
      "▁fish": 6393,
      "▁capital": 6394,
      "▁WARRANTIES": 6395,
      "▁William": 6396,
      "▁proport": 6397,
      "AGE": 6398,
      "cluded": 6399,
      "hedule": 6400,
      "▁displayed": 6401,
      "yr": 6402,
      "End": 6403,
      "▁AL": 6404,
      "▁Dev": 6405,
      "▁Educ": 6406,
      "{{": 6407,
      "▁respond": 6408,
      "▁parallel": 6409,
      "▁Top": 6410,
      "uries": 6411,
      "cm": 6412,
      "omer": 6413,
      "ferent": 6414,
      "ootball": 6415,
      "▁thereby": 6416,
      "▁weak": 6417,
      "elines": 6418,
      "▁trust": 6419,
      "▁Central": 6420,
      "################": 6421,
      ")=": 6422,
      "▁occup": 6423,
      "▁unknown": 6424,
      "▁cru": 6425,
      "ipl": 6426,
      "▁conc": 6427,
      "▁seed": 6428,
      "▁scores": 6429,
      "▁wish": 6430,
      "Status": 6431,
      "▁France": 6432,
      "uses": 6433,
      "▁Alex": 6434,
      "▁strain": 6435,
      "▁iron": 6436,
      "▁appearance": 6437,
      "inn": 6438,
      "▁retrie": 6439,
      "▁actions": 6440,
      "]]": 6441,
      "itz": 6442,
      "oly": 6443,
      "Cell": 6444,
      "▁bind": 6445,
      "▁polym": 6446,
      "▁annual": 6447,
      "▁constit": 6448,
      "▁Institute": 6449,
      "▁competition": 6450,
      "Eng": 6451,
      "irt": 6452,
      "▁IF": 6453,
      "▁esc": 6454,
      "▁Anal": 6455,
      "▁leuk": 6456,
      "unicip": 6457,
      "Style": 6458,
      "▁starts": 6459,
      "▁experienced": 6460,
      "▁matches": 6461,
      "reek": 6462,
      "etime": 6463,
      "▁Music": 6464,
      "summary": 6465,
      "inations": 6466,
      "▁FIG": 6467,
      "Start": 6468,
      "Equ": 6469,
      "scale": 6470,
      "▁journal": 6471,
      "▁reached": 6472,
      "▁favorite": 6473,
      "▁agreement": 6474,
      "edy": 6475,
      "▁Call": 6476,
      "▁plur": 6477,
      "care": 6478,
      "▁serial": 6479,
      "ructions": 6480,
      "▁disclosed": 6481,
      "▁organic": 6482,
      "del": 6483,
      "omes": 6484,
      "acent": 6485,
      "▁Look": 6486,
      "▁angle": 6487,
      "▁deriv": 6488,
      "estival": 6489,
      "▁Tur": 6490,
      "▁amb": 6491,
      "▁pig": 6492,
      "GB": 6493,
      "▁setup": 6494,
      "ultaneous": 6495,
      "▁sust": 6496,
      "▁vacc": 6497,
      "VC": 6498,
      "▁Virgin": 6499,
      "▁despite": 6500,
      "▁gun": 6501,
      "▁nurs": 6502,
      "▁carcinoma": 6503,
      "▁rend": 6504,
      "▁Board": 6505,
      "▁render": 6506,
      "▁alleg": 6507,
      "▁apopt": 6508,
      "▁thous": 6509,
      "▁credit": 6510,
      "▁bug": 6511,
      "▁billion": 6512,
      "▁interval": 6513,
      "space": 6514,
      "▁proceed": 6515,
      "▁transplant": 6516,
      "▁Key": 6517,
      "▁raised": 6518,
      "▁plug": 6519,
      "▁shall": 6520,
      "ABILITY": 6521,
      "▁conven": 6522,
      "aven": 6523,
      "▁People": 6524,
      "▁continued": 6525,
      "%),": 6526,
      "afe": 6527,
      "▁Down": 6528,
      "▁outer": 6529,
      "▁teacher": 6530,
      "▁antibody": 6531,
      "▁Australian": 6532,
      "Em": 6533,
      "▁mixed": 6534,
      "▁scope": 6535,
      "▁jQuery": 6536,
      "aph": 6537,
      "Comp": 6538,
      "ideos": 6539,
      "rolog": 6540,
      "DR": 6541,
      "common": 6542,
      "▁nuclear": 6543,
      "▁extremely": 6544,
      "▁haven": 6545,
      "▁upload": 6546,
      "▁consistent": 6547,
      "EE": 6548,
      "▁Bay": 6549,
      "Server": 6550,
      "status": 6551,
      "▁Image": 6552,
      "▁exchange": 6553,
      "ет": 6554,
      "▁depends": 6555,
      "▁managed": 6556,
      "▁Ig": 6557,
      "ette": 6558,
      "untu": 6559,
      "▁molecules": 6560,
      "ture": 6561,
      "▁advice": 6562,
      "iar": 6563,
      "▁Sign": 6564,
      "▁Three": 6565,
      "▁drink": 6566,
      "▁Build": 6567,
      "▁abnormal": 6568,
      "IND": 6569,
      "▁Scott": 6570,
      "▁unless": 6571,
      "▁prevalence": 6572,
      "▁<!--": 6573,
      "ricular": 6574,
      "▁secure": 6575,
      "▁plastic": 6576,
      "SL": 6577,
      "ki": 6578,
      "▁Ann": 6579,
      "asure": 6580,
      "▁noise": 6581,
      "▁attract": 6582,
      "abilities": 6583,
      "▁Canadian": 6584,
      "▁clearly": 6585,
      "▁{{": 6586,
      "▁Enter": 6587,
      "▁posts": 6588,
      "▁trade": 6589,
      "ategories": 6590,
      "▁requests": 6591,
      "house": 6592,
      "▁Kore": 6593,
      "▁propos": 6594,
      "MR": 6595,
      "▁spot": 6596,
      "▁Star": 6597,
      "▁heard": 6598,
      "▁throm": 6599,
      "▁Florida": 6600,
      "▁Network": 6601,
      "▁SH": 6602,
      "▁thin": 6603,
      "▁Women": 6604,
      "▁amino": 6605,
      "▁Africa": 6606,
      "▁particles": 6607,
      "._": 6608,
      "▁Like": 6609,
      "▁cereb": 6610,
      "▁PR": 6611,
      "▁numerous": 6612,
      "▁reducing": 6613,
      "▁Ill": 6614,
      "▁specified": 6615,
      "▁${": 6616,
      "▁Color": 6617,
      "▁restaur": 6618,
      "▁Patients": 6619,
      "reshold": 6620,
      "▁Robert": 6621,
      "▁stimul": 6622,
      "▁Sam": 6623,
      "▁mill": 6624,
      "terior": 6625,
      "▁pharmac": 6626,
      "▁expensive": 6627,
      "NAME": 6628,
      "module": 6629,
      "▁scene": 6630,
      "▁thanks": 6631,
      "▁brother": 6632,
      "▁extended": 6633,
      "▁manufacturing": 6634,
      "dr": 6635,
      "iced": 6636,
      "▁pal": 6637,
      "▁explore": 6638,
      "▁economic": 6639,
      "▁contained": 6640,
      "▁BY": 6641,
      "▁RNA": 6642,
      "▁hepat": 6643,
      "▁aspects": 6644,
      "yroid": 6645,
      "▁Award": 6646,
      "ona": 6647,
      "resents": 6648,
      "ructure": 6649,
      "▁implic": 6650,
      "▁versions": 6651,
      "▁estimated": 6652,
      "▁flag": 6653,
      "▁Angel": 6654,
      "▁forces": 6655,
      "fortunately": 6656,
      "mem": 6657,
      "Frame": 6658,
      "ogene": 6659,
      "▁persist": 6660,
      "ba": 6661,
      "▁aden": 6662,
      "▁coronary": 6663,
      "ws": 6664,
      "mas": 6665,
      "▁bra": 6666,
      "▁repeated": 6667,
      "▁remaining": 6668,
      "▁permissions": 6669,
      "▁Big": 6670,
      "▁debug": 6671,
      "ilation": 6672,
      "▁letter": 6673,
      "▁Sil": 6674,
      "ested": 6675,
      "▁Find": 6676,
      "▁laun": 6677,
      "▁Design": 6678,
      "▁arrang": 6679,
      "▁documents": 6680,
      "▁keys": 6681,
      "▁Games": 6682,
      "▁Requ": 6683,
      "▁whatever": 6684,
      "UP": 6685,
      "rosis": 6686,
      "▁ends": 6687,
      "column": 6688,
      "asketball": 6689,
      "▁Business": 6690,
      "Bl": 6691,
      "fty": 6692,
      "has": 6693,
      "▁binary": 6694,
      "▁church": 6695,
      "▁Summer": 6696,
      "▁Services": 6697,
      "▁plurality": 6698,
      "▁vot": 6699,
      "uted": 6700,
      ":\"": 6701,
      "isher": 6702,
      "▁Review": 6703,
      "▁Card": 6704,
      "▁spir": 6705,
      "▁Democr": 6706,
      "▁Eff": 6707,
      "▁hear": 6708,
      "Open": 6709,
      "Factory": 6710,
      "▁objective": 6711,
      "▁Finally": 6712,
      "▁consumption": 6713,
      "%).": 6714,
      "▁desirable": 6715,
      "aft": 6716,
      "▁posted": 6717,
      "▁purposes": 6718,
      "▁technical": 6719,
      "EC": 6720,
      "dec": 6721,
      "venue": 6722,
      "▁Source": 6723,
      "iny": 6724,
      "▁smok": 6725,
      "▁strings": 6726,
      "sect": 6727,
      "▁underlying": 6728,
      "cles": 6729,
      "cribe": 6730,
      "▁Line": 6731,
      "▁disch": 6732,
      "▁antigen": 6733,
      "▁stories": 6734,
      "IONS": 6735,
      "▁wheel": 6736,
      "▁xmlns": 6737,
      "▁prices": 6738,
      "▁loading": 6739,
      "ky": 6740,
      "▁rect": 6741,
      "ups": 6742,
      "icial": 6743,
      "inical": 6744,
      "▁subsequent": 6745,
      "▁appreciated": 6746,
      "PM": 6747,
      "▁?>": 6748,
      "▁Inf": 6749,
      "▁axis": 6750,
      "▁farm": 6751,
      "▁African": 6752,
      "nament": 6753,
      "▁neurons": 6754,
      "osen": 6755,
      "▁Bet": 6756,
      "idity": 6757,
      "▁quarter": 6758,
      "cers": 6759,
      "▁arguments": 6760,
      "cis": 6761,
      "▁PO": 6762,
      "▁acids": 6763,
      "▁plot": 6764,
      "▁himself": 6765,
      "▁cit": 6766,
      "▁Show": 6767,
      "▁constructor": 6768,
      "▁ing": 6769,
      "names": 6770,
      "▁accuracy": 6771,
      "▁Bill": 6772,
      "println": 6773,
      "gi": 6774,
      "uls": 6775,
      "▁\"\\": 6776,
      "direct": 6777,
      "fered": 6778,
      "orney": 6779,
      "▁cogn": 6780,
      "▁Development": 6781,
      "rehens": 6782,
      "▁accel": 6783,
      "▁Spring": 6784,
      "▁internet": 6785,
      "fit": 6786,
      "▁Fore": 6787,
      "▁Mont": 6788,
      ">(": 6789,
      "▁fluores": 6790,
      "EW": 6791,
      "▁feet": 6792,
      "▁Smith": 6793,
      "▁stability": 6794,
      "fs": 6795,
      "ye": 6796,
      "ounce": 6797,
      "service": 6798,
      "olester": 6799,
      "▁buffer": 6800,
      "▁mental": 6801,
      "▁accurate": 6802,
      "▁orient": 6803,
      "▁supports": 6804,
      "description": 6805,
      "+)": 6806,
      "▁stem": 6807,
      "▁BOOST": 6808,
      "▁screening": 6809,
      "▁authent": 6810,
      "▁Spe": 6811,
      "▁Stand": 6812,
      "ervation": 6813,
      "▁accompl": 6814,
      "▁daughter": 6815,
      "▁disorder": 6816,
      "▁^": 6817,
      "▁forming": 6818,
      "▁employed": 6819,
      "▁conversion": 6820,
      "▁alloc": 6821,
      "well": 6822,
      "▁Head": 6823,
      "▁writer": 6824,
      "▁examine": 6825,
      "▁examination": 6826,
      "context": 6827,
      "FS": 6828,
      "sv": 6829,
      "files": 6830,
      "▁allowing": 6831,
      "▁execute": 6832,
      "▁disapp": 6833,
      "▁represents": 6834,
      "▁((": 6835,
      "▁None": 6836,
      "▁looked": 6837,
      "▁underwent": 6838,
      "▁Lu": 6839,
      "anta": 6840,
      "razil": 6841,
      "▁Information": 6842,
      "legate": 6843,
      "▁employees": 6844,
      "▁tun": 6845,
      "ulator": 6846,
      "▁sched": 6847,
      "▁%>": 6848,
      "▁af": 6849,
      "arp": 6850,
      "Work": 6851,
      "▁Mad": 6852,
      "▁Union": 6853,
      "▁extent": 6854,
      "▁married": 6855,
      "▁analyses": 6856,
      "▁channels": 6857,
      "antic": 6858,
      "▁disk": 6859,
      "▁Office": 6860,
      "▁malign": 6861,
      "▁programming": 6862,
      "True": 6863,
      "▁adhes": 6864,
      "▁describes": 6865,
      "lang": 6866,
      "▁Tor": 6867,
      "▁Base": 6868,
      "▁replacement": 6869,
      "ре": 6870,
      "env": 6871,
      "▁Cam": 6872,
      "▁Sol": 6873,
      "▁emot": 6874,
      "▁communities": 6875,
      "▁Division": 6876,
      "▁Tem": 6877,
      "▁Four": 6878,
      "▁warr": 6879,
      "▁wear": 6880,
      "▁paid": 6881,
      "▁albums": 6882,
      "▁layers": 6883,
      "ura": 6884,
      "licenses": 6885,
      "rich": 6886,
      "VD": 6887,
      "▁claims": 6888,
      "▁treatments": 6889,
      "▁fan": 6890,
      "▁manage": 6891,
      "▁transcription": 6892,
      "▁Louis": 6893,
      "▁colon": 6894,
      "▁celebr": 6895,
      "▁pulmonary": 6896,
      "clip": 6897,
      "▁foo": 6898,
      "▁Press": 6899,
      "LICENSE": 6900,
      "▁segment": 6901,
      "▁powerful": 6902,
      "▁networks": 6903,
      "▁contribute": 6904,
      "▁equivalent": 6905,
      "▁Gen": 6906,
      "ocker": 6907,
      "nav": 6908,
      "▁hab": 6909,
      "▁cold": 6910,
      "ansion": 6911,
      "▁roles": 6912,
      "▁Commission": 6913,
      "ampl": 6914,
      "▁Town": 6915,
      "▁minim": 6916,
      "▁relation": 6917,
      "rael": 6918,
      "▁overl": 6919,
      "ango": 6920,
      "▁Ber": 6921,
      "izontal": 6922,
      "▁printing": 6923,
      "ncy": 6924,
      "ometric": 6925,
      "▁vehicles": 6926,
      "▁interpret": 6927,
      "▁Mo": 6928,
      "▁Mot": 6929,
      "▁Olympics": 6930,
      "annot": 6931,
      "▁icon": 6932,
      "▁Island": 6933,
      "▁mounted": 6934,
      "bour": 6935,
      "▁causing": 6936,
      "xi": 6937,
      "▁relationships": 6938,
      "▁mostly": 6939,
      "▁challenges": 6940,
      "mic": 6941,
      "▁jump": 6942,
      "▁chlor": 6943,
      "▁owner": 6944,
      "]);": 6945,
      "iki": 6946,
      "▁Accordingly": 6947,
      "Ob": 6948,
      "▁Ir": 6949,
      "lies": 6950,
      "abil": 6951,
      "▁ran": 6952,
      "ifact": 6953,
      "▁Power": 6954,
      "▁token": 6955,
      "ircraft": 6956,
      "▁simultaneous": 6957,
      "PI": 6958,
      "ano": 6959,
      "etry": 6960,
      "▁calculated": 6961,
      "cp": 6962,
      "Ident": 6963,
      "▁locations": 6964,
      "▁whom": 6965,
      "▁covered": 6966,
      "▁Ep": 6967,
      "▁Academ": 6968,
      "activity": 6969,
      "▁recommended": 6970,
      "▁identification": 6971,
      "infty": 6972,
      "Options": 6973,
      "standing": 6974,
      "▁Today": 6975,
      "ker": 6976,
      "▁Camp": 6977,
      "▁faster": 6978,
      "osh": 6979,
      "▁SD": 6980,
      "Call": 6981,
      "river": 6982,
      "▁couldn": 6983,
      "▁amazing": 6984,
      "▁focused": 6985,
      "omatic": 6986,
      "▁Among": 6987,
      "SC": 6988,
      "uby": 6989,
      "▁Hot": 6990,
      "rapper": 6991,
      "▁Search": 6992,
      "▁square": 6993,
      "UM": 6994,
      "ga": 6995,
      "▁excess": 6996,
      "unct": 6997,
      "▁Den": 6998,
      "▁bill": 6999,
      "▁fourth": 7000,
      "GE": 7001,
      "▁sand": 7002,
      "▁guarant": 7003,
      "ptr": 7004,
      "▁Tour": 7005,
      "▁histor": 7006,
      "conf": 7007,
      "▁Cle": 7008,
      "▁Roman": 7009,
      "▁warm": 7010,
      "▁respir": 7011,
      "plot": 7012,
      "▁Cap": 7013,
      "▁Mel": 7014,
      "vider": 7015,
      "}\"": 7016,
      "ett": 7017,
      "▁Mass": 7018,
      "▁mist": 7019,
      "▁twice": 7020,
      "antly": 7021,
      "▁Lake": 7022,
      "Builder": 7023,
      "ociated": 7024,
      "rolled": 7025,
      "▁attach": 7026,
      "Resource": 7027,
      "irty": 7028,
      "Activity": 7029,
      "▁correlated": 7030,
      "▁Exp": 7031,
      "▁Thomas": 7032,
      "▁experiment": 7033,
      "ktop": 7034,
      "▁residents": 7035,
      "utch": 7036,
      "▁•": 7037,
      "▁Fre": 7038,
      "▁Hill": 7039,
      "atabase": 7040,
      "▁stations": 7041,
      "options": 7042,
      "Mode": 7043,
      "odium": 7044,
      "▁hash": 7045,
      "▁remained": 7046,
      "Connection": 7047,
      "▁positions": 7048,
      "▁Cast": 7049,
      "▁delet": 7050,
      "▁girls": 7051,
      "▁finish": 7052,
      "▁van": 7053,
      "▁hearing": 7054,
      "▁algorithm": 7055,
      "▁typed": 7056,
      "▁maintenance": 7057,
      "]:": 7058,
      "rivate": 7059,
      "▁killed": 7060,
      "holder": 7061,
      "▁py": 7062,
      "idae": 7063,
      "itial": 7064,
      "▁aren": 7065,
      "▁boost": 7066,
      "▁resear": 7067,
      "▁msg": 7068,
      "omething": 7069,
      "▁tube": 7070,
      "▁weekend": 7071,
      "▁compound": 7072,
      "▁www": 7073,
      "▁Event": 7074,
      "Command": 7075,
      "Instance": 7076,
      "▁iPhone": 7077,
      "iox": 7078,
      "spect": 7079,
      "▁Team": 7080,
      "▁percentage": 7081,
      "▁sed": 7082,
      "▁assign": 7083,
      "▁instrument": 7084,
      "▁metabolism": 7085,
      "▁branch": 7086,
      "▁wat": 7087,
      "Check": 7088,
      "''": 7089,
      "estinal": 7090,
      "▁foreign": 7091,
      "▁perhaps": 7092,
      "case": 7093,
      "igan": 7094,
      "unte": 7095,
      "eding": 7096,
      "▁Model": 7097,
      "▁tasks": 7098,
      "▁median": 7099,
      "▁replaced": 7100,
      "▁implemented": 7101,
      "POST": 7102,
      "aine": 7103,
      "onia": 7104,
      "▁reson": 7105,
      "ATH": 7106,
      "umer": 7107,
      "▁answers": 7108,
      "emic": 7109,
      "ctors": 7110,
      "▁nine": 7111,
      "▁ship": 7112,
      "▁revers": 7113,
      "▁foreach": 7114,
      "▁Ver": 7115,
      "▁Vict": 7116,
      "=\"#": 7117,
      "clusive": 7118,
      "▁issued": 7119,
      "▁[\"": 7120,
      "ude": 7121,
      "etch": 7122,
      "▁Max": 7123,
      "▁academ": 7124,
      "▁attend": 7125,
      "▁updates": 7126,
      "▁confidence": 7127,
      "@\"": 7128,
      "MPL": 7129,
      "▁PA": 7130,
      "▁exit": 7131,
      "▁Society": 7132,
      "asy": 7133,
      "▁args": 7134,
      "▁guys": 7135,
      "▁syntax": 7136,
      "background": 7137,
      "boot": 7138,
      "▁colors": 7139,
      "▁offered": 7140,
      "▁marketing": 7141,
      "Thread": 7142,
      "▁progn": 7143,
      "▁stroke": 7144,
      "---": 7145,
      "obe": 7146,
      "template": 7147,
      "▁suggesting": 7148,
      "▁potentially": 7149,
      "dep": 7150,
      "organ": 7151,
      "▁raise": 7152,
      "▁artist": 7153,
      "▁~~": 7154,
      "▁ads": 7155,
      "▁usage": 7156,
      "▁defend": 7157,
      "▁victim": 7158,
      "othing": 7159,
      "▁loaded": 7160,
      "▁administr": 7161,
      "Label": 7162,
      "▁dogs": 7163,
      "▁promote": 7164,
      "▁fraction": 7165,
      "avel": 7166,
      "▁Year": 7167,
      "▁aged": 7168,
      "▁windows": 7169,
      "▁LI": 7170,
      "▁True": 7171,
      "ochond": 7172,
      "▁strict": 7173,
      "sd": 7174,
      "west": 7175,
      "xsl": 7176,
      "▁mo": 7177,
      "cler": 7178,
      "▁rise": 7179,
      "ytes": 7180,
      "▁leader": 7181,
      "▁patent": 7182,
      "▁feedback": 7183,
      "▁hypothesis": 7184,
      "▁supporting": 7185,
      "▁purs": 7186,
      "▁passing": 7187,
      "yy": 7188,
      "▁::": 7189,
      "▁kinase": 7190,
      "oids": 7191,
      "▁entered": 7192,
      "▁aggreg": 7193,
      "ICE": 7194,
      "Filter": 7195,
      "▁prevention": 7196,
      "▁ok": 7197,
      "▁theme": 7198,
      "ITED": 7199,
      "▁pip": 7200,
      "▁kept": 7201,
      "▁hybrid": 7202,
      "▁replic": 7203,
      "ernel": 7204,
      "card": 7205,
      "▁plane": 7206,
      "▁assigned": 7207,
      "▁Lib": 7208,
      "▁biom": 7209,
      "▁fashion": 7210,
      "ifth": 7211,
      "▁Mer": 7212,
      "▁gall": 7213,
      "▁sale": 7214,
      "custom": 7215,
      "▁Their": 7216,
      "▁fract": 7217,
      "▁effectively": 7218,
      "▁inflammatory": 7219,
      "just": 7220,
      "▁reconst": 7221,
      "▁continues": 7222,
      "▁Management": 7223,
      "▁subt": 7224,
      "▁Method": 7225,
      "▁Science": 7226,
      "▁federal": 7227,
      "▁transmit": 7228,
      "reme": 7229,
      "Write": 7230,
      "enter": 7231,
      "▁acet": 7232,
      "▁conj": 7233,
      "ulture": 7234,
      "▁Const": 7235,
      "▁broadcast": 7236,
      "▁dependent": 7237,
      "▁cache": 7238,
      "▁balance": 7239,
      "▁definitely": 7240,
      "TA": 7241,
      "▁pin": 7242,
      "▁pix": 7243,
      "▁Game": 7244,
      "ли": 7245,
      "▁Ins": 7246,
      "crete": 7247,
      "▁myocard": 7248,
      "▁visible": 7249,
      "AND": 7250,
      "aks": 7251,
      "asty": 7252,
      "ena": 7253,
      "ffee": 7254,
      "▁relax": 7255,
      "▁Director": 7256,
      "adata": 7257,
      "gress": 7258,
      "▁holid": 7259,
      "▁reliable": 7260,
      "▁agree": 7261,
      "▁д": 7262,
      "imation": 7263,
      "▁opportunities": 7264,
      "rog": 7265,
      "▁jobs": 7266,
      "▁possibility": 7267,
      "oder": 7268,
      "after": 7269,
      "eries": 7270,
      "▁absence": 7271,
      "▁pregnancy": 7272,
      "apse": 7273,
      "asts": 7274,
      "▁unc": 7275,
      "Range": 7276,
      "▁elevated": 7277,
      "▁Pub": 7278,
      "etics": 7279,
      "▁Next": 7280,
      "▁diameter": 7281,
      "▁vertical": 7282,
      "▁technologies": 7283,
      "\\\"": 7284,
      "▁electrode": 7285,
      "▁Grand": 7286,
      "▁Bank": 7287,
      "center": 7288,
      "▁normally": 7289,
      "▁Education": 7290,
      "occ": 7291,
      "▁ice": 7292,
      "▁graft": 7293,
      "▁latter": 7294,
      "▁league": 7295,
      "▁pictures": 7296,
      "▁beg": 7297,
      "▁pit": 7298,
      "+\\": 7299,
      "▁Ok": 7300,
      "License": 7301,
      "▁uniform": 7302,
      "▁Despite": 7303,
      "non": 7304,
      "▁CSS": 7305,
      "ishes": 7306,
      "▁breat": 7307,
      "▁absolute": 7308,
      "▁possibly": 7309,
      "▁Oper": 7310,
      "▁helped": 7311,
      "▁intermed": 7312,
      "▁surfaces": 7313,
      "▁conference": 7314,
      "▁tor": 7315,
      "▁cards": 7316,
      "▁detailed": 7317,
      "▁reviewed": 7318,
      "▁comprehens": 7319,
      "▁>>": 7320,
      "long": 7321,
      "▁wouldn": 7322,
      "agram": 7323,
      "▁trigger": 7324,
      "▁Tim": 7325,
      "▁pil": 7326,
      "close": 7327,
      "▁Update": 7328,
      "▁byte": 7329,
      "▁assume": 7330,
      "▁doll": 7331,
      "▁insurance": 7332,
      "▁wireless": 7333,
      "▁represented": 7334,
      "bi": 7335,
      "▁Hand": 7336,
      "▁Prior": 7337,
      "▁Author": 7338,
      "▁ble": 7339,
      "▁emph": 7340,
      "▁Return": 7341,
      "▁recognition": 7342,
      "$(": 7343,
      "}(": 7344,
      "mia": 7345,
      "▁trip": 7346,
      "▁lipid": 7347,
      "▁Twitter": 7348,
      "BM": 7349,
      "BP": 7350,
      "uty": 7351,
      "▁$('#": 7352,
      "▁shut": 7353,
      "ounter": 7354,
      "▁videos": 7355,
      "▁officials": 7356,
      "▁Pan": 7357,
      "▁('": 7358,
      "vector": 7359,
      "▁pointer": 7360,
      "ione": 7361,
      "▁Pass": 7362,
      "▁Commit": 7363,
      "▁seeing": 7364,
      "▁Virginia": 7365,
      "Ext": 7366,
      "ita": 7367,
      "▁Aff": 7368,
      "▁reviews": 7369,
      "▁inhibitors": 7370,
      "ua": 7371,
      "▁Kh": 7372,
      "usband": 7373,
      "▁cable": 7374,
      "▁oxide": 7375,
      "essions": 7376,
      "clipse": 7377,
      "▁senior": 7378,
      "▁Engine": 7379,
      "▁markers": 7380,
      "▁businesses": 7381,
      "▁infections": 7382,
      "▁HD": 7383,
      "ainer": 7384,
      "boost": 7385,
      "static": 7386,
      "▁humans": 7387,
      "sqrt": 7388,
      "▁Israel": 7389,
      "▁regional": 7390,
      "SR": 7391,
      "▁hel": 7392,
      "▁stages": 7393,
      "Sp": 7394,
      "Output": 7395,
      "▁involving": 7396,
      "▁recognized": 7397,
      "▁=====": 7398,
      "▁leaves": 7399,
      "▁manually": 7400,
      "▁standards": 7401,
      "isl": 7402,
      "month": 7403,
      "▁flav": 7404,
      "▁nerve": 7405,
      "▁Instead": 7406,
      "▁zone": 7407,
      "▁emergency": 7408,
      "amil": 7409,
      "night": 7410,
      "ificate": 7411,
      "▁degrad": 7412,
      "Template": 7413,
      "▁Francis": 7414,
      "▁practices": 7415,
      "arc": 7416,
      "some": 7417,
      "▁Rock": 7418,
      "▁permission": 7419,
      "▁proliferation": 7420,
      "▁os": 7421,
      "▁apps": 7422,
      "▁gran": 7423,
      "▁boolean": 7424,
      "Attribute": 7425,
      "▁Register": 7426,
      "▁coverage": 7427,
      "▁explicit": 7428,
      "▁Table": 7429,
      "▁Carolina": 7430,
      "▁Document": 7431,
      "▁divided": 7432,
      "▁lin": 7433,
      "▁Edit": 7434,
      "▁calcium": 7435,
      "-\\": 7436,
      "bf": 7437,
      "▁£": 7438,
      "nam": 7439,
      "cial": 7440,
      "icago": 7441,
      "eft": 7442,
      "ien": 7443,
      "ducing": 7444,
      "▁Police": 7445,
      "▁Ext": 7446,
      "ockey": 7447,
      "▁fiber": 7448,
      "▁inhibitor": 7449,
      "arden": 7450,
      "▁thickness": 7451,
      "SI": 7452,
      "▁substantial": 7453,
      "neum": 7454,
      "▁crystal": 7455,
      "▁handling": 7456,
      "deg": 7457,
      "▁Media": 7458,
      "▁perman": 7459,
      "-(": 7460,
      "oret": 7461,
      "▁cars": 7462,
      "ora": 7463,
      "ndef": 7464,
      "▁gar": 7465,
      "header": 7466,
      "Grid": 7467,
      "ariable": 7468,
      "utorial": 7469,
      "▁blocks": 7470,
      "Per": 7471,
      "jpg": 7472,
      "▁git": 7473,
      "▁lens": 7474,
      "▁consec": 7475,
      "▁strongly": 7476,
      "yan": 7477,
      "▁JO": 7478,
      "▁pap": 7479,
      "▁sulf": 7480,
      "ivered": 7481,
      "▁padding": 7482,
      "bles": 7483,
      "method": 7484,
      "▁eventually": 7485,
      "▁investment": 7486,
      "ва": 7487,
      "▁Frank": 7488,
      "▁civil": 7489,
      "▁grand": 7490,
      "▁dedicated": 7491,
      "INE": 7492,
      "bra": 7493,
      "▁embry": 7494,
      "▁submit": 7495,
      ",'": 7496,
      "Token": 7497,
      "▁------": 7498,
      "▁retail": 7499,
      "▁stores": 7500,
      "▁variation": 7501,
      "lt": 7502,
      "vol": 7503,
      "▁por": 7504,
      "strap": 7505,
      "▁stated": 7506,
      "▁printed": 7507,
      "▁upt": 7508,
      "\"}": 7509,
      "ato": 7510,
      "riage": 7511,
      "▁becoming": 7512,
      "▁Order": 7513,
      "▁perspect": 7514,
      "life": 7515,
      "oute": 7516,
      "▁~~~": 7517,
      "ander": 7518,
      "▁spend": 7519,
      "▁thermal": 7520,
      "▁interact": 7521,
      "▁discussion": 7522,
      "'],": 7523,
      "acks": 7524,
      "▁logic": 7525,
      "▁Brazil": 7526,
      "▁ton": 7527,
      "ameters": 7528,
      "▁machines": 7529,
      "CV": 7530,
      "phal": 7531,
      "sible": 7532,
      "▁aircraft": 7533,
      "▁identity": 7534,
      "ady": 7535,
      "▁Real": 7536,
      "▁Zeal": 7537,
      "▁partner": 7538,
      "ackage": 7539,
      "▁ideal": 7540,
      "enger": 7541,
      "ortic": 7542,
      "password": 7543,
      "push": 7544,
      "adder": 7545,
      "▁EDIT": 7546,
      "▁convers": 7547,
      "▁regression": 7548,
      "real": 7549,
      "▁bytes": 7550,
      "▁happened": 7551,
      "ellig": 7552,
      "▁invent": 7553,
      "▁plugin": 7554,
      "▁callback": 7555,
      "remove": 7556,
      "▁Click": 7557,
      "▁manip": 7558,
      "▁Dim": 7559,
      "▁alk": 7560,
      "ailed": 7561,
      "shire": 7562,
      "▁Linux": 7563,
      "▁producing": 7564,
      "Http": 7565,
      "fill": 7566,
      "Window": 7567,
      "▁sides": 7568,
      "▁Italian": 7569,
      "▁Army": 7570,
      "▁ahead": 7571,
      "lectric": 7572,
      "▁adequ": 7573,
      "▁Richard": 7574,
      "dict": 7575,
      "▁relig": 7576,
      "▁unsigned": 7577,
      "▁Christian": 7578,
      "▁login": 7579,
      "▁presentation": 7580,
      "TS": 7581,
      "▁---": 7582,
      "▁felt": 7583,
      "▁scroll": 7584,
      "▁footballers": 7585,
      "▁differentiation": 7586,
      "Build": 7587,
      "▁gate": 7588,
      "▁kidney": 7589,
      "olesterol": 7590,
      "DIR": 7591,
      "sing": 7592,
      "▁Based": 7593,
      "▁shock": 7594,
      "▁originally": 7595,
      "CM": 7596,
      "apped": 7597,
      "▁parse": 7598,
      "▁Hen": 7599,
      "estic": 7600,
      "▁luck": 7601,
      "▁Control": 7602,
      "eless": 7603,
      "install": 7604,
      "▁primarily": 7605,
      "BU": 7606,
      "▁nerv": 7607,
      "▁pieces": 7608,
      "▁MO": 7609,
      "▁Los": 7610,
      "store": 7611,
      "display": 7612,
      "▁compat": 7613,
      "▁Zealand": 7614,
      "pc": 7615,
      "▁rich": 7616,
      "▁metabolic": 7617,
      "seud": 7618,
      "▁egg": 7619,
      "▁stick": 7620,
      "▁unable": 7621,
      "▁installation": 7622,
      "*/": 7623,
      "estamp": 7624,
      "▁depth": 7625,
      "▁meant": 7626,
      "▁sport": 7627,
      "▁tags": 7628,
      "▁Function": 7629,
      "▁>=": 7630,
      "▁XML": 7631,
      "astern": 7632,
      "update": 7633,
      "▁prompt": 7634,
      "▁integer": 7635,
      "▁Football": 7636,
      "▁candidate": 7637,
      "▁ca": 7638,
      "okes": 7639,
      "▁Jim": 7640,
      "▁harm": 7641,
      "▁dream": 7642,
      "oscopic": 7643,
      "▁Access": 7644,
      "container": 7645,
      "▁apoptosis": 7646,
      "Exp": 7647,
      "Pre": 7648,
      "ican": 7649,
      "▁Exec": 7650,
      "▁asking": 7651,
      "zen": 7652,
      "itting": 7653,
      "▁Additionally": 7654,
      "▁IV": 7655,
      "iginal": 7656,
      "){#": 7657,
      "treated": 7658,
      "▁involves": 7659,
      "▁mir": 7660,
      "bound": 7661,
      "▁entity": 7662,
      "▁discovered": 7663,
      "anal": 7664,
      "lines": 7665,
      "▁complicated": 7666,
      "──": 7667,
      "▁holding": 7668,
      "▁Have": 7669,
      "▁Mean": 7670,
      "▁pathways": 7671,
      "▁threshold": 7672,
      "▁organizations": 7673,
      "▁postoperative": 7674,
      "ATA": 7675,
      "Back": 7676,
      "▁Ent": 7677,
      "▁grid": 7678,
      "access": 7679,
      "apes": 7680,
      "▁vote": 7681,
      "▁budget": 7682,
      "▁Special": 7683,
      "▁strains": 7684,
      "▁Sup": 7685,
      "cluding": 7686,
      "▁sections": 7687,
      "anol": 7688,
      "▁pri": 7689,
      "▁persons": 7690,
      "▁behaviour": 7691,
      "umni": 7692,
      "▁induction": 7693,
      "road": 7694,
      "▁Disc": 7695,
      "▁rear": 7696,
      "▁illustr": 7697,
      "LS": 7698,
      "font": 7699,
      "▁strugg": 7700,
      "▁sentence": 7701,
      "▁```": 7702,
      "▁rid": 7703,
      "icient": 7704,
      "expected": 7705,
      "▁governing": 7706,
      "copy": 7707,
      "▁tail": 7708,
      "▁reject": 7709,
      "▁creates": 7710,
      "▁concerns": 7711,
      "connect": 7712,
      "▁corpor": 7713,
      "▁functionality": 7714,
      "”.": 7715,
      "rics": 7716,
      "▁fer": 7717,
      "▁Prot": 7718,
      "▁grade": 7719,
      "aid": 7720,
      "Char": 7721,
      "stic": 7722,
      "▁Jul": 7723,
      "▁spin": 7724,
      "▁spaces": 7725,
      "▁independ": 7726,
      "rat": 7727,
      "▁len": 7728,
      "▁guitar": 7729,
      "▁supposed": 7730,
      "▁certainly": 7731,
      "▁sequences": 7732,
      "▁prove": 7733,
      "▁signs": 7734,
      "▁formula": 7735,
      "oxy": 7736,
      "▁Local": 7737,
      "▁Unless": 7738,
      "?>": 7739,
      "▁Map": 7740,
      "▁clar": 7741,
      "▁husband": 7742,
      "▁laboratory": 7743,
      "▁experiences": 7744,
      "▁Rh": 7745,
      "▁Nov": 7746,
      "▁meth": 7747,
      "anguages": 7748,
      "▁mission": 7749,
      "▁cognitive": 7750,
      "cor": 7751,
      "IGHT": 7752,
      "ipal": 7753,
      "▁Human": 7754,
      "▁extend": 7755,
      "Util": 7756,
      "▁seg": 7757,
      "▁minute": 7758,
      "ibraries": 7759,
      "▁activated": 7760,
      "loc": 7761,
      "▁tract": 7762,
      "oprotein": 7763,
      "aws": 7764,
      "burg": 7765,
      "▁offering": 7766,
      "btn": 7767,
      "▁Atl": 7768,
      "▁Wil": 7769,
      "▁wed": 7770,
      "▁thor": 7771,
      "▁income": 7772,
      "те": 7773,
      "pop": 7774,
      "clear": 7775,
      "images": 7776,
      "sim": 7777,
      "onym": 7778,
      "rine": 7779,
      "▁$$\\": 7780,
      "▁temp": 7781,
      "▁embed": 7782,
      "▁specim": 7783,
      "▁Hospital": 7784,
      "▁extensive": 7785,
      "Net": 7786,
      "▁odd": 7787,
      "▁synchron": 7788,
      "▁DB": 7789,
      "▁glut": 7790,
      "advant": 7791,
      "▁Studio": 7792,
      "▁talking": 7793,
      "▁Minister": 7794,
      "dimensional": 7795,
      "vm": 7796,
      "ão": 7797,
      "▁Tre": 7798,
      "▁Jose": 7799,
      "▁Take": 7800,
      "▁lists": 7801,
      "CG": 7802,
      "ль": 7803,
      "EXT": 7804,
      "axis": 7805,
      "hemat": 7806,
      "▁Love": 7807,
      "▁gone": 7808,
      "▁poll": 7809,
      "▁Royal": 7810,
      "▁depression": 7811,
      "▁preparation": 7812,
      "():": 7813,
      "▁..": 7814,
      "▁cyl": 7815,
      "▁Wood": 7816,
      "▁copies": 7817,
      "▁yes": 7818,
      "▁Judge": 7819,
      "PY": 7820,
      "ola": 7821,
      "▁\\\\": 7822,
      "▁php": 7823,
      "friend": 7824,
      "▁injuries": 7825,
      "▁voc": 7826,
      "ergic": 7827,
      "while": 7828,
      "▁steel": 7829,
      "▁hardware": 7830,
      "▁inline": 7831,
      "▁printf": 7832,
      "outer": 7833,
      "Module": 7834,
      "▁Value": 7835,
      "▁episode": 7836,
      ",\\": 7837,
      "location": 7838,
      "▁JavaScript": 7839,
      "▁Cath": 7840,
      "▁KIND": 7841,
      "▁Committee": 7842,
      "▁returning": 7843,
      "GL": 7844,
      "\"))": 7845,
      "assert": 7846,
      "▁targets": 7847,
      "git": 7848,
      "▁Licensed": 7849,
      "▁Government": 7850,
      "▁Cr": 7851,
      "▁miles": 7852,
      "▁populations": 7853,
      "bind": 7854,
      "▁dismiss": 7855,
      "ogg": 7856,
      "▁Pop": 7857,
      "▁duplic": 7858,
      "Function": 7859,
      "▁provider": 7860,
      "Det": 7861,
      "▁Rev": 7862,
      "▁leaving": 7863,
      "ри": 7864,
      "ben": 7865,
      "▁throws": 7866,
      "▁reverse": 7867,
      "▁warrant": 7868,
      "▁packages": 7869,
      "▁indicates": 7870,
      "Width": 7871,
      "times": 7872,
      "▁waiting": 7873,
      "▁operated": 7874,
      "▁cardiovascular": 7875,
      "WS": 7876,
      "master": 7877,
      "▁Victor": 7878,
      "▁Medical": 7879,
      "▁implant": 7880,
      "ensor": 7881,
      "istor": 7882,
      "▁mand": 7883,
      "▁entertain": 7884,
      "▁facilities": 7885,
      "▁Lim": 7886,
      "anish": 7887,
      "▁neck": 7888,
      "▁Chief": 7889,
      "▁gender": 7890,
      "▁Penn": 7891,
      "AY": 7892,
      "▁§": 7893,
      "abin": 7894,
      "▁gro": 7895,
      "depend": 7896,
      "▁Subject": 7897,
      "▁amounts": 7898,
      "meta": 7899,
      "▁Social": 7900,
      "▁hormone": 7901,
      "▁operate": 7902,
      "▁Blue": 7903,
      "▁Sand": 7904,
      "ournal": 7905,
      "▁capture": 7906,
      "▁consists": 7907,
      "Me": 7908,
      "▁Which": 7909,
      "ilateral": 7910,
      "▁parties": 7911,
      "▁division": 7912,
      "▁buildings": 7913,
      "▁delivered": 7914,
      "Custom": 7915,
      "▁CL": 7916,
      "rawn": 7917,
      "▁Old": 7918,
      "aired": 7919,
      "idine": 7920,
      "▁spat": 7921,
      "uits": 7922,
      "▁ster": 7923,
      "▁biggest": 7924,
      "▁weather": 7925,
      "▁redirect": 7926,
      "(&": 7927,
      "igin": 7928,
      "orrow": 7929,
      "▁Obama": 7930,
      "Rep": 7931,
      "angular": 7932,
      "istribut": 7933,
      "▁Supp": 7934,
      "▁FA": 7935,
      "▁raw": 7936,
      "▁Swed": 7937,
      "values": 7938,
      "element": 7939,
      "Configuration": 7940,
      "atty": 7941,
      "wrap": 7942,
      "▁Plan": 7943,
      "▁intake": 7944,
      "▁manual": 7945,
      "▁baseline": 7946,
      "▁diagnosed": 7947,
      "▁progression": 7948,
      "inates": 7949,
      "▁helpful": 7950,
      "va": 7951,
      "under": 7952,
      "▁lots": 7953,
      "▁greatly": 7954,
      "▁specify": 7955,
      "Vis": 7956,
      "▁DC": 7957,
      "▁IC": 7958,
      "▁Dig": 7959,
      "▁vel": 7960,
      "Length": 7961,
      ")^": 7962,
      "itchen": 7963,
      "▁practical": 7964,
      "Reader": 7965,
      "▁Brown": 7966,
      "▁Trump": 7967,
      "▁arriv": 7968,
      "▁conflic": 7969,
      "VM": 7970,
      "Interface": 7971,
      "▁reactions": 7972,
      "child": 7973,
      "▁Amazon": 7974,
      "▁Library": 7975,
      "▁supplement": 7976,
      "▁Lo": 7977,
      "▁Ter": 7978,
      "▁aer": 7979,
      "▁sea": 7980,
      "▁knows": 7981,
      "▁carrier": 7982,
      "▁chromos": 7983,
      "▁indicating": 7984,
      "▁Sever": 7985,
      "▁shaft": 7986,
      "▁SP": 7987,
      "▁union": 7988,
      "▁bright": 7989,
      "▁classic": 7990,
      "▁explained": 7991,
      "bur": 7992,
      "▁Non": 7993,
      "elled": 7994,
      "▁topic": 7995,
      "▁Russia": 7996,
      "▁rapidly": 7997,
      "▁rotation": 7998,
      "Can": 7999,
      "▁Land": 8000,
      "▁Action": 8001,
      "BI": 8002,
      "dy": 8003,
      "▁mamm": 8004,
      "liament": 8005,
      "▁adjacent": 8006,
      "▁launched": 8007,
      "BO": 8008,
      "eps": 8009,
      "pub": 8010,
      "hort": 8011,
      "vents": 8012,
      "▁bott": 8013,
      "▁ended": 8014,
      "Project": 8015,
      "▁filled": 8016,
      "hpp": 8017,
      "Bundle": 8018,
      "▁Select": 8019,
      "Location": 8020,
      "▁keeping": 8021,
      "domain": 8022,
      "▁marker": 8023,
      "▁inhibited": 8024,
      "Title": 8025,
      "ophil": 8026,
      "spring": 8027,
      "▁tight": 8028,
      "▁transf": 8029,
      "▁bacterial": 8030,
      "kit": 8031,
      "riers": 8032,
      "▁arth": 8033,
      "▁Peter": 8034,
      "▁chief": 8035,
      "▁stret": 8036,
      "ja": 8037,
      "▁Er": 8038,
      "▁Men": 8039,
      "bling": 8040,
      "utely": 8041,
      "factory": 8042,
      "▁females": 8043,
      "▁manifest": 8044,
      "▁mitochond": 8045,
      "▁$_": 8046,
      "arts": 8047,
      "▁hidden": 8048,
      "▁silver": 8049,
      "▁sounds": 8050,
      "azz": 8051,
      "▁dual": 8052,
      "▁household": 8053,
      "▁HTTP": 8054,
      "▁iter": 8055,
      "▁superior": 8056,
      "menu": 8057,
      "▁Prom": 8058,
      "▁architecture": 8059,
      "ifies": 8060,
      "▁pancre": 8061,
      "▁compile": 8062,
      "▁м": 8063,
      "kes": 8064,
      "▁PS": 8065,
      "▁Six": 8066,
      "▁newly": 8067,
      "▁vul": 8068,
      "▁artists": 8069,
      "▁enabled": 8070,
      ")\"": 8071,
      "VE": 8072,
      "▁Corpor": 8073,
      "▁Visual": 8074,
      "▁Example": 8075,
      "▁Gal": 8076,
      "▁homes": 8077,
      "▁Academy": 8078,
      "▁accident": 8079,
      "javascript": 8080,
      "Wh": 8081,
      "lob": 8082,
      "▁pure": 8083,
      "Address": 8084,
      "ogenous": 8085,
      "mediated": 8086,
      "anda": 8087,
      "▁ren": 8088,
      "▁Page": 8089,
      "▁bath": 8090,
      "▁east": 8091,
      "▁Share": 8092,
      "▁Chicago": 8093,
      "▁adverse": 8094,
      "▁Christmas": 8095,
      "▁initially": 8096,
      "▁determination": 8097,
      "GA": 8098,
      "DNA": 8099,
      "ani": 8100,
      "▁oppos": 8101,
      "▁corner": 8102,
      "▁Charles": 8103,
      "▁bacteria": 8104,
      "▁disadvant": 8105,
      "isp": 8106,
      "▁Matt": 8107,
      "▁Georg": 8108,
      "▁proof": 8109,
      "▁scheme": 8110,
      "▁registered": 8111,
      "▁<=": 8112,
      "▁checked": 8113,
      "▁lateral": 8114,
      "▁discloses": 8115,
      "▁iOS": 8116,
      "▁prox": 8117,
      "ón": 8118,
      "orry": 8119,
      "▁peptide": 8120,
      "▁mutations": 8121,
      "▁performing": 8122,
      "adow": 8123,
      "▁putting": 8124,
      "RT": 8125,
      "}/": 8126,
      "▁NA": 8127,
      "▁Appe": 8128,
      "▁laws": 8129,
      "▁closely": 8130,
      "▁evolution": 8131,
      "▁mob": 8132,
      "▁antagon": 8133,
      "▁boy": 8134,
      "legal": 8135,
      "▁Tri": 8136,
      "▁Wall": 8137,
      "▁volunte": 8138,
      "tn": 8139,
      "▁aid": 8140,
      "▁limits": 8141,
      "pository": 8142,
      "application": 8143,
      "▁ink": 8144,
      "▁sys": 8145,
      "eting": 8146,
      "▁sizes": 8147,
      "▁Russian": 8148,
      "▁founded": 8149,
      "Exec": 8150,
      "▁hyd": 8151,
      "develop": 8152,
      "▁resident": 8153,
      "▁improving": 8154,
      "▁respective": 8155,
      "▁Times": 8156,
      "▁serving": 8157,
      "▁javascript": 8158,
      "ema": 8159,
      "oston": 8160,
      "▁Secret": 8161,
      "▁typedef": 8162,
      "▁Du": 8163,
      "▁PART": 8164,
      "▁mask": 8165,
      "lements": 8166,
      "▁compiler": 8167,
      "ulty": 8168,
      "▁eat": 8169,
      "▁ris": 8170,
      "▁spl": 8171,
      "iences": 8172,
      "▁Point": 8173,
      "▁Jo": 8174,
      "iana": 8175,
      "▁Wal": 8176,
      "▁displays": 8177,
      "dp": 8178,
      "▁Az": 8179,
      "iable": 8180,
      "▁accommod": 8181,
      "▁basically": 8182,
      "DM": 8183,
      "Tag": 8184,
      "▁BAS": 8185,
      "▁Security": 8186,
      "▁respiratory": 8187,
      "acet": 8188,
      "▁crow": 8189,
      "▁connections": 8190,
      "Block": 8191,
      "▁instructions": 8192,
      "▁temperatures": 8193,
      "^{-": 8194,
      "▁BE": 8195,
      "▁compens": 8196,
      "▁winning": 8197,
      "inus": 8198,
      "ocom": 8199,
      "▁initi": 8200,
      "Provider": 8201,
      "lambda": 8202,
      "▁Exper": 8203,
      "Off": 8204,
      "kins": 8205,
      "▁Math": 8206,
      "▁bron": 8207,
      "▁Should": 8208,
      "▁exceed": 8209,
      "DI": 8210,
      "▁holds": 8211,
      "▁Appeals": 8212,
      "Mem": 8213,
      "▁differ": 8214,
      "▁chromat": 8215,
      "▁consecutive": 8216,
      "One": 8217,
      "▁Water": 8218,
      "▁notes": 8219,
      "▁Comput": 8220,
      "▁publish": 8221,
      "▁Unfortunately": 8222,
      "IX": 8223,
      "▁bag": 8224,
      "▁preced": 8225,
      "▁RO": 8226,
      "bert": 8227,
      "▁Ire": 8228,
      "language": 8229,
      "▁facility": 8230,
      "ACK": 8231,
      "▁Rail": 8232,
      "▁waste": 8233,
      "▁Number": 8234,
      "ractions": 8235,
      "▁society": 8236,
      "*)": 8237,
      "FO": 8238,
      "}{\\": 8239,
      "patic": 8240,
      "▁Film": 8241,
      "Entity": 8242,
      "▁Earth": 8243,
      "▁earth": 8244,
      "▁thank": 8245,
      "▁Ma": 8246,
      "▁на": 8247,
      "▁muc": 8248,
      "▁endot": 8249,
      "▁Support": 8250,
      "▁flexible": 8251,
      "▁hydrogen": 8252,
      "▁Community": 8253,
      "fa": 8254,
      "irus": 8255,
      "▁Bal": 8256,
      "▁aimed": 8257,
      "▁saved": 8258,
      "▁studio": 8259,
      "FIG": 8260,
      "Users": 8261,
      "▁forest": 8262,
      "mut": 8263,
      "ingly": 8264,
      "▁Maybe": 8265,
      "▁Congress": 8266,
      "ifndef": 8267,
      "▁aims": 8268,
      "▁Jones": 8269,
      "▁dress": 8270,
      "▁Valley": 8271,
      "▁ischem": 8272,
      "ajax": 8273,
      "anth": 8274,
      "thread": 8275,
      "replace": 8276,
      "▁medicine": 8277,
      "▁typename": 8278,
      "▁google": 8279,
      "▁proposal": 8280,
      ">,": 8281,
      "riter": 8282,
      "ceived": 8283,
      "▁doses": 8284,
      "▁cluster": 8285,
      "▁economy": 8286,
      "▁suscept": 8287,
      "ologically": 8288,
      "▁cord": 8289,
      "▁minimal": 8290,
      "▁instances": 8291,
      "Hel": 8292,
      "tmp": 8293,
      "Main": 8294,
      "opsy": 8295,
      "▁rig": 8296,
      "▁Assembly": 8297,
      "▁anc": 8298,
      "▁attributes": 8299,
      "esome": 8300,
      "▁cohort": 8301,
      "ventions": 8302,
      "▁administered": 8303,
      "Ab": 8304,
      "FOR": 8305,
      "bec": 8306,
      "▁vision": 8307,
      "▁charges": 8308,
      "Down": 8309,
      "▁salt": 8310,
      "▁chair": 8311,
      "Product": 8312,
      "urrency": 8313,
      "▁charged": 8314,
      "cap": 8315,
      "▁furn": 8316,
      "Pan": 8317,
      "▁narrow": 8318,
      "▁thousands": 8319,
      "▁surrounding": 8320,
      "▁LO": 8321,
      "▁Cir": 8322,
      "▁Core": 8323,
      "▁Lear": 8324,
      "▁ment": 8325,
      "Refere": 8326,
      "idents": 8327,
      "▁cathe": 8328,
      "▁Kingdom": 8329,
      "▁involvement": 8330,
      "MI": 8331,
      "▁np": 8332,
      "▁Jew": 8333,
      "erman": 8334,
      "▁clock": 8335,
      "▁<%": 8336,
      "▁Hon": 8337,
      "olved": 8338,
      "Process": 8339,
      "WE": 8340,
      "uns": 8341,
      "pers": 8342,
      "haust": 8343,
      "▁Jeff": 8344,
      "▁pneum": 8345,
      "▁Report": 8346,
      "▁afford": 8347,
      "▁Administ": 8348,
      "contin": 8349,
      "▁edition": 8350,
      "▁feeling": 8351,
      "▁warning": 8352,
      "▁teaching": 8353,
      "▁basketball": 8354,
      ".'": 8355,
      "jo": 8356,
      "▁nm": 8357,
      "acket": 8358,
      "parse": 8359,
      "▁======": 8360,
      "▁athlet": 8361,
      "▁Bur": 8362,
      "admin": 8363,
      "▁Link": 8364,
      "▁chick": 8365,
      "▁chosen": 8366,
      "▁helping": 8367,
      "Su": 8368,
      "▁fo": 8369,
      "icious": 8370,
      "▁Cross": 8371,
      "▁Light": 8372,
      "GET": 8373,
      "▁guy": 8374,
      "ograp": 8375,
      "▁uptake": 8376,
      "▁expansion": 8377,
      "stood": 8378,
      "▁sweet": 8379,
      "▁learned": 8380,
      "▁trouble": 8381,
      "▁acquired": 8382,
      "▁portions": 8383,
      "Mon": 8384,
      "▁bird": 8385,
      "▁payment": 8386,
      "▁cleaning": 8387,
      "▁Following": 8388,
      "▁ul": 8389,
      "ching": 8390,
      "▁accepted": 8391,
      "uzz": 8392,
      "▁Jes": 8393,
      "possible": 8394,
      "▁intensity": 8395,
      "▁Pak": 8396,
      "▁Squ": 8397,
      "ARY": 8398,
      "igma": 8399,
      "ritis": 8400,
      "Header": 8401,
      "▁executed": 8402,
      "▁\"\"\"": 8403,
      "▁Rest": 8404,
      "jquery": 8405,
      "▁Mexico": 8406,
      "▁designs": 8407,
      "▁Message": 8408,
      "▁chamber": 8409,
      "▁optimal": 8410,
      "▁migration": 8411,
      "▁comprehensive": 8412,
      "yes": 8413,
      "framework": 8414,
      "▁schedule": 8415,
      "oked": 8416,
      "▁Phot": 8417,
      "▁defe": 8418,
      "▁west": 8419,
      "▁depos": 8420,
      "▁flash": 8421,
      "▁opposite": 8422,
      "(_": 8423,
      "iph": 8424,
      "wan": 8425,
      "WARE": 8426,
      "cons": 8427,
      "▁Mur": 8428,
      "imary": 8429,
      "ospit": 8430,
      "▁dialog": 8431,
      "▁fragment": 8432,
      "umes": 8433,
      "▁baby": 8434,
      "▁polar": 8435,
      "▁offset": 8436,
      "▁prison": 8437,
      "▁wondering": 8438,
      "mes": 8439,
      "Core": 8440,
      "▁Who": 8441,
      "▁ban": 8442,
      "adium": 8443,
      "onald": 8444,
      "▁beat": 8445,
      "▁leaders": 8446,
      "▁incident": 8447,
      "▁phosphory": 8448,
      "▁ventricular": 8449,
      "▁rab": 8450,
      "float": 8451,
      "category": 8452,
      "▁il": 8453,
      "rocy": 8454,
      "▁nic": 8455,
      "▁beam": 8456,
      "▁gear": 8457,
      "people": 8458,
      "▁colour": 8459,
      "▁driven": 8460,
      "▁repeat": 8461,
      "▁transaction": 8462,
      "mosp": 8463,
      "▁swim": 8464,
      "▁orders": 8465,
      "▁coupled": 8466,
      "}^": 8467,
      "Buffer": 8468,
      "plements": 8469,
      "▁inflammation": 8470,
      "enna": 8471,
      "look": 8472,
      "isters": 8473,
      "▁industrial": 8474,
      "▁myocardial": 8475,
      "neg": 8476,
      "▁grant": 8477,
      "▁reality": 8478,
      "▁famous": 8479,
      "forms": 8480,
      "▁cytok": 8481,
      "▁cities": 8482,
      "▁speech": 8483,
      "▁mixture": 8484,
      "oted": 8485,
      "ading": 8486,
      "▁street": 8487,
      "▁sharing": 8488,
      "ao": 8489,
      "utf": 8490,
      "CLUD": 8491,
      "▁youth": 8492,
      "alls": 8493,
      "edom": 8494,
      "▁destroy": 8495,
      "▁configured": 8496,
      "▁guidelines": 8497,
      "▁controlling": 8498,
      "ACE": 8499,
      "rows": 8500,
      "▁Process": 8501,
      "▁executive": 8502,
      "▁fant": 8503,
      "........": 8504,
      "▁judgment": 8505,
      "auth": 8506,
      "▁Pac": 8507,
      "uable": 8508,
      "uated": 8509,
      "cdot": 8510,
      "▁>>>": 8511,
      "▁soc": 8512,
      "▁tow": 8513,
      "rophy": 8514,
      "▁males": 8515,
      "▁divers": 8516,
      "▁LICENSE": 8517,
      "▁drivers": 8518,
      "Task": 8519,
      "mean": 8520,
      "split": 8521,
      "water": 8522,
      "▁adopt": 8523,
      "▁welcome": 8524,
      "▁requirement": 8525,
      "PH": 8526,
      "plates": 8527,
      "▁datas": 8528,
      "▁listen": 8529,
      "▁municip": 8530,
      "PRO": 8531,
      "idi": 8532,
      "stack": 8533,
      "▁soil": 8534,
      "ailable": 8535,
      "▁agency": 8536,
      "▁equation": 8537,
      "cpp": 8538,
      "▁permit": 8539,
      "▁Muse": 8540,
      "▁Awards": 8541,
      "▁adoles": 8542,
      "ensitive": 8543,
      "▁conclusion": 8544,
      "FFFF": 8545,
      "▁gift": 8546,
      "▁rent": 8547,
      "illary": 8548,
      "▁Organ": 8549,
      "▁counsel": 8550,
      "▁chemotherapy": 8551,
      "ERS": 8552,
      "Direct": 8553,
      "▁decide": 8554,
      "▁Supreme": 8555,
      "▁rub": 8556,
      "oplasm": 8557,
      "▁wound": 8558,
      "▁potent": 8559,
      "▁creation": 8560,
      "▁prostate": 8561,
      "▁differential": 8562,
      "▁quantitative": 8563,
      "▁Bob": 8564,
      "support": 8565,
      "▁severity": 8566,
      "cf": 8567,
      "▁Pay": 8568,
      "▁Scot": 8569,
      "▁knew": 8570,
      "cribed": 8571,
      "filename": 8572,
      "efficient": 8573,
      "▁Michigan": 8574,
      "'-": 8575,
      "▁Boston": 8576,
      "▁mapping": 8577,
      "▁calculate": 8578,
      "Link": 8579,
      "system": 8580,
      "▁prost": 8581,
      "▁Series": 8582,
      "▁broken": 8583,
      "▁integration": 8584,
      "tab": 8585,
      "▁Italy": 8586,
      "▁Angeles": 8587,
      "▁selective": 8588,
      "▁randomized": 8589,
      "ElementById": 8590,
      "▁significance": 8591,
      "||": 8592,
      "▁Lee": 8593,
      "▁Early": 8594,
      "▁sodium": 8595,
      "▁frequent": 8596,
      "▁execution": 8597,
      "▁:)": 8598,
      "▁Mike": 8599,
      "▁excited": 8600,
      "▁tournament": 8601,
      "prise": 8602,
      "▁Phys": 8603,
      "▁Week": 8604,
      "Target": 8605,
      "python": 8606,
      "▁Chris": 8607,
      "▁funding": 8608,
      "▁thereof": 8609,
      "▁spectrum": 8610,
      "▁scientific": 8611,
      "icker": 8612,
      "▁angi": 8613,
      "person": 8614,
      "jango": 8615,
      "▁crim": 8616,
      "▁sampl": 8617,
      "▁Contact": 8618,
      "▁Records": 8619,
      "▁Currently": 8620,
      "▁dysfunction": 8621,
      "▁EV": 8622,
      "iral": 8623,
      "▁cup": 8624,
      "raining": 8625,
      "▁substantially": 8626,
      "DD": 8627,
      "HR": 8628,
      "POSE": 8629,
      "▁wel": 8630,
      "users": 8631,
      "▁Qual": 8632,
      "▁dial": 8633,
      "matrix": 8634,
      "▁usual": 8635,
      "ifferent": 8636,
      "cr": 8637,
      "etc": 8638,
      "Null": 8639,
      "▁synthes": 8640,
      "▁considering": 8641,
      "teen": 8642,
      "Names": 8643,
      "▁elected": 8644,
      "Co": 8645,
      "ASS": 8646,
      "▁MER": 8647,
      "▁Full": 8648,
      "▁decor": 8649,
      "▁attacks": 8650,
      "▁instant": 8651,
      "ULT": 8652,
      "▁concern": 8653,
      "▁creative": 8654,
      "▁cash": 8655,
      "▁mild": 8656,
      "▁milk": 8657,
      "▁hotel": 8658,
      "▁estate": 8659,
      "▁flight": 8660,
      "iversal": 8661,
      "▁cutting": 8662,
      "each": 8663,
      "ifts": 8664,
      "▁hook": 8665,
      "iro": 8666,
      "▁ce": 8667,
      "▁Haw": 8668,
      "sites": 8669,
      "▁Ohio": 8670,
      "▁chip": 8671,
      "▁neighbor": 8672,
      "▁rac": 8673,
      "oline": 8674,
      "▁snow": 8675,
      "▁matching": 8676,
      "▁cholesterol": 8677,
      "}.": 8678,
      "Pass": 8679,
      "▁Est": 8680,
      "scape": 8681,
      "▁Paris": 8682,
      "STR": 8683,
      "▁FIT": 8684,
      "▁Mil": 8685,
      "▁Ireland": 8686,
      "▁sending": 8687,
      "dig": 8688,
      "▁Fort": 8689,
      "▁weap": 8690,
      "FTWARE": 8691,
      "▁Family": 8692,
      "▁covers": 8693,
      "▁defense": 8694,
      "▁distingu": 8695,
      "▁scored": 8696,
      "▁moderate": 8697,
      "jax": 8698,
      "roud": 8699,
      "▁leak": 8700,
      "▁orth": 8701,
      "▁handler": 8702,
      "▁Official": 8703,
      "▁featured": 8704,
      "allow": 8705,
      "▁ordered": 8706,
      "▁systemic": 8707,
      "▁km": 8708,
      "ULAR": 8709,
      "SELECT": 8710,
      "▁officer": 8711,
      "▁Northern": 8712,
      "▁undefined": 8713,
      "▁categories": 8714,
      ")?": 8715,
      "typ": 8716,
      "alid": 8717,
      "▁PUR": 8718,
      "▁Cell": 8719,
      "▁exhaust": 8720,
      "Collection": 8721,
      "Case": 8722,
      "▁Historic": 8723,
      "getElementById": 8724,
      "plet": 8725,
      "▁curve": 8726,
      "▁constructed": 8727,
      "'))": 8728,
      "▁Adv": 8729,
      "▁gel": 8730,
      "▁fails": 8731,
      "▁resolve": 8732,
      "▁arranged": 8733,
      "▁arterial": 8734,
      "▁composed": 8735,
      "▁phenomen": 8736,
      "▁modification": 8737,
      "ptic": 8738,
      "▁fly": 8739,
      "▁span": 8740,
      "▁Final": 8741,
      "▁owners": 8742,
      "▁Ram": 8743,
      "▁funds": 8744,
      "▁hypertension": 8745,
      "tw": 8746,
      "prop": 8747,
      "▁Lead": 8748,
      "▁Asian": 8749,
      "▁reader": 8750,
      "▁references": 8751,
      "▁increasingly": 8752,
      "▁tet": 8753,
      "ansas": 8754,
      "▁familiar": 8755,
      "GR": 8756,
      "ocl": 8757,
      "▁thr": 8758,
      "ricket": 8759,
      "▁Je": 8760,
      "▁lose": 8761,
      "▁serves": 8762,
      "▁Province": 8763,
      "▁separated": 8764,
      "▁maintained": 8765,
      "fol": 8766,
      "uid": 8767,
      "▁suc": 8768,
      "▁abuse": 8769,
      "▁receiver": 8770,
      "▁arrangement": 8771,
      "▁dop": 8772,
      "▁und": 8773,
      "▁citiz": 8774,
      "Session": 8775,
      "▁intern": 8776,
      "itutions": 8777,
      "▁polymorph": 8778,
      "▁assistance": 8779,
      "AF": 8780,
      "NESS": 8781,
      "cean": 8782,
      "high": 8783,
      "inson": 8784,
      "track": 8785,
      "ectomy": 8786,
      "▁researchers": 8787,
      "OP": 8788,
      "▁NY": 8789,
      "ogram": 8790,
      "xiety": 8791,
      "▁Young": 8792,
      "▁Technology": 8793,
      "/.": 8794,
      "uan": 8795,
      "fast": 8796,
      "ophy": 8797,
      "ennis": 8798,
      "▁align": 8799,
      "▁forget": 8800,
      "▁removing": 8801,
      "▁constraint": 8802,
      "▁incorporated": 8803,
      "▁transplantation": 8804,
      "”,": 8805,
      "mid": 8806,
      "entry": 8807,
      "▁Those": 8808,
      "▁forced": 8809,
      "▁granted": 8810,
      "▁inserted": 8811,
      "▁completion": 8812,
      "▁Contin": 8813,
      "ffff": 8814,
      "lers": 8815,
      "▁caps": 8816,
      "▁methyl": 8817,
      "Document": 8818,
      "▁illness": 8819,
      "▁modules": 8820,
      "▁entirely": 8821,
      "▁situations": 8822,
      "drop": 8823,
      "udio": 8824,
      "▁onset": 8825,
      "▁veget": 8826,
      "▁centre": 8827,
      "you": 8828,
      "▁mi": 8829,
      "▁codes": 8830,
      "▁servers": 8831,
      "▁secretion": 8832,
      "olit": 8833,
      "inant": 8834,
      "nergy": 8835,
      "Access": 8836,
      "otypes": 8837,
      "▁peace": 8838,
      "▁Iran": 8839,
      "▁medal": 8840,
      "▁stars": 8841,
      "▁summary": 8842,
      "▁circuits": 8843,
      "Deb": 8844,
      "gers": 8845,
      "thal": 8846,
      "ocity": 8847,
      "▁professionals": 8848,
      "▁Str": 8849,
      "modules": 8850,
      "esterday": 8851,
      "▁consumer": 8852,
      "Mat": 8853,
      "ROR": 8854,
      "▁Prem": 8855,
      "▁Columb": 8856,
      "▁impair": 8857,
      "▁meta": 8858,
      "▁blank": 8859,
      "uing": 8860,
      "▁Win": 8861,
      "▁Creat": 8862,
      "▁spirit": 8863,
      "▁seasons": 8864,
      "▁intermediate": 8865,
      "ни": 8866,
      "atre": 8867,
      "▁Expl": 8868,
      "▁Through": 8869,
      "Args": 8870,
      "second": 8871,
      "▁Senate": 8872,
      "formance": 8873,
      "▁complexes": 8874,
      "▁navigation": 8875,
      "uous": 8876,
      "▁cas": 8877,
      "▁bits": 8878,
      "▁apart": 8879,
      "▁explan": 8880,
      "▁measuring": 8881,
      "nb": 8882,
      "mode": 8883,
      "▁Arts": 8884,
      "▁predicted": 8885,
      "atile": 8886,
      "▁radical": 8887,
      "▁Clinical": 8888,
      "▁epithelial": 8889,
      "Json": 8890,
      "refix": 8891,
      "▁owned": 8892,
      "▁Conference": 8893,
      "▁candidates": 8894,
      "▁university": 8895,
      "ifer": 8896,
      "▁CONDIT": 8897,
      "▁county": 8898,
      "▁cookies": 8899,
      "▁utility": 8900,
      "▁anterior": 8901,
      "vironments": 8902,
      "{\"": 8903,
      "▁OK": 8904,
      "circ": 8905,
      "outs": 8906,
      "week": 8907,
      "First": 8908,
      "▁mold": 8909,
      "▁turns": 8910,
      "aturing": 8911,
      "▁characteristic": 8912,
      "ju": 8913,
      "END": 8914,
      "▁Tag": 8915,
      "▁cav": 8916,
      "▁sear": 8917,
      "▁turb": 8918,
      "▁Martin": 8919,
      "▁Spanish": 8920,
      "▁SOFTWARE": 8921,
      "▁advantages": 8922,
      "HD": 8923,
      "+/-": 8924,
      "▁wrap": 8925,
      "▁Micro": 8926,
      "▁elder": 8927,
      "▁Invest": 8928,
      "▁recurre": 8929,
      "▁announce": 8930,
      "▁validation": 8931,
      "▁classification": 8932,
      "esity": 8933,
      "▁draft": 8934,
      "▁complement": 8935,
      "HS": 8936,
      "eds": 8937,
      "aria": 8938,
      "▁STAT": 8939,
      "▁sac": 8940,
      "▁Arab": 8941,
      "▁truly": 8942,
      "▁Several": 8943,
      "▁happening": 8944,
      "FR": 8945,
      "▁HO": 8946,
      "▁Net": 8947,
      "itness": 8948,
      "▁circumst": 8949,
      "▁keyboard": 8950,
      "INT": 8951,
      "▁'/": 8952,
      "▁MR": 8953,
      "Oper": 8954,
      "Post": 8955,
      "apor": 8956,
      "▁BASIS": 8957,
      "▁Common": 8958,
      "▁younger": 8959,
      "▁languages": 8960,
      "area": 8961,
      "asia": 8962,
      "hash": 8963,
      "rary": 8964,
      "▁battle": 8965,
      "▁prospective": 8966,
      "Part": 8967,
      "join": 8968,
      "▁obst": 8969,
      "▁paint": 8970,
      "▁compact": 8971,
      "▁{\"": 8972,
      "sign": 8973,
      "graph": 8974,
      "▁Global": 8975,
      "▁Command": 8976,
      "▁committed": 8977,
      "olve": 8978,
      "empor": 8979,
      "ighter": 8980,
      "▁dates": 8981,
      "▁accounts": 8982,
      "▁cerebral": 8983,
      "▁engineering": 8984,
      "▁simultaneously": 8985,
      "immun": 8986,
      "▁CONT": 8987,
      "▁audience": 8988,
      "▁regulatory": 8989,
      "▁understood": 8990,
      "rin": 8991,
      "▁Food": 8992,
      "▁Gall": 8993,
      "▁Word": 8994,
      "▁advent": 8995,
      "▁anywhere": 8996,
      "▁resonance": 8997,
      "ht": 8998,
      "API": 8999,
      "sort": 9000,
      "▁recom": 9001,
      "▁rough": 9002,
      "▁viral": 9003,
      "▁prepare": 9004,
      "▁computers": 9005,
      "▁CONDITIONS": 9006,
      "▁periods": 9007,
      "▁commands": 9008,
      "▁valuable": 9009,
      "dt": 9010,
      "ali": 9011,
      "keys": 9012,
      "▁sql": 9013,
      "▁Live": 9014,
      "▁hole": 9015,
      "▁forum": 9016,
      "▁discrim": 9017,
      "▁educational": 9018,
      "NP": 9019,
      "▁Ro": 9020,
      "▁refere": 9021,
      ")}": 9022,
      "Te": 9023,
      "spe": 9024,
      "▁Notes": 9025,
      "▁Similar": 9026,
      "▁gastric": 9027,
      "ViewController": 9028,
      "msg": 9029,
      "Menu": 9030,
      "Spec": 9031,
      "▁LED": 9032,
      "Update": 9033,
      "▁Given": 9034,
      "▁econom": 9035,
      "▁academic": 9036,
      "aren": 9037,
      "▁$(\"#": 9038,
      "▁inher": 9039,
      "▁spinal": 9040,
      "mys": 9041,
      "▁coast": 9042,
      "▁genus": 9043,
      "▁implements": 9044,
      "shot": 9045,
      "▁Content": 9046,
      "▁effectiveness": 9047,
      "ori": 9048,
      "Book": 9049,
      "mond": 9050,
      "ymbol": 9051,
      "▁seek": 9052,
      "▁doctor": 9053,
      "▁toxicity": 9054,
      "Hz": 9055,
      "final": 9056,
      "▁mine": 9057,
      "▁Right": 9058,
      "▁sugar": 9059,
      "▁PURPOSE": 9060,
      "▁destination": 9061,
      "PG": 9062,
      "HTML": 9063,
      "items": 9064,
      "Integer": 9065,
      "▁fibers": 9066,
      "▁appointed": 9067,
      "▁providers": 9068,
      "MC": 9069,
      "otrop": 9070,
      "▁newsp": 9071,
      "▁atmosp": 9072,
      "▁neural": 9073,
      "▁sector": 9074,
      "▁greatest": 9075,
      "▁libraries": 9076,
      "▁compression": 9077,
      "▁probability": 9078,
      "▁coc": 9079,
      "amide": 9080,
      "▁nutr": 9081,
      "params": 9082,
      "▁smoking": 9083,
      "▁cerv": 9084,
      "▁Championships": 9085,
      "▁gap": 9086,
      "CHANT": 9087,
      "▁magazine": 9088,
      "▁communications": 9089,
      "Const": 9090,
      "▁fatty": 9091,
      "▁mysql": 9092,
      "▁alleged": 9093,
      "▁Catholic": 9094,
      "▁animation": 9095,
      "hav": 9096,
      "obs": 9097,
      "▁Op": 9098,
      "infl": 9099,
      "oned": 9100,
      "total": 9101,
      "igration": 9102,
      "▁proportion": 9103,
      "▁restaurant": 9104,
      "Dec": 9105,
      ">();": 9106,
      "gian": 9107,
      "▁rural": 9108,
      "▁yellow": 9109,
      "▁infants": 9110,
      "So": 9111,
      "oxide": 9112,
      "▁Asia": 9113,
      "▁Task": 9114,
      "aintiff": 9115,
      "▁Museum": 9116,
      "▁bought": 9117,
      "▁mutation": 9118,
      "▁gest": 9119,
      "▁kill": 9120,
      "▁subset": 9121,
      "▁winter": 9122,
      "▁Journal": 9123,
      "▁separation": 9124,
      ".</": 9125,
      "Year": 9126,
      "front": 9127,
      "▁coffee": 9128,
      "▁finger": 9129,
      "▁styles": 9130,
      "▁MERCHANT": 9131,
      "▁variations": 9132,
      "mac": 9133,
      "▁EL": 9134,
      "SERT": 9135,
      "▁flo": 9136,
      "▁sole": 9137,
      "Change": 9138,
      "▁multip": 9139,
      "▁listing": 9140,
      "UTF": 9141,
      "gly": 9142,
      "▁ORDER": 9143,
      "▁FITNESS": 9144,
      "Identifier": 9145,
      "▁concerned": 9146,
      "▁permanent": 9147,
      "ст": 9148,
      "▁$.": 9149,
      "▁Ub": 9150,
      "byte": 9151,
      "else": 9152,
      "▁Kar": 9153,
      "▁Saf": 9154,
      "▁Index": 9155,
      "▁moves": 9156,
      "▁statistically": 9157,
      "oa": 9158,
      "har": 9159,
      "words": 9160,
      "▁fell": 9161,
      "▁cloud": 9162,
      "Reference": 9163,
      "erb": 9164,
      "▁sper": 9165,
      "▁False": 9166,
      "▁hence": 9167,
      "▁Southern": 9168,
      "▁Middle": 9169,
      "▁climate": 9170,
      "▁Pakistan": 9171,
      "Max": 9172,
      "▁Kim": 9173,
      "▁Track": 9174,
      "▁tells": 9175,
      "▁tutorial": 9176,
      "▁exhibited": 9177,
      "▁identical": 9178,
      "Met": 9179,
      "▁\"<": 9180,
      "▁ec": 9181,
      "dist": 9182,
      "▁Lord": 9183,
      "▁roof": 9184,
      "submit": 9185,
      "▁MERCHANTABILITY": 9186,
      "plex": 9187,
      "alloc": 9188,
      "▁PARTIC": 9189,
      "▁Justice": 9190,
      "▁perspective": 9191,
      "▁lawy": 9192,
      "▁physiological": 9193,
      "rb": 9194,
      "▁Var": 9195,
      "selected": 9196,
      "▁consumers": 9197,
      "▁connecting": 9198,
      "▁decades": 9199,
      "▁largely": 9200,
      "Container": 9201,
      "▁attempts": 9202,
      "▁estimate": 9203,
      "▁perfectly": 9204,
      "▁PARTICULAR": 9205,
      "ira": 9206,
      "ushed": 9207,
      "▁asym": 9208,
      "▁toxic": 9209,
      "▁diverse": 9210,
      "DT": 9211,
      "Red": 9212,
      "▁tips": 9213,
      "▁awarded": 9214,
      "▁experts": 9215,
      "▁factory": 9216,
      "▁promise": 9217,
      "associated": 9218,
      "▁worldwide": 9219,
      "▁endothelial": 9220,
      "▁translation": 9221,
      "▁accumulation": 9222,
      "VI": 9223,
      "▁RT": 9224,
      "▁js": 9225,
      "docs": 9226,
      "▁dent": 9227,
      "Height": 9228,
      "rowser": 9229,
      "▁holiday": 9230,
      "▁impossible": 9231,
      "▁Jun": 9232,
      "▁lap": 9233,
      "▁Path": 9234,
      "▁statements": 9235,
      "ima": 9236,
      "pie": 9237,
      "▁з": 9238,
      "Pop": 9239,
      "▁HE": 9240,
      "▁lived": 9241,
      "ontaneous": 9242,
      "lat": 9243,
      "▁Sir": 9244,
      "▁suit": 9245,
      "urable": 9246,
      "▁switching": 9247,
      "▁convenient": 9248,
      "Dev": 9249,
      "▁Rew": 9250,
      "▁lact": 9251,
      "▁Radio": 9252,
      "▁incred": 9253,
      "▁propose": 9254,
      "▁stopped": 9255,
      "▁profiles": 9256,
[...]
