<pad>	0
<unk>	0
<s>	0
</s>	0
<0x00>	0
<0x01>	0
<0x02>	0
<0x03>	0
<0x04>	0
<0x05>	0
<0x06>	0
<0x07>	0
<0x08>	0
<0x09>	0
<0x0A>	0
<0x0B>	0
<0x0C>	0
<0x0D>	0
<0x0E>	0
<0x0F>	0
<0x10>	0
<0x11>	0
<0x12>	0
<0x13>	0
<0x14>	0
<0x15>	0
<0x16>	0
<0x17>	0
<0x18>	0
<0x19>	0
<0x1A>	0
<0x1B>	0
<0x1C>	0
<0x1D>	0
<0x1E>	0
<0x1F>	0
<0x20>	0
<0x21>	0
<0x22>	0
<0x23>	0
<0x24>	0
<0x25>	0
<0x26>	0
<0x27>	0
<0x28>	0
<0x29>	0
<0x2A>	0
<0x2B>	0
<0x2C>	0
<0x2D>	0
<0x2E>	0
<0x2F>	0
<0x30>	0
<0x31>	0
<0x32>	0
<0x33>	0
<0x34>	0
<0x35>	0
<0x36>	0
<0x37>	0
<0x38>	0
<0x39>	0
<0x3A>	0
<0x3B>	0
<0x3C>	0
<0x3D>	0
<0x3E>	0
<0x3F>	0
<0x40>	0
<0x41>	0
<0x42>	0
<0x43>	0
<0x44>	0
<0x45>	0
<0x46>	0
<0x47>	0
<0x48>	0
<0x49>	0
<0x4A>	0
<0x4B>	0
<0x4C>	0
<0x4D>	0
<0x4E>	0
<0x4F>	0
<0x50>	0
<0x51>	0
<0x52>	0
<0x53>	0
<0x54>	0
<0x55>	0
<0x56>	0
<0x57>	0
<0x58>	0
<0x59>	0
<0x5A>	0
<0x5B>	0
<0x5C>	0
<0x5D>	0
<0x5E>	0
<0x5F>	0
<0x60>	0
<0x61>	0
<0x62>	0
<0x63>	0
<0x64>	0
<0x65>	0
<0x66>	0
<0x67>	0
<0x68>	0
<0x69>	0
<0x6A>	0
<0x6B>	0
<0x6C>	0
<0x6D>	0
<0x6E>	0
<0x6F>	0
<0x70>	0
<0x71>	0
<0x72>	0
<0x73>	0
<0x74>	0
<0x75>	0
<0x76>	0
<0x77>	0
<0x78>	0
<0x79>	0
<0x7A>	0
<0x7B>	0
<0x7C>	0
<0x7D>	0
<0x7E>	0
<0x7F>	0
<0x80>	0
<0x81>	0
<0x82>	0
<0x83>	0
<0x84>	0
<0x85>	0
<0x86>	0
<0x87>	0
<0x88>	0
<0x89>	0
<0x8A>	0
<0x8B>	0
<0x8C>	0
<0x8D>	0
<0x8E>	0
<0x8F>	0
<0x90>	0
<0x91>	0
<0x92>	0
<0x93>	0
<0x94>	0
<0x95>	0
<0x96>	0
<0x97>	0
<0x98>	0
<0x99>	0
<0x9A>	0
<0x9B>	0
<0x9C>	0
<0x9D>	0
<0x9E>	0
<0x9F>	0
<0xA0>	0
<0xA1>	0
<0xA2>	0
<0xA3>	0
<0xA4>	0
<0xA5>	0
<0xA6>	0
<0xA7>	0
<0xA8>	0
<0xA9>	0
<0xAA>	0
<0xAB>	0
<0xAC>	0
<0xAD>	0
<0xAE>	0
<0xAF>	0
<0xB0>	0
<0xB1>	0
<0xB2>	0
<0xB3>	0
<0xB4>	0
<0xB5>	0
<0xB6>	0
<0xB7>	0
<0xB8>	0
<0xB9>	0
<0xBA>	0
<0xBB>	0
<0xBC>	0
<0xBD>	0
<0xBE>	0
<0xBF>	0
<0xC0>	0
<0xC1>	0
<0xC2>	0
<0xC3>	0
<0xC4>	0
<0xC5>	0
<0xC6>	0
<0xC7>	0
<0xC8>	0
<0xC9>	0
<0xCA>	0
<0xCB>	0
<0xCC>	0
<0xCD>	0
<0xCE>	0
<0xCF>	0
<0xD0>	0
<0xD1>	0
<0xD2>	0
<0xD3>	0
<0xD4>	0
<0xD5>	0
<0xD6>	0
<0xD7>	0
<0xD8>	0
<0xD9>	0
<0xDA>	0
<0xDB>	0
<0xDC>	0
<0xDD>	0
<0xDE>	0
<0xDF>	0
<0xE0>	0
<0xE1>	0
<0xE2>	0
<0xE3>	0
<0xE4>	0
<0xE5>	0
<0xE6>	0
<0xE7>	0
<0xE8>	0
<0xE9>	0
<0xEA>	0
<0xEB>	0
<0xEC>	0
<0xED>	0
<0xEE>	0
<0xEF>	0
<0xF0>	0
<0xF1>	0
<0xF2>	0
<0xF3>	0
<0xF4>	0
<0xF5>	0
<0xF6>	0
<0xF7>	0
<0xF8>	0
<0xF9>	0
<0xFA>	0
<0xFB>	0
<0xFC>	0
<0xFD>	0
<0xFE>	0
<0xFF>	0
▁t	-0
in	-1
er	-2
▁a	-3
he	-4
on	-5
es	-6
at	-7
re	-8
▁the	-9
▁s	-10
en	-11
▁c	-12
or	-13
is	-14
▁f	-15
an	-16
al	-17
ti	-18
▁o	-19
▁A	-20
▁w	-21
▁p	-22
ing	-23
▁m	-24
ed	-25
ar	-26
▁d	-27
ou	-28
it	-29
▁b	-30
▁to	-31
▁of	-32
▁in	-33
le	-34
▁an	-35
ic	-36
tion	-37
ent	-38
▁T	-39
▁n	-40
ro	-41
▁I	-42
as	-43
▁S	-44
▁C	-45
▁h	-46
▁B	-47
et	-48
▁and	-49
el	-50
ac	-51
▁th	-52
▁is	-53
▁e	-54
st	-55
ow	-56
ion	-57
▁re	-58
▁=	-59
am	-60
om	-61
▁D	-62
ur	-63
il	-64
ol	-65
ues	-66
id	-67
im	-68
▁for	-69
▁g	-70
ec	-71
ig	-72
▁l	-73
ve	-74
▁st	-75
ns	-76
ly	-77
ation	-78
ut	-79
ist	-80
ul	-81
uestion	-82
wer	-83
us	-84
▁W	-85
um	-86
ate	-87
ay	-88
ce	-89
ers	-90
▁Q	-91
""	-92
▁The	-93
▁on	-94
nswer	-95
▁Answer	-96
th	-97
▁r	-98
▁Question	-99
ant	-100
ud	-101
ag	-102
▁y	-103
▁con	-104
if	-105
se	-106
un	-107
▁P	-108
__	-109
ot	-110
▁we	-111
ir	-112
ad	-113
ith	-114
ess	-115
ue	-116
iv	-117
▁it	-118
od	-119
▁(	-120
▁that	-121
ter	-122
▁as	-123
udent	-124
▁be	-125
▁with	-126
▁you	-127
▁pro	-128
ment	-129
▁U	-130
▁ne	-131
▁St	-132
▁H	-133
ain	-134
▁ex	-135
hic	-136
▁E	-137
hat	-138
igh	-139
▁L	-140
ch	-141
▁F	-142
▁-	-143
pp	-144
ss	-145
ct	-146
ri	-147
rom	-148
▁de	-149
▁v	-150
ser	-151
▁can	-152
age	-153
hich	-154
▁are	-155
▁M	-156
ber	-157
oun	-158
ak	-159
▁by	-160
ame	-161
▁R	-162
▁$	-163
▁com	-164
▁N	-165
ort	-166
qu	-167
ab	-168
est	-169
▁So	-170
▁tr	-171
▁he	-172
ight	-173
▁us	-174
em	-175
▁*	-176
▁num	-177
ci	-178
"""	-179
▁from	-180
ver	-181
ore	-182
▁Ass	-183
ave	-184
ld	-185
▁le	-186
▁User	-187
istant	-188
▁su	-189
▁"""	-190
▁Assistant	-191
▁al	-192
▁"	-193
and	-194
low	-195
our	-196
▁Student	-197
▁G	-198
▁pr	-199
act	-200
▁{	-201
ect	-202
▁\	-203
pl	-204
▁II	-205
end	-206
▁O	-207
ity	-208
ure	-209
ex	-210
int	-211
▁ch	-212
tal	-213
▁or	-214
▁im	-215
▁number	-216
▁do	-217
▁if	-218
▁total	-219
tur	-220
ind	-221
ere	-222
ould	-223
▁+	-224
ap	-225
ple	-226
ass	-227
▁have	-228
▁str	-229
▁this	-230
▁need	-231
▁'	-232
ard	-233
ks	-234
▁Y	-235
▁fol	-236
ach	-237
▁follow	-238
ill	-239
ath	-240
ction	-241
()	-242
▁co	-243
lo	-244
ep	-245
▁__	-246
▁so	-247
out	-248
▁In	-249
port	-250
▁#	-251
turn	-252
art	-253
elf	-254
▁k	-255
pe	-256
▁def	-257
▁following	-258
iz	-259
▁Which	-260
▁un	-261
▁out	-262
▁pl	-263
▁cal	-264
per	-265
ance	-266
▁at	-267
▁res	-268
▁per	-269
▁sh	-270
cul	-271
▁me	-272
ile	-273
up	-274
▁int	-275
ang	-276
▁}	-277
ies	-278
os	-279
▁ab	-280
▁Th	-281
▁only	-282
ations	-283
ome	-284
▁return	-285
▁ad	-286
):	-287
ount	-288
str	-289
are	-290
▁fe	-291
one	-292
▁how	-293
▁has	-294
▁man	-295
rect	-296
iti	-297
oo	-298
ble	-299
ence	-300
▁en	-301
▁What	-302
ine	-303
ff	-304
▁tim	-305
▁cont	-306
ual	-307
der	-308
orm	-309
ult	-310
▁calcul	-311
ide	-312
▁was	-313
St	-314
▁not	-315
▁That	-316
▁se	-317
av	-318
ck	-319
ase	-320
▁app	-321
all	-322
ated	-323
▁cl	-324
▁which	-325
ata	-326
put	-327
ther	-328
ice	-329
cc	-330
▁sp	-331
ive	-332
ip	-333
ound	-334
ack	-335
▁wh	-336
**	-337
▁Tr	-338
og	-339
▁It	-340
▁ind	-341
▁more	-342
▁Ex	-343
arti	-344
▁J	-345
gh	-346
ust	-347
▁___	-348
ical	-349
les	-350
ord	-351
ary	-352
▁any	-353
▁dis	-354
op	-355
ree	-356
pt	-357
alse	-358
ans	-359
cip	-360
able	-361
▁would	-362
ough	-363
ear	-364
▁each	-365
▁Let	-366
ext	-367
tic	-368
▁j	-369
▁find	-370
▁If	-371
▁their	-372
name	-373
ren	-374
▁import	-375
form	-376
articip	-377
ll	-378
ivid	-379
▁III	-380
lp	-381
▁**	-382
ail	-383
fer	-384
▁->	-385
ake	-386
hen	-387
▁comm	-388
▁True	-389
ie	-390
tions	-391
reat	-392
")	-393
enc	-394
alue	-395
▁help	-396
▁many	-397
irst	-398
articipant	-399
get	-400
Student	-401
▁inc	-402
',	-403
ong	-404
▁False	-405
ey	-406
own	-407
:**	-408
ign	-409
orrect	-410
▁about	-411
king	-412
oc	-413
pr	-414
▁We	-415
▁/	-416
▁Participant	-417
▁q	-418
▁ty	-419
▁get	-420
ings	-421
▁An	-422
).	-423
ments	-424
▁fun	-425
ory	-426
ror	-427
▁all	-428
ays	-429
du	-430
▁self	-431
tr	-432
▁print	-433
ge	-434
ub	-435
▁add	-436
▁will	-437
ost	-438
ode	-439
ell	-440
▁You	-441
▁wor	-442
lic	-443
blem	-444
▁ar	-445
▁em	-446
▁one	-447
ft	-448
▁rel	-449
tim	-450
ace	-451
▁let	-452
▁bo	-453
ens	-454
ast	-455
▁:	-456
▁ro	-457
▁calculate	-458
▁new	-459
),	-460
▁up	-461
▁question	-462
▁right	-463
▁V	-464
ite	-465
▁gr	-466
▁function	-467
pon	-468
▁feel	-469
odel	-470
red	-471
▁correct	-472
▁sub	-473
▁cost	-474
▁time	-475
ates	-476
enti	-477
ition	-478
par	-479
▁des	-480
gr	-481
als	-482
▁inter	-483
▁she	-484
rib	-485
so	-486
▁giv	-487
▁problem	-488
fter	-489
actly	-490
ia	-491
▁step	-492
▁hour	-493
vel	-494
▁\(	-495
eng	-496
▁min	-497
hip	-498
ulti	-499
ents	-500
▁How	-501
ased	-502
ood	-503
);	-504
▁try	-505
ous	-506
self	-507
▁am	-508
con	-509
ject	-510
ally	-511
erson	-512
ors	-513
▁true	-514
▁[	-515
▁sc	-516
",	-517
ank	-518
▁equ	-519
ik	-520
▁list	-521
▁To	-522
▁|	-523
ividual	-524
pro	-525
akes	-526
▁kn	-527
rough	-528
▁class	-529
▁reg	-530
ific	-531
▁play	-532
▁cons	-533
▁sol	-534
erm	-535
▁your	-536
▁first	-537
▁Exactly	-538
ption	-539
ax	-540
▁po	-541
eg	-542
ely	-543
come	-544
ild	-545
iel	-546
("	-547
▁col	-548
▁they	-549
▁mo	-550
▁form	-551
▁result	-552
ts	-553
▁==	-554
ys	-555
▁year	-556
▁multi	-557
▁through	-558
▁ans	-559
urren	-560
▁questions	-561
▁K	-562
▁answer	-563
ond	-564
path	-565
ize	-566
▁set	-567
▁char	-568
▁after	-569
▁individual	-570
ield	-571
▁Now	-572
▁tw	-573
▁his	-574
cess	-575
▁there	-576
▁now	-577
▁ser	-578
aining	-579
gs	-580
app	-581
elcome	-582
▁under	-583
▁mar	-584
▁acc	-585
▁should	-586
▁down	-587
com	-588
--	-589
▁conf	-590
▁They	-591
▁pre	-592
▁welcome	-593
▁bre	-594
▁Yes	-595
▁does	-596
igure	-597
ty	-598
▁no	-599
▁her	-600
ef	-601
▁state	-602
▁ac	-603
▁x	-604
cial	-605
inal	-606
ating	-607
ily	-608
ry	-609
▁sec	-610
param	-611
ility	-612
▁but	-613
ten	-614
▁other	-615
we	-616
▁disc	-617
▁ev	-618
ange	-619
▁met	-620
▁bu	-621
ict	-622
▁ag	-623
ength	-624
▁boo	-625
▁rem	-626
▁data	-627
▁ask	-628
tive	-629
..	-630
res	-631
ise	-632
▁free	-633
▁bet	-634
▁than	-635
('	-636
bers	-637
▁start	-638
▁when	-639
▁mu	-640
▁Ar	-641
ession	-642
anc	-643
▁None	-644
▁day	-645
urrent	-646
ial	-647
▁person	-648
ince	-649
▁string	-650
▁over	-651
ob	-652
aw	-653
▁times	-654
▁spec	-655
▁user	-656
ener	-657
iles	-658
▁then	-659
▁file	-660
to	-661
cept	-662
▁Can	-663
▁who	-664
▁figure	-665
▁typ	-666
▁exper	-667
▁sy	-668
▁hours	-669
▁sim	-670
▁use	-671
iffer	-672
▁wr	-673
ib	-674
▁them	-675
▁dist	-676
ire	-677
▁mat	-678
pect	-679
its	-680
rac	-681
▁much	-682
te	-683
lud	-684
ply	-685
▁part	-686
▁State	-687
▁qu	-688
▁break	-689
hes	-690
stand	-691
▁comp	-692
')	-693
▁const	-694
▁supp	-695
▁main	-696
ose	-697
lect	-698
▁model	-699
▁div	-700
oy	-701
row	-702
ense	-703
ied	-704
uring	-705
ative	-706
ons	-707
ars	-708
num	-709
data	-710
▁know	-711
ish	-712
▁two	-713
ix	-714
utes	-715
▁dec	-716
ray	-717
▁This	-718
rror	-719
▁prov	-720
▁inv	-721
ions	-722
ike	-723
ade	-724
ities	-725
ames	-726
▁cour	-727
▁student	-728
▁left	-729
▁game	-730
▁Ch	-731
▁dr	-732
ari	-733
ends	-734
ok	-735
reate	-736
file	-737
hn	-738
▁what	-739
▁val	-740
▁used	-741
ationship	-742
ages	-743
▁experi	-744
▁wal	-745
ink	-746
":	-747
tract	-748
▁te	-749
▁eff	-750
▁name	-751
▁value	-752
▁Ret	-753
▁may	-754
tiv	-755
▁relationship	-756
▁work	-757
▁ob	-758
ved	-759
ider	-760
irect	-761
assage	-762
▁amount	-763
▁En	-764
▁Statement	-765
▁mon	-766
▁op	-767
▁produ	-768
▁List	-769
▁Al	-770
Error	-771
ick	-772
ove	-773
▁ph	-774
▁desc	-775
ques	-776
▁see	-777
▁<	-778
play	-779
ower	-780
▁wee	-781
ning	-782
error	-783
▁some	-784
▁includ	-785
▁el	-786
▁trying	-787
ting	-788
▁its	-789
▁course	-790
ample	-791
▁understand	-792
▁type	-793
acter	-794
ah	-795
▁current	-796
▁go	-797
▁into	-798
▁He	-799
▁were	-800
stem	-801
▁make	-802
▁did	-803
▁our	-804
alth	-805
ient	-806
▁respon	-807
▁test	-808
her	-809
ull	-810
▁regard	-811
▁ass	-812
▁process	-813
▁multiply	-814
▁rec	-815
heck	-816
urns	-817
very	-818
▁Con	-819
iss	-820
▁Com	-821
ute	-822
▁Passage	-823
▁On	-824
val	-825
▁common	-826
▁All	-827
':	-828
▁makes	-829
ery	-830
``	-831
▁Hi	-832
cl	-833
▁often	-834
▁No	-835
▁Of	-836
olog	-837
▁differ	-838
oup	-839
itial	-840
▁=>	-841
ator	-842
▁sense	-843
▁pe	-844
▁Got	-845
▁years	-846
▁walking	-847
▁commun	-848
ph	-849
▁fri	-850
▁Un	-851
ures	-852
▁Returns	-853
ful	-854
ween	-855
tional	-856
ically	-857
ication	-858
ards	-859
ug	-860
▁minutes	-861
▁consider	-862
▁character	-863
use	-864
▁second	-865
line	-866
▁gives	-867
▁term	-868
▁And	-869
▁sign	-870
▁also	-871
In	-872
▁input	-873
▁during	-874
▁Great	-875
ater	-876
xt	-877
▁Thank	-878
▁statements	-879
▁between	-880
▁given	-881
▁bec	-882
fore	-883
▁Em	-884
▁students	-885
▁spe	-886
ential	-887
▁lead	-888
▁requ	-889
esent	-890
old	-891
▁lo	-892
ool	-893
▁again	-894
],	-895
ices	-896
▁Right	-897
ible	-898
▁price	-899
▁det	-900
▁//	-901
▁Ok	-902
))	-903
air	-904
iew	-905
▁high	-906
cre	-907
▁perform	-908
essage	-909
ection	-910
tain	-911
ences	-912
▁using	-913
time	-914
▁appro	-915
▁like	-916
tern	-917
▁miles	-918
▁system	-919
▁men	-920
▁Okay	-921
▁trans	-922
}")	-923
▁just	-924
▁pos	-925
▁describ	-926
▁regarding	-927
ves	-928
ateg	-929
▁inst	-930
io	-931
▁For	-932
▁take	-933
vice	-934
▁Ad	-935
▁divid	-936
uc	-937
hed	-938
amp	-939
ask	-940
ution	-941
word	-942
▁point	-943
formation	-944
text	-945
▁med	-946
anks	-947
▁fl	-948
pos	-949
▁where	-950
▁books	-951
▁Pro	-952
▁next	-953
ets	-954
▁long	-955
▁cup	-956
ew	-957
▁month	-958
▁had	-959
hod	-960
▁both	-961
▁comple	-962
ational	-963
▁without	-964
}{	-965
ines	-966
tt	-967
▁pub	-968
ople	-969
date	-970
▁aut	-971
▁item	-972
▁orig	-973
ics	-974
▁emo	-975
▁gener	-976
▁log	-977
ized	-978
frac	-979
▁days	-980
▁par	-981
oid	-982
fic	-983
▁health	-984
quest	-985
▁fam	-986
ner	-987
▁individuals	-988
loat	-989
='	-990
ian	-991
▁area	-992
read	-993
▁support	-994
▁read	-995
▁personal	-996
▁sum	-997
▁calculation	-998
vers	-999
▁code	-1000
uss	-1001
▁key	-1002
▁great	-1003
▁inf	-1004
ress	-1005
▁week	-1006
aking	-1007
▁based	-1008
▁Args	-1009
wor	-1010
▁means	-1011
ability	-1012
ams	-1013
▁av	-1014
led	-1015
▁subtract	-1016
bles	-1017
▁prim	-1018
▁mem	-1019
ger	-1020
▁these	-1021
ature	-1022
▁end	-1023
▁att	-1024
▁fact	-1025
ness	-1026
▁numbers	-1027
▁repr	-1028
▁same	-1029
uct	-1030
▁every	-1031
▁divide	-1032
▁Re	-1033
day	-1034
ways	-1035
ants	-1036
▁pot	-1037
▁aw	-1038
ounds	-1039
▁ele	-1040
▁squ	-1041
ism	-1042
▁length	-1043
▁expect	-1044
▁iss	-1045
▁When	-1046
url	-1047
▁sm	-1048
right	-1049
value	-1050
▁ear	-1051
ra	-1052
main	-1053
▁integ	-1054
▁social	-1055
▁Thanks	-1056
▁child	-1057
bo	-1058
py	-1059
▁while	-1060
])	-1061
▁else	-1062
ety	-1063
ee	-1064
▁Sure	-1065
▁run	-1066
ted	-1067
▁sk	-1068
ular	-1069
▁information	-1070
▁pur	-1071
▁speed	-1072
ision	-1073
▁conn	-1074
any	-1075
▁error	-1076
▁id	-1077
▁good	-1078
▁apples	-1079
ving	-1080
ified	-1081
user	-1082
▁comput	-1083
list	-1084
▁fin	-1085
]:	-1086
number	-1087
▁loo	-1088
ale	-1089
▁equals	-1090
▁sug	-1091
iver	-1092
▁bl	-1093
▁provid	-1094
▁needs	-1095
▁oper	-1096
▁@	-1097
tit	-1098
arget	-1099
ustom	-1100
ru	-1101
▁distance	-1102
▁count	-1103
▁text	-1104
▁incre	-1105
▁loc	-1106
yn	-1107
▁people	-1108
▁mod	-1109
index	-1110
oint	-1111
uple	-1112
ause	-1113
els	-1114
que	-1115
▁car	-1116
▁Ind	-1117
chool	-1118
▁context	-1119
▁export	-1120
sc	-1121
▁ed	-1122
▁before	-1123
ccess	-1124
ins	-1125
velop	-1126
ined	-1127
ele	-1128
ault	-1129
▁Per	-1130
▁been	-1131
ious	-1132
▁always	-1133
ploy	-1134
▁write	-1135
ases	-1136
iction	-1137
▁such	-1138
▁pass	-1139
▁marbles	-1140
key	-1141
▁think	-1142
ark	-1143
▁i	-1144
ier	-1145
ited	-1146
atch	-1147
action	-1148
▁field	-1149
▁prof	-1150
▁image	-1151
▁since	-1152
▁math	-1153
▁being	-1154
▁group	-1155
▁found	-1156
echn	-1157
▁public	-1158
▁fur	-1159
▁max	-1160
ock	-1161
sh	-1162
ces	-1163
itive	-1164
▁Since	-1165
ately	-1166
ception	-1167
fect	-1168
."	-1169
length	-1170
aren	-1171
▁ref	-1172
▁br	-1173
idth	-1174
▁back	-1175
▁action	-1176
.")	-1177
▁original	-1178
▁divided	-1179
▁experience	-1180
co	-1181
▁Incre	-1182
irectory	-1183
▁except	-1184
▁three	-1185
▁pol	-1186
▁square	-1187
▁ent	-1188
log	-1189
▁create	-1190
▁imp	-1191
set	-1192
▁sti	-1193
ven	-1194
ality	-1195
▁mention	-1196
oney	-1197
▁must	-1198
mon	-1199
til	-1200
▁vari	-1201
ired	-1202
times	-1203
▁toget	-1204
▁together	-1205
▁represent	-1206
▁method	-1207
hor	-1208
ency	-1209
gest	-1210
▁tri	-1211
▁Jo	-1212
iness	-1213
eters	-1214
▁friends	-1215
▁Wh	-1216
▁further	-1217
▁object	-1218
Tr	-1219
▁There	-1220
▁off	-1221
▁emotional	-1222
of	-1223
▁response	-1224
▁sa	-1225
arch	-1226
▁power	-1227
▁occ	-1228
▁discuss	-1229
▁Pl	-1230
▁)	-1231
min	-1232
▁First	-1233
▁don	-1234
▁path	-1235
▁family	-1236
▁signific	-1237
ivers	-1238
▁u	-1239
ife	-1240
ma	-1241
▁those	-1242
cer	-1243
▁level	-1244
▁typically	-1245
▁But	-1246
▁ra	-1247
▁relationships	-1248
▁aff	-1249
▁fil	-1250
▁product	-1251
ron	-1252
aming	-1253
rame	-1254
▁stat	-1255
----	-1256
▁gu	-1257
▁might	-1258
ils	-1259
▁cap	-1260
ric	-1261
iron	-1262
▁best	-1263
verage	-1264
input	-1265
ior	-1266
ason	-1267
▁cand	-1268
cent	-1269
▁different	-1270
▁potential	-1271
▁values	-1272
▁eng	-1273
▁Sh	-1274
ash	-1275
itional	-1276
eter	-1277
anges	-1278
▁discount	-1279
string	-1280
vent	-1281
add	-1282
▁case	-1283
▁initial	-1284
count	-1285
▁develop	-1286
▁buy	-1287
▁pay	-1288
▁mentioned	-1289
ification	-1290
▁progr	-1291
▁models	-1292
▁box	-1293
oll	-1294
ify	-1295
lu	-1296
▁penc	-1297
▁final	-1298
▁\)	-1299
▁games	-1300
ually	-1301
▁"__	-1302
▁my	-1303
▁beh	-1304
▁expl	-1305
for	-1306
▁dat	-1307
▁Im	-1308
▁invol	-1309
__":	-1310
▁player	-1311
ocus	-1312
olum	-1313
▁check	-1314
ared	-1315
mer	-1316
soci	-1317
ps	-1318
▁___.	-1319
▁lar	-1320
▁move	-1321
▁build	-1322
viron	-1323
▁team	-1324
▁cle	-1325
▁hand	-1326
▁mark	-1327
fim	-1328
▁z	-1329
|>	-1330
thing	-1331
▁money	-1332
gan	-1333
▁cook	-1334
▁associ	-1335
ideo	-1336
▁performance	-1337
andom	-1338
Field	-1339
ime	-1340
▁ins	-1341
ait	-1342
return	-1343
▁bel	-1344
vert	-1345
ective	-1346
abase	-1347
istic	-1348
ource	-1349
▁top	-1350
▁allow	-1351
▁techn	-1352
▁expr	-1353
ype	-1354
ances	-1355
▁rece	-1356
▁act	-1357
▁made	-1358
array	-1359
▁age	-1360
test	-1361
▁content	-1362
uration	-1363
▁Have	-1364
comm	-1365
arr	-1366
▁range	-1367
▁clar	-1368
▁impact	-1369
work	-1370
▁applic	-1371
image	-1372
model	-1373
The	-1374
rap	-1375
▁poss	-1376
ument	-1377
▁got	-1378
▁last	-1379
▁dep	-1380
▁meters	-1381
==	-1382
▁could	-1383
alf	-1384
▁activ	-1385
▁___,	-1386
▁line	-1387
▁sold	-1388
▁``	-1389
._	-1390
ware	-1391
nd	-1392
▁pencils	-1393
itions	-1394
▁float	-1395
▁Value	-1396
ird	-1397
▁Is	-1398
wn	-1399
():	-1400
▁custom	-1401
▁containing	-1402
ches	-1403
▁interest	-1404
="	-1405
▁most	-1406
▁well	-1407
▁target	-1408
▁players	-1409
ather	-1410
▁```	-1411
ats	-1412
...	-1413
▁sav	-1414
ental	-1415
ique	-1416
erg	-1417
fig	-1418
▁feelings	-1419
▁success	-1420
▁comb	-1421
▁phys	-1422
iter	-1423
med	-1424
True	-1425
▁issues	-1426
pre	-1427
▁valid	-1428
▁old	-1429
ann	-1430
▁pat	-1431
▁simple	-1432
ought	-1433
▁effect	-1434
▁associated	-1435
▁ver	-1436
▁employ	-1437
ula	-1438
▁sur	-1439
agement	-1440
▁Increased	-1441
cle	-1442
angle	-1443
imum	-1444
▁clo	-1445
▁sell	-1446
▁significant	-1447
▁np	-1448
aging	-1449
▁considered	-1450
▁Perfect	-1451
ides	-1452
ON	-1453
▁Add	-1454
ced	-1455
▁message	-1456
▁solve	-1457
ording	-1458
mat	-1459
thon	-1460
▁communication	-1461
▁job	-1462
gle	-1463
▁neg	-1464
▁Dis	-1465
▁specific	-1466
oring	-1467
▁enc	-1468
▁word	-1469
▁small	-1470
load	-1471
▁John	-1472
iting	-1473
▁ValueError	-1474
gn	-1475
ization	-1476
▁open	-1477
▁store	-1478
rix	-1479
ology	-1480
▁sal	-1481
▁integer	-1482
dr	-1483
other	-1484
uff	-1485
ories	-1486
idd	-1487
▁way	-1488
▁trav	-1489
▁identi	-1490
ouse	-1491
▁indic	-1492
▁cookies	-1493
ists	-1494
type	-1495
▁prac	-1496
ains	-1497
▁too	-1498
▁She	-1499
atures	-1500
iec	-1501
▁cups	-1502
▁costs	-1503
▁terms	-1504
ended	-1505
▁weight	-1506
▁web	-1507
view	-1508
ancial	-1509
▁vis	-1510
igr	-1511
▁tem	-1512
cal	-1513
ows	-1514
['	-1515
▁want	-1516
▁behav	-1517
▁order	-1518
son	-1519
orn	-1520
▁row	-1521
▁rest	-1522
▁output	-1523
▁strateg	-1524
vironment	-1525
mit	-1526
ton	-1527
▁post	-1528
▁As	-1529
."""	-1530
▁remaining	-1531
▁exp	-1532
▁red	-1533
▁items	-1534
▁&	-1535
▁bag	-1536
ling	-1537
requ	-1538
face	-1539
reen	-1540
//	-1541
▁raise	-1542
eep	-1543
tical	-1544
lection	-1545
▁cond	-1546
ote	-1547
ived	-1548
cont	-1549
▁\).	-1550
ember	-1551
ring	-1552
▁impro	-1553
▁influ	-1554
▁*/	-1555
ills	-1556
▁specified	-1557
Con	-1558
ails	-1559
▁ext	-1560
▁because	-1561
tle	-1562
▁Sar	-1563
▁pop	-1564
▁formula	-1565
quence	-1566
▁avail	-1567
▁average	-1568
▁points	-1569
sy	-1570
▁side	-1571
▁occur	-1572
▁>	-1573
▁sure	-1574
▁hist	-1575
▁di	-1576
▁school	-1577
ever	-1578
▁base	-1579
ER	-1580
▁design	-1581
AT	-1582
▁less	-1583
▁describes	-1584
ilities	-1585
▁Eng	-1586
by	-1587
▁affect	-1588
anced	-1589
List	-1590
▁Pr	-1591
▁focus	-1592
▁water	-1593
ape	-1594
acters	-1595
▁above	-1596
▁non	-1597
▁date	-1598
▁sit	-1599
▁request	-1600
ward	-1601
ls	-1602
man	-1603
▁pain	-1604
RL	-1605
acks	-1606
▁cr	-1607
imal	-1608
▁suggest	-1609
irm	-1610
▁width	-1611
▁display	-1612
ots	-1613
ody	-1614
▁account	-1615
▁prom	-1616
▁known	-1617
▁cre	-1618
ech	-1619
▁provide	-1620
▁life	-1621
thers	-1622
ging	-1623
▁×	-1624
less	-1625
▁provided	-1626
▁care	-1627
▁_	-1628
atic	-1629
aving	-1630
▁rate	-1631
▁half	-1632
▁include	-1633
▁contro	-1634
au	-1635
▁event	-1636
▁gaming	-1637
▁change	-1638
esc	-1639
uck	-1640
eb	-1641
uture	-1642
init	-1643
vices	-1644
▁adv	-1645
gre	-1646
▁physical	-1647
']	-1648
▁equation	-1649
▁book	-1650
▁even	-1651
izz	-1652
urn	-1653
▁piec	-1654
actions	-1655
▁video	-1656
ription	-1657
▁important	-1658
ending	-1659
ook	-1660
▁paren	-1661
▁better	-1662
▁feet	-1663
▁ben	-1664
▁config	-1665
por	-1666
ples	-1667
▁Alright	-1668
▁X	-1669
▁Hey	-1670
back	-1671
ister	-1672
ital	-1673
▁clarification	-1674
xim	-1675
▁Then	-1676
▁grap	-1677
▁four	-1678
▁within	-1679
__(	-1680
▁sing	-1681
ees	-1682
▁Sarah	-1683
▁/**	-1684
▁stud	-1685
▁cent	-1686
rt	-1687
▁happ	-1688
▁spent	-1689
▁own	-1690
▁children	-1691
lish	-1692
▁tit	-1693
arm	-1694
▁pack	-1695
▁mus	-1696
ulation	-1697
tings	-1698
point	-1699
▁access	-1700
▁author	-1701
▁“	-1702
▁head	-1703
ives	-1704
ken	-1705
me	-1706
▁rele	-1707
ination	-1708
▁ens	-1709
▁instance	-1710
lab	-1711
▁Par	-1712
▁online	-1713
▁away	-1714
xi	-1715
▁creat	-1716
▁plan	-1717
▁real	-1718
Ch	-1719
duct	-1720
▁cer	-1721
▁possible	-1722
▁lab	-1723
iving	-1724
▁ren	-1725
▁bus	-1726
be	-1727
▁among	-1728
▁Create	-1729
▁respons	-1730
▁lim	-1731
▁round	-1732
▁constr	-1733
ries	-1734
▁dig	-1735
▁Le	-1736
▁Cl	-1737
▁doll	-1738
▁project	-1739
▁hum	-1740
aces	-1741
def	-1742
▁needed	-1743
lex	-1744
qrt	-1745
oot	-1746
PU	-1747
▁Su	-1748
board	-1749
▁____	-1750
▁stand	-1751
▁del	-1752
oin	-1753
▁give	-1754
▁New	-1755
▁Z	-1756
ender	-1757
▁due	-1758
▁height	-1759
istance	-1760
▁default	-1761
not	-1762
▁che	-1763
▁role	-1764
▁available	-1765
ems	-1766
▁primary	-1767
Ex	-1768
land	-1769
lock	-1770
▁require	-1771
▁future	-1772
▁characters	-1773
▁enh	-1774
▁database	-1775
sert	-1776
fe	-1777
ecess	-1778
▁full	-1779
ises	-1780
turns	-1781
▁prot	-1782
▁By	-1783
over	-1784
▁index	-1785
ological	-1786
tice	-1787
▁computer	-1788
▁priv	-1789
etch	-1790
▁others	-1791
the	-1792
▁<|	-1793
angu	-1794
▁here	-1795
▁educ	-1796
▁environment	-1797
Type	-1798
xiety	-1799
az	-1800
▁Cal	-1801
▁chall	-1802
ictionary	-1803
▁determ	-1804
▁trad	-1805
ross	-1806
▁approxim	-1807
ables	-1808
▁company	-1809
▁sym	-1810
otal	-1811
ango	-1812
result	-1813
▁opp	-1814
▁Av	-1815
▁usage	-1816
▁size	-1817
ires	-1818
▁proper	-1819
▁score	-1820
ties	-1821
ule	-1822
▁ide	-1823
▁friend	-1824
▁bal	-1825
oad	-1826
IN	-1827
▁Sp	-1828
ST	-1829
ished	-1830
▁organ	-1831
▁experiences	-1832
▁\[	-1833
▁direct	-1834
▁enter	-1835
directory	-1836
▁program	-1837
▁load	-1838
▁positive	-1839
▁eas	-1840
▁problems	-1841
▁address	-1842
ne	-1843
miss	-1844
▁candies	-1845
▁cor	-1846
math	-1847
▁cho	-1848
▁travel	-1849
ocol	-1850
place	-1851
size	-1852
ler	-1853
▁mental	-1854
col	-1855
▁financial	-1856
acy	-1857
Pro	-1858
vious	-1859
▁benef	-1860
ference	-1861
ponse	-1862
▁earn	-1863
▁concer	-1864
▁});	-1865
▁weeks	-1866
▁behavior	-1867
AM	-1868
▁pizz	-1869
▁save	-1870
▁including	-1871
ptional	-1872
plit	-1873
▁null	-1874
▁percent	-1875
▁situ	-1876
();	-1877
ndarray	-1878
urs	-1879
iddle	-1880
▁Dict	-1881
▁position	-1882
▁Gr	-1883
▁belie	-1884
▁exec	-1885
aster	-1886
▁bought	-1887
▁contrib	-1888
ently	-1889
▁multiple	-1890
this	-1891
▁grow	-1892
peti	-1893
jango	-1894
ml	-1895
▁dou	-1896
▁Def	-1897
▁him	-1898
ich	-1899
▁compon	-1900
▁color	-1901
▁show	-1902
▁understanding	-1903
▁lear	-1904
▁\]	-1905
▁home	-1906
ipp	-1907
▁factors	-1908
ane	-1909
▁net	-1910
▁assign	-1911
▁Example	-1912
▁typing	-1913
order	-1914
my	-1915
▁URL	-1916
ibility	-1917
▁Correct	-1918
ush	-1919
▁sw	-1920
▁Good	-1921
▁contin	-1922
▁cir	-1923
▁Ph	-1924
▁Main	-1925
ready	-1926
▁whole	-1927
▁`	-1928
▁command	-1929
ov	-1930
Data	-1931
▁redu	-1932
▁express	-1933
▁types	-1934
CE	-1935
▁•	-1936
▁related	-1937
oms	-1938
▁months	-1939
alls	-1940
▁arr	-1941
▁clear	-1942
},	-1943
▁Res	-1944
▁High	-1945
ium	-1946
earch	-1947
PI	-1948
▁[]	-1949
▁format	-1950
▁view	-1951
yle	-1952
▁page	-1953
let	-1954
▁another	-1955
▁works	-1956
aj	-1957
▁concept	-1958
met	-1959
▁Bo	-1960
inter	-1961
fo	-1962
▁exist	-1963
uments	-1964
ager	-1965
apt	-1966
▁simpl	-1967
▁Br	-1968
▁Dec	-1969
▁unique	-1970
▁approximately	-1971
umber	-1972
▁narr	-1973
RE	-1974
▁market	-1975
';	-1976
fix	-1977
br	-1978
▁os	-1979
▁arg	-1980
▁options	-1981
omet	-1982
▁cards	-1983
▁match	-1984
▁profession	-1985
▁takes	-1986
ilar	-1987
▁application	-1988
lean	-1989
▁report	-1990
▁leg	-1991
max	-1992
valid	-1993
▁blue	-1994
▁members	-1995
ameters	-1996
lices	-1997
ges	-1998
▁vers	-1999
▁service	-2000
▁tuple	-2001
▁negative	-2002
rie	-2003
▁doc	-2004
▁results	-2005
rive	-2006
aff	-2007
▁random	-2008
▁Only	-2009
hel	-2010
▁parti	-2011
An	-2012
▁elements	-2013
▁community	-2014
▁already	-2015
▁returns	-2016
]):	-2017
iod	-2018
wards	-2019
▁single	-2020
▁bot	-2021
▁confirm	-2022
sp	-2023
tem	-2024
▁required	-2025
▁additional	-2026
arily	-2027
▁status	-2028
ores	-2029
▁App	-2030
▁increase	-2031
message	-2032
▁development	-2033
▁hard	-2034
eah	-2035
ural	-2036
▁example	-2037
▁against	-2038
▁stick	-2039
ecessary	-2040
▁()	-2041
ector	-2042
ript	-2043
▁sides	-2044
▁title	-2045
En	-2046
▁enti	-2047
ources	-2048
▁near	-2049
▁Te	-2050
▁colum	-2051
sych	-2052
airs	-2053
▁remain	-2054
Re	-2055
▁sl	-2056
▁recomm	-2057
chie	-2058
▁world	-2059
▁slices	-2060
▁connection	-2061
▁around	-2062
asing	-2063
ustr	-2064
▁approach	-2065
▁working	-2066
▁anal	-2067
urity	-2068
lected	-2069
▁private	-2070
▁features	-2071
adem	-2072
▁bro	-2073
▁still	-2074
▁pages	-2075
▁expected	-2076
▁Yeah	-2077
ilit	-2078
aut	-2079
cks	-2080
ttp	-2081
unction	-2082
▁Each	-2083
inary	-2084
▁dollars	-2085
▁After	-2086
▁avoid	-2087
▁purch	-2088
▁Sim	-2089
\)	-2090
▁mean	-2091
sing	-2092
oes	-2093
ients	-2094
▁record	-2095
▁cm	-2096
▁food	-2097
▁past	-2098
ern	-2099
epend	-2100
▁table	-2101
▁plus	-2102
▁email	-2103
anguage	-2104
▁};	-2105
ailed	-2106
und	-2107
▁cover	-2108
▁===	-2109
ftware	-2110
▁conflic	-2111
orted	-2112
▁identif	-2113
▁frac	-2114
▁card	-2115
▁Wor	-2116
net	-2117
sit	-2118
▁film	-2119
▁–	-2120
LE	-2121
atus	-2122
▁lit	-2123
▁story	-2124
▁influence	-2125
medi	-2126
▁search	-2127
▁dictionary	-2128
▁convert	-2129
▁large	-2130
config	-2131
from	-2132
▁improve	-2133
▁tax	-2134
odes	-2135
▁De	-2136
stance	-2137
▁Gener	-2138
▁Any	-2139
▁invest	-2140
▁bat	-2141
▁consum	-2142
leep	-2143
▁fac	-2144
ID	-2145
python	-2146
▁look	-2147
adi	-2148
▁element	-2149
pty	-2150
ym	-2151
▁.	-2152
▁Initial	-2153
olution	-2154
OR	-2155
▁users	-2156
▁Play	-2157
▁media	-2158
Ar	-2159
start	-2160
lev	-2161
▁rat	-2162
ormal	-2163
▁place	-2164
▁port	-2165
://	-2166
▁previous	-2167
orage	-2168
eed	-2169
▁est	-2170
▁law	-2171
ergy	-2172
▁Acc	-2173
rip	-2174
▁]	-2175
▁music	-2176
▁kil	-2177
node	-2178
class	-2179
Res	-2180
ze	-2181
ters	-2182
ret	-2183
▁changes	-2184
▁accept	-2185
▁really	-2186
ero	-2187
▁pres	-2188
iffic	-2189
▁third	-2190
▁!	-2191
▁Ign	-2192
▁Or	-2193
ogn	-2194
▁pred	-2195
meric	-2196
▁chocol	-2197
▁said	-2198
▁Be	-2199
tif	-2200
▁keep	-2201
▁HT	-2202
▁super	-2203
▁integers	-2204
▁flour	-2205
▁anxiety	-2206
ively	-2207
▁actions	-2208
▁control	-2209
▁settings	-2210
▁Here	-2211
izes	-2212
▁representing	-2213
▁events	-2214
▁series	-2215
fil	-2216
((	-2217
▁migr	-2218
▁exc	-2219
ordin	-2220
▁However	-2221
▁Alex	-2222
▁session	-2223
▁password	-2224
▁gir	-2225
▁equal	-2226
plic	-2227
iversity	-2228
cy	-2229
▁skills	-2230
sub	-2231
▁present	-2232
current	-2233
▁certain	-2234
arg	-2235
aid	-2236
problem	-2237
▁tick	-2238
ourn	-2239
clus	-2240
atform	-2241
ules	-2242
▁ensure	-2243
ball	-2244
▁making	-2245
▁activities	-2246
▁difference	-2247
";	-2248
▁train	-2249
▁achie	-2250
ected	-2251
▁win	-2252
▁double	-2253
▁competi	-2254
enced	-2255
state	-2256
▁flow	-2257
▁\),	-2258
▁gall	-2259
aries	-2260
▁challeng	-2261
values	-2262
▁cri	-2263
▁inches	-2264
▁fru	-2265
".	-2266
omen	-2267
▁Rep	-2268
▁files	-2269
utions	-2270
▁mag	-2271
▁Ser	-2272
▁Enh	-2273
▁Col	-2274
▁period	-2275
cket	-2276
▁lik	-2277
Name	-2278
▁prob	-2279
float	-2280
▁cars	-2281
izing	-2282
▁One	-2283
models	-2284
▁server	-2285
sum	-2286
▁meas	-2287
▁thank	-2288
▁ability	-2289
ucture	-2290
ident	-2291
numbers	-2292
ream	-2293
bal	-2294
▁Fl	-2295
▁offer	-2296
tml	-2297
alid	-2298
▁sci	-2299
▁art	-2300
▁ess	-2301
▁ID	-2302
ynam	-2303
omin	-2304
▁percentage	-2305
rior	-2306
ding	-2307
idence	-2308
lease	-2309
▁pounds	-2310
▁hold	-2311
▁upd	-2312
ither	-2313
head	-2314
▁space	-2315
▁prefer	-2316
▁Ab	-2317
ooks	-2318
▁various	-2319
▁anything	-2320
▁business	-2321
now	-2322
▁steps	-2323
pper	-2324
▁('	-2325
▁successful	-2326
▁commonly	-2327
?:	-2328
▁scen	-2329
pass	-2330
▁reach	-2331
^{	-2332
▁short	-2333
▁miss	-2334
▁low	-2335
culate	-2336
▁Americ	-2337
qual	-2338
args	-2339
▁call	-2340
che	-2341
▁mother	-2342
▁profit	-2343
▁Exception	-2344
sqrt	-2345
▁len	-2346
▁node	-2347
▁At	-2348
▁light	-2349
▁km	-2350
▁similar	-2351
ored	-2352
check	-2353
▁US	-2354
hics	-2355
▁directory	-2356
▁primarily	-2357
[]	-2358
PT	-2359
field	-2360
▁colle	-2361
▁psych	-2362
ounter	-2363
▁ve	-2364
▁ret	-2365
▁bool	-2366
▁Mar	-2367
▁factor	-2368
aling	-2369
dis	-2370
▁appear	-2371
yp	-2372
conn	-2373
rop	-2374
▁stickers	-2375
▁enhance	-2376
▁rect	-2377
itor	-2378
ips	-2379
▁sales	-2380
aps	-2381
▁units	-2382
ators	-2383
content	-2384
▁training	-2385
indow	-2386
▁complex	-2387
aily	-2388
▁frequ	-2389
▁solution	-2390
uction	-2391
▁according	-2392
sec	-2393
▁body	-2394
sole	-2395
▁minus	-2396
ograp	-2397
atis	-2398
▁loss	-2399
Model	-2400
▁described	-2401
olume	-2402
▁submit	-2403
())	-2404
rel	-2405
▁Red	-2406
SE	-2407
▁aud	-2408
▁local	-2409
▁multiplying	-2410
▁energy	-2411
▁root	-2412
▁called	-2413
▁feature	-2414
ude	-2415
▁+=	-2416
▁Test	-2417
▁software	-2418
▁someone	-2419
▁Fr	-2420
▁reason	-2421
▁Emily	-2422
ift	-2423
echan	-2424
▁far	-2425
▁quality	-2426
ones	-2427
ension	-2428
pi	-2429
atisf	-2430
▁Set	-2431
▁refer	-2432
▁Bl	-2433
▁having	-2434
▁platform	-2435
▁management	-2436
▁Avoid	-2437
pose	-2438
▁Prom	-2439
▁effects	-2440
▁states	-2441
▁levels	-2442
left	-2443
▁gen	-2444
▁See	-2445
▁matches	-2446
acher	-2447
▁gover	-2448
used	-2449
cies	-2450
▁maximum	-2451
../	-2452
▁sole	-2453
ead	-2454
aset	-2455
reg	-2456
title	-2457
zz	-2458
▁hesit	-2459
▁elect	-2460
▁fraction	-2461
orical	-2462
ajor	-2463
▁Man	-2464
▁accur	-2465
ifference	-2466
▁Reg	-2467
▁study	-2468
▁treat	-2469
▁boxes	-2470
▁sugar	-2471
append	-2472
▁Ac	-2473
ming	-2474
▁Cont	-2475
ds	-2476
conom	-2477
hing	-2478
▁cupc	-2479
▁demon	-2480
--------	-2481
▁professional	-2482
aves	-2483
ering	-2484
agon	-2485
▁assignment	-2486
ience	-2487
▁very	-2488
▁twice	-2489
▁%	-2490
aken	-2491
outh	-2492
State	-2493
aged	-2494
▁fetch	-2495
mand	-2496
imeter	-2497
▁source	-2498
ortun	-2499
▁house	-2500
joy	-2501
▁soci	-2502
▁created	-2503
eff	-2504
vely	-2505
▁components	-2506
ners	-2507
▁Rec	-2508
▁anim	-2509
▁Person	-2510
▁array	-2511
▁parts	-2512
▁Optional	-2513
▁cannot	-2514
▁plt	-2515
acity	-2516
hy	-2517
▁interface	-2518
ised	-2519
istr	-2520
▁dam	-2521
ename	-2522
▁CPU	-2523
▁employees	-2524
ols	-2525
ifficult	-2526
▁demonstr	-2527
▁generate	-2528
sequence	-2529
ta	-2530
mod	-2531
lished	-2532
▁won	-2533
prefix	-2534
▁partner	-2535
ports	-2536
icient	-2537
hol	-2538
▁lack	-2539
asks	-2540
map	-2541
▁complete	-2542
▁interactions	-2543
▁es	-2544
▁den	-2545
aring	-2546
new	-2547
dat	-2548
▁city	-2549
db	-2550
total	-2551
▁ratio	-2552
▁requires	-2553
▁sex	-2554
▁names	-2555
▁Tuple	-2556
▁govern	-2557
ensor	-2558
().	-2559
gin	-2560
▁Att	-2561
ademic	-2562
▁conditions	-2563
▁configuration	-2564
info	-2565
rem	-2566
▁sounds	-2567
▁Sc	-2568
iam	-2569
▁categ	-2570
Frame	-2571
▁hesitate	-2572
▁construct	-2573
▁sever	-2574
▁mater	-2575
▁Op	-2576
uro	-2577
aper	-2578
ensive	-2579
ral	-2580
▁},	-2581
▁solely	-2582
ilt	-2583
▁pieces	-2584
part	-2585
▁distrib	-2586
▁Se	-2587
itch	-2588
ultur	-2589
].	-2590
▁Emma	-2591
$.	-2592
▁words	-2593
▁dynam	-2594
▁history	-2595
ury	-2596
code	-2597
page	-2598
process	-2599
▁special	-2600
▁Tom	-2601
▁shir	-2602
▁bags	-2603
▁until	-2604
▁With	-2605
erap	-2606
▁ris	-2607
SON	-2608
ML	-2609
▁install	-2610
)^	-2611
cular	-2612
▁human	-2613
▁ann	-2614
▁issue	-2615
rite	-2616
▁django	-2617
mar	-2618
▁includes	-2619
join	-2620
▁mechan	-2621
irection	-2622
'),	-2623
▁May	-2624
▁update	-2625
▁stop	-2626
▁(-	-2627
▁document	-2628
▁sn	-2629
err	-2630
▁necessary	-2631
▁systems	-2632
▁client	-2633
▁Mark	-2634
▁effective	-2635
▁draw	-2636
▁season	-2637
▁entire	-2638
▁politi	-2639
resh	-2640
su	-2641
plate	-2642
▁perimeter	-2643
String	-2644
▁language	-2645
Key	-2646
▁occurred	-2647
▁products	-2648
olumn	-2649
enn	-2650
matrix	-2651
▁version	-2652
▁compute	-2653
▁growth	-2654
▁cupcakes	-2655
▁strong	-2656
Com	-2657
ids	-2658
▁Parameters	-2659
▁Data	-2660
way	-2661
▁air	-2662
wise	-2663
▁Fin	-2664
light	-2665
▁refers	-2666
bject	-2667
▁exactly	-2668
▁expression	-2669
ibr	-2670
▁recommended	-2671
▁land	-2672
({	-2673
▁received	-2674
▁higher	-2675
\).	-2676
reng	-2677
output	-2678
▁doesn	-2679
ev	-2680
Node	-2681
ulate	-2682
▁whe	-2683
▁determine	-2684
▁customer	-2685
▁Enhanced	-2686
position	-2687
eting	-2688
▁matrix	-2689
lement	-2690
▁abs	-2691
▁allows	-2692
▁ir	-2693
▁methods	-2694
▁suggested	-2695
▁bas	-2696
ram	-2697
▁least	-2698
indows	-2699
▁groups	-2700
./	-2701
ections	-2702
▁lower	-2703
▁extract	-2704
▁Impro	-2705
▁exam	-2706
▁feed	-2707
ectiv	-2708
▁estab	-2709
TP	-2710
icy	-2711
EN	-2712
▁Oh	-2713
▁sep	-2714
▁gets	-2715
▁practice	-2716
▁research	-2717
▁dim	-2718
▁services	-2719
Id	-2720
▁Therefore	-2721
▁PC	-2722
side	-2723
with	-2724
middle	-2725
Value	-2726
▁network	-2727
▁press	-2728
▁compared	-2729
▁})	-2730
▁mill	-2731
▁console	-2732
istics	-2733
▁say	-2734
▁convers	-2735
▁oranges	-2736
empt	-2737
▁pens	-2738
mun	-2739
▁later	-2740
▁deb	-2741
▁fill	-2742
▁cy	-2743
rypt	-2744
suff	-2745
▁strategy	-2746
tics	-2747
▁Up	-2748
roll	-2749
▁technology	-2750
▁involves	-2751
▁EX	-2752
pression	-2753
ina	-2754
▁initi	-2755
▁girls	-2756
dd	-2757
▁Do	-2758
omes	-2759
AR	-2760
▁unit	-2761
status	-2762
site	-2763
▁Int	-2764
usion	-2765
▁false	-2766
ump	-2767
ternal	-2768
uzz	-2769
augh	-2770
▁Both	-2771
▁boys	-2772
▁major	-2773
ributes	-2774
▁ca	-2775
▁Who	-2776
▁assistance	-2777
▁operations	-2778
Cl	-2779
▁mis	-2780
omething	-2781
▁remo	-2782
char	-2783
iven	-2784
▁Comple	-2785
oose	-2786
▁plot	-2787
cs	-2788
Time	-2789
ms	-2790
▁task	-2791
▁contain	-2792
▁Dr	-2793
mission	-2794
ledge	-2795
▁become	-2796
▁divis	-2797
▁Eth	-2798
▁Ignoring	-2799
▁daily	-2800
price	-2801
▁share	-2802
venue	-2803
▁blo	-2804
oper	-2805
▁strategies	-2806
▁security	-2807
▁recogn	-2808
suffix	-2809
▁apply	-2810
▁sequence	-2811
▁adj	-2812
▁sent	-2813
▁situation	-2814
▁py	-2815
fact	-2816
▁writ	-2817
▁device	-2818
▁extr	-2819
▁along	-2820
▁though	-2821
ials	-2822
avor	-2823
([	-2824
fort	-2825
▁started	-2826
Char	-2827
DE	-2828
▁Out	-2829
▁green	-2830
▁popular	-2831
greed	-2832
▁regular	-2833
▁link	-2834
▁volume	-2835
▁location	-2836
▁temper	-2837
▁grad	-2838
item	-2839
▁logging	-2840
▁never	-2841
tively	-2842
eger	-2843
request	-2844
▁empty	-2845
box	-2846
▁wants	-2847
▁clean	-2848
▁idea	-2849
▁building	-2850
▁contains	-2851
▁immedi	-2852
====	-2853
html	-2854
▁memory	-2855
▁selling	-2856
▁Sub	-2857
ront	-2858
▁condition	-2859
SS	-2860
▁prior	-2861
▁Supp	-2862
CA	-2863
▁Gu	-2864
driver	-2865
▁receive	-2866
<|	-2867
ysis	-2868
▁Car	-2869
quests	-2870
▁fields	-2871
▁consist	-2872
▁Cons	-2873
orth	-2874
▁According	-2875
erc	-2876
▁Ra	-2877
▁ones	-2878
▁Dav	-2879
▁grade	-2880
▁radi	-2881
▁pizza	-2882
▁separ	-2883
▁limit	-2884
ayer	-2885
})	-2886
▁phone	-2887
ival	-2888
ses	-2889
To	-2890
▁writing	-2891
▁war	-2892
▁Some	-2893
base	-2894
▁starting	-2895
▁academic	-2896
uate	-2897
fs	-2898
▁eg	-2899
aim	-2900
▁purpose	-2901
ng	-2902
game	-2903
▁likely	-2904
▁opportun	-2905
isa	-2906
▁production	-2907
encies	-2908
▁towards	-2909
▁resources	-2910
▁conflict	-2911
▁five	-2912
▁seconds	-2913
▁bit	-2914
object	-2915
tices	-2916
ync	-2917
▁independ	-2918
▁generally	-2919
frame	-2920
▁rout	-2921
▁decision	-2922
▁graphics	-2923
oding	-2924
▁challenges	-2925
ract	-2926
▁drive	-2927
▁sleep	-2928
▁maintain	-2929
▁something	-2930
▁boolean	-2931
▁cases	-2932
▁Agreed	-2933
▁execute	-2934
▁Min	-2935
Not	-2936
▁piece	-2937
▁mov	-2938
pected	-2939
▁University	-2940
first	-2941
split	-2942
▁numer	-2943
otional	-2944
CEPT	-2945
width	-2946
ched	-2947
level	-2948
▁Med	-2949
▁taken	-2950
no	-2951
▁stress	-2952
▁satisf	-2953
▁Calculate	-2954
▁gameplay	-2955
▁angle	-2956
▁Initialize	-2957
▁?	-2958
▁Co	-2959
▁savings	-2960
pat	-2961
▁offic	-2962
ilitary	-2963
▁narrative	-2964
aker	-2965
▁storage	-2966
▁EXCEPT	-2967
arden	-2968
▁kilom	-2969
▁Define	-2970
▁supply	-2971
▁describe	-2972
▁details	-2973
▁song	-2974
tes	-2975
▁triangle	-2976
ighb	-2977
▁difficult	-2978
▁Wait	-2979
uns	-2980
▁dict	-2981
dict	-2982
▁collection	-2983
▁scenari	-2984
▁engine	-2985
▁gave	-2986
egr	-2987
irth	-2988
▁dest	-2989
po	-2990
▁capacity	-2991
▁Ge	-2992
▁correctly	-2993
▁room	-2994
▁bott	-2995
rodu	-2996
amed	-2997
▁Adding	-2998
▁cool	-2999
ground	-3000
▁column	-3001
ifies	-3002
▁War	-3003
▁eval	-3004
▁achieve	-3005
▁structure	-3006
ged	-3007
json	-3008
▁imple	-3009
▁sympt	-3010
▁handle	-3011
▁flo	-3012
▁circ	-3013
ultural	-3014
▁Char	-3015
▁description	-3016
▁discussions	-3017
inks	-3018
User	-3019
ened	-3020
▁...	-3021
ptions	-3022
hips	-3023
▁psychological	-3024
▁cred	-3025
term	-3026
serv	-3027
taining	-3028
▁took	-3029
▁gues	-3030
▁Social	-3031
▁Individual	-3032
▁pd	-3033
loc	-3034
▁Pre	-3035
sequ	-3036
escription	-3037
▁bound	-3038
lim	-3039
arant	-3040
ison	-3041
▁encour	-3042
af	-3043
▁standard	-3044
▁cou	-3045
▁Trans	-3046
_{	-3047
anti	-3048
▁cv	-3049
anging	-3050
▁artic	-3051
▁subject	-3052
▁enough	-3053
client	-3054
▁Using	-3055
CT	-3056
Equal	-3057
cd	-3058
ells	-3059
▁division	-3060
year	-3061
terns	-3062
▁goal	-3063
▁few	-3064
▁United	-3065
▁looking	-3066
▁Pol	-3067
▁toy	-3068
▁Read	-3069
era	-3070
▁commit	-3071
▁damage	-3072
▁Aut	-3073
▁paid	-3074
IT	-3075
ceed	-3076
▁Path	-3077
▁probability	-3078
oud	-3079
▁File	-3080
▁usually	-3081
ares	-3082
▁assert	-3083
press	-3084
det	-3085
▁provides	-3086
▁parse	-3087
encing	-3088
▁World	-3089
inking	-3090
▁sample	-3091
▁Mon	-3092
▁early	-3093
amb	-3094
▁educational	-3095
▁lines	-3096
▁added	-3097
icro	-3098
▁host	-3099
ague	-3100
▁Py	-3101
▁activity	-3102
▁learning	-3103
▁therap	-3104
▁camp	-3105
▁depend	-3106
▁earnings	-3107
oice	-3108
uted	-3109
▁et	-3110
ai	-3111
▁measure	-3112
:",	-3113
▁void	-3114
create	-3115
▁government	-3116
▁rectangle	-3117
▁reflect	-3118
Date	-3119
ache	-3120
book	-3121
osed	-3122
▁setting	-3123
▁render	-3124
▁done	-3125
▁Rem	-3126
aur	-3127
▁intern	-3128
find	-3129
off	-3130
ales	-3131
▁origin	-3132
▁across	-3133
▁stock	-3134
ww	-3135
▁Print	-3136
▁kilometers	-3137
pping	-3138
▁sorted	-3139
password	-3140
ke	-3141
top	-3142
▁frame	-3143
▁mor	-3144
▁trip	-3145
▁requests	-3146
▁option	-3147
▁Ne	-3148
ublic	-3149
▁altern	-3150
▁Ethan	-3151
instance	-3152
▁decimal	-3153
▁face	-3154
▁gallons	-3155
▁equally	-3156
▁actually	-3157
▁gl	-3158
izer	-3159
▁econom	-3160
▁track	-3161
oration	-3162
▁bi	-3163
▁setup	-3164
▁multipl	-3165
▁Improved	-3166
tely	-3167
▁member	-3168
▁review	-3169
ights	-3170
mb	-3171
▁saved	-3172
▁univers	-3173
de	-3174
▁animals	-3175
▁contribute	-3176
▁aspect	-3177
▁instr	-3178
▁JSON	-3179
▁uses	-3180
▁revenue	-3181
ept	-3182
att	-3183
▁lot	-3184
▁Lisa	-3185
ube	-3186
▁rows	-3187
urch	-3188
▁overall	-3189
▁sche	-3190
ampions	-3191
defined	-3192
▁Sec	-3193
▁board	-3194
AN	-3195
ttps	-3196
rieve	-3197
▁integr	-3198
▁Qu	-3199
api	-3200
▁<=	-3201
▁parents	-3202
▁Ol	-3203
osing	-3204
▁currently	-3205
▁buying	-3206
ici	-3207
▁ful	-3208
▁liter	-3209
▁tasks	-3210
}\	-3211
person	-3212
▁images	-3213
▁education	-3214
▁API	-3215
aced	-3216
▁url	-3217
▁bask	-3218
▁Emotional	-3219
▁put	-3220
▁rules	-3221
Be	-3222
▁manage	-3223
enses	-3224
hood	-3225
▁puzz	-3226
▁$\	-3227
▁sexual	-3228
▁Personal	-3229
▁Check	-3230
(-	-3231
▁dividing	-3232
▁increased	-3233
▁Str	-3234
▁adding	-3235
▁liters	-3236
▁remainder	-3237
"]	-3238
▁Over	-3239
GB	-3240
False	-3241
▁famil	-3242
▁college	-3243
cost	-3244
▁essential	-3245
▁American	-3246
▁bar	-3247
ensions	-3248
▁foot	-3249
▁screen	-3250
ET	-3251
post	-3252
▁calculated	-3253
ql	-3254
▁normal	-3255
▁solved	-3256
▁admin	-3257
▁label	-3258
▁contact	-3259
oogle	-3260
▁decre	-3261
Th	-3262
wo	-3263
▁enjoy	-3264
▁Number	-3265
olve	-3266
▁minimum	-3267
▁fit	-3268
▁toys	-3269
▁turn	-3270
▁journ	-3271
▁career	-3272
▁weap	-3273
response	-3274
olation	-3275
▁dynamics	-3276
▁going	-3277
reci	-3278
▁played	-3279
oman	-3280
label	-3281
▁Web	-3282
items	-3283
udget	-3284
isions	-3285
dir	-3286
case	-3287
▁RAM	-3288
▁ways	-3289
▁connect	-3290
▁script	-3291
na	-3292
ags	-3293
raft	-3294
ope	-3295
▁included	-3296
otes	-3297
▁Their	-3298
▁identity	-3299
▁balls	-3300
▁six	-3301
▁says	-3302
▁Conf	-3303
hentic	-3304
▁taking	-3305
ster	-3306
▁mist	-3307
▁zero	-3308
target	-3309
▁customers	-3310
▁running	-3311
▁starts	-3312
▁filter	-3313
rome	-3314
▁pick	-3315
▁medical	-3316
np	-3317
room	-3318
▁&&	-3319
▁objects	-3320
▁attempt	-3321
▁David	-3322
▁military	-3323
▁sale	-3324
▁parent	-3325
▁several	-3326
▁sound	-3327
▁eggs	-3328
fl	-3329
bose	-3330
hand	-3331
ober	-3332
Array	-3333
▁mach	-3334
▁ur	-3335
email	-3336
bl	-3337
atural	-3338
▁gain	-3339
▁quick	-3340
ining	-3341
▁garden	-3342
atives	-3343
${	-3344
▁ign	-3345
▁vehic	-3346
derstand	-3347
oreign	-3348
ixed	-3349
▁json	-3350
▁pizzas	-3351
▁Ins	-3352
▁knowledge	-3353
draw	-3354
▁Sam	-3355
▁Jack	-3356
imin	-3357
command	-3358
ley	-3359
ork	-3360
▁bill	-3361
▁username	-3362
▁motiv	-3363
▁characterized	-3364
▁fail	-3365
▁pers	-3366
▁cur	-3367
lines	-3368
▁Will	-3369
aight	-3370
Enter	-3371
▁legal	-3372
OT	-3373
');	-3374
▁These	-3375
▁concern	-3376
▁adult	-3377
default	-3378
▁fire	-3379
▁block	-3380
▁big	-3381
▁spend	-3382
CharField	-3383
▁saf	-3384
itory	-3385
▁emotions	-3386
essages	-3387
▁appe	-3388
dig	-3389
▁devices	-3390
▁ballo	-3391
▁designed	-3392
▁spends	-3393
▁straight	-3394
▁gas	-3395
une	-3396
AL	-3397
element	-3398
▁streng	-3399
▁Chr	-3400
▁begin	-3401
▁political	-3402
▁Pe	-3403
▁calculations	-3404
dec	-3405
▁util	-3406
cos	-3407
clud	-3408
▁traditional	-3409
do	-3410
ying	-3411
▁applications	-3412
▁love	-3413
▁plant	-3414
points	-3415
▁seems	-3416
▁giving	-3417
itude	-3418
▁property	-3419
▁teams	-3420
uel	-3421
▁wait	-3422
▁Ben	-3423
▁ban	-3424
ancy	-3425
next	-3426
▁continu	-3427
ising	-3428
▁thing	-3429
▁combined	-3430
abilities	-3431
▁simply	-3432
elling	-3433
▁choices	-3434
aptop	-3435
▁close	-3436
▁tickets	-3437
table	-3438
▁Sm	-3439
Test	-3440
▁women	-3441
▁looks	-3442
▁query	-3443
bum	-3444
SD	-3445
(),	-3446
Int	-3447
▁lat	-3448
▁sets	-3449
▁perce	-3450
hour	-3451
▁population	-3452
method	-3453
▁guarant	-3454
▁tra	-3455
▁tre	-3456
▁Jan	-3457
cohol	-3458
▁Open	-3459
▁throw	-3460
▁exclus	-3461
▁otherwise	-3462
▁particular	-3463
▁partners	-3464
▁Met	-3465
eness	-3466
Ser	-3467
▁brow	-3468
▁nearest	-3469
▁strug	-3470
▁reci	-3471
anged	-3472
icial	-3473
▁extra	-3474
▁Mich	-3475
gree	-3476
random	-3477
▁website	-3478
▁whether	-3479
▁historical	-3480
▁relig	-3481
▁once	-3482
▁brand	-3483
example	-3484
▁prevent	-3485
cing	-3486
▁style	-3487
agn	-3488
▁chocolates	-3489
▁autom	-3490
▁pattern	-3491
sed	-3492
▁assum	-3493
▁constructor	-3494
▁regardless	-3495
%.	-3496
▁Det	-3497
ellow	-3498
▁static	-3499
▁general	-3500
verse	-3501
▁directly	-3502
ert	-3503
hib	-3504
▁Dep	-3505
▁Next	-3506
▁perfect	-3507
ino	-3508
▁choose	-3509
▁window	-3510
}:	-3511
▁recipe	-3512
▁temperature	-3513
host	-3514
▁Count	-3515
▁Why	-3516
▁shel	-3517
▁ge	-3518
▁symptoms	-3519
▁luck	-3520
▁income	-3521
▁topics	-3522
go	-3523
▁party	-3524
▁reading	-3525
▁graph	-3526
▁written	-3527
];	-3528
active	-3529
▁select	-3530
▁playing	-3531
amps	-3532
▁paint	-3533
▁arguments	-3534
down	-3535
uild	-3536
▁trust	-3537
▁country	-3538
▁Mo	-3539
▁cas	-3540
▁Windows	-3541
▁indicates	-3542
$,	-3543
▁{}	-3544
annel	-3545
▁areas	-3546
ek	-3547
▁ill	-3548
▁introdu	-3549
▁minute	-3550
▁driver	-3551
kn	-3552
names	-3553
▁completely	-3554
▁dataset	-3555
▁skin	-3556
▁Indifference	-3557
▁cause	-3558
▁abilities	-3559
▁engagement	-3560
▁cut	-3561
ael	-3562
▁tal	-3563
▁map	-3564
▁operating	-3565
▁feeling	-3566
▁ax	-3567
change	-3568
levant	-3569
▁budget	-3570
▁direction	-3571
▁fig	-3572
▁Raises	-3573
▁risk	-3574
ordinates	-3575
▁either	-3576
["	-3577
▁---	-3578
▁learn	-3579
▁remove	-3580
related	-3581
▁''	-3582
hemat	-3583
▁involve	-3584
antic	-3585
▁released	-3586
▁Fe	-3587
▁Euro	-3588
import	-3589
▁Sol	-3590
▁center	-3591
▁representation	-3592
▁Des	-3593
▁helps	-3594
▁involved	-3595
▁Individuals	-3596
▁walk	-3597
elete	-3598
respon	-3599
▁calculating	-3600
▁implement	-3601
xy	-3602
▁pairs	-3603
▁Please	-3604
Request	-3605
▁shared	-3606
strip	-3607
Ind	-3608
▁irre	-3609
▁sports	-3610
ystem	-3611
▁degre	-3612
▁happiness	-3613
▁degrees	-3614
▁tank	-3615
▁balloons	-3616
▁particip	-3617
words	-3618
▁['	-3619
grad	-3620
query	-3621
function	-3622
▁remember	-3623
div	-3624
pec	-3625
▁States	-3626
▁gender	-3627
▁kind	-3628
ana	-3629
Dict	-3630
▁ep	-3631
▁flowers	-3632
reet	-3633
wh	-3634
▁phot	-3635
▁became	-3636
unch	-3637
▁operation	-3638
lobal	-3639
▁visual	-3640
Response	-3641
▁meet	-3642
▁tree	-3643
▁prompt	-3644
▁purchase	-3645
,"	-3646
▁able	-3647
plot	-3648
▁Teacher	-3649
▁runs	-3650
▁appreci	-3651
▁dele	-3652
)/	-3653
▁shirts	-3654
bs	-3655
▁bak	-3656
▁black	-3657
▁||	-3658
▁Not	-3659
▁hy	-3660
={	-3661
push	-3662
▁claim	-3663
▁living	-3664
▁≈	-3665
icted	-3666
Found	-3667
▁teach	-3668
ads	-3669
▁death	-3670
urrency	-3671
▁plug	-3672
▁functions	-3673
▁mid	-3674
▁actual	-3675
▁instead	-3676
▁packs	-3677
▁rom	-3678
▁HTML	-3679
▁stability	-3680
bol	-3681
apping	-3682
▁Lack	-3683
▁extends	-3684
irt	-3685
QL	-3686
▁vol	-3687
▁National	-3688
]]:	-3689
emon	-3690
▁indicate	-3691
fill	-3692
▁rev	-3693
▁Cent	-3694
▁fish	-3695
▁choice	-3696
][	-3697
▁Comp	-3698
▁laptop	-3699
"?	-3700
▁opin	-3701
▁Engaging	-3702
▁analysis	-3703
Element	-3704
▁treatment	-3705
▁la	-3706
▁Commun	-3707
▁monthly	-3708
Al	-3709
Number	-3710
▁My	-3711
ivia	-3712
.,	-3713
▁optim	-3714
player	-3715
▁balance	-3716
overy	-3717
▁topic	-3718
▁lost	-3719
rew	-3720
++	-3721
ED	-3722
color	-3723
▁analy	-3724
▁Math	-3725
zen	-3726
▁region	-3727
ung	-3728
▁Ear	-3729
▁token	-3730
▁Load	-3731
username	-3732
ont	-3733
token	-3734
▁degree	-3735
parse	-3736
ibrary	-3737
▁easy	-3738
▁Find	-3739
Item	-3740
▁Act	-3741
▁statement	-3742
cast	-3743
▁live	-3744
like	-3745
▁goals	-3746
etal	-3747
▁obj	-3748
▁Ed	-3749
pack	-3750
gment	-3751
ership	-3752
▁Mary	-3753
▁desire	-3754
paren	-3755
▁Lily	-3756
▁English	-3757
porary	-3758
▁sens	-3759
▁come	-3760
▁Rel	-3761
rup	-3762
tig	-3763
onday	-3764
▁El	-3765
poses	-3766
esents	-3767
▁located	-3768
▁fr	-3769
▁attack	-3770
height	-3771
▁leads	-3772
▁situations	-3773
}'	-3774
iding	-3775
▁duration	-3776
uses	-3777
▁undefined	-3778
▁Date	-3779
Object	-3780
Par	-3781
▁passage	-3782
▁Max	-3783
▁compan	-3784
SV	-3785
▁exerc	-3786
Un	-3787
ese	-3788
igns	-3789
▁cop	-3790
▁irrelevant	-3791
comes	-3792
▁seen	-3793
▁things	-3794
ux	-3795
pir	-3796
ilk	-3797
▁adjust	-3798
▁comment	-3799
web	-3800
▁Inter	-3801
▁represents	-3802
▁Get	-3803
▁processing	-3804
"{	-3805
▁His	-3806
▁suggests	-3807
ief	-3808
▁connections	-3809
▁updated	-3810
▁fem	-3811
▁elif	-3812
▁longer	-3813
▁leading	-3814
▁Sk	-3815
ulture	-3816
▁external	-3817
▁million	-3818
▁digits	-3819
trans	-3820
stances	-3821
nes	-3822
acc	-3823
▁opportunities	-3824
##	-3825
▁migrations	-3826
ox	-3827
▁chocolate	-3828
▁everything	-3829
▁reduce	-3830
▁Creat	-3831
entially	-3832
tific	-3833
▁conver	-3834
▁album	-3835
▁Log	-3836
▁cos	-3837
▁creating	-3838
root	-3839
▁Run	-3840
MA	-3841
osp	-3842
ture	-3843
▁Off	-3844
utf	-3845
Text	-3846
▁planning	-3847
lear	-3848
▁employee	-3849
▁therapy	-3850
▁constant	-3851
iers	-3852
▁relation	-3853
▁modern	-3854
known	-3855
▁birth	-3856
reed	-3857
By	-3858
▁responses	-3859
▁Hand	-3860
▁!=	-3861
▁Google	-3862
kens	-3863
only	-3864
▁mode	-3865
da	-3866
run	-3867
▁salary	-3868
▁band	-3869
hical	-3870
NotFound	-3871
▁solutions	-3872
▁Use	-3873
▁initially	-3874
▁today	-3875
pload	-3876
▁why	-3877
▁vi	-3878
▁pair	-3879
product	-3880
▁Michael	-3881
▁skill	-3882
▁sqrt	-3883
estamp	-3884
▁Prov	-3885
connection	-3886
▁decisions	-3887
▁),	-3888
▁neighb	-3889
▁effort	-3890
tention	-3891
▁South	-3892
▁basket	-3893
▁Europe	-3894
▁candid	-3895
▁worked	-3896
▁Sw	-3897
▁Once	-3898
Or	-3899
keys	-3900
uary	-3901
▁datetime	-3902
mark	-3903
▁suff	-3904
AD	-3905
avy	-3906
▁larger	-3907
▁Avoiding	-3908
ursor	-3909
anch	-3910
▁continue	-3911
▁offers	-3912
▁competitive	-3913
RO	-3914
▁$$	-3915
description	-3916
▁deal	-3917
▁movie	-3918
▁explain	-3919
▁outcomes	-3920
▁site	-3921
▁purposes	-3922
forward	-3923
▁beneficial	-3924
▁medication	-3925
▁Am	-3926
achel	-3927
▁investment	-3928
▁pic	-3929
based	-3930
▁verbose	-3931
most	-3932
▁feedback	-3933
▁perception	-3934
toBe	-3935
▁deep	-3936
▁radius	-3937
▁Sci	-3938
cel	-3939
filter	-3940
▁combat	-3941
▁migration	-3942
http	-3943
flow	-3944
▁Start	-3945
AC	-3946
▁entry	-3947
ords	-3948
▁Hist	-3949
▁classes	-3950
▁columns	-3951
tery	-3952
▁School	-3953
enge	-3954
▁Game	-3955
▁eat	-3956
train	-3957
Invalid	-3958
▁safety	-3959
round	-3960
▁forms	-3961
sel	-3962
▁download	-3963
▁discussed	-3964
care	-3965
gram	-3966
ponent	-3967
bit	-3968
)(	-3969
amera	-3970
school	-3971
Action	-3972
rate	-3973
arter	-3974
aches	-3975
asons	-3976
▁largest	-3977
CO	-3978
ene	-3979
▁plants	-3980
▁scenario	-3981
NotFoundError	-3982
▁significance	-3983
hest	-3984
▁club	-3985
search	-3986
eral	-3987
Im	-3988
sin	-3989
▁logger	-3990
▁experienced	-3991
▁db	-3992
lick	-3993
pace	-3994
ueue	-3995
ribute	-3996
▁labels	-3997
cour	-3998
▁greater	-3999
acing	-4000
DataFrame	-4001
▁anti	-4002
▁From	-4003
▁enem	-4004
▁built	-4005
TX	-4006
files	-4007
entific	-4008
▁upper	-4009
▁smaller	-4010
▁ago	-4011
▁HTTP	-4012
uation	-4013
▁package	-4014
▁var	-4015
▁mind	-4016
pri	-4017
▁benefits	-4018
▁significantly	-4019
▁Output	-4020
▁presence	-4021
▁nature	-4022
inations	-4023
ably	-4024
iment	-4025
▁variable	-4026
▁{'	-4027
▁Error	-4028
▁pressure	-4029
ada	-4030
atory	-4031
dom	-4032
vant	-4033
▁inj	-4034
▁novel	-4035
▁transform	-4036
▁AD	-4037
▁favor	-4038
▁paper	-4039
▁Olivia	-4040
oking	-4041
▁Monday	-4042
▁Time	-4043
idget	-4044
▁Ah	-4045
ION	-4046
▁helped	-4047
▁named	-4048
gener	-4049
▁existing	-4050
▁ran	-4051
▁covered	-4052
▁concepts	-4053
uly	-4054
▁species	-4055
ried	-4056
ustry	-4057
▁Type	-4058
▁active	-4059
▁correspon	-4060
gles	-4061
▁bur	-4062
▁prime	-4063
▁rates	-4064
▁Net	-4065
OS	-4066
Config	-4067
▁alternative	-4068
Pl	-4069
rec	-4070
▁thanks	-4071
▁practices	-4072
onds	-4073
▁roll	-4074
▁worth	-4075
▁Array	-4076
▁split	-4077
▁Key	-4078
▁tests	-4079
▁serve	-4080
▁${	-4081
artment	-4082
Exception	-4083
▁competition	-4084
▁guid	-4085
ders	-4086
write	-4087
▁interaction	-4088
▁agree	-4089
phas	-4090
equ	-4091
iber	-4092
▁coins	-4093
▁night	-4094
▁patterns	-4095
▁Mia	-4096
server	-4097
ached	-4098
▁denomin	-4099
selves	-4100
posed	-4101
Man	-4102
days	-4103
force	-4104
▁Germ	-4105
▁industry	-4106
▁station	-4107
▁sister	-4108
perty	-4109
ha	-4110
csv	-4111
avig	-4112
ening	-4113
▁sand	-4114
iors	-4115
ially	-4116
▁hardware	-4117
▁module	-4118
▁amounts	-4119
oss	-4120
fri	-4121
stit	-4122
tification	-4123
▁City	-4124
▁payment	-4125
▁tools	-4126
elebr	-4127
lication	-4128
US	-4129
sol	-4130
ustral	-4131
astic	-4132
Set	-4133
▁internet	-4134
▁organization	-4135
ratic	-4136
▁await	-4137
▁Players	-4138
▁section	-4139
sequences	-4140
▁strength	-4141
▁pen	-4142
igration	-4143
▁resolution	-4144
iciency	-4145
▁article	-4146
Of	-4147
▁cakes	-4148
ES	-4149
rol	-4150
}"	-4151
▁category	-4152
ctive	-4153
▁advice	-4154
▁Python	-4155
gor	-4156
▁accom	-4157
▁dress	-4158
▁rather	-4159
▁arch	-4160
▁prices	-4161
urance	-4162
▁appl	-4163
ops	-4164
ortive	-4165
▁mob	-4166
▁messages	-4167
iginal	-4168
▁Display	-4169
hold	-4170
▁critical	-4171
▁Che	-4172
▁repe	-4173
▁shows	-4174
▁January	-4175
mm	-4176
ancing	-4177
▁Focus	-4178
▁sometimes	-4179
cles	-4180
ipment	-4181
▁science	-4182
▁discussion	-4183
bot	-4184
Path	-4185
▁lay	-4186
▁testing	-4187
ites	-4188
▁white	-4189
▁defined	-4190
▁finding	-4191
▁immediately	-4192
doc	-4193
lower	-4194
aby	-4195
bed	-4196
▁aim	-4197
▁Bar	-4198
version	-4199
unk	-4200
lying	-4201
▁send	-4202
▁mathemat	-4203
▁'{	-4204
▁AM	-4205
▁fast	-4206
▁stamps	-4207
}$	-4208
▁ow	-4209
address	-4210
▁Intern	-4211
▁circle	-4212
▁replace	-4213
▁expenses	-4214
oyal	-4215
peed	-4216
▁shape	-4217
▁noteb	-4218
database	-4219
mo	-4220
sl	-4221
▁material	-4222
▁motherboard	-4223
▁roles	-4224
cdot	-4225
'.	-4226
pay	-4227
▁leave	-4228
▁assess	-4229
▁Generate	-4230
▁news	-4231
group	-4232
▁James	-4233
▁March	-4234
▁Process	-4235
▁hot	-4236
CH	-4237
▁sil	-4238
▁async	-4239
osition	-4240
▁addition	-4241
itation	-4242
▁Austral	-4243
▁moving	-4244
Index	-4245
assert	-4246
umer	-4247
▁Inst	-4248
▁Oct	-4249
▁limited	-4250
▁Me	-4251
▁keys	-4252
▁Your	-4253
▁Sounds	-4254
ban	-4255
▁Aug	-4256
▁audio	-4257
resents	-4258
▁becomes	-4259
▁little	-4260
▁mass	-4261
▁engage	-4262
▁Financial	-4263
print	-4264
▁indeed	-4265
▁Tim	-4266
▁materials	-4267
▁successfully	-4268
▁tables	-4269
BA	-4270
df	-4271
:")	-4272
▁Wr	-4273
last	-4274
▁oun	-4275
▁allowed	-4276
Dr	-4277
▁Post	-4278
update	-4279
▁binary	-4280
▁fruits	-4281
▁importance	-4282
▁component	-4283
▁phr	-4284
istration	-4285
eras	-4286
▁Har	-4287
▁North	-4288
▁Custom	-4289
expected	-4290
▁AI	-4291
▁background	-4292
▁mom	-4293
rows	-4294
▁Power	-4295
▁participant	-4296
▁straightforward	-4297
▁interests	-4298
▁dog	-4299
utive	-4300
▁born	-4301
▁cat	-4302
adata	-4303
▁pars	-4304
▁natural	-4305
ameter	-4306
▁finish	-4307
▁seeking	-4308
uts	-4309
▁compat	-4310
ifferent	-4311
iff	-4312
labels	-4313
▁meaning	-4314
▁consumption	-4315
▁Apr	-4316
phone	-4317
▁release	-4318
gen	-4319
ole	-4320
▁completed	-4321
pathy	-4322
▁Part	-4323
format	-4324
▁alcohol	-4325
▁Leg	-4326
▁Every	-4327
No	-4328
▁healthy	-4329
▁ey	-4330
ufact	-4331
gress	-4332
▁selected	-4333
▁digit	-4334
Form	-4335
ippet	-4336
source	-4337
Col	-4338
▁calories	-4339
ille	-4340
utton	-4341
▁romantic	-4342
▁thoughts	-4343
iet	-4344
▁cultural	-4345
iques	-4346
File	-4347
▁cub	-4348
▁Call	-4349
ications	-4350
step	-4351
itable	-4352
▁transfer	-4353
▁(!	-4354
▁held	-4355
display	-4356
▁heart	-4357
aint	-4358
▁Are	-4359
▁ing	-4360
istent	-4361
▁batch	-4362
ectively	-4363
)]	-4364
▁'./	-4365
opping	-4366
uesday	-4367
▁grid	-4368
ighest	-4369
initial	-4370
▁ever	-4371
erse	-4372
▁appropri	-4373
entif	-4374
▁produce	-4375
fol	-4376
▁sys	-4377
▁lif	-4378
▁Mock	-4379
▁cross	-4380
▁uns	-4381
delete	-4382
UT	-4383
▁cru	-4384
▁digital	-4385
ibilities	-4386
apan	-4387
asy	-4388
gorith	-4389
▁establish	-4390
ously	-4391
▁More	-4392
▁respect	-4393
derstanding	-4394
▁originally	-4395
ialog	-4396
ordinate	-4397
lose	-4398
▁der	-4399
iring	-4400
▁asks	-4401
RI	-4402
▁authentic	-4403
filename	-4404
▁contract	-4405
pes	-4406
▁typical	-4407
▁June	-4408
▁Mat	-4409
grade	-4410
▁satisfaction	-4411
eck	-4412
▁below	-4413
oti	-4414
vey	-4415
▁young	-4416
score	-4417
▁Brit	-4418
\),	-4419
▁checks	-4420
▁themselves	-4421
eds	-4422
tivity	-4423
▁comes	-4424
pective	-4425
▁Mus	-4426
▁stack	-4427
'],	-4428
len	-4429
▁collab	-4430
▁demand	-4431
▁strings	-4432
ivil	-4433
orch	-4434
ellig	-4435
▁managing	-4436
▁hor	-4437
▁repl	-4438
▁depression	-4439
▁King	-4440
");	-4441
▁Name	-4442
▁mistake	-4443
▁prin	-4444
▁IP	-4445
▁Where	-4446
▁compar	-4447
lation	-4448
sim	-4449
istry	-4450
ronic	-4451
▁seek	-4452
▁older	-4453
▁December	-4454
▁consequence	-4455
▁circum	-4456
▁responsible	-4457
being	-4458
▁Phys	-4459
▁outside	-4460
▁appearance	-4461
▁national	-4462
bar	-4463
Cont	-4464
▁demonstrate	-4465
ians	-4466
▁joy	-4467
ategory	-4468
▁advant	-4469
den	-4470
▁collect	-4471
▁exclusively	-4472
▁Hel	-4473
▁har	-4474
▁technical	-4475
▁Decre	-4476
▁aware	-4477
▁tool	-4478
▁fear	-4479
▁experiencing	-4480
dep	-4481
▁positions	-4482
util	-4483
▁effectively	-4484
range	-4485
▁emphas	-4486
▁template	-4487
▁platforms	-4488
lib	-4489
▁Comput	-4490
▁examples	-4491
▁produced	-4492
iance	-4493
▁epis	-4494
▁Seeking	-4495
lar	-4496
▁Af	-4497
vas	-4498
▁sort	-4499
▁cents	-4500
Event	-4501
▁published	-4502
aph	-4503
mber	-4504
ama	-4505
session	-4506
env	-4507
ocal	-4508
▁sin	-4509
▁comfort	-4510
▁Attributes	-4511
▁During	-4512
▁increases	-4513
▁Sept	-4514
▁kill	-4515
▁economic	-4516
▁expectations	-4517
amples	-4518
Log	-4519
child	-4520
images	-4521
▁simplifies	-4522
▁Her	-4523
▁frequency	-4524
▁led	-4525
▁compl	-4526
?"	-4527
▁snippet	-4528
▁updates	-4529
▁Mod	-4530
▁concerns	-4531
▁societal	-4532
uting	-4533
▁outcome	-4534
▁ounces	-4535
▁depth	-4536
pite	-4537
▁beliefs	-4538
▁letter	-4539
▁'__	-4540
▁Our	-4541
▁York	-4542
sample	-4543
Tuple	-4544
entials	-4545
event	-4546
▁April	-4547
raph	-4548
▁Ens	-4549
▁pregn	-4550
▁Feb	-4551
▁Valid	-4552
▁scores	-4553
thern	-4554
▁seats	-4555
▁religious	-4556
oke	-4557
dit	-4558
▁hon	-4559
▁brother	-4560
▁grams	-4561
HT	-4562
▁denominator	-4563
body	-4564
▁journey	-4565
▁challenge	-4566
▁quad	-4567
▁vehicle	-4568
▁verify	-4569
bin	-4570
▁isolation	-4571
▁Multi	-4572
▁upon	-4573
▁ball	-4574
▁easily	-4575
ament	-4576
▁ten	-4577
▁Base	-4578
▁blank	-4579
▁saves	-4580
)²	-4581
____	-4582
▁Lim	-4583
itement	-4584
▁La	-4585
▁scientific	-4586
▁wide	-4587
▁father	-4588
▁companies	-4589
]]	-4590
}}	-4591
▁rep	-4592
▁confusion	-4593
atching	-4594
▁highest	-4595
▁Mem	-4596
▁Japan	-4597
▁preferences	-4598
oded	-4599
▁rot	-4600
Failed	-4601
▁basic	-4602
ovember	-4603
power	-4604
cessive	-4605
▁benefit	-4606
details	-4607
▁interpre	-4608
▁considering	-4609
▁CSV	-4610
▁Soph	-4611
▁programs	-4612
ffee	-4613
▁errors	-4614
▁techniques	-4615
▁supposed	-4616
▁behaviors	-4617
▁√	-4618
idge	-4619
cases	-4620
▁monitor	-4621
Ret	-4622
org	-4623
Hand	-4624
▁stay	-4625
▁September	-4626
anas	-4627
▁pet	-4628
▁Flask	-4629
▁switch	-4630
▁ticket	-4631
socket	-4632
▁Form	-4633
▁August	-4634
▁expand	-4635
▁inside	-4636
▁campa	-4637
▁diet	-4638
https	-4639
ested	-4640
▁Prompt	-4641
▁sells	-4642
▁linked	-4643
▁machine	-4644
▁gold	-4645
▁exists	-4646
▁Techn	-4647
▁highlight	-4648
amount	-4649
reshold	-4650
▁everyone	-4651
▁dimensions	-4652
▁shoes	-4653
▁candy	-4654
▁reported	-4655
▁milk	-4656
▁itself	-4657
▁recovery	-4658
▁vary	-4659
itiz	-4660
▁tur	-4661
▁established	-4662
__':	-4663
▁cell	-4664
oute	-4665
▁dealing	-4666
>(	-4667
▁Tuesday	-4668
task	-4669
▁Class	-4670
▁safe	-4671
▁announ	-4672
▁staff	-4673
▁roots	-4674
▁library	-4675
▁Mr	-4676
core	-4677
▁appreciate	-4678
));	-4679
aly	-4680
save	-4681
▁movement	-4682
▁throughout	-4683
▁countries	-4684
▁pan	-4685
▁syn	-4686
dated	-4687
ruary	-4688
DR	-4689
▁former	-4690
ipping	-4691
▁consequences	-4692
ios	-4693
▁thought	-4694
▁champions	-4695
struct	-4696
Sh	-4697
▁""	-4698
▁Ste	-4699
iday	-4700
orpor	-4701
▁thread	-4702
anger	-4703
▁pool	-4704
▁Perform	-4705
uth	-4706
▁weekly	-4707
▁GPU	-4708
friend	-4709
antity	-4710
▁calls	-4711
▁plans	-4712
▁button	-4713
▁celebr	-4714
▁register	-4715
▁Air	-4716
▁tag	-4717
▁colors	-4718
▁returned	-4719
▁trade	-4720
▁efficiency	-4721
ouch	-4722
▁went	-4723
▁login	-4724
wr	-4725
▁coeff	-4726
idden	-4727
ulated	-4728
*-	-4729
umb	-4730
pped	-4731
weight	-4732
▁November	-4733
▁confidence	-4734
ili	-4735
▁getting	-4736
ades	-4737
itors	-4738
▁bottles	-4739
▁accurate	-4740
▁gather	-4741
ided	-4742
▁lic	-4743
▁Cr	-4744
▁Dan	-4745
▁ste	-4746
ifier	-4747
opy	-4748
▁inn	-4749
ongo	-4750
▁'../	-4751
▁Pres	-4752
▁potentially	-4753
▁protect	-4754
▁bad	-4755
PS	-4756
▁Pat	-4757
▁missing	-4758
▁acqu	-4759
▁mer	-4760
▁bank	-4761
features	-4762
▁surface	-4763
▁July	-4764
▁projects	-4765
▁Colle	-4766
student	-4767
▁providing	-4768
ued	-4769
▁vector	-4770
▁_____	-4771
▁Fam	-4772
▁\(\	-4773
▁Ry	-4774
ission	-4775
▁exact	-4776
▁serial	-4777
▁manufact	-4778
▁bread	-4779
lier	-4780
pop	-4781
▁Promise	-4782
▁exercise	-4783
oming	-4784
ivity	-4785
▁copy	-4786
▁alone	-4787
distance	-4788
▁transport	-4789
vari	-4790
aught	-4791
utual	-4792
▁Happ	-4793
▁Mike	-4794
▁iter	-4795
▁Given	-4796
cell	-4797
egative	-4798
▁October	-4799
▁validation	-4800
▁distribution	-4801
▁rank	-4802
▁matter	-4803
▁occurs	-4804
▁Group	-4805
ums	-4806
rics	-4807
ulations	-4808
▁Intel	-4809
▁numpy	-4810
▁withdraw	-4811
arc	-4812
▁Eff	-4813
▁qual	-4814
▁defin	-4815
▁ded	-4816
▁prec	-4817
elements	-4818
▁hol	-4819
Input	-4820
hens	-4821
ivery	-4822
▁controll	-4823
▁leaves	-4824
appro	-4825
▁equations	-4826
▁studies	-4827
▁appropriate	-4828
tures	-4829
men	-4830
ctor	-4831
▁dogs	-4832
▁entirely	-4833
then	-4834
▁distress	-4835
mor	-4836
▁properties	-4837
▁isn	-4838
▁muff	-4839
▁wall	-4840
▁theme	-4841
LO	-4842
▁Ag	-4843
reaming	-4844
▁easier	-4845
▁parameters	-4846
cr	-4847
▁du	-4848
▁race	-4849
▁views	-4850
ifying	-4851
Case	-4852
▁manager	-4853
▁attention	-4854
▁Many	-4855
▁late	-4856
▁Update	-4857
▁stuck	-4858
▁hab	-4859
datetime	-4860
▁expressed	-4861
▁Sch	-4862
oting	-4863
▁February	-4864
grid	-4865
▁removed	-4866
▁requirements	-4867
▁Most	-4868
▁ingred	-4869
roy	-4870
▁Exper	-4871
objects	-4872
iqu	-4873
▁dom	-4874
▁doing	-4875
▁Health	-4876
▁processes	-4877
sers	-4878
▁dro	-4879
▁manip	-4880
▁Elect	-4881
PA	-4882
▁);	-4883
▁culture	-4884
SI	-4885
unt	-4886
digit	-4887
OST	-4888
icate	-4889
▁earned	-4890
▁restaur	-4891
▁farm	-4892
.”	-4893
▁summar	-4894
▁{"	-4895
▁lists	-4896
▁blood	-4897
▁quickly	-4898
▁misun	-4899
atically	-4900
▁Represents	-4901
▁creation	-4902
▁mechanics	-4903
').	-4904
▁unn	-4905
▁tren	-4906
▁conflicts	-4907
▁-*-	-4908
owers	-4909
works	-4910
reams	-4911
▁Anxiety	-4912
▁sem	-4913
▁elimin	-4914
▁Well	-4915
▁exhib	-4916
▁inform	-4917
▁reference	-4918
fully	-4919
ao	-4920
pred	-4921
▁comments	-4922
▁Chris	-4923
▁increasing	-4924
▁diagn	-4925
▁Convert	-4926
▁indicating	-4927
▁kg	-4928
▁rule	-4929
FI	-4930
▁fund	-4931
▁["	-4932
show	-4933
▁fully	-4934
traction	-4935
▁advanced	-4936
▁equipment	-4937
▁Sun	-4938
▁began	-4939
▁CO	-4940
ker	-4941
ether	-4942
▁fiction	-4943
▁cray	-4944
project	-4945
▁passed	-4946
▁served	-4947
▁viol	-4948
▁wat	-4949
▁conduct	-4950
ectiveness	-4951
▁motivation	-4952
▁bon	-4953
▁Micro	-4954
▁figures	-4955
link	-4956
▁symbol	-4957
▁Image	-4958
▁patient	-4959
▁processed	-4960
▁clarity	-4961
▁variables	-4962
ony	-4963
▁traum	-4964
▁behind	-4965
▁faster	-4966
▁evidence	-4967
ica	-4968
ipe	-4969
▁jud	-4970
▁characteristics	-4971
Em	-4972
▁ground	-4973
▁scored	-4974
▁accepted	-4975
▁sus	-4976
▁disorder	-4977
▁Bet	-4978
▁Hy	-4979
long	-4980
orders	-4981
▁DataFrame	-4982
ooth	-4983
▁hous	-4984
▁join	-4985
▁frustr	-4986
CD	-4987
▁Support	-4988
****	-4989
▁rad	-4990
pan	-4991
▁sharing	-4992
▁maintaining	-4993
HD	-4994
column	-4995
▁prepar	-4996
}.	-4997
ednes	-4998
▁logic	-4999
▁secure	-5000
▁Bob	-5001
▁telev	-5002
▁parser	-5003
▁hit	-5004
▁chic	-5005
▁Rachel	-5006
▁female	-5007
▁abuse	-5008
eline	-5009
ticism	-5010
▁cooling	-5011
▁engaging	-5012
▁progress	-5013
missions	-5014
▁boundaries	-5015
▁crucial	-5016
▁obtain	-5017
▁teacher	-5018
aul	-5019
bre	-5020
▁Super	-5021
▁estim	-5022
▁mechanism	-5023
▁!==	-5024
Up	-5025
▁readonly	-5026
esthe	-5027
▁male	-5028
▁cart	-5029
▁fall	-5030
initely	-5031
▁bananas	-5032
[:	-5033
▁global	-5034
eling	-5035
▁Ang	-5036
wargs	-5037
▁substit	-5038
Integer	-5039
▁independence	-5040
irds	-5041
▁bring	-5042
▁opinions	-5043
exec	-5044
▁Http	-5045
▁reflects	-5046
try	-5047
▁frequently	-5048
oolean	-5049
▁century	-5050
▁letters	-5051
▁trading	-5052
{\	-5053
▁People	-5054
(\	-5055
▁,	-5056
▁gro	-5057
▁believe	-5058
▁markers	-5059
unc	-5060
using	-5061
fit	-5062
▁guit	-5063
▁goes	-5064
▁prep	-5065
lowing	-5066
▁posts	-5067
▁camera	-5068
inner	-5069
========	-5070
rams	-5071
rench	-5072
▁legs	-5073
▁town	-5074
▁office	-5075
▁finally	-5076
itect	-5077
cir	-5078
▁swim	-5079
ednesday	-5080
call	-5081
ypes	-5082
▁Develop	-5083
▁conversation	-5084
cm	-5085
View	-5086
▁relevant	-5087
▁clim	-5088
▁floor	-5089
▁Hum	-5090
▁broad	-5091
▁fight	-5092
▁yellow	-5093
▁international	-5094
inct	-5095
▁came	-5096
▁force	-5097
▁TV	-5098
▁Fil	-5099
App	-5100
▁spaces	-5101
▁complic	-5102
▁Tem	-5103
making	-5104
▁League	-5105
shape	-5106
▁Ob	-5107
views	-5108
cat	-5109
books	-5110
▁dem	-5111
▁crayons	-5112
▁answers	-5113
▁quarter	-5114
ifth	-5115
▁trees	-5116
▁While	-5117
▁moder	-5118
▁characteristic	-5119
tag	-5120
inst	-5121
▁mock	-5122
▁variety	-5123
▁workers	-5124
▁recommend	-5125
vis	-5126
results	-5127
▁resource	-5128
)}	-5129
UL	-5130
▁Complete	-5131
▁election	-5132
Class	-5133
▁middle	-5134
▁shirt	-5135
▁assume	-5136
▁threat	-5137
▁surv	-5138
Manager	-5139
▁police	-5140
ae	-5141
▁Bat	-5142
▁British	-5143
▁coffee	-5144
▁configure	-5145
▁narrator	-5146
URL	-5147
▁Afric	-5148
▁gallon	-5149
▁coordinates	-5150
Le	-5151
▁Long	-5152
▁West	-5153
▁happens	-5154
elligence	-5155
▁collected	-5156
▁queue	-5157
▁travels	-5158
▁>=	-5159
▁selection	-5160
▁Bro	-5161
▁participants	-5162
oci	-5163
arian	-5164
▁invalid	-5165
▁Step	-5166
▁impl	-5167
▁fourth	-5168
TE	-5169
▁imag	-5170
▁themes	-5171
▁deliver	-5172
▁effectiveness	-5173
▁Extract	-5174
mp	-5175
For	-5176
▁Union	-5177
▁IN	-5178
▁"./	-5179
We	-5180
("\	-5181
▁unnecessary	-5182
▁traveled	-5183
bound	-5184
▁Black	-5185
▁connected	-5186
creen	-5187
▁buys	-5188
integer	-5189
▁yield	-5190
▁failure	-5191
▁Object	-5192
▁reasons	-5193
▁Tw	-5194
inder	-5195
▁fat	-5196
▁navig	-5197
ogether	-5198
▁acceptance	-5199
izations	-5200
▁crypt	-5201
▁apple	-5202
ounc	-5203
▁award	-5204
▁weapons	-5205
▁construction	-5206
▁ate	-5207
atively	-5208
▁adults	-5209
gression	-5210
AS	-5211
▁coping	-5212
▁attacks	-5213
▁puzzles	-5214
▁norm	-5215
Driver	-5216
Message	-5217
▁discover	-5218
eem	-5219
coin	-5220
gorithm	-5221
▁policy	-5222
▁supportive	-5223
▁subtracting	-5224
yl	-5225
▁didn	-5226
▁smart	-5227
ka	-5228
store	-5229
▁recip	-5230
▁environ	-5231
dule	-5232
▁recent	-5233
▁args	-5234
▁System	-5235
▁Don	-5236
▁cows	-5237
though	-5238
▁nor	-5239
▁via	-5240
▁Spec	-5241
agonist	-5242
▁yet	-5243
abled	-5244
▁strict	-5245
ME	-5246
▁explaining	-5247
▁encounter	-5248
▁obser	-5249
▁weigh	-5250
▁notebooks	-5251
'])	-5252
▁front	-5253
▁particularly	-5254
▁marketing	-5255
mary	-5256
static	-5257
▁accuracy	-5258
▁Text	-5259
▁television	-5260
▁resol	-5261
TO	-5262
ING	-5263
▁capabilities	-5264
▁Bit	-5265
▁Non	-5266
▁Sum	-5267
▁‘	-5268
ius	-5269
▁clos	-5270
oken	-5271
▁mobile	-5272
▁audience	-5273
duc	-5274
multi	-5275
▁÷	-5276
▁odd	-5277
ref	-5278
▁influenced	-5279
▁exception	-5280
comfort	-5281
▁puzzle	-5282
asc	-5283
▁Mag	-5284
▁reaction	-5285
▁calculates	-5286
Ph	-5287
▁inves	-5288
▁profile	-5289
$$	-5290
▁Mc	-5291
▁cake	-5292
▁faced	-5293
ospital	-5294
▁arrange	-5295
Base	-5296
otor	-5297
▁fee	-5298
▁charge	-5299
▁vill	-5300
(`	-5301
▁Mor	-5302
▁investig	-5303
▁attend	-5304
roid	-5305
▁kilog	-5306
▁immediate	-5307
▁involving	-5308
▁String	-5309
IL	-5310
▁weather	-5311
AG	-5312
▁dialog	-5313
=[	-5314
▁Del	-5315
▁weapon	-5316
▁muffins	-5317
tainment	-5318
▁delivery	-5319
▁practical	-5320
estern	-5321
dim	-5322
login	-5323
▁Jane	-5324
▁peace	-5325
▁capital	-5326
rict	-5327
)).	-5328
▁rights	-5329
▁bakery	-5330
pecially	-5331
ras	-5332
born	-5333
▁Determ	-5334
▁theory	-5335
▁General	-5336
abet	-5337
▁stage	-5338
bra	-5339
Image	-5340
parent	-5341
----------------	-5342
rical	-5343
▁efficient	-5344
eal	-5345
stract	-5346
▁animal	-5347
▁wrong	-5348
icks	-5349
▁wood	-5350
▁environments	-5351
vest	-5352
AB	-5353
▁mix	-5354
angular	-5355
▁coding	-5356
auti	-5357
▁forward	-5358
▁emerg	-5359
▁fewer	-5360
▁simplify	-5361
urls	-5362
oph	-5363
▁SSD	-5364
▁adds	-5365
▁smallest	-5366
Line	-5367
▁credit	-5368
ifically	-5369
alle	-5370
▁communities	-5371
onom	-5372
▁perceived	-5373
rief	-5374
rote	-5375
▁wrest	-5376
Ad	-5377
▁counter	-5378
tegr	-5379
▁paths	-5380
graph	-5381
▁resolve	-5382
▁validate	-5383
band	-5384
till	-5385
▁cast	-5386
DI	-5387
▁subsc	-5388
▁proced	-5389
▁optional	-5390
▁serious	-5391
▁society	-5392
aints	-5393
▁Write	-5394
▁Self	-5395
▁battle	-5396
Inter	-5397
▁occup	-5398
soft	-5399
▁whose	-5400
▁pregnancy	-5401
▁HD	-5402
▁interval	-5403
▁friendships	-5404
▁programming	-5405
▁USB	-5406
▁earns	-5407
▁decrease	-5408
Dec	-5409
▁College	-5410
auth	-5411
▁hyp	-5412
types	-5413
▁loop	-5414
▁reli	-5415
ecutive	-5416
▁Team	-5417
▁schools	-5418
▁SQL	-5419
counts	-5420
▁consistent	-5421
can	-5422
▁candidate	-5423
▁Just	-5424
▁stri	-5425
pository	-5426
▁ju	-5427
iewer	-5428
riage	-5429
▁poor	-5430
month	-5431
txt	-5432
▁powerful	-5433
▁restaurant	-5434
▁nodes	-5435
Gr	-5436
spec	-5437
▁dark	-5438
▁harm	-5439
ias	-5440
▁sun	-5441
context	-5442
Valid	-5443
▁fixed	-5444
tian	-5445
▁recognized	-5446
▁failed	-5447
▁football	-5448
▁defe	-5449
▁transition	-5450
plays	-5451
▁trig	-5452
remove	-5453
FA	-5454
ara	-5455
▁Retrieve	-5456
▁accounts	-5457
▁especially	-5458
vi	-5459
▁reve	-5460
▁chips	-5461
▁sched	-5462
▁sources	-5463
▁corresponding	-5464
dataset	-5465
▁Config	-5466
ceptions	-5467
akers	-5468
itter	-5469
▁channel	-5470
▁Wednesday	-5471
template	-5472
www	-5473
conf	-5474
▁leaving	-5475
▁filename	-5476
▁detailed	-5477
▁cans	-5478
▁remains	-5479
▁Card	-5480
erv	-5481
▁IV	-5482
▁Port	-5483
▁identify	-5484
▁Const	-5485
▁Physical	-5486
▁[];	-5487
▁saw	-5488
▁Peter	-5489
▁loaves	-5490
ij	-5491
ham	-5492
▁tu	-5493
yles	-5494
LI	-5495
uid	-5496
▁referred	-5497
▁multiplication	-5498
▁oil	-5499
irtual	-5500
▁winning	-5501
▁bottom	-5502
▁eating	-5503
▁Online	-5504
▁discounted	-5505
▁friendship	-5506
▁sandw	-5507
ography	-5508
▁upload	-5509
vals	-5510
▁spir	-5511
▁phen	-5512
▁belong	-5513
▁performed	-5514
▁instruction	-5515
mut	-5516
▁Reduc	-5517
▁Child	-5518
▁House	-5519
elines	-5520
▁Django	-5521
▁instit	-5522
arters	-5523
▁intended	-5524
tenance	-5525
local	-5526
uffer	-5527
▁developed	-5528
"),	-5529
▁slow	-5530
area	-5531
where	-5532
▁cash	-5533
▁fuel	-5534
▁jar	-5535
uster	-5536
▁chem	-5537
▁socket	-5538
▁advance	-5539
▁discussing	-5540
▁chance	-5541
▁'''	-5542
▁Luc	-5543
▁destination	-5544
%,	-5545
▁scale	-5546
▁Simulate	-5547
pol	-5548
▁Ir	-5549
▁French	-5550
▁Inf	-5551
▁click	-5552
▁road	-5553
▁ideas	-5554
Add	-5555
▁ship	-5556
second	-5557
▁ul	-5558
▁terr	-5559
▁campaign	-5560
PE	-5561
obb	-5562
▁seem	-5563
AME	-5564
▁shop	-5565
▁reality	-5566
ression	-5567
illa	-5568
author	-5569
queue	-5570
▁cogn	-5571
▁define	-5572
▁Tod	-5573
window	-5574
▁park	-5575
ampion	-5576
▁conven	-5577
▁jobs	-5578
▁struct	-5579
ured	-5580
gebra	-5581
▁Conn	-5582
button	-5583
▁capture	-5584
▁focused	-5585
▁identifier	-5586
Map	-5587
▁parsed	-5588
▁bars	-5589
ictions	-5590
entim	-5591
ectives	-5592
▁son	-5593
▁fair	-5594
och	-5595
late	-5596
▁compre	-5597
▁demonstration	-5598
Qu	-5599
apter	-5600
Each	-5601
▁Total	-5602
rial	-5603
ambda	-5604
▁dise	-5605
ooting	-5606
▁Earth	-5607
▁carry	-5608
▁minor	-5609
mediate	-5610
▁Science	-5611
▁Bu	-5612
▁Russ	-5613
▁wrote	-5614
▁combination	-5615
urg	-5616
▁Vis	-5617
▁Product	-5618
▁aspects	-5619
olf	-5620
▁Day	-5621
ester	-5622
▁Model	-5623
▁fulfill	-5624
▁summarize	-5625
▁literature	-5626
amin	-5627
▁suppl	-5628
toEqual	-5629
▁Integr	-5630
▁records	-5631
'))	-5632
▁God	-5633
utor	-5634
▁edge	-5635
manager	-5636
▁formed	-5637
▁affects	-5638
▁despite	-5639
atur	-5640
options	-5641
▁Player	-5642
Rep	-5643
squ	-5644
▁Go	-5645
ouncil	-5646
▁walls	-5647
▁places	-5648
▁raised	-5649
▁receiving	-5650
▁jo	-5651
▁Two	-5652
replace	-5653
▁tip	-5654
▁grand	-5655
achment	-5656
▁caused	-5657
▁sentence	-5658
All	-5659
aughter	-5660
zer	-5661
▁proposed	-5662
▁Regular	-5663
▁expensive	-5664
▁solving	-5665
oreignKey	-5666
▁fan	-5667
ani	-5668
▁Div	-5669
▁cats	-5670
▁drives	-5671
▁decor	-5672
▁divisible	-5673
common	-5674
▁confused	-5675
lin	-5676
▁Fol	-5677
▁Disc	-5678
▁affected	-5679
▁WebDriver	-5680
elt	-5681
▁substance	-5682
▁Id	-5683
anned	-5684
▁Video	-5685
▁Column	-5686
)?	-5687
DB	-5688
jection	-5689
▁enemy	-5690
▁Decreased	-5691
▁vac	-5692
Client	-5693
▁followed	-5694
utri	-5695
}`	-5696
▁polic	-5697
▁excitement	-5698
aft	-5699
▁Ver	-5700
▁guarantees	-5701
Count	-5702
ectors	-5703
▁linear	-5704
▁propor	-5705
▁spending	-5706
rc	-5707
sk	-5708
▁Cour	-5709
▁Sl	-5710
sort	-5711
▁absol	-5712
ATA	-5713
iform	-5714
▁apart	-5715
ny	-5716
▁Est	-5717
efore	-5718
outer	-5719
▁—	-5720
▁labor	-5721
>;	-5722
▁electric	-5723
▁functionality	-5724
NA	-5725
bon	-5726
▁gre	-5727
▁resid	-5728
ups	-5729
▁"../	-5730
▁drug	-5731
should	-5732
▁relax	-5733
▁secret	-5734
▁Sing	-5735
▁wealth	-5736
Result	-5737
▁magic	-5738
▁Hol	-5739
▁layer	-5740
▁Should	-5741
▁promote	-5742
▁stories	-5743
</	-5744
week	-5745
omial	-5746
▁decl	-5747
antasy	-5748
▁moment	-5749
▁advantage	-5750
esteem	-5751
▁Val	-5752
▁dream	-5753
ologies	-5754
▁centim	-5755
icon	-5756
▁retrieve	-5757
▁Cap	-5758
▁headers	-5759
affic	-5760
▁earlier	-5761
▁segment	-5762
}')	-5763
▁wed	-5764
lets	-5765
Se	-5766
▁belief	-5767
clude	-5768
▁cubic	-5769
▁neighbor	-5770
*(	-5771
overn	-5772
▁domain	-5773
▁interpret	-5774
cap	-5775
obj	-5776
uilding	-5777
▁Encour	-5778
PAT	-5779
▁hash	-5780
▁master	-5781
kwargs	-5782
▁Phil	-5783
▁noted	-5784
▁processor	-5785
▁Inc	-5786
ishes	-5787
▁Oper	-5788
▁Champions	-5789
▁asking	-5790
▁guitar	-5791
▁Initializes	-5792
ours	-5793
uming	-5794
▁morning	-5795
itize	-5796
▁blocks	-5797
▁compatibility	-5798
▁→	-5799
▁Drive	-5800
▁heat	-5801
location	-5802
▁ordered	-5803
▁Understanding	-5804
^\	-5805
lig	-5806
▁bul	-5807
ensity	-5808
▁Tur	-5809
▁mount	-5810
▁County	-5811
▁phrase	-5812
▁asked	-5813
▁Public	-5814
▁latest	-5815
axis	-5816
apers	-5817
▁civil	-5818
▁songs	-5819
▁phenomen	-5820
▁Ev	-5821
▁Roman	-5822
▁Canada	-5823
▁foreign	-5824
▁argument	-5825
=(	-5826
Handler	-5827
icated	-5828
▁initialize	-5829
▁dependencies	-5830
Size	-5831
erry	-5832
▁combinations	-5833
▁Ensure	-5834
▁Australia	-5835
,”	-5836
▁casual	-5837
▁inters	-5838
▁generated	-5839
TH	-5840
▁Pass	-5841
atabase	-5842
▁comprehens	-5843
▁protagonist	-5844
▁esc	-5845
▁sql	-5846
original	-5847
▁Nor	-5848
Point	-5849
metic	-5850
▁catch	-5851
▁reverse	-5852
▁availability	-5853
▁transactions	-5854
MO	-5855
mem	-5856
▁CD	-5857
▁Return	-5858
ney	-5859
aled	-5860
anguages	-5861
▁universally	-5862
eful	-5863
▁Tit	-5864
▁cycle	-5865
▁German	-5866
▁advert	-5867
▁surround	-5868
▁commitment	-5869
▁independent	-5870
▁installation	-5871
has	-5872
▁hair	-5873
▁Prof	-5874
▁baby	-5875
adness	-5876
▁innov	-5877
▁challenging	-5878
rown	-5879
▁Whe	-5880
▁sequ	-5881
▁entered	-5882
API	-5883
▁alter	-5884
▁owner	-5885
▁cognitive	-5886
▁frustration	-5887
▁Jenn	-5888
▁pand	-5889
▁advent	-5890
▁attributes	-5891
▁mile	-5892
▁Engine	-5893
▁proceed	-5894
▁Di	-5895
true	-5896
▁prints	-5897
▁pal	-5898
agram	-5899
▁Hard	-5900
▁Master	-5901
▁exchange	-5902
▁university	-5903
▁DDR	-5904
▁Height	-5905
▁£	-5906
▁fans	-5907
▁specifically	-5908
▁Home	-5909
▁trou	-5910
▁India	-5911
▁https	-5912
▁veget	-5913
▁ignore	-5914
▁environmental	-5915
omb	-5916
▁patients	-5917
Sc	-5918
ico	-5919
two	-5920
raises	-5921
▁moved	-5922
▁applied	-5923
ifts	-5924
params	-5925
▁meeting	-5926
▁Increase	-5927
){	-5928
ribe	-5929
▁Lab	-5930
▁eats	-5931
service	-5932
▁architect	-5933
▁fix	-5934
▁sib	-5935
match	-5936
▁drinks	-5937
▁ends	-5938
▁note	-5939
▁tend	-5940
▁internal	-5941
▁Alice	-5942
speed	-5943
▁bake	-5944
▁aesthe	-5945
▁separate	-5946
▁centimeters	-5947
▁personality	-5948
▁intim	-5949
▁perman	-5950
▁America	-5951
ENT	-5952
▁auth	-5953
▁evalu	-5954
With	-5955
▁church	-5956
▁hom	-5957
ado	-5958
flo	-5959
▁Educ	-5960
▁gift	-5961
rat	-5962
▁cursor	-5963
▁central	-5964
▁household	-5965
▁follows	-5966
sm	-5967
▁Paul	-5968
▁feels	-5969
▁amb	-5970
▁fruit	-5971
▁Employ	-5972
▁Sophia	-5973
▁etc	-5974
▁mood	-5975
▁Ignore	-5976
▁Action	-5977
DO	-5978
▁driving	-5979
▁quadratic	-5980
produ	-5981
▁shelf	-5982
▁counts	-5983
▁filled	-5984
SU	-5985
send	-5986
▁trauma	-5987
▁micro	-5988
▁Econom	-5989
▁factory	-5990
onac	-5991
▁stream	-5992
lers	-5993
▁Color	-5994
▁torch	-5995
▁Calcul	-5996
ava	-5997
lls	-5998
▁Bal	-5999
playing	-6000
▁medications	-6001
Hz	-6002
negative	-6003
▁China	-6004
▁annual	-6005
▁schema	-6006
▁appoint	-6007
▁evaluate	-6008
▁International	-6009
▁intelligence	-6010
▁Thom	-6011
▁Enjoy	-6012
▁alt	-6013
▁Family	-6014
▁placed	-6015
▁glass	-6016
▁San	-6017
ained	-6018
iny	-6019
▁ice	-6020
▁delete	-6021
▁Neither	-6022
▁supported	-6023
whel	-6024
▁Its	-6025
▁adapt	-6026
▁container	-6027
▁Direct	-6028
▁interesting	-6029
▁Liam	-6030
autiful	-6031
▁")	-6032
▁anger	-6033
▁yards	-6034
▁applying	-6035
Su	-6036
▁closed	-6037
▁listed	-6038
▁consecutive	-6039
▁however	-6040
▁confirms	-6041
▁\\	-6042
▁Gold	-6043
▁depos	-6044
apped	-6045
▁allowing	-6046
▁Art	-6047
▁Fri	-6048
▁Jac	-6049
▁formal	-6050
▁squares	-6051
It	-6052
▁Also	-6053
▁films	-6054
▁battery	-6055
▁thinking	-6056
▁Bel	-6057
▁Random	-6058
▁kilograms	-6059
li	-6060
card	-6061
onacci	-6062
▁classified	-6063
▁predict	-6064
▁touch	-6065
ographic	-6066
▁difficulty	-6067
▁isinstance	-6068
oted	-6069
▁blog	-6070
ederal	-6071
udio	-6072
ipped	-6073
▁suitable	-6074
lay	-6075
Code	-6076
▁tac	-6077
fields	-6078
▁browser	-6079
entry	-6080
usive	-6081
▁align	-6082
▁bytes	-6083
▁policies	-6084
Pr	-6085
▁AMD	-6086
▁imm	-6087
▁oppon	-6088
▁inputs	-6089
▁packages	-6090
▁represented	-6091
▁Amy	-6092
▁useful	-6093
▁insurance	-6094
▁automatically	-6095
users	-6096
▁ready	-6097
sv	-6098
bye	-6099
osis	-6100
▁Wal	-6101
▁flat	-6102
Red	-6103
othes	-6104
▁Jake	-6105
▁Keep	-6106
▁preferred	-6107
▁temporary	-6108
admin	-6109
mates	-6110
uk	-6111
zon	-6112
utely	-6113
▁fost	-6114
▁chairs	-6115
▁desired	-6116
▁improved	-6117
MS	-6118
▁documents	-6119
▁Second	-6120
▁differences	-6121
▁coach	-6122
▁checking	-6123
▁families	-6124
oe	-6125
coordinate	-6126
▁maintenance	-6127
Call	-6128
tick	-6129
▁dry	-6130
asure	-6131
fiction	-6132
▁helpful	-6133
▁roses	-6134
chemy	-6135
engine	-6136
war	-6137
pire	-6138
olar	-6139
rier	-6140
obbies	-6141
▁Access	-6142
IS	-6143
▁expans	-6144
zing	-6145
▁stored	-6146
▁compare	-6147
▁reads	-6148
▁exceed	-6149
▁oneself	-6150
ocks	-6151
▁reb	-6152
▁Disorder	-6153
▁dialogue	-6154
prom	-6155
unic	-6156
▁clothing	-6157
oses	-6158
▁Dem	-6159
approx	-6160
stream	-6161
▁notes	-6162
▁awareness	-6163
osen	-6164
▁Govern	-6165
▁explan	-6166
▁UK	-6167
This	-6168
▁Green	-6169
▁detail	-6170
▁implementation	-6171
▁ADHD	-6172
▁perspective	-6173
▁European	-6174
▁scrap	-6175
tree	-6176
▁maybe	-6177
▁reduced	-6178
▁Does	-6179
▁lives	-6180
ibonacci	-6181
▁sch	-6182
▁solid	-6183
▁Default	-6184
▁Expl	-6185
▁weak	-6186
▁Complex	-6187
▁changed	-6188
▁api	-6189
▁genre	-6190
Aut	-6191
nodes	-6192
▁wire	-6193
category	-6194
▁Service	-6195
▁encoding	-6196
▁shopping	-6197
▁hope	-6198
house	-6199
▁Park	-6200
▁Point	-6201
▁childhood	-6202
▁couple	-6203
At	-6204
▁orders	-6205
▁substances	-6206
▁Law	-6207
▁signal	-6208
full	-6209
▁juice	-6210
open	-6211
▁observ	-6212
▁beginning	-6213
js	-6214
▁Mal	-6215
▁Being	-6216
gy	-6217
▁dead	-6218
▁Order	-6219
▁William	-6220
ott	-6221
▁humor	-6222
▁classroom	-6223
▁guests	-6224
▁traffic	-6225
nab	-6226
comp	-6227
gers	-6228
stood	-6229
reedom	-6230
▁rooms	-6231
inese	-6232
▁raw	-6233
▁transaction	-6234
▁promo	-6235
▁explore	-6236
▁sessions	-6237
▁titles	-6238
▁bed	-6239
cknow	-6240
▁languages	-6241
car	-6242
egin	-6243
▁Higher	-6244
▁π	-6245
▁NOT	-6246
▁swe	-6247
▁cookie	-6248
▁schedule	-6249
annels	-6250
free	-6251
▁north	-6252
agers	-6253
▁respond	-6254
onym	-6255
▁Lin	-6256
▁Sur	-6257
▁losing	-6258
▁preference	-6259
ATE	-6260
register	-6261
('/	-6262
▁Take	-6263
▁spread	-6264
settings	-6265
RA	-6266
irts	-6267
▁Free	-6268
▁rare	-6269
▁youn	-6270
▁domin	-6271
▁assist	-6272
▁widget	-6273
▁popularity	-6274
cient	-6275
employ	-6276
connect	-6277
▁creates	-6278
amm	-6279
tile	-6280
▁Ber	-6281
▁delay	-6282
asic	-6283
icture	-6284
▁Indian	-6285
▁Content	-6286
reme	-6287
atter	-6288
▁told	-6289
▁Street	-6290
▁responsibility	-6291
▁gene	-6292
▁heavy	-6293
asion	-6294
▁DE	-6295
▁sod	-6296
▁drop	-6297
pattern	-6298
Te	-6299
sent	-6300
▁produc	-6301
Info	-6302
ford	-6303
hash	-6304
izon	-6305
▁Lear	-6306
▁drawing	-6307
▁articles	-6308
elly	-6309
▁flex	-6310
▁statistics	-6311
▁died	-6312
▁doub	-6313
▁reviews	-6314
▁Handle	-6315
▁remote	-6316
▁divisor	-6317
life	-6318
vention	-6319
▁requirement	-6320
▁Maria	-6321
▁Fire	-6322
▁noise	-6323
▁loyal	-6324
payload	-6325
▁formatted	-6326
which	-6327
▁menu	-6328
vision	-6329
▁invent	-6330
▁protection	-6331
here	-6332
tuple	-6333
▁eight	-6334
orge	-6335
simple	-6336
third	-6337
▁baking	-6338
VID	-6339
Any	-6340
NAME	-6341
ideos	-6342
▁ultim	-6343
▁rating	-6344
iar	-6345
olumns	-6346
▁beads	-6347
▁struggle	-6348
▁\):	-6349
style	-6350
▁princi	-6351
route	-6352
▁interact	-6353
▁numerator	-6354
.')	-6355
▁--	-6356
circ	-6357
▁Best	-6358
▁reti	-6359
dy	-6360
semb	-6361
Color	-6362
estyle	-6363
▁scenarios	-6364
▁Increasing	-6365
Gener	-6366
▁Christ	-6367
▁loading	-6368
▁Sal	-6369
anted	-6370
▁Ital	-6371
▁minimal	-6372
▁Party	-6373
▁generation	-6374
▁fore	-6375
▁Looks	-6376
itual	-6377
▁Iter	-6378
▁aren	-6379
▁forces	-6380
▁healthcare	-6381
▁distances	-6382
irus	-6383
▁tall	-6384
▁accurately	-6385
FF	-6386
▁court	-6387
}}{	-6388
limit	-6389
▁exploration	-6390
On	-6391
lope	-6392
▁por	-6393
▁alph	-6394
▁Anger	-6395
▁quite	-6396
▁Historical	-6397
ilder	-6398
▁Associ	-6399
▁medium	-6400
▁theore	-6401
▁Effective	-6402
▁Ext	-6403
lands	-6404
▁cells	-6405
▁shift	-6406
▁stores	-6407
personal	-6408
▁Joy	-6409
click	-6410
▁humans	-6411
▁implic	-6412
dest	-6413
▁isol	-6414
working	-6415
▁stable	-6416
▁marriage	-6417
assertEqual	-6418
▁basketball	-6419
UN	-6420
▁criticism	-6421
▁pun	-6422
olic	-6423
▁bonus	-6424
▁movies	-6425
++)	-6426
▁Apple	-6427
▁publish	-6428
▁favorite	-6429
Is	-6430
const	-6431
orter	-6432
▁jus	-6433
▁tf	-6434
coming	-6435
▁Frequ	-6436
▁happy	-6437
Hel	-6438
▁highly	-6439
utils	-6440
ositive	-6441
▁batches	-6442
mean	-6443
▁GTX	-6444
▁cro	-6445
▁official	-6446
▁mph	-6447
ictim	-6448
▁dreams	-6449
▁wanted	-6450
ading	-6451
cious	-6452
▁bike	-6453
▁powers	-6454
han	-6455
▁clients	-6456
▁changing	-6457
close	-6458
iquid	-6459
▁html	-6460
▁champion	-6461
▁pursu	-6462
▁unrelated	-6463
ondon	-6464
▁Other	-6465
▁criti	-6466
▁voice	-6467
▁algorithm	-6468
▁conv	-6469
▁determined	-6470
▁consult	-6471
▁Function	-6472
▁properly	-6473
▁unexpected	-6474
▁opportunity	-6475
▁ath	-6476
ashing	-6477
▁nullable	-6478
▁polyn	-6479
▁courses	-6480
▁ensures	-6481
▁Under	-6482
hist	-6483
▁adop	-6484
▁prem	-6485
▁hobbies	-6486
▁unknown	-6487
▁Microsoft	-6488
▁discomfort	-6489
▁multiplied	-6490
holder	-6491
▁Bitcoin	-6492
uls	-6493
▁Jacob	-6494
▁route	-6495
▁serves	-6496
▁ingredients	-6497
lat	-6498
zone	-6499
▁tell	-6500
eding	-6501
▁sust	-6502
▁visited	-6503
▁confront	-6504
ForeignKey	-6505
]])	-6506
rian	-6507
▁Cor	-6508
Options	-6509
▁fa	-6510
lings	-6511
inity	-6512
▁chat	-6513
▁upgrad	-6514
afe	-6515
MP	-6516
la	-6517
▁Ref	-6518
▁cache	-6519
▁currency	-6520
Tensor	-6521
abs	-6522
▁cube	-6523
▁http	-6524
ersion	-6525
▁disorders	-6526
▁magaz	-6527
▁visit	-6528
▁purchasing	-6529
:.	-6530
▁taught	-6531
▁enhances	-6532
▁::	-6533
▁mutual	-6534
▁cryptoc	-6535
▁technique	-6536
▁previously	-6537
▁Low	-6538
▁talk	-6539
▁brain	-6540
▁DV	-6541
ader	-6542
world	-6543
▁breaks	-6544
▁protected	-6545
ago	-6546
▁cooking	-6547
UR	-6548
Met	-6549
▁serv	-6550
paths	-6551
▁risks	-6552
▁survey	-6553
▁draft	-6554
▁wedding	-6555
▁apps	-6556
▁advis	-6557
osop	-6558
owns	-6559
▁Bre	-6560
iches	-6561
▁Po	-6562
▁bey	-6563
▁anime	-6564
▁measures	-6565
▁locations	-6566
▁improvement	-6567
ictionaries	-6568
lob	-6569
floor	-6570
elen	-6571
▁vict	-6572
Rec	-6573
wood	-6574
▁River	-6575
▁Friday	-6576
▁novels	-6577
▁Core	-6578
▁Soci	-6579
install	-6580
▁Bus	-6581
▁Hmm	-6582
going	-6583
▁shelves	-6584
▁handling	-6585
auto	-6586
▁Goodbye	-6587
▁wid	-6588
▁mask	-6589
Column	-6590
▁seven	-6591
▁mission	-6592
▁prioritize	-6593
(()	-6594
None	-6595
faces	-6596
▁Rober	-6597
▁Remove	-6598
▁loan	-6599
forEach	-6600
HE	-6601
SA	-6602
apes	-6603
▁beyond	-6604
▁speaker	-6605
▁attribute	-6606
los	-6607
▁smooth	-6608
entifier	-6609
▁professionals	-6610
▁girl	-6611
▁quantity	-6612
▁removing	-6613
▁leadership	-6614
osite	-6615
▁shares	-6616
▁speeds	-6617
▁restric	-6618
hot	-6619
▁"))	-6620
▁Bec	-6621
▁Blue	-6622
▁Contin	-6623
▁artist	-6624
urations	-6625
▁entertainment	-6626
ien	-6627
▁Strong	-6628
entiment	-6629
▁Greater	-6630
▁illness	-6631
▁recorded	-6632
▁confident	-6633
▁threshold	-6634
Length	-6635
oder	-6636
▁ending	-6637
sign	-6638
▁hands	-6639
▁negoti	-6640
▁employment	-6641
eles	-6642
iling	-6643
▁episode	-6644
▁Sil	-6645
patch	-6646
▁baked	-6647
ithmetic	-6648
▁equival	-6649
▁ensuring	-6650
parser	-6651
▁payload	-6652
BC	-6653
▁laws	-6654
logger	-6655
▁periods	-6656
avel	-6657
frequ	-6658
▁leader	-6659
gressive	-6660
▁prop	-6661
Def	-6662
leg	-6663
sys	-6664
▁buff	-6665
▁notice	-6666
▁indifference	-6667
▁pound	-6668
▁phil	-6669
▁drink	-6670
▁tuples	-6671
▁schedul	-6672
▁tour	-6673
▁writer	-6674
▁Mac	-6675
▁Fear	-6676
▁peers	-6677
▁discour	-6678
uit	-6679
▁East	-6680
unique	-6681
▁enumer	-6682
mitted	-6683
▁magical	-6684
Sub	-6685
▁nick	-6686
▁London	-6687
▁resulting	-6688
▁twe	-6689
▁Water	-6690
icients	-6691
ugs	-6692
Status	-6693
▁contr	-6694
itionally	-6695
▁communicate	-6696
)),	-6697
uable	-6698
ixel	-6699
▁distinct	-6700
▁supplies	-6701
▁altogether	-6702
▁laps	-6703
▁painting	-6704
MM	-6705
columns	-6706
▁almost	-6707
tein	-6708
▁ages	-6709
▁simpler	-6710
edia	-6711
▁die	-6712
▁covers	-6713
▁Dig	-6714
theta	-6715
▁rock	-6716
▁star	-6717
▁clearly	-6718
▁circumstances	-6719
Tree	-6720
▁Line	-6721
▁commer	-6722
▁habits	-6723
staticmethod	-6724
▁Den	-6725
uries	-6726
posure	-6727
▁saving	-6728
▁repository	-6729
Mod	-6730
▁reset	-6731
Function	-6732
▁recognition	-6733
▁wife	-6734
▁execution	-6735
application	-6736
▁Adv	-6737
phere	-6738
Context	-6739
▁reject	-6740
del	-6741
▁firm	-6742
▁rein	-6743
▁styles	-6744
igue	-6745
craft	-6746
rooms	-6747
▁dating	-6748
▁Limited	-6749
Py	-6750
since	-6751
▁Church	-6752
▁installed	-6753
▁Field	-6754
Process	-6755
▁retrie	-6756
▁helping	-6757
▁vehicles	-6758
andon	-6759
▁trends	-6760
▁extended	-6761
▁identified	-6762
ume	-6763
▁fees	-6764
custom	-6765
▁south	-6766
▁teachers	-6767
▁standards	-6768
IP	-6769
▁($	-6770
▁Light	-6771
▁Stand	-6772
▁Whether	-6773
▁Sign	-6774
▁angles	-6775
▁offered	-6776
▁'.	-6777
▁Exec	-6778
▁axis	-6779
▁woman	-6780
▁purchases	-6781
▁conversion	-6782
▁bor	-6783
▁pret	-6784
▁chosen	-6785
▁farmer	-6786
▁charges	-6787
▁himself	-6788
forcement	-6789
▁announced	-6790
▁substitute	-6791
erve	-6792
▁relief	-6793
▁Network	-6794
Types	-6795
water	-6796
rought	-6797
▁chickens	-6798
▁targeted	-6799
▁organizations	-6800
▁seeds	-6801
▁coll	-6802
▁tourn	-6803
▁Having	-6804
▁metadata	-6805
▁Immediate	-6806
stack	-6807
▁plays	-6808
rim	-6809
▁Down	-6810
DateTime	-6811
▁agreement	-6812
▁Face	-6813
▁Last	-6814
▁ques	-6815
▁soon	-6816
▁collaboration	-6817
onal	-6818
▁authentication	-6819
alk	-6820
estiv	-6821
itting	-6822
▁disapp	-6823
▁Depression	-6824
▁department	-6825
▁Ro	-6826
▁Ava	-6827
indices	-6828
▁phenomenon	-6829
He	-6830
▁RE	-6831
▁desk	-6832
▁push	-6833
▁pencil	-6834
▁efforts	-6835
▁opening	-6836
▁concent	-6837
▁parties	-6838
▁overwhel	-6839
▁studying	-6840
▁dictionaries	-6841
aven	-6842
factor	-6843
▁Index	-6844
▁reput	-6845
anth	-6846
radi	-6847
▁ple	-6848
irmed	-6849
▁rain	-6850
choice	-6851
▁adjac	-6852
certain	-6853
pm	-6854
▁pygame	-6855
▁experiment	-6856
plom	-6857
▁Daniel	-6858
▁decided	-6859
▁produces	-6860
/',	-6861
[];	-6862
utral	-6863
uce	-6864
elenium	-6865
▁George	-6866
▁hidden	-6867
arguments	-6868
▁struggles	-6869
▁encouraged	-6870
DF	-6871
rand	-6872
Return	-6873
▁Gl	-6874
arts	-6875
Token	-6876
▁danger	-6877
▁accommod	-6878
▁guidelines	-6879
▁HttpResponse	-6880
▁Users	-6881
▁dozen	-6882
Ob	-6883
▁ce	-6884
▁emb	-6885
nabis	-6886
▁Project	-6887
IG	-6888
ky	-6889
▁Cas	-6890
▁everyday	-6891
▁computers	-6892
tify	-6893
counter	-6894
▁intervals	-6895
▁achievements	-6896
VE	-6897
normal	-6898
▁webpage	-6899
alph	-6900
▁joined	-6901
▁appears	-6902
▁familial	-6903
FO	-6904
exp	-6905
eler	-6906
▁Pay	-6907
▁Feel	-6908
▁doctor	-6909
▁Map	-6910
▁Research	-6911
apid	-6912
real	-6913
▁van	-6914
▁shot	-6915
▁definition	-6916
module	-6917
ursday	-6918
▁motor	-6919
returns	-6920
▁portray	-6921
ulner	-6922
▁python	-6923
▁engineering	-6924
mode	-6925
▁hop	-6926
binary	-6927
▁indust	-6928
▁credentials	-6929
ebug	-6930
gric	-6931
ocity	-6932
SC	-6933
▁seat	-6934
▁bills	-6935
▁cloud	-6936
▁expert	-6937
▁businesses	-6938
▁sen	-6939
▁birds	-6940
▁stuff	-6941
hab	-6942
▁],	-6943
cover	-6944
▁Back	-6945
▁illustr	-6946
▁timestamp	-6947
▁dates	-6948
▁consumer	-6949
imize	-6950
ocation	-6951
percent	-6952
profile	-6953
document	-6954
▁regions	-6955
▁occurren	-6956
▁tea	-6957
▁pric	-6958
▁Company	-6959
▁dynamic	-6960
exit	-6961
▁entity	-6962
▁Determine	-6963
▁converted	-6964
▁incorrect	-6965
null	-6966
▁Anna	-6967
shirts	-6968
▁Creates	-6969
▁drinking	-6970
▁creativity	-6971
Property	-6972
]);	-6973
▁weights	-6974
iforn	-6975
▁radio	-6976
nel	-6977
she	-6978
▁Jul	-6979
▁Mount	-6980
▁Accept	-6981
eli	-6982
▁):	-6983
ests	-6984
▁watch	-6985
▁Bi	-6986
move	-6987
▁focuses	-6988
▁healing	-6989
▁coverage	-6990
(__	-6991
Conn	-6992
calculate	-6993
▁indifferent	-6994
▁Communication	-6995
ario	-6996
▁proportion	-6997
▁Pal	-6998
▁weighs	-6999
▁funds	-7000
PATH	-7001
blue	-7002
EY	-7003
olars	-7004
▁Stud	-7005
exists	-7006
▁incl	-7007
▁facing	-7008
▁reward	-7009
▁Command	-7010
▁married	-7011
▁Center	-7012
▁Creating	-7013
SCA	-7014
▁Lat	-7015
▁Comb	-7016
▁Work	-7017
sorted	-7018
▁videos	-7019
▁absolute	-7020
▁conversations	-7021
▁ahead	-7022
▁header	-7023
▁instances	-7024
▁distribute	-7025
▁eye	-7026
▁eaten	-7027
▁cooper	-7028
▁exclud	-7029
▁limits	-7030
▁comprehensive	-7031
II	-7032
▁("	-7033
inos	-7034
upper	-7035
▁Psych	-7036
▁opened	-7037
argument	-7038
Str	-7039
abb	-7040
▁prev	-7041
roller	-7042
▁nutri	-7043
▁tiles	-7044
itoring	-7045
▁bottle	-7046
▁traits	-7047
▁rewards	-7048
▁withdrawal	-7049
unte	-7050
ometry	-7051
▁reports	-7052
▁Anti	-7053
▁Prac	-7054
▁stim	-7055
▁guess	-7056
AP	-7057
ui	-7058
TER	-7059
▁launch	-7060
▁England	-7061
ca	-7062
icit	-7063
Parser	-7064
unicip	-7065
versed	-7066
▁GB	-7067
▁Mel	-7068
minute	-7069
▁Chinese	-7070
ano	-7071
▁aid	-7072
video	-7073
▁Arch	-7074
▁Taking	-7075
raz	-7076
▁pri	-7077
Service	-7078
▁practic	-7079
▁authority	-7080
▁Noah	-7081
headers	-7082
▁enumerate	-7083
"],	-7084
▁Ama	-7085
alysis	-7086
▁expansion	-7087
▁Heightened	-7088
non	-7089
worth	-7090
▁News	-7091
▁Real	-7092
▁SE	-7093
angles	-7094
created	-7095
▁rent	-7096
ifornia	-7097
ashe	-7098
▁Estab	-7099
▁replaced	-7100
▁Cer	-7101
▁Dou	-7102
▁edges	-7103
▁facilit	-7104
▁Lu	-7105
▁disease	-7106
character	-7107
▁commands	-7108
Page	-7109
ingu	-7110
▁becoming	-7111
▁Miss	-7112
▁Fetch	-7113
▁links	-7114
▁stated	-7115
▁categor	-7116
▁license	-7117
▁upgrade	-7118
mathb	-7119
▁dolls	-7120
▁webdriver	-7121
▁vacc	-7122
▁Actually	-7123
▁creative	-7124
▁lose	-7125
▁pants	-7126
▁hospital	-7127
▁complexity	-7128
▁productivity	-7129
ernel	-7130
▁Environment	-7131
job	-7132
▁crim	-7133
▁lock	-7134
▁redirect	-7135
IA	-7136
lam	-7137
▁cities	-7138
▁viewed	-7139
▁cleaning	-7140
You	-7141
home	-7142
▁Maybe	-7143
Command	-7144
contrib	-7145
▁diverse	-7146
des	-7147
track	-7148
▁improving	-7149
depth	-7150
equal	-7151
▁stars	-7152
▁consideration	-7153
cale	-7154
▁victim	-7155
▁collabor	-7156
▁supports	-7157
jo	-7158
▁Age	-7159
▁inten	-7160
▁drivers	-7161
inc	-7162
▁Mex	-7163
▁sou	-7164
etches	-7165
▁mapping	-7166
▁probably	-7167
ands	-7168
▁URLs	-7169
▁interested	-7170
▁sandwiches	-7171
▁Job	-7172
▁cous	-7173
▁orange	-7174
▁rental	-7175
▁retail	-7176
▁presented	-7177
▁routine	-7178
▁indicated	-7179
)=	-7180
oto	-7181
tex	-7182
win	-7183
▁PM	-7184
tage	-7185
eless	-7186
Start	-7187
vc	-7188
raw	-7189
▁Top	-7190
▁utf	-7191
▁relative	-7192
That	-7193
ikes	-7194
rest	-7195
▁wrestling	-7196
▁mathematical	-7197
LA	-7198
bu	-7199
▁pull	-7200
▁Absol	-7201
uge	-7202
▁Squ	-7203
▁Before	-7204
▁claims	-7205
ivate	-7206
▁oblig	-7207
▁shown	-7208
▁virtual	-7209
▁quarters	-7210
▁categories	-7211
ects	-7212
evin	-7213
begin	-7214
clusion	-7215
▁happen	-7216
▁Contact	-7217
apper	-7218
▁door	-7219
▁scene	-7220
▁editing	-7221
▁lifestyle	-7222
abric	-7223
empty	-7224
▁Music	-7225
▁opinion	-7226
▁repeated	-7227
usr	-7228
▁jump	-7229
▁California	-7230
▁Year	-7231
▁dedicated	-7232
▁strategic	-7233
▁commission	-7234
▁structures	-7235
▁boy	-7236
▁guidance	-7237
▁thr	-7238
▁reactions	-7239
▁implications	-7240
ucks	-7241
ulties	-7242
▁brown	-7243
▁Current	-7244
▁younger	-7245
▁Republic	-7246
▁valuable	-7247
pg	-7248
eth	-7249
▁font	-7250
▁summer	-7251
▁musical	-7252
▁Economic	-7253
adow	-7254
prise	-7255
▁Enter	-7256
▁inher	-7257
▁enemies	-7258
xic	-7259
riptions	-7260
▁serving	-7261
▁continued	-7262
▁consistently	-7263
▁interpersonal	-7264
ered	-7265
izontal	-7266
▁machines	-7267
▁France	-7268
▁introduced	-7269
access	-7270
rypted	-7271
▁Mongo	-7272
▁straw	-7273
▁explanation	-7274
umul	-7275
▁Rest	-7276
▁operate	-7277
▁bow	-7278
▁Clear	-7279
▁holds	-7280
▁Response	-7281
▁depending	-7282
hr	-7283
▁pays	-7284
▁Short	-7285
▁Streng	-7286
▁interview	-7287
ipher	-7288
▁displayed	-7289
▁Num	-7290
▁White	-7291
▁slice	-7292
▁criter	-7293
▁indices	-7294
▁mentions	-7295
▁wins	-7296
▁worker	-7297
▁eventually	-7298
bool	-7299
entity	-7300
perform	-7301
▁subred	-7302
▁destroy	-7303
▁attempts	-7304
▁Demon	-7305
question	-7306
▁Que	-7307
ooking	-7308
▁metal	-7309
▁Smith	-7310
telling	-7311
▁picking	-7312
)$	-7313
argv	-7314
▁phase	-7315
▁Excessive	-7316
▁sizes	-7317
▁anyone	-7318
▁fantasy	-7319
▁journal	-7320
▁diameter	-7321
ki	-7322
oric	-7323
timestamp	-7324
YY	-7325
sites	-7326
▁taxes	-7327
▁freedom	-7328
▁distributed	-7329
hus	-7330
tified	-7331
▁fifth	-7332
▁tried	-7333
▁hourly	-7334
▁loyalty	-7335
▁excessive	-7336
osh	-7337
urer	-7338
uphor	-7339
▁burn	-7340
▁proof	-7341
sleep	-7342
▁Cool	-7343
▁wind	-7344
▁wonder	-7345
dro	-7346
Trans	-7347
ademy	-7348
Answer	-7349
ifficulties	-7350
uous	-7351
▁causes	-7352
▁flag	-7353
gments	-7354
berries	-7355
▁reduction	-7356
endor	-7357
▁Thomas	-7358
▁analyze	-7359
hav	-7360
JSON	-7361
▁neck	-7362
▁Council	-7363
▁addressing	-7364
▁kit	-7365
adian	-7366
▁meal	-7367
ailable	-7368
▁assigned	-7369
▁Christian	-7370
var	-7371
quality	-7372
▁nothing	-7373
▁finished	-7374
▁concerning	-7375
▁electrical	-7376
mate	-7377
▁Coll	-7378
▁Thursday	-7379
onel	-7380
▁sat	-7381
essor	-7382
▁Therap	-7383
▁forums	-7384
fr	-7385
inn	-7386
▁Plot	-7387
ilience	-7388
ifications	-7389
▁Hen	-7390
▁coming	-7391
di	-7392
Rem	-7393
▁core	-7394
system	-7395
vector	-7396
▁moves	-7397
▁sadness	-7398
▁instructions	-7399
ba	-7400
Dis	-7401
▁Pop	-7402
▁introduction	-7403
▁Doc	-7404
▁tensor	-7405
GA	-7406
esh	-7407
▁gym	-7408
▁Cy	-7409
ibly	-7410
block	-7411
digits	-7412
ration	-7413
▁extension	-7414
cknowled	-7415
▁comparison	-7416
gi	-7417
ULT	-7418
Load	-7419
▁Rev	-7420
▁bicy	-7421
undred	-7422
▁modified	-7423
fetch	-7424
scores	-7425
ida	-7426
▁Pot	-7427
▁Hall	-7428
▁cold	-7429
▁brought	-7430
▁developing	-7431
!"	-7432
.",	-7433
▁eras	-7434
▁poly	-7435
▁compet	-7436
▁simulate	-7437
▁attit	-7438
valuate	-7439
▁prefix	-7440
▁trigger	-7441
▁Dictionary	-7442
▁equivalent	-7443
cery	-7444
ovie	-7445
cache	-7446
▁surg	-7447
▁Paren	-7448
▁plane	-7449
channel	-7450
▁Happiness	-7451
▁manipulation	-7452
uty	-7453
cards	-7454
edy	-7455
)}")	-7456
▁Robert	-7457
▁entries	-7458
▁offering	-7459
▁submission	-7460
cipl	-7461
▁Admin	-7462
tifications	-7463
FL	-7464
arciss	-7465
▁majority	-7466
enders	-7467
ighter	-7468
▁Autom	-7469
▁preparation	-7470
▁replacement	-7471
configuration	-7472
▁hel	-7473
antly	-7474
chain	-7475
▁Mart	-7476
ailing	-7477
▁Games	-7478
▁params	-7479
positions	-7480
▁callback	-7481
▁narratives	-7482
▁transportation	-7483
Phone	-7484
▁Based	-7485
▁summary	-7486
\\	-7487
sage	-7488
▁susp	-7489
▁tokens	-7490
▁Compute	-7491
▁addiction	-7492
anish	-7493
▁afford	-7494
webdriver	-7495
▁Friends	-7496
▁Similar	-7497
aks	-7498
▁Grap	-7499
▁king	-7500
iments	-7501
logging	-7502
▁necess	-7503
▁buildings	-7504
SP	-7505
▁cable	-7506
▁Positive	-7507
cipal	-7508
▁tone	-7509
lector	-7510
▁Integration	-7511
toString	-7512
▁Migration	-7513
▁Providing	-7514
pair	-7515
▁warm	-7516
▁uniform	-7517
▁Focusing	-7518
▁President	-7519
New	-7520
▁Design	-7521
▁baseball	-7522
▁consists	-7523
▁workplace	-7524
▁rectangular	-7525
▁storytelling	-7526
allow	-7527
▁felt	-7528
lee	-7529
▁rul	-7530
▁appeti	-7531
▁silver	-7532
▁daughter	-7533
▁please	-7534
▁handler	-7535
▁polynomial	-7536
>,	-7537
▁clock	-7538
▁severe	-7539
▁Through	-7540
▁versions	-7541
`,	-7542
▁paralle	-7543
▁observed	-7544
!/	-7545
olved	-7546
▁Today	-7547
▁absence	-7548
▁Subtract	-7549
▁Kar	-7550
night	-7551
▁subjects	-7552
▁difficulties	-7553
[],	-7554
▁onto	-7555
▁modul	-7556
▁approval	-7557
▁director	-7558
▁recently	-7559
▁encourage	-7560
▁coefficients	-7561
SH	-7562
▁Amazon	-7563
POST	-7564
▁faces	-7565
van	-7566
door	-7567
▁Cath	-7568
▁assets	-7569
essional	-7570
▁operator	-7571
▁expresses	-7572
So	-7573
CON	-7574
▁IT	-7575
onic	-7576
▁offset	-7577
▁contexts	-7578
▁atm	-7579
▁vertex	-7580
ady	-7581
////	-7582
▁sites	-7583
Storage	-7584
▁Change	-7585
▁marble	-7586
▁shouldn	-7587
Reg	-7588
aped	-7589
ette	-7590
rees	-7591
▁bright	-7592
▁viewer	-7593
▁reliable	-7594
▁guaranteed	-7595
odo	-7596
zed	-7597
gues	-7598
iki	-7599
inger	-7600
▁Africa	-7601
property	-7602
▁extensive	-7603
▁horm	-7604
▁Event	-7605
▁corpor	-7606
ectivity	-7607
▁ancient	-7608
▁district	-7609
▁restrictions	-7610
▁jack	-7611
▁-=	-7612
▁slope	-7613
▁Sunday	-7614
▁candidates	-7615
▁Maintaining	-7616
Out	-7617
▁essay	-7618
▁Series	-7619
lor	-7620
more	-7621
antum	-7622
phones	-7623
raction	-7624
cho	-7625
▁Kevin	-7626
handler	-7627
▁familiar	-7628
umps	-7629
▁armor	-7630
▁norms	-7631
▁slight	-7632
slice	-7633
▁optimal	-7634
▁Feelings	-7635
▁answered	-7636
▁keyboard	-7637
SQL	-7638
]],	-7639
uri	-7640
▁seed	-7641
secret	-7642
uphoria	-7643
coordinates	-7644
▁info	-7645
uality	-7646
▁ended	-7647
▁marks	-7648
▁transl	-7649
▁Western	-7650
attr	-7651
▁Children	-7652
▁sentiment	-7653
▁Department	-7654
▁contributions	-7655
SO	-7656
▁Bill	-7657
▁eyes	-7658
▁urban	-7659
▁layout	-7660
▁signed	-7661
▁developers	-7662
Mat	-7663
▁arm	-7664
▁branch	-7665
▁cancer	-7666
▁diss	-7667
ashion	-7668
▁faith	-7669
▁predicted	-7670
As	-7671
dist	-7672
health	-7673
▁bears	-7674
▁Development	-7675
▁integration	-7676
▁couns	-7677
▁widely	-7678
▁choosing	-7679
collection	-7680
deg	-7681
▁Men	-7682
▁Rock	-7683
ayscale	-7684
▁sugges	-7685
▁Japanese	-7686
▁regulations	-7687
▁Note	-7688
▁ranking	-7689
just	-7690
▁hun	-7691
▁Memory	-7692
▁philosop	-7693
pet	-7694
django	-7695
▁Cultural	-7696
mas	-7697
png	-7698
]]):	-7699
▁attract	-7700
}/	-7701
pen	-7702
▁tags	-7703
▁prepare	-7704
▁reached	-7705
▁enjoyment	-7706
▁commercial	-7707
▁Rob	-7708
▁Rich	-7709
▁Common	-7710
▁Algebra	-7711
▁returning	-7712
loss	-7713
useum	-7714
▁directed	-7715
▁troubles	-7716
▁existence	-7717
four	-7718
▁teaching	-7719
▁attraction	-7720
repr	-7721
obile	-7722
▁wear	-7723
▁arise	-7724
▁Instit	-7725
▁recheck	-7726
▁intimacy	-7727
▁confirmed	-7728
▁≤	-7729
▁inventory	-7730
atisfaction	-7731
tri	-7732
▁folder	-7733
rd	-7734
▁((	-7735
ander	-7736
typeof	-7737
contain	-7738
▁depends	-7739
tax	-7740
▁Save	-7741
▁Task	-7742
▁bond	-7743
▁Demonstr	-7744
▁encourages	-7745
Total	-7746
aa	-7747
Val	-7748
migr	-7749
▁#!/	-7750
aware	-7751
▁Move	-7752
▁guide	-7753
dataframe	-7754
▁parameter	-7755
▁arithmetic	-7756
ini	-7757
src	-7758
Create	-7759
▁participate	-7760
▁Ur	-7761
▁auto	-7762
classes	-7763
unge	-7764
▁Old	-7765
▁Pan	-7766
▁Plan	-7767
▁chain	-7768
ji	-7769
And	-7770
gal	-7771
▁codes	-7772
itizens	-7773
▁vulner	-7774
▁Central	-7775
▁matching	-7776
PC	-7777
tensor	-7778
▁duplic	-7779
.'	-7780
"))	-7781
▁"#	-7782
liam	-7783
▁brace	-7784
▁lemon	-7785
▁chemical	-7786
▁ap	-7787
▁seashe	-7788
clock	-7789
prompt	-7790
▁donuts	-7791
▁endpoint	-7792
▁happened	-7793
MI	-7794
▁tro	-7795
apture	-7796
▁Happy	-7797
▁inner	-7798
▁purchased	-7799
▁investments	-7800
sche	-7801
CASCA	-7802
romag	-7803
▁trick	-7804
CASCADE	-7805
▁excell	-7806
Linear	-7807
▁liquid	-7808
struction	-7809
▁fine	-7810
▁soup	-7811
▁flash	-7812
▁moral	-7813
▁league	-7814
▁featured	-7815
▁exposure	-7816
\_	-7817
iat	-7818
Game	-7819
tons	-7820
ummy	-7821
itness	-7822
▁brief	-7823
▁flask	-7824
▁intake	-7825
▁loaded	-7826
▁pil	-7827
Initial	-7828
▁houses	-7829
▁Spanish	-7830
▁Community	-7831
▁Cup	-7832
▁Human	-7833
▁Price	-7834
▁debug	-7835
▁restr	-7836
Sim	-7837
ria	-7838
upp	-7839
▁Writing	-7840
effective	-7841
▁greeting	-7842
▁inser	-7843
▁episodes	-7844
MB	-7845
uing	-7846
ville	-7847
▁notable	-7848
▁Government	-7849
DS	-7850
occ	-7851
oria	-7852
▁Lic	-7853
▁spot	-7854
▁Three	-7855
▁fresh	-7856
ola	-7857
▁er	-7858
▁soda	-7859
▁finds	-7860
▁privacy	-7861
▁participation	-7862
comb	-7863
▁Tri	-7864
tles	-7865
▁Tele	-7866
ponents	-7867
interest	-7868
▁divisors	-7869
▁selenium	-7870
▁understood	-7871
VER	-7872
itiv	-7873
▁rob	-7874
success	-7875
▁Select	-7876
▁honest	-7877
▁unf	-7878
▁incorpor	-7879
▁Sus	-7880
eries	-7881
▁manif	-7882
▁Learning	-7883
^{-	-7884
ella	-7885
▁Organ	-7886
▁Running	-7887
▁picture	-7888
ifficulty	-7889
rupt	-7890
hours	-7891
▁paying	-7892
▁emotion	-7893
▁visible	-7894
▁Language	-7895
iger	-7896
comple	-7897
▁Distr	-7898
▁Simpl	-7899
▁cannabis	-7900
▁protocol	-7901
▁Character	-7902
▁'/	-7903
From	-7904
aste	-7905
▁Make	-7906
▁broken	-7907
▁possess	-7908
▁sufficient	-7909
[-	-7910
aws	-7911
alax	-7912
redu	-7913
debug	-7914
screen	-7915
▁Author	-7916
▁vision	-7917
▁fetching	-7918
▁Book	-7919
commit	-7920
▁Court	-7921
▁breast	-7922
▁Germany	-7923
▁instrument	-7924
gate	-7925
▁Code	-7926
▁clearer	-7927
.)	-7928
>>	-7929
▁pig	-7930
arrow	-7931
▁growing	-7932
▁managed	-7933
▁Royal	-7934
execute	-7935
▁filtered	-7936
▁ownership	-7937
iant	-7938
isis	-7939
stock	-7940
▁Star	-7941
▁orient	-7942
▁Finally	-7943
▁siblings	-7944
▁Education	-7945
cond	-7946
Level	-7947
▁cream	-7948
▁squared	-7949
▁breaking	-7950
▁uncertain	-7951
ya	-7952
well	-7953
▁enthus	-7954
▁defense	-7955
▁reputation	-7956
▁Ryzen	-7957
awn	-7958
false	-7959
scape	-7960
▁merg	-7961
pmatrix	-7962
perature	-7963
▁kept	-7964
Check	-7965
▁tele	-7966
▁walks	-7967
▁contem	-7968
▁evaluation	-7969
▁({	-7970
eded	-7971
▁Cir	-7972
▁deck	-7973
▁signs	-7974
▁spell	-7975
▁neglect	-7976
▁servings	-7977
Right	-7978
▁drugs	-7979
ictional	-7980
▁Assuming	-7981
team	-7982
▁picked	-7983
▁streaming	-7984
derstandings	-7985
gent	-7986
boards	-7987
▁Internet	-7988
mail	-7989
agonal	-7990
▁defines	-7991
▁reflection	-7992
▁intersection	-7993
reek	-7994
▁sustain	-7995
▁seashells	-7996
ccer	-7997
clusive	-7998
ometric	-7999
samples	-8000
▁passeng	-8001
▁Frequent	-8002
▁expressions	-8003
GE	-8004
rep	-8005
▁heard	-8006
transform	-8007
▁registration	-8008
actor	-8009
plotlib	-8010
▁eliminate	-8011
prot	-8012
▁Hyper	-8013
▁").	-8014
▁beg	-8015
▁deriv	-8016
cons	-8017
▁padd	-8018
ultane	-8019
▁bucket	-8020
▁insert	-8021
▁incident	-8022
▁Configure	-8023
Min	-8024
One	-8025
duration	-8026
liament	-8027
▁border	-8028
▁manual	-8029
▁lengths	-8030
▁victory	-8031
Migration	-8032
▁Level	-8033
▁founded	-8034
▁subreddit	-8035
▁BI	-8036
BASE	-8037
▁Util	-8038
▁hall	-8039
▁photos	-8040
required	-8041
▁Security	-8042
▁sections	-8043
▁Association	-8044
NS	-8045
ita	-8046
ota	-8047
▁Sen	-8048
▁appeal	-8049
▁speech	-8050
▁toward	-8051
▁subsequ	-8052
▁achieved	-8053
▁payments	-8054
KEY	-8055
▁vs	-8056
oles	-8057
▁Pred	-8058
usband	-8059
▁killed	-8060
▁Therapy	-8061
▁leaders	-8062
▁although	-8063
▁insights	-8064
▁perceptions	-8065
▁Ann	-8066
▁Army	-8067
▁tile	-8068
sembly	-8069
ean	-8070
▁/*	-8071
answer	-8072
[])	-8073
▁Sym	-8074
▁____.	-8075
account	-8076
average	-8077
▁estate	-8078
redentials	-8079
▁performing	-8080
estival	-8081
▁samples	-8082
▁YouT	-8083
▁clothes	-8084
▁shipping	-8085
ris	-8086
▁Requ	-8087
ulates	-8088
▁Store	-8089
indrome	-8090
▁Making	-8091
▁aesthetic	-8092
Att	-8093
rot	-8094
city	-8095
▁Exp	-8096
▁attr	-8097
▁Trust	-8098
▁newsp	-8099
elihood	-8100
▁stands	-8101
▁empathy	-8102
▁implies	-8103
▁Absolutely	-8104
chema	-8105
dates	-8106
artial	-8107
▁crime	-8108
▁municip	-8109
▁abstract	-8110
▁displays	-8111
▁ST	-8112
▁Prot	-8113
▁craft	-8114
▁believed	-8115
CRE	-8116
tra	-8117
fall	-8118
▁cow	-8119
▁meals	-8120
▁mouse	-8121
▁decide	-8122
▁hotel	-8123
comment	-8124
▁grades	-8125
▁adventure	-8126
▁broadcast	-8127
clear	-8128
erved	-8129
▁Chic	-8130
▁Tree	-8131
▁trial	-8132
▁Business	-8133
▁affection	-8134
bols	-8135
▁Pok	-8136
▁Tex	-8137
Player	-8138
aturday	-8139
▁weekend	-8140
▁websites	-8141
▁influences	-8142
CM	-8143
aked	-8144
entries	-8145
▁saying	-8146
generate	-8147
▁permanent	-8148
Post	-8149
▁cooler	-8150
▁Twitter	-8151
foo	-8152
ribed	-8153
▁Jose	-8154
▁Road	-8155
▁Fetches	-8156
▁president	-8157
▁rapid	-8158
▁mistakes	-8159
▁Lou	-8160
▁dev	-8161
▁pets	-8162
▁tail	-8163
▁Space	-8164
▁overs	-8165
▁Championship	-8166
unit	-8167
▁mal	-8168
▁involvement	-8169
▁temperatures	-8170
▁Full	-8171
▁slot	-8172
▁Search	-8173
children	-8174
▁combine	-8175
jpg	-8176
copy	-8177
stery	-8178
▁Because	-8179
Det	-8180
Please	-8181
gender	-8182
▁corner	-8183
hs	-8184
help	-8185
outs	-8186
▁Fre	-8187
ipolar	-8188
▁marked	-8189
▁scholars	-8190
▁Management	-8191
▁predictions	-8192
stat	-8193
}\).	-8194
▁Unit	-8195
students	-8196
▁physics	-8197
DateTimeField	-8198
").	-8199
▁Sy	-8200
▁View	-8201
▁calm	-8202
▁insp	-8203
▁Always	-8204
....	-8205
arity	-8206
agraph	-8207
cursor	-8208
▁yourself	-8209
▁resistance	-8210
azz	-8211
▁Case	-8212
▁Board	-8213
▁Guard	-8214
ulating	-8215
▁Discuss	-8216
▁funding	-8217
▁Configuration	-8218
urt	-8219
▁Invest	-8220
▁frequent	-8221
=['	-8222
')),	-8223
wide	-8224
▁Mass	-8225
▁Local	-8226
▁fabric	-8227
▁billion	-8228
▁grocery	-8229
▁husband	-8230
▁expressing	-8231
▁fre	-8232
ensus	-8233
▁east	-8234
▁mort	-8235
▁vote	-8236
▁detect	-8237
▁housing	-8238
direction	-8239
▁channels	-8240
▁simultane	-8241
GET	-8242
PIO	-8243
Tim	-8244
bet	-8245
▁keyword	-8246
▁Software	-8247
▁administr	-8248
Arg	-8249
bytes	-8250
strings	-8251
▁provider	-8252
▁Following	-8253
ths	-8254
▁AC	-8255
bert	-8256
havior	-8257
▁waste	-8258
▁cultur	-8259
dimension	-8260
▁Sort	-8261
▁tells	-8262
▁mechanisms	-8263
▁cryptocurrency	-8264
Group	-8265
uctive	-8266
▁guilt	-8267
▁votes	-8268
▁parenting	-8269
udden	-8270
▁Jason	-8271
▁acceptable	-8272
▁End	-8273
▁Analy	-8274
▁Mother	-8275
ais	-8276
tags	-8277
▁iden	-8278
actory	-8279
▁river	-8280
▁networks	-8281
▁troublesh	-8282
std	-8283
▁Cost	-8284
▁Vari	-8285
errors	-8286
▁injury	-8287
▁officer	-8288
tan	-8289
Math	-8290
▁Big	-8291
Hello	-8292
▁Show	-8293
package	-8294
▁decline	-8295
▁rational	-8296
rain	-8297
▁opposite	-8298
▁parental	-8299
▁reducing	-8300
▁Application	-8301
▁Area	-8302
▁village	-8303
▁arranging	-8304
▁resilience	-8305
'}	-8306
!")	-8307
'):	-8308
mock	-8309
icine	-8310
Logger	-8311
thread	-8312
feature	-8313
▁Life	-8314
▁Linux	-8315
▁dimes	-8316
▁penal	-8317
▁triple	-8318
▁coefficient	-8319
__)	-8320
▁Yep	-8321
▁heav	-8322
▁recall	-8323
▁Register	-8324
icity	-8325
Product	-8326
▁Consistent	-8327
emic	-8328
▁Hor	-8329
▁Divid	-8330
iled	-8331
▁Vol	-8332
osphere	-8333
▁harmful	-8334
▁willing	-8335
▁estimated	-8336
rastr	-8337
▁bind	-8338
▁YouTube	-8339
▁protein	-8340
▁remained	-8341
▁AP	-8342
▁movements	-8343
odies	-8344
/(	-8345
▁gar	-8346
▁wish	-8347
▁fails	-8348
▁Request	-8349
▁Facebook	-8350
▁universe	-8351
▁selecting	-8352
Per	-8353
▁Imag	-8354
▁Less	-8355
▁Click	-8356
▁bonds	-8357
▁pretty	-8358
▁repair	-8359
▁Academy	-8360
▁Another	-8361
▁artists	-8362
▁recover	-8363
▁Everyone	-8364
▁flight	-8365
▁criteria	-8366
Mon	-8367
▁Joh	-8368
▁Node	-8369
▁ideal	-8370
extract	-8371
▁prison	-8372
▁hundred	-8373
▁matters	-8374
▁focusing	-8375
▁Technology	-8376
lambda	-8377
cor	-8378
func	-8379
▁hex	-8380
▁Henry	-8381
▁spect	-8382
▁implements	-8383
iece	-8384
▁sector	-8385
cean	-8386
parts	-8387
▁coin	-8388
▁Canadian	-8389
▁Standard	-8390
edge	-8391
▁Building	-8392
▁Database	-8393
▁promotion	-8394
sql	-8395
▁Ty	-8396
▁cls	-8397
▁Australian	-8398
CK	-8399
iders	-8400
▁agent	-8401
▁constit	-8402
▁erasers	-8403
▁windows	-8404
oop	-8405
aval	-8406
▁zip	-8407
▁Initi	-8408
▁forget	-8409
▁waiting	-8410
▁Professional	-8411
FT	-8412
Fil	-8413
▁Mer	-8414
esome	-8415
▁Meta	-8416
▁guest	-8417
▁appetite	-8418
▁transformation	-8419
▁pip	-8420
▁Parse	-8421
▁appeared	-8422
▁numerous	-8423
▁cry	-8424
▁Force	-8425
▁meter	-8426
itivity	-8427
▁evenly	-8428
▁flower	-8429
▁lowest	-8430
▁climate	-8431
▁citizens	-8432
▁emergency	-8433
acts	-8434
▁ment	-8435
romise	-8436
▁manner	-8437
oneliness	-8438
▁Callable	-8439
▁pin	-8440
▁corn	-8441
▁tang	-8442
▁toler	-8443
▁Retrie	-8444
▁casino	-8445
▁relaxation	-8446
▁aqu	-8447
▁clin	-8448
▁Award	-8449
▁diplom	-8450
▁markets	-8451
▁vacation	-8452
bur	-8453
cls	-8454
▁csv	-8455
layer	-8456
▁deploy	-8457
▁famous	-8458
EL	-8459
antha	-8460
▁Link	-8461
▁Vict	-8462
▁wrap	-8463
▁Franc	-8464
▁stocks	-8465
▁turned	-8466
▁tournament	-8467
PD	-8468
iances	-8469
ossible	-8470
▁escape	-8471
▁vertical	-8472
▁Translate	-8473
tee	-8474
}{\	-8475
zero	-8476
▁Pen	-8477
▁Word	-8478
▁worry	-8479
▁History	-8480
▁fictional	-8481
▁sequences	-8482
ja	-8483
affe	-8484
nings	-8485
▁rail	-8486
▁soil	-8487
▁gradu	-8488
▁hyper	-8489
▁mixed	-8490
▁Univers	-8491
▁fatigue	-8492
▁literary	-8493
drop	-8494
▁Politi	-8495
▁addresses	-8496
▁approaches	-8497
igned	-8498
inite	-8499
▁Market	-8500
(*	-8501
Net	-8502
▁Pars	-8503
▁suic	-8504
Optional	-8505
▁tension	-8506
▁Additionally	-8507
▁Gen	-8508
ATION	-8509
▁pies	-8510
▁Weight	-8511
▁ignored	-8512
▁procedure	-8513
QU	-8514
tity	-8515
▁Size	-8516
alchemy	-8517
▁butter	-8518
▁planet	-8519
▁typeof	-8520
▁winner	-8521
▁economy	-8522
▁trained	-8523
▁Lar	-8524
▁athle	-8525
▁median	-8526
interval	-8527
▁baskets	-8528
▁charity	-8529
▁Try	-8530
caten	-8531
Chrome	-8532
member	-8533
public	-8534
▁basis	-8535
seconds	-8536
▁divers	-8537
▁pandas	-8538
▁Difficulty	-8539
SET	-8540
lass	-8541
▁termin	-8542
▁occupied	-8543
▁secondary	-8544
▁crew	-8545
▁doct	-8546
▁therm	-8547
Task	-8548
▁Know	-8549
▁Wood	-8550
▁west	-8551
needed	-8552
mic	-8553
▁Exc	-8554
▁Rad	-8555
astern	-8556
▁debut	-8557
ocratic	-8558
▁Unique	-8559
variable	-8560
▁traveling	-8561
▁compatible	-8562
`.	-8563
▁Wi	-8564
export	-8565
▁greatest	-8566
▁connectivity	-8567
tx	-8568
aver	-8569
noon	-8570
▁Blo	-8571
activ	-8572
tests	-8573
idents	-8574
▁layers	-8575
▁elected	-8576
▁relations	-8577
▁discovered	-8578
symb	-8579
▁Playing	-8580
▁concert	-8581
▁fitness	-8582
▁showing	-8583
▁Establish	-8584
inf	-8585
look	-8586
▁identical	-8587
riers	-8588
▁builds	-8589
IM	-8590
Many	-8591
▁inqu	-8592
▁gifts	-8593
▁cultures	-8594
▁increment	-8595
pal	-8596
stop	-8597
▁wave	-8598
▁embed	-8599
▁enable	-8600
▁Du	-8601
mons	-8602
Content	-8603
ializer	-8604
▁Reading	-8605
▁planned	-8606
percentage	-8607
▁ord	-8608
reens	-8609
▁cheese	-8610
▁violence	-8611
▁Construct	-8612
:\	-8613
▁phrases	-8614
▁likelihood	-8615
▁monitoring	-8616
▁Jew	-8617
▁Adds	-8618
▁crow	-8619
▁suit	-8620
orough	-8621
▁receives	-8622
migrations	-8623
My	-8624
prime	-8625
▁pitch	-8626
chen	-8627
wait	-8628
▁soft	-8629
▁Sleep	-8630
▁______	-8631
▁abandon	-8632
Fi	-8633
pd	-8634
cand	-8635
illing	-8636
netism	-8637
▁Division	-8638
▁intr	-8639
▁nation	-8640
▁Washing	-8641
▁extracted	-8642
▁interpretation	-8643
▁guard	-8644
▁truth	-8645
▁turns	-8646
▁keeping	-8647
▁passive	-8648
▁removal	-8649
▁nuc	-8650
▁pros	-8651
▁advoc	-8652
▁Render	-8653
▁frames	-8654
Position	-8655
TeX	-8656
irs	-8657
▁Four	-8658
▁none	-8659
isters	-8660
▁jsonify	-8661
▁enhanced	-8662
▁electronic	-8663
▁emphasizes	-8664
bec	-8665
First	-8666
▁Dark	-8667
▁forg	-8668
▁sensor	-8669
▁matplotlib	-8670
gb	-8671
Soup	-8672
tasks	-8673
▁Adam	-8674
▁Java	-8675
center	-8676
ealous	-8677
▁lions	-8678
tically	-8679
▁obtained	-8680
▁preprocess	-8681
▁registered	-8682
▁LED	-8683
▁Office	-8684
WS	-8685
▁dp	-8686
▁tun	-8687
▁Kore	-8688
predict	-8689
▁rounds	-8690
▁dismiss	-8691
autifulSoup	-8692
keep	-8693
mask	-8694
▁debt	-8695
▁truck	-8696
article	-8697
▁Empire	-8698
▁senior	-8699
()).	-8700
▁kids	-8701
▁Provide	-8702
▁longest	-8703
▁Samantha	-8704
▁continues	-8705
nn	-8706
pin	-8707
▁Mid	-8708
▁Rely	-8709
▁aims	-8710
▁tips	-8711
▁Cross	-8712
▁Prior	-8713
▁Simple	-8714
▁borrow	-8715
▁sending	-8716
▁conference	-8717
**:	-8718
crete	-8719
▁Women	-8720
▁volunte	-8721
▁completion	-8722
▁`${	-8723
gling	-8724
▁canvas	-8725
********	-8726
▁metrics	-8727
▁teamwork	-8728
▁technologies	-8729
▁Cam	-8730
otype	-8731
▁elev	-8732
handle	-8733
▁LaTeX	-8734
▁thick	-8735
▁navigate	-8736
▁vegetables	-8737
());	-8738
▁Allow	-8739
▁Media	-8740
▁awarded	-8741
▁Mad	-8742
short	-8743
▁Chat	-8744
▁tower	-8745
▁cousin	-8746
▁Replace	-8747
▁neutral	-8748
▁regularly	-8749
▁que	-8750
▁hero	-8751
▁ride	-8752
validate	-8753
▁Saturday	-8754
rastructure	-8755
De	-8756
▁Vir	-8757
ithub	-8758
rimin	-8759
▁photo	-8760
▁monkeys	-8761
▁recording	-8762
▁supporting	-8763
IntegerField	-8764
▁progression	-8765
backs	-8766
▁immun	-8767
▁chances	-8768
▁conducted	-8769
▁gun	-8770
▁laun	-8771
▁unable	-8772
▁aggressive	-8773
ros	-8774
▁mur	-8775
exper	-8776
raise	-8777
▁Jess	-8778
▁Perm	-8779
verted	-8780
▁Input	-8781
▁joint	-8782
▁crisis	-8783
▁authors	-8784
▁superior	-8785
▁advisable	-8786
▁tk	-8787
USER	-8788
insert	-8789
▁Frank	-8790
▁plain	-8791
▁Alcohol	-8792
▁Program	-8793
▁IDs	-8794
▁acid	-8795
▁COVID	-8796
▁sheet	-8797
▁surrounding	-8798
▁mel	-8799
▁Cogn	-8800
▁sentences	-8801
rl	-8802
Admin	-8803
▁Cloud	-8804
Connection	-8805
exceptions	-8806
ho	-8807
img	-8808
▁IO	-8809
▁agric	-8810
▁deposit	-8811
}(	-8812
eans	-8813
▁icon	-8814
▁Special	-8815
▁exhibit	-8816
▁separately	-8817
▁simultaneously	-8818
▁Apply	-8819
▁widgets	-8820
▁bookshel	-8821
▁separated	-8822
ua	-8823
▁Ren	-8824
▁god	-8825
▁papers	-8826
▁precise	-8827
▁shorter	-8828
▁Catholic	-8829
▁memories	-8830
▁notification	-8831
NG	-8832
▁Ul	-8833
▁Plug	-8834
achine	-8835
▁Found	-8836
▁Title	-8837
▁foods	-8838
▁lunch	-8839
▁Sports	-8840
▁absent	-8841
▁graduate	-8842
▁investors	-8843
'{	-8844
sw	-8845
▁Even	-8846
▁rise	-8847
ributed	-8848
▁passing	-8849
▁symbols	-8850
▁Additional	-8851
▁procedures	-8852
}$.	-8853
bing	-8854
iture	-8855
▁keeps	-8856
▁Mexico	-8857
threshold	-8858
▁AS	-8859
▁irr	-8860
▁suc	-8861
forms	-8862
ecurity	-8863
▁motion	-8864
▁Charles	-8865
ufficient	-8866
▁fractions	-8867
Pass	-8868
aser	-8869
enty	-8870
▁Care	-8871
avings	-8872
pressed	-8873
aze	-8874
ampl	-8875
ursive	-8876
▁solar	-8877
metadata	-8878
romagnetism	-8879
▁completing	-8880
▁simulation	-8881
gu	-8882
▁Sn	-8883
weet	-8884
ucket	-8885
▁Club	-8886
aching	-8887
piration	-8888
▁divides	-8889
IO	-8890
ryption	-8891
▁basically	-8892
▁highlighted	-8893
het	-8894
▁dice	-8895
▁breath	-8896
counters	-8897
▁injuries	-8898
▁detection	-8899
▁atmosphere	-8900
ira	-8901
▁vel	-8902
▁scan	-8903
ishing	-8904
utable	-8905
▁loved	-8906
▁Prompts	-8907
▁stronger	-8908
▁unittest	-8909
▁complicated	-8910
LC	-8911
▁Battle	-8912
▁genres	-8913
▁ranked	-8914
▁defensive	-8915
sg	-8916
▁Aw	-8917
chron	-8918
header	-8919
▁thous	-8920
▁native	-8921
Oper	-8922
berg	-8923
west	-8924
▁Head	-8925
includ	-8926
neighb	-8927
▁Lower	-8928
▁asset	-8929
▁printed	-8930
▁circumference	-8931
TI	-8932
fers	-8933
icket	-8934
offset	-8935
▁chair	-8936
▁earth	-8937
▁panel	-8938
▁desktop	-8939
▁gatherings	-8940
Names	-8941
▁toxic	-8942
▁repeti	-8943
TextField	-8944
▁achieving	-8945
End	-8946
ded	-8947
▁Spr	-8948
▁organized	-8949
bri	-8950
derr	-8951
▁gam	-8952
▁pure	-8953
▁contents	-8954
▁reversed	-8955
▁watching	-8956
see	-8957
ship	-8958
aping	-8959
batch	-8960
▁overl	-8961
▁walked	-8962
▁District	-8963
▁balanced	-8964
▁horizontal	-8965
▁visibility	-8966
Bo	-8967
Cal	-8968
yer	-8969
▁fle	-8970
elsius	-8971
record	-8972
▁Server	-8973
ailability	-8974
▁Retrieves	-8975
▁Experience	-8976
▁Strengthen	-8977
▁constraints	-8978
PG	-8979
athon	-8980
▁gear	-8981
▁Sally	-8982
▁alert	-8983
▁reader	-8984
▁tracking	-8985
)))	-8986
▁agency	-8987
▁MongoDB	-8988
identifier	-8989
▁---------	-8990
▁Cri	-8991
▁Tor	-8992
▁magn	-8993
▁Night	-8994
▁sensitive	-8995
ruit	-8996
▁Aust	-8997
▁boot	-8998
option	-8999
▁religion	-9000
lie	-9001
rum	-9002
desc	-9003
steps	-9004
▁Camp	-9005
▁zone	-9006
▁Grand	-9007
▁acceler	-9008
▁entities	-9009
▁Youn	-9010
▁wild	-9011
▁chart	-9012
▁buffer	-9013
▁attachment	-9014
▁permission	-9015
▁Syn	-9016
▁Like	-9017
TC	-9018
▁Ep	-9019
arsh	-9020
Query	-9021
enter	-9022
▁cycl	-9023
▁intro	-9024
▁targets	-9025
▁membership	-9026
sur	-9027
▁Sou	-9028
FAULT	-9029
▁recre	-9030
▁Middle	-9031
▁believes	-9032
▁Cognitive	-9033
▁considerations	-9034
arn	-9035
▁tomat	-9036
▁extrem	-9037
▁strictly	-9038
▁Isolation	-9039
▁Washington	-9040
}^{	-9041
▁Spe	-9042
script	-9043
▁editor	-9044
▁losses	-9045
▁seasons	-9046
▁argparse	-9047
▁disk	-9048
▁Almost	-9049
▁Import	-9050
ographical	-9051
▁dependency	-9052
Card	-9053
}.")	-9054
▁thus	-9055
▁meant	-9056
▁strip	-9057
▁Report	-9058
▁island	-9059
▁street	-9060
▁dietary	-9061
EX	-9062
alt	-9063
jamin	-9064
▁kernel	-9065
▁aircraft	-9066
▁$(	-9067
road	-9068
pectives	-9069
▁reduces	-9070
▁voltage	-9071
mir	-9072
udes	-9073
▁Jim	-9074
▁brands	-9075
▁scheduled	-9076
▁classification	-9077
Sp	-9078
people	-9079
▁permut	-9080
▁discipl	-9081
▁avoidance	-9082
berry	-9083
▁Clean	-9084
▁succeed	-9085
▁assistant	-9086
▁fulfillment	-9087
▁cam	-9088
▁army	-9089
▁golf	-9090
▁Texas	-9091
▁Normal	-9092
ribution	-9093
▁discrimin	-9094
▁exploring	-9095
▁calculator	-9096
DATA	-9097
wall	-9098
after	-9099
▁Flor	-9100
▁mess	-9101
▁Press	-9102
▁router	-9103
▁soccer	-9104
▁talent	-9105
▁Digital	-9106
▁Validate	-9107
FILE	-9108
ivot	-9109
▁sea	-9110
onomy	-9111
razil	-9112
▁federal	-9113
CTOR	-9114
▁voc	-9115
clean	-9116
▁Bank	-9117
▁veter	-9118
▁plastic	-9119
▁Multiply	-9120
▁avoiding	-9121
▁arrangements	-9122
agues	-9123
usters	-9124
▁newly	-9125
orce	-9126
▁iPhone	-9127
▁specify	-9128
▁Bow	-9129
▁tow	-9130
numer	-9131
organ	-9132
▁Place	-9133
▁depart	-9134
▁Express	-9135
▁Message	-9136
▁conclude	-9137
xml	-9138
archy	-9139
▁curve	-9140
▁compound	-9141
▁sqlalchemy	-9142
▁Information	-9143
▁specifications	-9144
}\)	-9145
▁tab	-9146
▁enum	-9147
rement	-9148
▁hypot	-9149
▁Android	-9150
▁cleaned	-9151
▁disabled	-9152
izers	-9153
ceries	-9154
radius	-9155
inition	-9156
▁Mental	-9157
▁unless	-9158
▁Customer	-9159
km	-9160
iate	-9161
▁settle	-9162
▁edition	-9163
▁portion	-9164
Component	-9165
▁Although	-9166
▁Reducing	-9167
▁consumed	-9168
▁criminal	-9169
▁connecting	-9170
▁Ham	-9171
space	-9172
▁ring	-9173
boolean	-9174
▁exponent	-9175
▁printing	-9176
▁documentation	-9177
Ds	-9178
under	-9179
▁Ryan	-9180
▁bicycle	-9181
{-	-9182
▁Vi	-9183
▁colon	-9184
▁reprodu	-9185
▁discounts	-9186
▁mathematics	-9187
▁Git	-9188
▁fluct	-9189
▁infer	-9190
▁cluster	-9191
▁definitely	-9192
▁configurations	-9193
▁fav	-9194
▁scar	-9195
▁Major	-9196
▁Sever	-9197
▁fashion	-9198
▁friendly	-9199
▁accessible	-9200
▁Environmental	-9201
TY	-9202
aos	-9203
sets	-9204
▁unw	-9205
istan	-9206
▁owned	-9207
▁slots	-9208
▁Joseph	-9209
▁stimul	-9210
▁symptom	-9211
▁visitors	-9212
even	-9213
abetes	-9214
profit	-9215
square	-9216
▁Execute	-9217
▁accompl	-9218
▁learned	-9219
▁reporting	-9220
▁Cat	-9221
▁Islam	-9222
▁screens	-9223
▁Dividing	-9224
▁architecture	-9225
Get	-9226
####	-9227
nson	-9228
ston	-9229
▁Jes	-9230
utter	-9231
▁proxy	-9232
omestic	-9233
▁Mutual	-9234
▁holding	-9235
▁comfortable	-9236
gar	-9237
hex	-9238
▁OS	-9239
bind	-9240
▁rival	-9241
▁Institute	-9242
▁determining	-9243
================	-9244
DA	-9245
▁adher	-9246
▁routes	-9247
▁Francis	-9248
▁creatures	-9249
[]):	-9250
supp	-9251
▁Ill	-9252
▁Sand	-9253
▁dish	-9254
▁Makes	-9255
▁weekdays	-9256
mes	-9257
▁od	-9258
auty	-9259
▁quantum	-9260
▁conclusion	-9261
▁facilitate	-9262
▁facilities	-9263
▁principles	-9264
▁advertising	-9265
▁strawberries	-9266
HO	-9267
▁Love	-9268
teries	-9269
▁Email	-9270
iveness	-9271
▁snacks	-9272
▁Academic	-9273
▁BeautifulSoup	-9274
)\	-9275
ste	-9276
fare	-9277
▁Did	-9278
▁sed	-9279
▁mail	-9280
▁Gender	-9281
▁harmon	-9282
▁Iterate	-9283
▁utility	-9284
▁controller	-9285
▁perspectives	-9286
ORT	-9287
▁sac	-9288
agree	-9289
efined	-9290
▁Liber	-9291
▁homes	-9292
▁Account	-9293
▁attended	-9294
▁afternoon	-9295
▁contributed	-9296
isl	-9297
▁rig	-9298
report	-9299
▁Still	-9300
▁boost	-9301
▁flavor	-9302
▁consent	-9303
▁parallel	-9304
▁ven	-9305
▁Small	-9306
▁causing	-9307
▁vertices	-9308
▁decreases	-9309
▁networking	-9310
▁AB	-9311
▁Cle	-9312
▁Equ	-9313
▁Visual	-9314
▁Constants	-9315
▁negatively	-9316
▁respective	-9317
COL	-9318
▁Hon	-9319
amental	-9320
▁Medical	-9321
▁conserv	-9322
▁promotes	-9323
▁speaking	-9324
ACK	-9325
pool	-9326
▁arts	-9327
metric	-9328
▁Carol	-9329
▁Commit	-9330
▁Benjamin	-9331
alog	-9332
xual	-9333
Email	-9334
frequency	-9335
▁affecting	-9336
▁independently	-9337
▁Pet	-9338
writer	-9339
▁Jenny	-9340
▁Prints	-9341
▁Vector	-9342
▁owners	-9343
▁designs	-9344
▁operates	-9345
▁advantages	-9346
▁evaluating	-9347
AA	-9348
Mock	-9349
Order	-9350
comput	-9351
decode	-9352
regard	-9353
▁African	-9354
▁Advanced	-9355
▁officers	-9356
Co	-9357
inem	-9358
▁Lake	-9359
▁managers	-9360
▁continuous	-9361
your	-9362
asets	-9363
▁Lucy	-9364
▁pace	-9365
folder	-9366
network	-9367
▁cancel	-9368
▁Kingdom	-9369
▁categorized	-9370
▁intervention	-9371
vol	-9372
▁Cur	-9373
▁Control	-9374
▁refresh	-9375
▁Encouraging	-9376
xx	-9377
abel	-9378
▁Joe	-9379
▁GPIO	-9380
▁nine	-9381
ealousy	-9382
▁Solving	-9383
▁alongside	-9384
▁appointed	-9385
▁orientation	-9386
CC	-9387
▁$$\	-9388
▁Dist	-9389
▁grav	-9390
▁Civil	-9391
changes	-9392
▁Students	-9393
▁principal	-9394
▁referenced	-9395
▁recommendations	-9396
If	-9397
Box	-9398
▁CE	-9399
▁zoo	-9400
ogram	-9401
chestr	-9402
dration	-9403
▁defeat	-9404
▁Imagine	-9405
▁extreme	-9406
▁announce	-9407
(/	-9408
▁Remo	-9409
▁solo	-9410
▁clarify	-9411
pectively	-9412
▁Engineering	-9413
▁−	-9414
▁nur	-9415
▁Legal	-9416
▁capable	-9417
▁dimension	-9418
::	-9419
Let	-9420
eder	-9421
▁Page	-9422
▁exit	-9423
▁meat	-9424
relation	-9425
▁derived	-9426
▁artistic	-9427
▁Bay	-9428
limited	-9429
▁Supply	-9430
▁ethical	-9431
▁electron	-9432
▁groceries	-9433
().__	-9434
▁ille	-9435
▁forum	-9436
▁modify	-9437
▁segments	-9438
▁socks	-9439
▁acknowled	-9440
kg	-9441
▁pump	-9442
▁unus	-9443
▁exams	-9444
▁Length	-9445
▁respectively	-9446
ye	-9447
▁Win	-9448
▁Isol	-9449
reated	-9450
▁goods	-9451
▁Setting	-9452
▁Independ	-9453
▁biological	-9454
▁configured	-9455
▁institutions	-9456
ICE	-9457
oon	-9458
ishment	-9459
itively	-9460
resolve	-9461
▁studied	-9462
▁swimming	-9463
▁opponents	-9464
▁spiritual	-9465
▁identifying	-9466
▁Atl	-9467
▁temp	-9468
veloper	-9469
▁Brazil	-9470
▁Secret	-9471
▁arrived	-9472
▁figuring	-9473
▁ingredient	-9474
.__	-9475
oom	-9476
anta	-9477
igin	-9478
tition	-9479
▁Italian	-9480
▁pricing	-9481
▁Minister	-9482
▁Instagram	-9483
DP	-9484
pub	-9485
plan	-9486
▁Bur	-9487
▁pra	-9488
▁jars	-9489
itches	-9490
verbose	-9491
▁magazine	-9492
▁achievement	-9493
GO	-9494
za	-9495
clo	-9496
half	-9497
▁fly	-9498
device	-9499
changed	-9500
▁outdated	-9501
servable	-9502
▁density	-9503
▁rely	-9504
plement	-9505
▁Political	-9506
▁storyline	-9507
▁limitations	-9508
upload	-9509
▁copies	-9510
environment	-9511
▁Stock	-9512
▁collections	-9513
imals	-9514
netic	-9515
▁Global	-9516
▁encoded	-9517
▁engaged	-9518
ora	-9519
prob	-9520
▁About	-9521
▁texts	-9522
▁painted	-9523
▁surgery	-9524
▁lighting	-9525
parameters	-9526
▁accommodate	-9527
EM	-9528
Run	-9529
▁Arab	-9530
▁Trad	-9531
ointer	-9532
▁Journ	-9533
▁sought	-9534
▁numeric	-9535
urrencies	-9536
▁factorial	-9537
▁continuing	-9538
Ref	-9539
▁AN	-9540
Reduc	-9541
▁presc	-9542
▁ships	-9543
ologist	-9544
weights	-9545
▁theorem	-9546
▁threats	-9547
▁guarantee	-9548
▁encounters	-9549
▁Scott	-9550
▁muscle	-9551
▁desires	-9552
▁evolution	-9553
▁confrontation	-9554
!!	-9555
pdf	-9556
▁Er	-9557
▁MA	-9558
▁Ash	-9559
▁Gre	-9560
▁pod	-9561
▁timeout	-9562
▁utilize	-9563
oku	-9564
▁carbon	-9565
▁contest	-9566
▁Euphoria	-9567
▁prepared	-9568
▁excellent	-9569
▁technological	-9570
Jo	-9571
'].	-9572
abe	-9573
athan	-9574
ixels	-9575
Widget	-9576
▁Excell	-9577
Listener	-9578
▁opponent	-9579
▁multiples	-9580
arp	-9581
een	-9582
▁Help	-9583
▁looked	-9584
▁counting	-9585
▁meetings	-9586
characters	-9587
▁troubleshooting	-9588
mid	-9589
▁scient	-9590
▁signals	-9591
ga	-9592
▁Dog	-9593
petit	-9594
▁Chem	-9595
capacity	-9596
▁Identif	-9597
▁ratings	-9598
connected	-9599
▁assessment	-9600
tf	-9601
▁Iron	-9602
Custom	-9603
▁Result	-9604
▁listen	-9605
▁classic	-9606
Sec	-9607
select	-9608
▁merge	-9609
itories	-9610
▁critici	-9611
▁treated	-9612
▁survival	-9613
▁neighbors	-9614
hicle	-9615
layout	-9616
TestCase	-9617
▁neither	-9618
▁disappoint	-9619
▁flexibility	-9620
hi	-9621
bus	-9622
Child	-9623
fifth	-9624
▁Cong	-9625
▁fence	-9626
▁sport	-9627
▁Chicago	-9628
▁calling	-9629
▁Kn	-9630
▁Ma	-9631
fast	-9632
▁lived	-9633
ository	-9634
▁deleted	-9635
▁reasoning	-9636
▁activation	-9637
posts	-9638
▁Hill	-9639
▁begins	-9640
▁Install	-9641
▁wireless	-9642
dele	-9643
▁Jud	-9644
▁salt	-9645
▁Jessica	-9646
▁Society	-9647
▁publication	-9648
td	-9649
▁TO	-9650
rots	-9651
adium	-9652
equality	-9653
▁Session	-9654
▁detected	-9655
▁img	-9656
▁}<|	-9657
▁Cast	-9658
▁drawn	-9659
▁retain	-9660
▁winter	-9661
▁measured	-9662
▁monitors	-9663
▁perfectly	-9664
"])	-9665
▁'-	-9666
links	-9667
▁Fair	-9668
▁hers	-9669
▁impacts	-9670
▁',	-9671
▁Los	-9672
▁Foot	-9673
series	-9674
▁Reads	-9675
achelor	-9676
▁Element	-9677
▁notebook	-9678
▁Generates	-9679
▁attending	-9680
mn	-9681
▁Ell	-9682
rection	-9683
▁gained	-9684
▁resent	-9685
▁circles	-9686
▁listening	-9687
▁transformed	-9688
>)	-9689
▁dur	-9690
▁Record	-9691
▁bridge	-9692
▁ceremon	-9693
▁adjacent	-9694
▁slightly	-9695
▁rendering	-9696
ticks	-9697
Schema	-9698
▁driven	-9699
▁Sharing	-9700
▁Graphics	-9701
▁Remember	-9702
▁prediction	-9703
ena	-9704
▁Ken	-9705
build	-9706
thood	-9707
▁neuro	-9708
▁charged	-9709
▁cutting	-9710
available	-9711
▁Document	-9712
BU	-9713
enth	-9714
haps	-9715
▁Mill	-9716
▁stem	-9717
▁jelly	-9718
Session	-9719
fulness	-9720
▁moderators	-9721
ears	-9722
poch	-9723
subsc	-9724
▁wallet	-9725
ervation	-9726
▁Success	-9727
▁shooting	-9728
▁functional	-9729
▁\((	-9730
▁bin	-9731
▁Prim	-9732
letter	-9733
Boolean	-9734
▁backup	-9735
arcissistic	-9736
▁references	-9737
▁PDF	-9738
estim	-9739
apters	-9740
iation	-9741
▁Angeles	-9742
▁dresses	-9743
▁randomly	-9744
▁tolerance	-9745
▁Validation	-9746
Link	-9747
▁Arts	-9748
mathbf	-9749
Profile	-9750
▁genetic	-9751
▁smoking	-9752
▁recipient	-9753
▁Oly	-9754
▁scr	-9755
▁myth	-9756
▁composition	-9757
▁subtraction	-9758
▁Aff	-9759
encode	-9760
▁actor	-9761
▁promin	-9762
▁damaged	-9763
▁dangerous	-9764
▁Supportive	-9765
▁measurement	-9766
DD	-9767
vin	-9768
zes	-9769
ocket	-9770
isting	-9771
▁Manager	-9772
▁accident	-9773
▁Attending	-9774
credentials	-9775
▁underlying	-9776
▁Hun	-9777
▁mole	-9778
▁shut	-9779
▁cycles	-9780
▁merged	-9781
▁Russian	-9782
▁translation	-9783
Max	-9784
ido	-9785
▁ml	-9786
HTML	-9787
incre	-9788
scale	-9789
▁vibr	-9790
direct	-9791
ifiers	-9792
rowser	-9793
▁forced	-9794
▁Johnson	-9795
▁intense	-9796
▁electricity	-9797
▁Az	-9798
▁spr	-9799
▁debate	-9800
▁Feeling	-9801
▁politics	-9802
operations	-9803
▁decreased	-9804
▁formation	-9805
ORD	-9806
repo	-9807
...")	-9808
▁Thus	-9809
▁bird	-9810
▁pipe	-9811
memory	-9812
▁denote	-9813
▁mostly	-9814
▁nearly	-9815
▁vectors	-9816
▁launched	-9817
▁constructed	-9818
NO	-9819
lists	-9820
▁Brand	-9821
▁secre	-9822
balance	-9823
▁nearby	-9824
▁chronic	-9825
▁rotation	-9826
▁rounding	-9827
▁championship	-9828
^(	-9829
dev	-9830
▁Bas	-9831
▁Fur	-9832
▁License	-9833
▁birthday	-9834
▁contrast	-9835
▁infection	-9836
▁investigation	-9837
Bl	-9838
▁')	-9839
▁Jon	-9840
Empty	-9841
front	-9842
▁accum	-9843
▁recon	-9844
▁Reddit	-9845
▁fighting	-9846
▁diagnosis	-9847
▁huge	-9848
parency	-9849
▁Review	-9850
▁acting	-9851
▁deeper	-9852
▁loneliness	-9853
▁smartphone	-9854
)*	-9855
▁Box	-9856
icians	-9857
▁Sophie	-9858
▁closer	-9859
▁emails	-9860
friendly	-9861
▁Reduced	-9862
▁Strateg	-9863
▁exciting	-9864
▁exclusive	-9865
Exp	-9866
note	-9867
▁Speed	-9868
▁ongoing	-9869
▁objective	-9870
gon	-9871
ila	-9872
alpha	-9873
▁spam	-9874
▁warr	-9875
▁honor	-9876
▁croiss	-9877
resource	-9878
▁talking	-9879
▁passengers	-9880
▁infrastructure	-9881
▁ham	-9882
▁mir	-9883
▁frag	-9884
▁neckl	-9885
▁caught	-9886
Off	-9887
high	-9888
▁Jill	-9889
buffer	-9890
symbol	-9891
▁sudden	-9892
▁buttons	-9893
▁disable	-9894
▁multiplayer	-9895
LL	-9896
UP	-9897
uan	-9898
▁tan	-9899
sters	-9900
ticle	-9901
▁Pers	-9902
▁mand	-9903
▁loses	-9904
▁Island	-9905
Url	-9906
agons	-9907
▁BIOS	-9908
▁Term	-9909
Button	-9910
▁advised	-9911
▁informed	-9912
▁occasion	-9913
expression	-9914
▁attempting	-9915
alg	-9916
▁fer	-9917
categ	-9918
urric	-9919
▁Solid	-9920
▁Andrew	-9921
▁Police	-9922
reference	-9923
▁converting	-9924
-\	-9925
▁Ap	-9926
▁BC	-9927
Http	-9928
ador	-9929
▁Brown	-9930
▁bench	-9931
▁declar	-9932
▁recognize	-9933
▁residents	-9934
TA	-9935
udd	-9936
▁err	-9937
abling	-9938
▁bricks	-9939
▁inverse	-9940
▁Lo	-9941
viation	-9942
messages	-9943
ractions	-9944
▁colored	-9945
▁subprocess	-9946
issue	-9947
▁tweet	-9948
▁Client	-9949
▁soldiers	-9950
▁enforcement	-9951
Ass	-9952
fin	-9953
itz	-9954
earing	-9955
convert	-9956
perties	-9957
▁Method	-9958
▁Awesome	-9959
▁chip	-9960
▁union	-9961
atterns	-9962
utional	-9963
▁forest	-9964
▁anticip	-9965
▁weakness	-9966
▁ultimately	-9967
▁Ve	-9968
gage	-9969
menu	-9970
elled	-9971
▁herself	-9972
▁Defaults	-9973
▁employed	-9974
▁rejection	-9975
annot	-9976
ambling	-9977
▁stuffed	-9978
▁industrial	-9979
vec	-9980
idal	-9981
stac	-9982
utic	-9983
birth	-9984
▁Graph	-9985
▁ports	-9986
▁Ability	-9987
▁modules	-9988
▁precision	-9989
▁Relationship	-9990
GR	-9991
bia	-9992
seed	-9993
▁Florida	-9994
▁Fibonacci	-9995
▁ted	-9996
▁Lani	-9997
▁hear	-9998
▁composed	-9999
▁attributed	-10000
ician	-10001
▁Fast	-10002
▁bear	-10003
▁pixel	-10004
▁quote	-10005
▁Virgin	-10006
▁mystery	-10007
▁missions	-10008
▁photograp	-10009
▁implemented	-10010
hum	-10011
ysql	-10012
▁Ram	-10013
serial	-10014
isation	-10015
▁Depend	-10016
▁preparing	-10017
▁[-	-10018
aved	-10019
cript	-10020
setup	-10021
▁circuit	-10022
▁pastries	-10023
▁cooperation	-10024
▁contribution	-10025
fty	-10026
leq	-10027
▁Saf	-10028
figure	-10029
▁asser	-10030
▁dishes	-10031
▁lights	-10032
▁waterm	-10033
▁imagine	-10034
▁measuring	-10035
md	-10036
▁€	-10037
▁{};	-10038
maker	-10039
▁Hold	-10040
▁Computer	-10041
zip	-10042
yset	-10043
tools	-10044
▁Week	-10045
▁Olymp	-10046
▁galax	-10047
affeine	-10048
▁outdoor	-10049
▁actively	-10050
▁improves	-10051
performance	-10052
▁operational	-10053
▁Pac	-10054
▁Constant	-10055
information	-10056
Top	-10057
Down	-10058
▁Yup	-10059
ollip	-10060
pairs	-10061
▁semi	-10062
▁sums	-10063
▁spells	-10064
callback	-10065
▁Competi	-10066
▁lessons	-10067
▁stations	-10068
Util	-10069
▁ATX	-10070
▁Tag	-10071
Method	-10072
▁beans	-10073
BO	-10074
va	-10075
dou	-10076
▁TH	-10077
Range	-10078
apples	-10079
gation	-10080
turing	-10081
▁Excel	-10082
▁Louis	-10083
▁liber	-10084
▁Chrome	-10085
▁dinner	-10086
▁objectives	-10087
eros	-10088
▁Dam	-10089
▁mut	-10090
learn	-10091
▁furn	-10092
▁sick	-10093
course	-10094
▁Daily	-10095
▁authorities	-10096
▁functioning	-10097
PO	-10098
Style	-10099
aired	-10100
▁absor	-10101
▁Double	-10102
▁pictures	-10103
RequestException	-10104
cv	-10105
▁Tal	-10106
pages	-10107
▁Land	-10108
▁Hello	-10109
▁vocal	-10110
▁tracks	-10111
activity	-10112
▁impossible	-10113
▁occurrences	-10114
Force	-10115
github	-10116
ppings	-10117
▁Table	-10118
▁outer	-10119
▁stages	-10120
idential	-10121
▁chicken	-10122
▁DNA	-10123
▁Lee	-10124
adequ	-10125
ropri	-10126
▁Food	-10127
▁Harry	-10128
▁rough	-10129
▁metric	-10130
▁sender	-10131
▁studio	-10132
▁tactics	-10133
▁manifest	-10134
▁politici	-10135
▁differenti	-10136
▁contemporary	-10137
+\	-10138
egers	-10139
▁spin	-10140
▁patch	-10141
▁scrapy	-10142
▁foundation	-10143
▁transmission	-10144
▁concentration	-10145
ni	-10146
▁Corpor	-10147
▁Attempt	-10148
lpatterns	-10149
▁subtotal	-10150
Tag	-10151
▁RGB	-10152
▁Build	-10153
▁NumPy	-10154
located	-10155
WE	-10156
lik	-10157
span	-10158
▁tutor	-10159
▁coupon	-10160
▁shapes	-10161
▁Download	-10162
▁weekends	-10163
▁normalized	-10164
posal	-10165
Values	-10166
ulsive	-10167
▁checked	-10168
▁revealed	-10169
▁requested	-10170
▁compliance	-10171
▁Amb	-10172
▁Grad	-10173
▁maps	-10174
▁habit	-10175
▁speak	-10176
iliters	-10177
▁Federal	-10178
▁Changing	-10179
▁defeated	-10180
▁dreaming	-10181
▁-\	-10182
brid	-10183
idel	-10184
letes	-10185
▁Send	-10186
▁ease	-10187
angers	-10188
▁Share	-10189
▁comic	-10190
▁threads	-10191
▁conscious	-10192
"}	-10193
etry	-10194
▁[],	-10195
▁Wall	-10196
acking	-10197
asters	-10198
ifting	-10199
▁merch	-10200
▁robot	-10201
▁breakup	-10202
▁wearing	-10203
▁numerical	-10204
▁mechanical	-10205
▁"/	-10206
▁Mis	-10207
▁fro	-10208
▁iron	-10209
solving	-10210
▁cheaper	-10211
umulative	-10212
▁sleeping	-10213
▁animation	-10214
▁neighborhood	-10215
──	-10216
okes	-10217
▁gram	-10218
▁Final	-10219
▁quest	-10220
lements	-10221
ruption	-10222
▁Single	-10223
quantity	-10224
sentence	-10225
▁betting	-10226
▁Consider	-10227
▁velocity	-10228
▁Temporary	-10229
▁Availability	-10230
bi	-10231
temp	-10232
umin	-10233
▁Hot	-10234
▁ctx	-10235
icates	-10236
▁desks	-10237
▁fluid	-10238
▁inquir	-10239
▁Training	-10240
▁interviews	-10241
▁regulation	-10242
▁struggling	-10243
UM	-10244
("/	-10245
AGE	-10246
Eng	-10247
▁MB	-10248
volume	-10249
▁clubs	-10250
onymous	-10251
▁runner	-10252
▁committed	-10253
ashes	-10254
▁Rece	-10255
jective	-10256
▁manufacturer	-10257
▁recreational	-10258
PM	-10259
abul	-10260
ikip	-10261
▁Mic	-10262
opped	-10263
▁Pain	-10264
▁whom	-10265
▁flags	-10266
selected	-10267
▁illegal	-10268
▁________	-10269
▁consumers	-10270
▁milliliters	-10271
TS	-10272
iro	-10273
ura	-10274
acer	-10275
▁Copy	-10276
▁Susan	-10277
▁bigger	-10278
▁justice	-10279
▁creature	-10280
▁expertise	-10281
basic	-10282
events	-10283
▁Train	-10284
ikipedia	-10285
▁logical	-10286
ROR	-10287
dog	-10288
▁mil	-10289
arent	-10290
▁logs	-10291
contin	-10292
istical	-10293
▁seeing	-10294
▁Displays	-10295
difference	-10296
▁innovation	-10297
▁performances	-10298
bro	-10299
...,	-10300
etary	-10301
▁elig	-10302
▁fits	-10303
▁react	-10304
anda	-10305
cook	-10306
▁memor	-10307
▁screw	-10308
Exactly	-10309
Reducer	-10310
▁beauty	-10311
▁missed	-10312
▁declare	-10313
▁laptops	-10314
▁standing	-10315
▁textbooks	-10316
▁Characters	-10317
▁resentment	-10318
tw	-10319
ela	-10320
▁Asia	-10321
linear	-10322
▁Sample	-10323
▁margin	-10324
▁manufacturing	-10325
EST	-10326
cut	-10327
▁tul	-10328
Entry	-10329
▁plate	-10330
▁rearr	-10331
▁Conver	-10332
▁floors	-10333
▁murder	-10334
▁Keeping	-10335
▁vanilla	-10336
▁rendered	-10337
▁paragraph	-10338
▁suffering	-10339
▁Indifferent	-10340
▁discriminant	-10341
SER	-10342
ran	-10343
rea	-10344
ifer	-10345
▁Ess	-10346
▁moist	-10347
Database	-10348
▁outputs	-10349
▁passion	-10350
▁rounded	-10351
▁explicit	-10352
▁bookshelf	-10353
▁overwhelming	-10354
²)	-10355
atoes	-10356
found	-10357
pyplot	-10358
▁indef	-10359
▁jeans	-10360
▁races	-10361
▁Indeed	-10362
▁Policy	-10363
▁reaching	-10364
▁concerned	-10365
▁ineffective	-10366
▁subscription	-10367
▁Jun	-10368
infty	-10369
ounce	-10370
▁allev	-10371
▁Experi	-10372
▁claimed	-10373
▁Interest	-10374
▁generator	-10375
▁simplicity	-10376
▁recommendation	-10377
CS	-10378
Acc	-10379
▁Li	-10380
shot	-10381
▁Laur	-10382
▁diff	-10383
▁unusual	-10384
▁marathon	-10385
▁mountain	-10386
▁Christmas	-10387
▁innovative	-10388
Day	-10389
Store	-10390
▁Sara	-10391
Server	-10392
▁closing	-10393
▁forming	-10394
▁scoring	-10395
substring	-10396
▁ultimate	-10397
▁upgrades	-10398
▁possibility	-10399
▁participating	-10400
fish	-10401
void	-10402
▁Kim	-10403
▁gap	-10404
Width	-10405
urers	-10406
▁cope	-10407
▁Checks	-10408
▁Martin	-10409
▁empower	-10410
▁bracelets	-10411
▁professor	-10412
▁mm	-10413
▁arc	-10414
Filter	-10415
▁drove	-10416
issions	-10417
▁apathy	-10418
▁verbal	-10419
▁formats	-10420
▁enjoyable	-10421
▁Commission	-10422
▁exceptions	-10423
▁measurements	-10424
tk	-10425
but	-10426
jac	-10427
Sync	-10428
lett	-10429
three	-10430
topic	-10431
▁tech	-10432
Update	-10433
▁rolls	-10434
randint	-10435
▁Excellent	-10436
▁prioritiz	-10437
▁Excitement	-10438
pu	-10439
accur	-10440
▁lollip	-10441
▁mining	-10442
specific	-10443
▁isolate	-10444
▁witness	-10445
▁ignoring	-10446
▁paintings	-10447
Obj	-10448
▁dys	-10449
▁ties	-10450
▁wage	-10451
▁tries	-10452
▁disput	-10453
▁theories	-10454
▁'@	-10455
▁acts	-10456
▁Asian	-10457
▁histor	-10458
▁partition	-10459
▁croissants	-10460
▁contributes	-10461
Fl	-10462
]/	-10463
isms	-10464
green	-10465
idity	-10466
▁tack	-10467
Series	-10468
starts	-10469
▁cubes	-10470
▁Stress	-10471
component	-10472
▁utilized	-10473
▁computing	-10474
▁derivative	-10475
▁practicing	-10476
ogen	-10477
▁vow	-10478
Script	-10479
▁Sound	-10480
▁modes	-10481
▁Maximum	-10482
▁efficiently	-10483
.',	-10484
Wor	-10485
▁stere	-10486
▁Filter	-10487
▁cables	-10488
▁showed	-10489
▁compens	-10490
▁glasses	-10491
▁Offering	-10492
▁diagonal	-10493
▁universities	-10494
tab	-10495
▁dot	-10496
▁jun	-10497
idate	-10498
▁Gaming	-10499
▁applies	-10500
▁corporate	-10501
▁dataframe	-10502
Auto	-10503
burg	-10504
igen	-10505
▁Jean	-10506
▁feat	-10507
▁poll	-10508
amsung	-10509
▁Prime	-10510
grounds	-10511
▁foster	-10512
▁Similarly	-10513
▁retirement	-10514
▁arrangement	-10515
▁fundamental	-10516
quit	-10517
▁ant	-10518
▁lies	-10519
▁Magic	-10520
▁horse	-10521
▁Behavior	-10522
▁boundary	-10523
▁landscape	-10524
▁inequality	-10525
dot	-10526
typ	-10527
stro	-10528
▁Rom	-10529
▁Ter	-10530
▁kid	-10531
▁annot	-10532
▁virus	-10533
▁chapter	-10534
▁filters	-10535
▁satisfy	-10536
▁therefore	-10537
▁determines	-10538
▁infections	-10539
Sl	-10540
▁Ak	-10541
hyth	-10542
▁flu	-10543
▁Prem	-10544
rating	-10545
▁surve	-10546
storage	-10547
▁Season	-10548
▁repeat	-10549
pressive	-10550
▁Finding	-10551
▁carried	-10552
▁depicted	-10553
▁contributing	-10554
FS	-10555
balls	-10556
▁Loss	-10557
▁bath	-10558
▁KeyError	-10559
▁controlled	-10560
▁FA	-10561
mapping	-10562
evaluate	-10563
▁Connect	-10564
▁parking	-10565
▁entering	-10566
cycle	-10567
▁scheme	-10568
▁experts	-10569
temperature	-10570
ned	-10571
▁lux	-10572
▁Live	-10573
▁scal	-10574
▁sixth	-10575
▁timing	-10576
▁IOError	-10577
▁lemonade	-10578
IV	-10579
asp	-10580
▁fs	-10581
▁pm	-10582
assign	-10583
icious	-10584
▁Mater	-10585
▁Paris	-10586
▁gains	-10587
▁dollar	-10588
tificial	-10589
▁enhancing	-10590
▁serialize	-10591
ato	-10592
sal	-10593
Auth	-10594
atar	-10595
rance	-10596
▁purs	-10597
depend	-10598
▁dimin	-10599
▁param	-10600
▁spots	-10601
▁possibly	-10602
▁revolution	-10603
Wr	-10604
▁GET	-10605
▁rac	-10606
Graph	-10607
▁Navy	-10608
▁mainly	-10609
▁permissions	-10610
².	-10611
endar	-10612
orney	-10613
poons	-10614
eryset	-10615
▁shoot	-10616
▁enroll	-10617
Original	-10618
▁therapist	-10619
▁separation	-10620
cio	-10621
abor	-10622
adder	-10623
briety	-10624
▁trend	-10625
▁Energy	-10626
integers	-10627
▁divorce	-10628
▁northern	-10629
▁directories	-10630
">	-10631
Iter	-10632
hire	-10633
▁Cho	-10634
▁nom	-10635
▁bias	-10636
▁Latin	-10637
▁stops	-10638
ashboard	-10639
ropriate	-10640
▁packets	-10641
▁organizing	-10642
▁observation	-10643
erts	-10644
▁Arc	-10645
▁fet	-10646
▁closest	-10647
▁feeding	-10648
▁finance	-10649
▁holiday	-10650
▁servers	-10651
-%	-10652
=\	-10653
kin	-10654
▁Poor	-10655
ounder	-10656
tificate	-10657
▁radians	-10658
structure	-10659
▁disagree	-10660
▁speakers	-10661
▁dependent	-10662
▁positively	-10663
▁simplified	-10664
Fn	-10665
▁mow	-10666
exual	-10667
ateral	-10668
▁stats	-10669
▁Shared	-10670
▁relate	-10671
▁domestic	-10672
▁executed	-10673
▁homework	-10674
▁bookstore	-10675
▁extremely	-10676
abil	-10677
loop	-10678
erape	-10679
itten	-10680
olves	-10681
▁Half	-10682
colors	-10683
▁Block	-10684
▁chest	-10685
ventory	-10686
▁regret	-10687
▁Working	-10688
▁evening	-10689
▁competit	-10690
▁diversity	-10691
▁obtaining	-10692
ittle	-10693
▁delta	-10694
▁betray	-10695
employee	-10696
▁nickels	-10697
▁Hospital	-10698
▁Initially	-10699
▁strengthen	-10700
▁institution	-10701
PRO	-10702
omy	-10703
▁Sa	-10704
▁Mil	-10705
ersey	-10706
▁Kate	-10707
Params	-10708
subject	-10709
▁bacter	-10710
Ed	-10711
Ne	-10712
Tem	-10713
Yes	-10714
▁Clo	-10715
final	-10716
stanti	-10717
▁pharm	-10718
control	-10719
▁pursue	-10720
esterday	-10721
▁Despite	-10722
▁carefully	-10723
▁exercises	-10724
▁followers	-10725
▁treatments	-10726
(...	-10727
lint	-10728
folio	-10729
▁Deep	-10730
▁watt	-10731
▁loans	-10732
▁quiet	-10733
▁turtle	-10734
standing	-10735
Pre	-10736
msg	-10737
▁Sem	-10738
arium	-10739
calcul	-10740
▁drama	-10741
▁epoch	-10742
▁affili	-10743
▁shield	-10744
▁updating	-10745
▁promoting	-10746
▁###	-10747
Alter	-10748
boxed	-10749
▁Done	-10750
ursively	-10751
▁Celsius	-10752
▁Consult	-10753
▁prolong	-10754
▁readers	-10755
▁facility	-10756
▁grayscale	-10757
▁----------	-10758
▁highlights	-10759
arms	-10760
▁Sets	-10761
▁judge	-10762
apse	-10763
▁Pub	-10764
aying	-10765
▁Fort	-10766
Module	-10767
healthy	-10768
download	-10769
▁ordering	-10770
▁lowercase	-10771
▁providers	-10772
▁DO	-10773
rist	-10774
uana	-10775
vance	-10776
▁Source	-10777
▁agreed	-10778
▁resolved	-10779
▁principle	-10780
▁Acceptance	-10781
▁verification	-10782
Bu	-10783
zy	-10784
"},	-10785
pad	-10786
ouns	-10787
▁'',	-10788
▁Mur	-10789
isure	-10790
▁penn	-10791
▁stre	-10792
▁Appro	-10793
▁Liter	-10794
▁stone	-10795
▁trail	-10796
▁trips	-10797
▁tangent	-10798
ami	-10799
▁CB	-10800
▁IS	-10801
▁bund	-10802
------	-10803
▁Flash	-10804
▁ranges	-10805
language	-10806
▁biggest	-10807
▁centers	-10808
▁integral	-10809
▁watermel	-10810
▁searching	-10811
▁EV	-10812
rece	-10813
▁Gal	-10814
▁Lord	-10815
thetic	-10816
▁grass	-10817
abulary	-10818
▁chapters	-10819
gl	-10820
)):	-10821
edges	-10822
isely	-10823
▁pron	-10824
▁snow	-10825
▁allies	-10826
positive	-10827
▁Comment	-10828
▁consume	-10829
▁Extracts	-10830
▁processors	-10831
[@	-10832
ón	-10833
▁_,	-10834
thew	-10835
Match	-10836
marks	-10837
stone	-10838
▁Phot	-10839
icking	-10840
stderr	-10841
Timeout	-10842
▁Active	-10843
products	-10844
▁insight	-10845
ega	-10846
llib	-10847
park	-10848
▁fault	-10849
▁Expected	-10850
▁controvers	-10851
]))	-10852
bor	-10853
▁mac	-10854
▁adap	-10855
▁Relying	-10856
▁closely	-10857
▁attitude	-10858
▁producing	-10859
▁universal	-10860
oma	-10861
HTTP	-10862
▁bab	-10863
antry	-10864
▁SSDs	-10865
▁Zeal	-10866
▁edit	-10867
▁vendor	-10868
▁warning	-10869
CESS	-10870
iano	-10871
▁Sir	-10872
ticed	-10873
xpath	-10874
▁acres	-10875
▁hiring	-10876
▁openly	-10877
▁Samsung	-10878
processed	-10879
bel	-10880
pot	-10881
▁Ha	-10882
▁ip	-10883
▁Leo	-10884
ersal	-10885
▁Jeff	-10886
▁arms	-10887
▁hydro	-10888
▁renew	-10889
section	-10890
▁albums	-10891
Instance	-10892
▁lottery	-10893
▁advertise	-10894
▁framework	-10895
▁directions	-10896
▁celebration	-10897
"\	-10898
ulf	-10899
prim	-10900
prices	-10901
▁Better	-10902
▁Introdu	-10903
▁profits	-10904
▁controls	-10905
▁estimate	-10906
▁meaningful	-10907
IC	-10908
fa	-10909
Doc	-10910
hem	-10911
kes	-10912
▁Tay	-10913
▁Enhance	-10914
▁granted	-10915
localhost	-10916
▁Services	-10917
▁midpoint	-10918
▁improvements	-10919
bio	-10920
▁MP	-10921
▁RO	-10922
▁ly	-10923
▁Queen	-10924
▁integrated	-10925
)[	-10926
▁Bul	-10927
▁USA	-10928
▁opt	-10929
▁trim	-10930
▁prove	-10931
Program	-10932
▁strike	-10933
▁totals	-10934
▁distingu	-10935
▁Technical	-10936
sn	-10937
emo	-10938
rices	-10939
▁roof	-10940
reduce	-10941
▁tricky	-10942
eps	-10943
▁AR	-10944
▁rub	-10945
▁Jord	-10946
▁aimed	-10947
▁meets	-10948
▁excited	-10949
▁parsing	-10950
undefined	-10951
▁pandemic	-10952
▁Confusion	-10953
▁constants	-10954
▁integrity	-10955
▁Inn	-10956
story	-10957
▁Lead	-10958
bucket	-10959
require	-10960
▁subset	-10961
▁Healthy	-10962
▁avoided	-10963
▁Ow	-10964
pects	-10965
stage	-10966
▁POST	-10967
▁Want	-10968
▁peak	-10969
domain	-10970
▁distin	-10971
▁algebra	-10972
▁hearing	-10973
▁thorough	-10974
▁subsequent	-10975
▁partnership	-10976
PN	-10977
tp	-10978
blo	-10979
isk	-10980
▁Gar	-10981
▁Lind	-10982
▁dual	-10983
ungeon	-10984
▁franch	-10985
▁GeForce	-10986
▁attendance	-10987
▁uncertainty	-10988
]),	-10989
}",	-10990
()))	-10991
cols	-10992
▁Produ	-10993
▁Handles	-10994
▁complement	-10995
▁Traditional	-10996
▁Ca	-10997
kins	-10998
▁CPUs	-10999
▁Basic	-11000
▁dance	-11001
▁excess	-11002
▁pytest	-11003
▁Starting	-11004
▁destroyed	-11005
▁instruments	-11006
▁presentation	-11007
sem	-11008
urb	-11009
black	-11010
liter	-11011
▁alle	-11012
Change	-11013
▁Silver	-11014
▁visits	-11015
▁Zealand	-11016
▁battles	-11017
▁acquired	-11018
▁Different	-11019
▁submitted	-11020
▁behavioral	-11021
▁Tax	-11022
▁psy	-11023
▁vir	-11024
▁gone	-11025
fourth	-11026
single	-11027
▁Italy	-11028
feeding	-11029
verages	-11030
▁awards	-11031
▁varying	-11032
▁classical	-11033
▁experiments	-11034
?.	-11035
'},	-11036
pus	-11037
▁Feed	-11038
▁Safe	-11039
isition	-11040
▁automatic	-11041
▁contracts	-11042
▁dissatisfaction	-11043
rid	-11044
▁Isra	-11045
▁teen	-11046
region	-11047
pointer	-11048
▁passes	-11049
▁partial	-11050
▁theater	-11051
▁ListNode	-11052
▁failures	-11053
▁triangles	-11054
▁administration	-11055
TR	-11056
IST	-11057
▁CDs	-11058
▁lawn	-11059
▁Jesus	-11060
▁chunk	-11061
▁Further	-11062
▁judgment	-11063
▁magazines	-11064
▁substring	-11065
▁accounting	-11066
▁advancement	-11067
▁certification	-11068
Ge	-11069
itage	-11070
mount	-11071
groups	-11072
ylabel	-11073
▁Finds	-11074
▁Eastern	-11075
▁aesthetics	-11076
Enum	-11077
utch	-11078
▁Van	-11079
▁coordinate	-11080
▁consistency	-11081
▁indefinitely	-11082
Can	-11083
Div	-11084
▁[[	-11085
abin	-11086
inch	-11087
▁artif	-11088
private	-11089
▁joining	-11090
▁batteries	-11091
tom	-11092
▁Aud	-11093
▁Way	-11094
atility	-11095
invalid	-11096
▁Square	-11097
▁Collect	-11098
▁padding	-11099
▁Director	-11100
▁designated	-11101
ZE	-11102
oor	-11103
Wait	-11104
racy	-11105
divis	-11106
▁Draw	-11107
▁func	-11108
orator	-11109
▁Parses	-11110
▁Richard	-11111
▁bonuses	-11112
▁prompts	-11113
▁Mathemat	-11114
▁calculus	-11115
▁Directory	-11116
appropriate	-11117
cia	-11118
har	-11119
▁[(	-11120
ABLE	-11121
John	-11122
LECT	-11123
▁Pri	-11124
apple	-11125
▁Prin	-11126
▁rich	-11127
Current	-11128
▁prohib	-11129
▁nations	-11130
▁reliability	-11131
ali	-11132
▁Us	-11133
Year	-11134
ados	-11135
▁yes	-11136
imiter	-11137
▁regex	-11138
▁dosage	-11139
▁spring	-11140
Expected	-11141
▁Matthew	-11142
▁planted	-11143
▁concrete	-11144
▁applicable	-11145
▁Simplifying	-11146
▁sensitivity	-11147
[:,	-11148
anes	-11149
eller	-11150
small	-11151
▁asyn	-11152
▁Redis	-11153
▁packet	-11154
▁trades	-11155
▁tradition	-11156
ART	-11157
idx	-11158
INFO	-11159
▁vent	-11160
▁Purch	-11161
▁Route	-11162
▁Young	-11163
▁Portug	-11164
erapeutic	-11165
▁intention	-11166
▁counseling	-11167
Num	-11168
VAL	-11169
`);	-11170
▁dy	-11171
▁)),	-11172
▁stret	-11173
minutes	-11174
▁compete	-11175
▁recipro	-11176
▁explored	-11177
▁lollipops	-11178
▁Parliament	-11179
SL	-11180
Web	-11181
▁Mu	-11182
iest	-11183
ints	-11184
dings	-11185
orses	-11186
ratio	-11187
▁Film	-11188
▁Greek	-11189
indexOf	-11190
rank	-11191
rons	-11192
audio	-11193
resent	-11194
▁bodies	-11195
▁sandwich	-11196
▁alliances	-11197
▁newspaper	-11198
NE	-11199
Vari	-11200
anna	-11201
izard	-11202
iosity	-11203
places	-11204
▁Sales	-11205
country	-11206
▁Region	-11207
▁Watching	-11208
▁Haw	-11209
▁Nice	-11210
orship	-11211
▁picks	-11212
▁quanti	-11213
multiply	-11214
▁moments	-11215
▁portrayed	-11216
▁geographical	-11217
iser	-11218
agent	-11219
ramid	-11220
tility	-11221
▁aspir	-11222
▁heavily	-11223
▁operand	-11224
▁resulted	-11225
▁Contentment	-11226
GG	-11227
TB	-11228
aine	-11229
foot	-11230
shirt	-11231
▁Fund	-11232
frames	-11233
▁imply	-11234
▁scope	-11235
▁officials	-11236
▁yesterday	-11237
ald	-11238
iasm	-11239
pend	-11240
quad	-11241
▁NBA	-11242
▁ped	-11243
abbits	-11244
ackson	-11245
▁____,	-11246
▁storm	-11247
disable	-11248
records	-11249
▁issued	-11250
▁spider	-11251
▁Updates	-11252
▁texture	-11253
▁circular	-11254
▁Isolating	-11255
▁unhealthy	-11256
▁suggestions	-11257
}_	-11258
obby	-11259
amine	-11260
▁flav	-11261
Search	-11262
▁Russia	-11263
▁campus	-11264
▁obstac	-11265
▁burgers	-11266
▁inspired	-11267
▁pursuing	-11268
▁tomatoes	-11269
▁classmates	-11270
▁Stat	-11271
▁inch	-11272
▁rice	-11273
▁Close	-11274
▁minim	-11275
minimum	-11276
▁fluctu	-11277
gorithms	-11278
▁donation	-11279
▁admission	-11280
▁delivered	-11281
▁reasonable	-11282
asm	-11283
acao	-11284
otic	-11285
ustice	-11286
▁alien	-11287
▁steel	-11288
▁cowork	-11289
▁carrots	-11290
▁graphic	-11291
▁eliminates	-11292
▁establishment	-11293
Head	-11294
ione	-11295
ulty	-11296
▁Bon	-11297
▁Mrs	-11298
▁ult	-11299
uffle	-11300
▁gest	-11301
▁careg	-11302
▁rarely	-11303
▁Bipolar	-11304
▁Counter	-11305
▁floating	-11306
▁plugging	-11307
▁priority	-11308
▁motivations	-11309
▁DM	-11310
asts	-11311
thes	-11312
▁XML	-11313
enuse	-11314
▁glob	-11315
▁peer	-11316
▁squad	-11317
▁youth	-11318
Factory	-11319
▁transferred	-11320
▁Na	-11321
▁];	-11322
torch	-11323
▁Trav	-11324
▁Lucas	-11325
▁taste	-11326
▁Delete	-11327
▁thermal	-11328
▁Allowing	-11329
▁Football	-11330
▁Virginia	-11331
▁navigation	-11332
Book	-11333
▁era	-11334
annah	-11335
▁Mean	-11336
▁Mont	-11337
▁lect	-11338
atever	-11339
▁explo	-11340
▁teddy	-11341
▁beings	-11342
TreeNode	-11343
intercept	-11344
▁southern	-11345
corn	-11346
rich	-11347
ancer	-11348
sales	-11349
▁Item	-11350
aments	-11351
itarian	-11352
▁extend	-11353
▁kitchen	-11354
▁campaigns	-11355
▁discovery	-11356
Me	-11357
\):	-11358
wing	-11359
▁gcd	-11360
▁glo	-11361
▁sor	-11362
▁std	-11363
igers	-11364
▁skip	-11365
xlabel	-11366
Callback	-11367
Generator	-11368
▁perceive	-11369
▁Ke	-11370
apply	-11371
ausea	-11372
ckets	-11373
▁Body	-11374
▁Mand	-11375
▁Pack	-11376
ortion	-11377
vertex	-11378
▁tulips	-11379
▁conform	-11380
▁leisure	-11381
▁overtime	-11382
°.	-11383
”.	-11384
▁</	-11385
bour	-11386
▁ble	-11387
▁sett	-11388
market	-11389
rupted	-11390
▁Laura	-11391
▁chess	-11392
structor	-11393
▁hosting	-11394
▁Negative	-11395
▁Particip	-11396
▁mobility	-11397
▁hos	-11398
ostalg	-11399
▁Georg	-11400
▁adequ	-11401
▁inhab	-11402
▁Mobile	-11403
▁listing	-11404
▁Military	-11405
▁flexible	-11406
▁Marketing	-11407
▁psychology	-11408
CP	-11409
raud	-11410
▁GPA	-11411
oster	-11412
updated	-11413
▁Integer	-11414
▁handles	-11415
▁performs	-11416
Sm	-11417
aml	-11418
▁rib	-11419
▁Scot	-11420
▁conj	-11421
otient	-11422
▁greet	-11423
▁Valley	-11424
▁personnel	-11425
PER	-11426
aded	-11427
▁exha	-11428
▁hier	-11429
Buffer	-11430
idelity	-11431
reverse	-11432
▁trains	-11433
▁Improve	-11434
▁sibling	-11435
▁viewers	-11436
▁colleagues	-11437
▁generating	-11438
pk	-11439
({'	-11440
>):	-11441
cope	-11442
▁Dev	-11443
▁PSU	-11444
▁rif	-11445
Price	-11446
apsed	-11447
iable	-11448
detail	-11449
reland	-11450
ussian	-11451
▁panels	-11452
▁plates	-11453
▁donated	-11454
▁expanded	-11455
▁regional	-11456
Ac	-11457
(['	-11458
UTH	-11459
▁"-	-11460
▁PS	-11461
IGHT	-11462
font	-11463
canvas	-11464
▁brings	-11465
building	-11466
▁investing	-11467
▁displaying	-11468
hop	-11469
nia	-11470
ican	-11471
▁Wales	-11472
training	-11473
▁Changes	-11474
▁DEFAULT	-11475
▁Instead	-11476
▁putting	-11477
▁Northern	-11478
mi	-11479
oz	-11480
pare	-11481
▁luc	-11482
actic	-11483
money	-11484
▁Tony	-11485
▁Wrest	-11486
cosystem	-11487
▁emphasized	-11488
▁palindrome	-11489
▁permanently	-11490
fire	-11491
Float	-11492
▁vess	-11493
▁horror	-11494
resolved	-11495
selection	-11496
▁teammates	-11497
AF	-11498
pers	-11499
▁Pak	-11500
sheet	-11501
master	-11502
Success	-11503
▁Taylor	-11504
RS	-11505
('\	-11506
oth	-11507
▁Fru	-11508
▁Has	-11509
▁vot	-11510
COLOR	-11511
▁beat	-11512
erries	-11513
▁Query	-11514
▁Third	-11515
capture	-11516
▁sheets	-11517
▁urllib	-11518
generator	-11519
▁minimize	-11520
▁correspond	-11521
▁assignments	-11522
star	-11523
▁hole	-11524
▁pivot	-11525
Alchemy	-11526
Returns	-11527
▁Modern	-11528
▁phones	-11529
▁wheels	-11530
▁Address	-11531
▁victims	-11532
hentication	-11533
▁√(	-11534
▁Ven	-11535
tains	-11536
▁libr	-11537
▁span	-11538
ursing	-11539
assment	-11540
▁sobriety	-11541
▁introduce	-11542
▁territory	-11543
▁Completely	-11544
▁Conference	-11545
▁encountered	-11546
▁transparency	-11547
▁LO	-11548
cuts	-11549
▁Ath	-11550
▁ang	-11551
Output	-11552
commun	-11553
▁Brian	-11554
▁Spain	-11555
▁troops	-11556
Password	-11557
▁assault	-11558
▁gambling	-11559
▁medicine	-11560
▁requiring	-11561
▁occurrence	-11562
vid	-11563
break	-11564
xygen	-11565
▁reven	-11566
history	-11567
▁bounds	-11568
itations	-11569
▁posting	-11570
▁skilled	-11571
▁approved	-11572
▁isolated	-11573
▁apartment	-11574
▁elections	-11575
▁Performance	-11576
UD	-11577
Main	-11578
PORT	-11579
heast	-11580
degree	-11581
▁overr	-11582
▁immune	-11583
ferences	-11584
packages	-11585
▁council	-11586
▁generic	-11587
▁tendency	-11588
Br	-11589
ROM	-11590
Sum	-11591
Tit	-11592
▁Ga	-11593
erman	-11594
▁memo	-11595
▁deals	-11596
▁rural	-11597
dirname	-11598
▁Popular	-11599
▁gathering	-11600
separ	-11601
extend	-11602
izable	-11603
▁satell	-11604
▁scenes	-11605
clocking	-11606
Serializer	-11607
what	-11608
▁Six	-11609
olver	-11610
▁boss	-11611
▁Token	-11612
▁Target	-11613
▁relevance	-11614
▁backgrounds	-11615
▁demonstrates	-11616
gg	-11617
▁UN	-11618
owner	-11619
▁shell	-11620
▁usual	-11621
▁incons	-11622
▁Natural	-11623
▁verified	-11624
▁Potential	-11625
▁detachment	-11626
ati	-11627
▁CC	-11628
tail	-11629
▁'')	-11630
▁Tre	-11631
redit	-11632
▁Blood	-11633
▁shots	-11634
ilation	-11635
▁reveal	-11636
▁slower	-11637
Interval	-11638
▁Conduct	-11639
▁Storage	-11640
▁alleviate	-11641
▁structured	-11642
▁Carl	-11643
Random	-11644
▁Heavy	-11645
▁pills	-11646
▁substanti	-11647
▁OR	-11648
▁dx	-11649
chat	-11650
oids	-11651
oops	-11652
teen	-11653
▁egg	-11654
Union	-11655
media	-11656
tible	-11657
▁Cond	-11658
▁Practice	-11659
▁concaten	-11660
▁determin	-11661
▁interior	-11662
▁manually	-11663
classmethod	-11664
▁possession	-11665
▁administrative	-11666
]{	-11667
oral	-11668
ubble	-11669
▁Xbox	-11670
Source	-11671
▁Achie	-11672
Decimal	-11673
▁sphere	-11674
▁careful	-11675
▁sklearn	-11676
▁warfare	-11677
▁warrant	-11678
▁wattage	-11679
▁captured	-11680
controller	-11681
▁attempted	-11682
▁θ	-11683
css	-11684
spe	-11685
elta	-11686
▁Cors	-11687
▁Song	-11688
▁zeros	-11689
▁comedy	-11690
▁convey	-11691
▁podcast	-11692
▁TreeNode	-11693
itis	-11694
ulas	-11695
▁vit	-11696
▁Smart	-11697
holders	-11698
▁tested	-11699
▁promise	-11700
▁rabbits	-11701
▁suicide	-11702
▁distract	-11703
▁incoming	-11704
attributes	-11705
▁featuring	-11706
▁prolonged	-11707
▁regression	-11708
▁descriptions	-11709
ko	-11710
yr	-11711
Car	-11712
ULL	-11713
▁nice	-11714
▁legend	-11715
▁pepper	-11716
▁adjusted	-11717
▁regarded	-11718
▁upcoming	-11719
▁beautiful	-11720
.\	-11721
unks	-11722
asant	-11723
▁Stan	-11724
▁verb	-11725
▁modulo	-11726
▁filling	-11727
▁infinite	-11728
destination	-11729
▁relatively	-11730
▁possibilities	-11731
NN	-11732
dx	-11733
ett	-11734
lan	-11735
req	-11736
▁MO	-11737
▁Loc	-11738
▁USD	-11739
▁bes	-11740
inate	-11741
▁Death	-11742
▁panic	-11743
▁accessing	-11744
▁meditation	-11745
▁overwhelmed	-11746
▁specialized	-11747
▁initialState	-11748
/{	-11749
illy	-11750
▁\(-	-11751
▁pad	-11752
equiv	-11753
▁larg	-11754
plates	-11755
states	-11756
▁Broad	-11757
▁Jackson	-11758
▁silence	-11759
▁External	-11760
▁Password	-11761
▁Demonstrates	-11762
igma	-11763
▁Opp	-11764
▁env	-11765
Video	-11766
▁glad	-11767
▁fears	-11768
▁knows	-11769
▁counted	-11770
▁knowing	-11771
ERS	-11772
bul	-11773
}$$	-11774
})"	-11775
▁Sug	-11776
▁cyl	-11777
Props	-11778
▁Nick	-11779
▁axes	-11780
▁teeth	-11781
▁listener	-11782
▁furniture	-11783
▁agreements	-11784
▁containers	-11785
>{	-11786
Pos	-11787
law	-11788
oga	-11789
▁Kat	-11790
rying	-11791
▁Iran	-11792
thirds	-11793
▁tempor	-11794
▁couples	-11795
▁verifies	-11796
▁Enhancing	-11797
HttpRequest	-11798
('.	-11799
plies	-11800
▁audi	-11801
▁Quick	-11802
▁Round	-11803
program	-11804
ruction	-11805
▁sqlite	-11806
▁voting	-11807
▁demands	-11808
▁stopped	-11809
▁shortest	-11810
▁Alexander	-11811
▁encryption	-11812
▁Motherboard	-11813
igan	-11814
▁hal	-11815
ighth	-11816
▁loud	-11817
▁cryst	-11818
▁retry	-11819
▁tanks	-11820
▁casinos	-11821
▁largely	-11822
interface	-11823
▁duplicate	-11824
▁instanceof	-11825
▁Subtracting	-11826
▁distraction	-11827
▁obligations	-11828
PUT	-11829
▁GCD	-11830
▁Row	-11831
▁wel	-11832
()}")	-11833
Creat	-11834
Lower	-11835
▁posted	-11836
▁inadequ	-11837
▁turning	-11838
▁Neg	-11839
▁ampl	-11840
lessly	-11841
▁Early	-11842
▁buses	-11843
trained	-11844
▁Choose	-11845
▁Journal	-11846
▁Employee	-11847
▁instruct	-11848
▁encrypted	-11849
▁prominent	-11850
▁households	-11851
▁adjustments	-11852
▁narcissistic	-11853
UE	-11854
▁".	-11855
What	-11856
▁gum	-11857
erial	-11858
▁Split	-11859
▁lambda	-11860
Argument	-11861
Resource	-11862
▁Democratic	-11863
oni	-11864
▁[{	-11865
ropy	-11866
izoph	-11867
System	-11868
▁Radio	-11869
players	-11870
▁miscon	-11871
▁quests	-11872
▁stones	-11873
remaining	-11874
BUG	-11875
wan	-11876
some	-11877
▁Cel	-11878
▁Flo	-11879
▁Nic	-11880
Month	-11881
render	-11882
▁wheel	-11883
▁append	-11884
izophren	-11885
▁writers	-11886
Attribute	-11887
▁chemistry	-11888
▁Calculates	-11889
▁industries	-11890
▁officially	-11891
RT	-11892
gry	-11893
▁cod	-11894
Table	-11895
ensed	-11896
▁Viet	-11897
orient	-11898
▁allerg	-11899
includes	-11900
▁distant	-11901
▁fosters	-11902
▁Southern	-11903
▁assuming	-11904
statistics	-11905
▁comparing	-11906
▁wa	-11907
Move	-11908
Height	-11909
▁bored	-11910
▁males	-11911
▁Format	-11912
▁spirit	-11913
Category	-11914
customer	-11915
▁potatoes	-11916
▁adjacency	-11917
▁complaints	-11918
▁therapeutic	-11919
cii	-11920
▁BA	-11921
rapy	-11922
▁CEO	-11923
▁Sup	-11924
▁bou	-11925
▁guns	-11926
▁crowd	-11927
Promise	-11928
▁san	-11929
oston	-11930
▁scul	-11931
ticing	-11932
▁brack	-11933
▁dtype	-11934
▁Altern	-11935
▁Asking	-11936
▁refund	-11937
efficient	-11938
▁identities	-11939
▁quantities	-11940
▁traditions	-11941
▁advancements	-11942
`;	-11943
▁EC	-11944
▁Blu	-11945
movie	-11946
▁Dest	-11947
perial	-11948
schema	-11949
icating	-11950
▁Adjust	-11951
▁Linked	-11952
▁Status	-11953
▁playoff	-11954
▁storing	-11955
alfunction	-11956
▁TypeError	-11957
▁SQLAlchemy	-11958
DIRE	-11959
▁Ask	-11960
olesc	-11961
▁Bern	-11962
▁Fall	-11963
▁Rose	-11964
▁grat	-11965
▁hats	-11966
policy	-11967
osexual	-11968
▁dental	-11969
▁noticed	-11970
▁Assembly	-11971
▁skincare	-11972
patibility	-11973
▁ecosystem	-11974
▁capability	-11975
▁notifications	-11976
▁probabilities	-11977
lon	-11978
▁Kh	-11979
▁fn	-11980
blank	-11981
▁byte	-11982
ocracy	-11983
▁intel	-11984
▁Eating	-11985
▁lawyer	-11986
▁nested	-11987
▁replacing	-11988
abc	-11989
party	-11990
▁Compl	-11991
▁Karen	-11992
▁drops	-11993
▁prize	-11994
▁trace	-11995
▁primes	-11996
▁perhaps	-11997
▁viewing	-11998
▁normally	-11999
AlterField	-12000
dimensions	-12001
Next	-12002
food	-12003
role	-12004
▁mul	-12005
ERROR	-12006
▁doubt	-12007
▁dropped	-12008
AutoField	-12009
▁geometry	-12010
▁keywords	-12011
▁(\	-12012
▁Rig	-12013
▁Sea	-12014
▁Gene	-12015
▁sheep	-12016
lectual	-12017
▁actors	-12018
▁Related	-12019
▁Mountain	-12020
▁offensive	-12021
▁maintained	-12022
▁inappropriate	-12023
odb	-12024
atal	-12025
adeon	-12026
▁Fish	-12027
▁hits	-12028
▁Chief	-12029
▁marker	-12030
▁bringing	-12031
▁consuming	-12032
,\	-12033
ilies	-12034
▁Cold	-12035
▁Plus	-12036
▁chaos	-12037
natural	-12038
▁Matrix	-12039
▁horses	-12040
▁Pacific	-12041
▁satisfied	-12042
▁Revolution	-12043
▁affordable	-12044
▁correlation	-12045
OL	-12046
TT	-12047
▁Es	-12048
▁nn	-12049
apor	-12050
news	-12051
▁asc	-12052
azing	-12053
hello	-12054
▁seam	-12055
▁chief	-12056
▁twist	-12057
▁museum	-12058
▁remind	-12059
▁versus	-12060
triangle	-12061
▁hypotenuse	-12062
▁DC	-12063
▁hat	-12064
ennis	-12065
▁wasn	-12066
▁chose	-12067
▁spons	-12068
metrics	-12069
payment	-12070
▁Radeon	-12071
▁Parents	-12072
▁Quality	-12073
▁creator	-12074
▁premium	-12075
Validator	-12076
izophrenia	-12077
spr	-12078
▁Ly	-12079
flat	-12080
▁jog	-12081
ockey	-12082
losure	-12083
▁Saint	-12084
▁kinds	-12085
▁tight	-12086
escript	-12087
▁mirror	-12088
quarters	-12089
▁abusive	-12090
iams	-12091
aters	-12092
reset	-12093
▁Swed	-12094
▁sweet	-12095
▁fellow	-12096
▁enthusi	-12097
▁leftover	-12098
Repository	-12099
▁theoretical	-12100
▁establishing	-12101
▁complications	-12102
wt	-12103
GBT	-12104
sts	-12105
uler	-12106
▁HDD	-12107
▁msg	-12108
ifted	-12109
manda	-12110
venth	-12111
▁beta	-12112
▁grew	-12113
▁Colum	-12114
ilateral	-12115
▁Conflic	-12116
▁decades	-12117
▁inability	-12118
▁worldwide	-12119
▁urlpatterns	-12120
▁Strengthened	-12121
IR	-12122
Hub	-12123
▁vo	-12124
uine	-12125
▁Ray	-12126
peror	-12127
▁Cand	-12128
tainer	-12129
▁mouth	-12130
Windows	-12131
▁racing	-12132
▁Ireland	-12133
▁clinical	-12134
▁routines	-12135
Title	-12136
oment	-12137
▁Rail	-12138
▁boat	-12139
▁busy	-12140
▁tens	-12141
▁Congress	-12142
▁maximize	-12143
▁Avoidance	-12144
▁repeating	-12145
bt	-12146
ycl	-12147
▁EN	-12148
onia	-12149
▁Bad	-12150
▁dram	-12151
▁evil	-12152
▁meta	-12153
Entity	-12154
▁Treat	-12155
▁printer	-12156
▁Multiple	-12157
▁Knowledge	-12158
▁boyfriend	-12159
▁essentially	-12160
▁instability	-12161
▁Establishing	-12162
▁personalized	-12163
▁Ub	-12164
untu	-12165
▁bis	-12166
proxy	-12167
▁sacr	-12168
▁chord	-12169
▁Corsair	-12170
▁computed	-12171
▁revision	-12172
▁unchanged	-12173
▁applicants	-12174
▁companions	-12175
▁definitions	-12176
omm	-12177
▁da	-12178
rene	-12179
▁Rub	-12180
epoch	-12181
▁Raise	-12182
plicate	-12183
▁overly	-12184
operation	-12185
▁equipped	-12186
▁classrooms	-12187
▁association	-12188
arks	-12189
▁Deb	-12190
▁lap	-12191
riber	-12192
▁Seek	-12193
▁diabetes	-12194
▁diseases	-12195
▁namespace	-12196
▁Developing	-12197
Do	-12198
bits	-12199
plug	-12200
ching	-12201
▁Stop	-12202
▁heap	-12203
▁lane	-12204
▁mamm	-12205
▁todo	-12206
▁Desire	-12207
▁Museum	-12208
▁Together	-12209
▁Engagement	-12210
Ab	-12211
Arr	-12212
isdom	-12213
▁Kent	-12214
▁banks	-12215
correct	-12216
Selector	-12217
commands	-12218
comments	-12219
▁rolling	-12220
▁developer	-12221
▁controlling	-12222
▁accountability	-12223
''	-12224
Wh	-12225
loe	-12226
ucl	-12227
erge	-12228
ishop	-12229
▁Past	-12230
▁Roll	-12231
▁Navig	-12232
////////	-12233
▁gaining	-12234
▁releases	-12235
▁retention	-12236
▁thousands	-12237
Row	-12238
MODE	-12239
heet	-12240
▁lbs	-12241
Items	-12242
▁bits	-12243
▁Oliver	-12244
▁western	-12245
▁ceremony	-12246
▁equality	-12247
▁prevents	-12248
▁donations	-12249
▁alternatives	-12250
ih	-12251
END	-12252
ona	-12253
▁MD	-12254
▁VR	-12255
▁tor	-12256
amber	-12257
▁pill	-12258
formed	-12259
▁Story	-12260
▁resem	-12261
▁resume	-12262
▁farming	-12263
▁females	-12264
Interface	-12265
▁rearrange	-12266
▁Foundation	-12267
▁accessories	-12268
▁electronics	-12269
Pat	-12270
oul	-12271
tru	-12272
Part	-12273
CTION	-12274
Queue	-12275
brace	-12276
ushes	-12277
imshow	-12278
▁Amanda	-12279
▁Ensuring	-12280
▁promoted	-12281
dictionary	-12282
▁allowance	-12283
▁attitudes	-12284
▁motherboards	-12285
:%	-12286
WA	-12287
▁%(	-12288
▁])	-12289
▁fake	-12290
▁alpha	-12291
▁lacks	-12292
regular	-12293
support	-12294
▁Chronic	-12295
▁classifier	-12296
▁municipality	-12297
]}	-12298
tod	-12299
yal	-12300
▁RX	-12301
cest	-12302
Cache	-12303
ushed	-12304
▁fell	-12305
ushing	-12306
▁Leave	-12307
▁Staff	-12308
▁Jordan	-12309
▁captiv	-12310
▁flying	-12311
▁Records	-12312
▁enabled	-12313
▁queries	-12314
elessness	-12315
▁Festival	-12316
▁finances	-12317
▁Questions	-12318
▁adherence	-12319
▁researchers	-12320
bas	-12321
adel	-12322
rule	-12323
▁'';	-12324
downs	-12325
ereal	-12326
utors	-12327
▁bowl	-12328
Window	-12329
▁doors	-12330
release	-12331
tillery	-12332
▁Moving	-12333
▁luxury	-12334
▁employer	-12335
Collection	-12336
▁addressed	-12337
▁collective	-12338
▁enthusiasm	-12339
Rect	-12340
▁Sep	-12341
▁pink	-12342
enames	-12343
▁Times	-12344
▁suite	-12345
▁Switch	-12346
▁romance	-12347
▁charging	-12348
▁reserved	-12349
▁prescribed	-12350
▁",	-12351
heap	-12352
▁init	-12353
charge	-12354
▁Chall	-12355
▁guides	-12356
container	-12357
▁blockchain	-12358
▁appreciation	-12359
▁Dar	-12360
▁RTX	-12361
▁craw	-12362
▁tied	-12363
▁medal	-12364
▁'../../	-12365
Description	-12366
▁vulnerability	-12367
fn	-12368
dvc	-12369
▁Hu	-12370
▁pi	-12371
illed	-12372
▁Must	-12373
anches	-12374
▁grant	-12375
▁decade	-12376
▁combining	-12377
▁portfolio	-12378
▁algorithms	-12379
▁predefined	-12380
▁proceeding	-12381
itt	-12382
done	-12383
rine	-12384
▁ter	-12385
idays	-12386
▁Heart	-12387
▁Compar	-12388
▁peaceful	-12389
▁toppings	-12390
▁indicator	-12391
▁malfunction	-12392
Word	-12393
atin	-12394
atre	-12395
bitr	-12396
make	-12397
▁Ali	-12398
ooper	-12399
▁Bron	-12400
▁mini	-12401
plural	-12402
▁singer	-12403
▁despair	-12404
▁harvest	-12405
▁needing	-12406
▁Withdraw	-12407
fam	-12408
Mark	-12409
▁Mir	-12410
After	-12411
tiles	-12412
watch	-12413
▁Mini	-12414
ribers	-12415
▁crash	-12416
▁falls	-12417
▁incom	-12418
▁menstr	-12419
▁retired	-12420
▁orchestr	-12421
▁girlfriend	-12422
▁expectation	-12423
]+	-12424
)}{	-12425
▁Alp	-12426
agger	-12427
▁conc	-12428
environ	-12429
▁Cooking	-12430
▁repairs	-12431
▁operated	-12432
▁aggression	-12433
▁governance	-12434
ght	-12435
orie	-12436
▁LGBT	-12437
▁Wars	-12438
aneous	-12439
ynamic	-12440
▁Score	-12441
▁Resource	-12442
▁betrayal	-12443
▁diagnosed	-12444
▁graphical	-12445
▁scientists	-12446
▁Ax	-12447
Core	-12448
irty	-12449
orse	-12450
prop	-12451
▁Ban	-12452
▁duty	-12453
period	-12454
▁Adult	-12455
▁Steve	-12456
avorite	-12457
▁Summer	-12458
▁agricultural	-12459
Fe	-12460
mond	-12461
uity	-12462
▁Enc	-12463
Board	-12464
optim	-12465
▁Ball	-12466
accept	-12467
ensing	-12468
▁Indust	-12469
▁Respon	-12470
patterns	-12471
previous	-12472
▁Boolean	-12473
▁Weather	-12474
▁expense	-12475
▁agencies	-12476
▁uncommon	-12477
▁inclusive	-12478
▁particles	-12479
▁li	-12480
beta	-12481
ipse	-12482
▁Fac	-12483
▁sky	-12484
Multi	-12485
guess	-12486
▁Need	-12487
▁Tower	-12488
▁Engage	-12489
▁Monitor	-12490
▁relates	-12491
▁Processes	-12492
▁Represent	-12493
▁Completing	-12494
▁participated	-12495
TF	-12496
TYPE	-12497
feed	-12498
▁OCD	-12499
▁rid	-12500
tokens	-12501
ulator	-12502
ximity	-12503
▁relat	-12504
inating	-12505
▁Recogn	-12506
▁decode	-12507
greeting	-12508
▁overlap	-12509
▁attached	-12510
confidence	-12511
▁uppercase	-12512
▁standardized	-12513
cha	-12514
sen	-12515
Block	-12516
metry	-12517
▁Auto	-12518
▁rose	-12519
▁rhyth	-12520
▁surpr	-12521
▁Boston	-12522
▁unlock	-12523
▁Managing	-12524
▁differing	-12525
nic	-12526
izza	-12527
Socket	-12528
▁pride	-12529
▁Jewish	-12530
stringify	-12531
▁moderate	-12532
▁analyzing	-12533
▁copyright	-12534
▁tie	-12535
orous	-12536
athers	-12537
widget	-12538
▁Could	-12539
▁Irish	-12540
ulthood	-12541
▁arrive	-12542
▁belongs	-12543
▁disregard	-12544
▁maintains	-12545
▁breastfeeding	-12546
SIZE	-12547
edit	-12548
sold	-12549
}`);	-12550
▁Cro	-12551
espan	-12552
▁Labor	-12553
▁coord	-12554
▁smoke	-12555
Control	-12556
▁trucks	-12557
ensitive	-12558
▁Article	-12559
▁Problem	-12560
▁breadth	-12561
extension	-12562
▁uploaded	-12563
▁contentment	-12564
▁).	-12565
▁IB	-12566
Left	-12567
▁DVC	-12568
▁Hal	-12569
▁Rog	-12570
ylvan	-12571
▁Join	-12572
▁Moon	-12573
▁Poly	-12574
Record	-12575
▁diges	-12576
Default	-12577
ounties	-12578
segment	-12579
▁pickle	-12580
latitude	-12581
▁Capital	-12582
▁cupcake	-12583
▁nuclear	-12584
▁admissions	-12585
▁descending	-12586
ben	-12587
afka	-12588
▁Arm	-12589
▁dvc	-12590
icode	-12591
white	-12592
▁Five	-12593
▁Hong	-12594
▁tape	-12595
linked	-12596
▁abund	-12597
imation	-12598
operand	-12599
▁dragon	-12600
▁hinder	-12601
graduate	-12602
▁longitude	-12603
▁necessity	-12604
▁politician	-12605
tier	-12606
▁logo	-12607
▁trib	-12608
ailure	-12609
ecraft	-12610
▁Study	-12611
▁pilot	-12612
▁Muslim	-12613
▁SQLite	-12614
▁county	-12615
deletion	-12616
▁Discord	-12617
▁philosophy	-12618
▁predictable	-12619
PR	-12620
mus	-12621
▁"\	-12622
▁CR	-12623
Keys	-12624
mile	-12625
▁Die	-12626
▁spl	-12627
▁gate	-12628
▁loaf	-12629
consum	-12630
▁bases	-12631
▁Guarant	-12632
▁datasets	-12633
▁festival	-12634
▁Americans	-12635
▁Encourage	-12636
▁schedules	-12637
▁approximate	-12638
:]	-12639
▁df	-12640
fici	-12641
meta	-12642
▁nic	-12643
oline	-12644
ovies	-12645
▁Disk	-12646
▁Kong	-12647
advant	-12648
console	-12649
▁arrays	-12650
▁pixels	-12651
▁ceiling	-12652
▁obvious	-12653
▁Scotland	-12654
▁whatever	-12655
▁executive	-12656
▁celebrated	-12657
▁discipline	-12658
▁populations	-12659
++;	-12660
rad	-12661
▁##	-12662
▁mas	-12663
Stack	-12664
▁pupp	-12665
olumes	-12666
pytest	-12667
titude	-12668
▁Frustr	-12669
▁Linear	-12670
▁Spring	-12671
election	-12672
▁adopted	-12673
▁singing	-12674
▁Plugging	-12675
▁imaginary	-12676
▁settlement	-12677
cus	-12678
ecd	-12679
ika	-12680
iot	-12681
spl	-12682
Note	-12683
song	-12684
▁():	-12685
▁Drop	-12686
▁ethn	-12687
▁lift	-12688
ercise	-12689
parsed	-12690
▁ocean	-12691
▁preced	-12692
▁terror	-12693
▁compact	-12694
▁IndexError	-12695
▁residential	-12696
dll	-12697
▁ut	-12698
heit	-12699
kind	-12700
▁''.	-12701
▁Bol	-12702
udoku	-12703
▁Tech	-12704
▁rope	-12705
Format	-12706
▁suited	-12707
Location	-12708
affected	-12709
▁arrival	-12710
▁Jennifer	-12711
▁latitude	-12712
▁intensity	-12713
▁destruction	-12714
▁initialized	-12715
HA	-12716
▁"",	-12717
▁Imp	-12718
▁Matt	-12719
▁miti	-12720
umeric	-12721
▁Jerry	-12722
browser	-12723
▁neural	-12724
▁Justice	-12725
▁incenti	-12726
▁aquarium	-12727
▁athletes	-12728
▁dominant	-12729
▁punishment	-12730
XT	-12731
awa	-12732
how	-12733
atile	-12734
▁Rule	-12735
inated	-12736
▁Advent	-12737
▁explos	-12738
▁finger	-12739
ostalgia	-12740
▁Williams	-12741
▁signature	-12742
Application	-12743
▁CON	-12744
▁Ten	-12745
▁...,	-12746
▁Those	-12747
▁Works	-12748
▁facts	-12749
▁femin	-12750
compile	-12751
flowers	-12752
▁Cooler	-12753
▁oldest	-12754
▁Incorpor	-12755
▁autonomy	-12756
▁quotient	-12757
▁nutrition	-12758
▁stressful	-12759
directories	-12760
▁Definitely	-12761
▁criticized	-12762
cur	-12763
▁'\	-12764
▁Sat	-12765
▁gig	-12766
▁Json	-12767
mathbb	-12768
▁Match	-12769
▁strain	-12770
▁unsure	-12771
exception	-12772
▁borrowed	-12773
▁producer	-12774
▁province	-12775
▁tabletop	-12776
▁contained	-12777
azy	-12778
ito	-12779
▁SU	-12780
Last	-12781
▁pag	-12782
thens	-12783
▁waves	-12784
▁Celebr	-12785
▁Future	-12786
awareness	-12787
repository	-12788
▁alignment	-12789
▁applicant	-12790
▁favorable	-12791
▁resolving	-12792
basicConfig	-12793
▁moderation	-12794
▁scholarship	-12795
bag	-12796
iana	-12797
ilty	-12798
orer	-12799
yard	-12800
▁ell	-12801
ahren	-12802
▁Ohio	-12803
icular	-12804
▁Audio	-12805
▁cited	-12806
depress	-12807
▁seller	-12808
▁corners	-12809
▁organic	-12810
▁Keyboard	-12811
▁Previous	-12812
▁dispatch	-12813
▁mortgage	-12814
▁peripher	-12815
processing	-12816
EC	-12817
Op	-12818
UI	-12819
ws	-12820
▁Si	-12821
World	-12822
acker	-12823
isode	-12824
Americ	-12825
tables	-12826
▁cheap	-12827
▁timer	-12828
contact	-12829
imental	-12830
▁Binary	-12831
▁vaccine	-12832
▁hundreds	-12833
▁interven	-12834
Represents	-12835
▁intentions	-12836
GI	-12837
yes	-12838
endo	-12839
ulin	-12840
▁DVD	-12841
aotic	-12842
▁Optim	-12843
▁Tests	-12844
▁holes	-12845
encoded	-12846
running	-12847
▁nights	-12848
▁silent	-12849
▁writes	-12850
▁Average	-12851
▁greatly	-12852
▁modulus	-12853
▁publicly	-12854
▁terminal	-12855
▁brightness	-12856
'^	-12857
)!	-12858
FOR	-12859
Back	-12860
mass	-12861
uuid	-12862
zeros	-12863
▁Alter	-12864
▁bikes	-12865
Project	-12866
▁poetry	-12867
▁titled	-12868
contents	-12869
itespace	-12870
▁sitting	-12871
▁barriers	-12872
▁hormonal	-12873
▁jealousy	-12874
▁magnitude	-12875
▁musicians	-12876
▁frequencies	-12877
Configuration	-12878
▁disappointment	-12879
wd	-12880
phy	-12881
icts	-12882
▁Typ	-12883
▁tap	-12884
CTORY	-12885
scope	-12886
▁Town	-12887
Builder	-12888
▁Mechan	-12889
channels	-12890
▁bounding	-12891
▁explains	-12892
=-	-12893
)^{	-12894
LED	-12895
osa	-12896
▁SM	-12897
▁ok	-12898
Area	-12899
away	-12900
hydr	-12901
▁Ale	-12902
▁Eag	-12903
bridge	-12904
▁poker	-12905
▁towns	-12906
letters	-12907
timeout	-12908
▁Prince	-12909
▁Abstract	-12910
▁arranged	-12911
▁caffeine	-12912
▁organize	-12913
▁franchise	-12914
▁Determines	-12915
▁promotions	-12916
▁accordingly	-12917
bb	-12918
aya	-12919
psy	-12920
ById	-12921
iler	-12922
ulum	-12923
▁Jer	-12924
shift	-12925
▁cuts	-12926
creens	-12927
▁"../../	-12928
▁Conserv	-12929
▁Options	-12930
▁decoded	-12931
▁heights	-12932
▁qualities	-12933
dimensional	-12934
▁similarity	-12935
▁documentary	-12936
SM	-12937
inv	-12938
phi	-12939
anny	-12940
best	-12941
▁Inv	-12942
▁lib	-12943
▁Eliz	-12944
▁Priv	-12945
▁Armen	-12946
▁Kelly	-12947
▁Library	-12948
▁colleges	-12949
▁selector	-12950
nam	-12951
▁HDMI	-12952
▁Skip	-12953
▁moon	-12954
future	-12955
▁metab	-12956
▁vital	-12957
▁Verify	-12958
ahrenheit	-12959
▁hydration	-12960
▁artificial	-12961
▁identifies	-12962
▁convenience	-12963
▁identification	-12964
KEN	-12965
cop	-12966
harm	-12967
rent	-12968
ulse	-12969
rated	-12970
units	-12971
aclass	-12972
arding	-12973
otypes	-12974
▁Among	-12975
▁MySQL	-12976
▁Titan	-12977
▁venue	-12978
Question	-12979
▁Station	-12980
▁instant	-12981
▁recipes	-12982
LowerCase	-12983
▁connects	-12984
▁placement	-12985
▁unlimited	-12986
▁willingness	-12987
WORD	-12988
abbit	-12989
▁couldn	-12990
▁Georgia	-12991
▁psychiat	-12992
▁timeline	-12993
▁Employees	-12994
▁geometric	-12995
▁adaptation	-12996
eta	-12997
rey	-12998
▁mg	-12999
▁AWS	-13000
▁DNS	-13001
Label	-13002
abeth	-13003
iters	-13004
paper	-13005
▁Maya	-13006
▁fraud	-13007
▁heads	-13008
Welcome	-13009
▁Living	-13010
▁pennies	-13011
▁Bachelor	-13012
▁Confidence	-13013
▁manipulate	-13014
▁sustainable	-13015
ala	-13016
mers	-13017
▁Ott	-13018
aphor	-13019
chars	-13020
owned	-13021
▁Elim	-13022
▁[...	-13023
▁bron	-13024
father	-13025
▁priced	-13026
▁purely	-13027
▁Fantasy	-13028
▁placing	-13029
▁declared	-13030
▁matrices	-13031
▁timezone	-13032
▁workflow	-13033
▁iteration	-13034
▁teachings	-13035
▁compensation	-13036
▁observations	-13037
cup	-13038
opp	-13039
omic	-13040
▁sne	-13041
Option	-13042
circle	-13043
▁beach	-13044
Account	-13045
Actions	-13046
patient	-13047
▁lesson	-13048
endpoint	-13049
▁accused	-13050
▁contrac	-13051
▁Decrease	-13052
▁covering	-13053
▁explained	-13054
▁retrieved	-13055
▁collecting	-13056
▁Educational	-13057
EventListener	-13058
▁reinforcement	-13059
▁communications	-13060
emy	-13061
orph	-13062
rick	-13063
▁Due	-13064
Login	-13065
VIDIA	-13066
enger	-13067
rowth	-13068
inters	-13069
▁Davis	-13070
▁Steam	-13071
▁bands	-13072
▁Strict	-13073
▁purple	-13074
▁Philipp	-13075
▁enables	-13076
▁seating	-13077
▁Solution	-13078
population	-13079
▁cumulative	-13080
▁suggestion	-13081
▁constructive	-13082
▁collaborative	-13083
Requ	-13084
iami	-13085
parti	-13086
▁Cook	-13087
▁Wiki	-13088
▁knew	-13089
ipeline	-13090
▁discre	-13091
▁Captain	-13092
▁exposed	-13093
getLogger	-13094
Classifier	-13095
▁publisher	-13096
▁validated	-13097
▁confirmation	-13098
▁ValidationError	-13099
onda	-13100
▁pie	-13101
▁Dism	-13102
▁sine	-13103
remote	-13104
▁Julia	-13105
▁rides	-13106
▁legiti	-13107
▁exceeds	-13108
▁carrying	-13109
▁reliance	-13110
▁evaluated	-13111
▁signifies	-13112
▁discouraged	-13113
HER	-13114
Exec	-13115
▁Bot	-13116
cloud	-13117
piece	-13118
▁Turn	-13119
actual	-13120
▁Month	-13121
Updated	-13122
▁Israel	-13123
▁decent	-13124
▁tackle	-13125
▁Private	-13126
▁implied	-13127
▁differently	-13128
▁inspiration	-13129
▁competitions	-13130
▁distractions	-13131
Ins	-13132
Pol	-13133
Sym	-13134
cart	-13135
▁Desc	-13136
▁Host	-13137
▁euro	-13138
Render	-13139
ention	-13140
▁cores	-13141
▁Buffer	-13142
▁tigers	-13143
▁cancell	-13144
▁survive	-13145
▁Evaluate	-13146
Expression	-13147
validation	-13148
▁adulthood	-13149
▁contracep	-13150
▁constantly	-13151
▁vocabulary	-13152
▁consciousness	-13153
▁qualifications	-13154
irl	-13155
uda	-13156
▁Tai	-13157
▁ads	-13158
while	-13159
▁Dele	-13160
▁Guide	-13161
▁haven	-13162
▁redis	-13163
▁NVIDIA	-13164
▁barrier	-13165
▁defining	-13166
▁deposits	-13167
▁endpoints	-13168
▁supplement	-13169
▁acquisition	-13170
▁optimization	-13171
bat	-13172
Todo	-13173
asty	-13174
▁Ant	-13175
▁Cell	-13176
▁intu	-13177
▁resc	-13178
▁Korea	-13179
▁coast	-13180
▁freely	-13181
▁jacket	-13182
▁logged	-13183
▁tweets	-13184
▁Members	-13185
▁Virtual	-13186
▁altered	-13187
▁reaches	-13188
▁sensory	-13189
eat	-13190
uma	-13191
▁Eld	-13192
otion	-13193
▁hide	-13194
▁teas	-13195
Remove	-13196
▁truly	-13197
▁halluc	-13198
▁browsing	-13199
▁whenever	-13200
pendicular	-13201
▁breathing	-13202
▁Observable	-13203
▁submissions	-13204
▁Experiencing	-13205
)/(	-13206
INE	-13207
▁Gi	-13208
chunk	-13209
ospit	-13210
▁anch	-13211
▁odds	-13212
▁Label	-13213
▁Phone	-13214
▁breed	-13215
▁sharp	-13216
station	-13217
▁crates	-13218
▁defend	-13219
▁intent	-13220
▁lyrics	-13221
vertices	-13222
▁Charlie	-13223
=_	-13224
deep	-13225
▁Kir	-13226
▁NFL	-13227
becca	-13228
▁Mars	-13229
▁panc	-13230
▁likes	-13231
ificant	-13232
members	-13233
▁Version	-13234
DIRECTORY	-13235
variables	-13236
▁Position	-13237
▁brothers	-13238
▁humorous	-13239
▁Copyright	-13240
BE	-13241
esis	-13242
hard	-13243
pres	-13244
pson	-13245
▁Pun	-13246
▁bid	-13247
▁bug	-13248
▁kick	-13249
▁vast	-13250
ijuana	-13251
mitter	-13252
▁conce	-13253
▁dough	-13254
▁Hannah	-13255
▁agents	-13256
▁wouldn	-13257
▁Rebecca	-13258
▁mixture	-13259
fibonacci	-13260
▁Carolina	-13261
▁Implement	-13262
▁exchanges	-13263
▁protocols	-13264
dam	-13265
fox	-13266
}_{	-13267
olph	-13268
▁cot	-13269
Fetch	-13270
isons	-13271
▁Vill	-13272
▁dust	-13273
▁tiny	-13274
Vector	-13275
lywood	-13276
▁Large	-13277
▁grief	-13278
▁suffix	-13279
▁traded	-13280
▁trials	-13281
lessness	-13282
▁Substit	-13283
▁scatter	-13284
▁emphasis	-13285
▁playlist	-13286
'\	-13287
TV	-13288
AND	-13289
sey	-13290
uer	-13291
elve	-13292
eval	-13293
▁Cru	-13294
Calcul	-13295
▁seeks	-13296
▁unity	-13297
▁delays	-13298
discount	-13299
▁lasting	-13300
▁roughly	-13301
rectangle	-13302
▁consoles	-13303
▁diplomatic	-13304
▁Description	-13305
▁appointment	-13306
FC	-13307
mu	-13308
zens	-13309
▁Easy	-13310
season	-13311
▁Trade	-13312
▁bouqu	-13313
▁census	-13314
▁proven	-13315
▁alleged	-13316
▁conclud	-13317
▁doctors	-13318
ederation	-13319
▁initiative	-13320
▁modification	-13321
FP	-13322
odd	-13323
ubs	-13324
redis	-13325
▁heal	-13326
▁Chloe	-13327
akedirs	-13328
▁Casual	-13329
▁shifts	-13330
▁Certain	-13331
▁Gaining	-13332
▁informal	-13333
ortunately	-13334
▁committee	-13335
▁inflation	-13336
▁permutations	-13337
vy	-13338
(){	-13339
|>/	-13340
▁NO	-13341
ugby	-13342
▁quit	-13343
ficiency	-13344
velocity	-13345
represent	-13346
▁realistic	-13347
▁sessionmaker	-13348
°,	-13349
▁ha	-13350
Cell	-13351
pick	-13352
arted	-13353
lined	-13354
▁Bang	-13355
▁FROM	-13356
▁Wind	-13357
▁laid	-13358
cially	-13359
▁burned	-13360
▁safely	-13361
▁failing	-13362
attribute	-13363
▁graduated	-13364
▁durability	-13365
▁appearances	-13366
▁corresponds	-13367
bn	-13368
ii	-13369
CHO	-13370
MAT	-13371
ante	-13372
▁Sky	-13373
▁vice	-13374
Engine	-13375
permut	-13376
▁Miami	-13377
▁melee	-13378
reprene	-13379
▁Doctor	-13380
▁analog	-13381
▁centre	-13382
▁raises	-13383
▁cartons	-13384
▁Category	-13385
▁formulas	-13386
reflection	-13387
▁penalties	-13388
/<	-13389
}-	-13390
('-	-13391
lot	-13392
▁Dur	-13393
▁Vin	-13394
anche	-13395
merce	-13396
overs	-13397
▁bomb	-13398
▁cone	-13399
▁Login	-13400
nsylvan	-13401
ulatory	-13402
▁Expand	-13403
▁guilty	-13404
▁Original	-13405
▁packaging	-13406
lux	-13407
▁Hom	-13408
▁pym	-13409
▁bets	-13410
▁dece	-13411
Stream	-13412
▁grace	-13413
▁duties	-13414
analysis	-13415
occurren	-13416
▁injured	-13417
▁rapidly	-13418
▁proposal	-13419
▁suppress	-13420
▁Universal	-13421
▁inclusion	-13422
▁persistent	-13423
▁declarative	-13424
▁percentages	-13425
aki	-13426
▁ft	-13427
Full	-13428
thag	-13429
▁Ful	-13430
assin	-13431
oning	-13432
reader	-13433
writing	-13434
▁Rights	-13435
▁essays	-13436
▁plugin	-13437
▁historic	-13438
▁marijuana	-13439
▁municipal	-13440
▁accomplish	-13441
LM	-13442
Two	-13443
▁EU	-13444
▁Jam	-13445
adjac	-13446
heses	-13447
ostic	-13448
oured	-13449
▁Snow	-13450
▁Todo	-13451
▁Reset	-13452
▁loops	-13453
▁newer	-13454
heating	-13455
implies	-13456
▁Centre	-13457
▁Concer	-13458
▁Golden	-13459
▁Travel	-13460
▁chores	-13461
▁yields	-13462
AddField	-13463
plication	-13464
▁Property	-13465
Validation	-13466
Enc	-13467
ima	-13468
▁PT	-13469
that	-13470
▁lie	-13471
▁Brad	-13472
▁Role	-13473
▁acne	-13474
▁deem	-13475
▁folk	-13476
▁cones	-13477
▁rated	-13478
▁lemons	-13479
▁oxygen	-13480
▁quotes	-13481
▁throws	-13482
islative	-13483
▁Testing	-13484
▁Francisco	-13485
}^	-13486
Json	-13487
▁Fox	-13488
▁fif	-13489
▁slug	-13490
google	-13491
▁Later	-13492
urities	-13493
▁reform	-13494
makedirs	-13495
▁associate	-13496
▁breakdown	-13497
▁happening	-13498
▁duplicates	-13499
▁obligation	-13500
▁substantial	-13501
▁;	-13502
"):	-13503
▁fasc	-13504
▁Relig	-13505
▁eleph	-13506
▁sampl	-13507
powered	-13508
▁Screen	-13509
fraction	-13510
▁gravity	-13511
▁massive	-13512
imination	-13513
▁pregnant	-13514
▁profiles	-13515
▁Committee	-13516
▁disadvant	-13517
▁Discussing	-13518
▁variations	-13519
▁individually	-13520
▁philosophical	-13521
)+	-13522
El	-13523
URE	-13524
into	-13525
quote	-13526
▁Terr	-13527
▁knit	-13528
bottom	-13529
titled	-13530
▁Grade	-13531
▁Memor	-13532
▁prism	-13533
▁invited	-13534
▁traumatic	-13535
toLowerCase	-13536
▁downloaded	-13537
cf	-13538
']:	-13539
(',	-13540
Equ	-13541
MIN	-13542
bow	-13543
phr	-13544
udo	-13545
▁Os	-13546
apps	-13547
paid	-13548
▁Meg	-13549
omnia	-13550
years	-13551
▁tons	-13552
▁Jones	-13553
▁Casino	-13554
▁banned	-13555
timezone	-13556
▁counsel	-13557
▁harmony	-13558
▁startup	-13559
▁pipeline	-13560
▁Secretary	-13561
▁Validates	-13562
▁increasingly	-13563
▁accessibility	-13564
Read	-13565
▁Nov	-13566
omain	-13567
without	-13568
▁Compan	-13569
▁Little	-13570
existent	-13571
▁arrested	-13572
▁Practicing	-13573
▁necessarily	-13574
iy	-13575
Sign	-13576
align	-13577
asket	-13578
terms	-13579
issing	-13580
▁bakes	-13581
▁shall	-13582
▁stead	-13583
▁Upgrad	-13584
▁bacteria	-13585
▁findings	-13586
▁notation	-13587
▁visiting	-13588
▁normalize	-13589
▁iterations	-13590
IF	-13591
▁pow	-13592
Score	-13593
stats	-13594
▁synd	-13595
▁blind	-13596
Station	-13597
▁ratios	-13598
▁stabil	-13599
▁diagram	-13600
▁falling	-13601
▁staying	-13602
▁Location	-13603
▁warranty	-13604
▁engineers	-13605
▁absolutely	-13606
▁explicitly	-13607
▁physically	-13608
▁generations	-13609
▁interactive	-13610
OK	-13611
)\)	-13612
town	-13613
▁Ari	-13614
▁pok	-13615
ouses	-13616
▁Budd	-13617
▁Harr	-13618
▁astr	-13619
getenv	-13620
▁Limit	-13621
▁Awards	-13622
▁relies	-13623
accuracy	-13624
▁Between	-13625
longitude	-13626
▁Internal	-13627
▁automated	-13628
▁libraries	-13629
▁opposition	-13630
▁certificate	-13631
()}	-13632
▁FI	-13633
CRET	-13634
▁"--	-13635
▁Bru	-13636
▁Cla	-13637
▁Prec	-13638
▁yard	-13639
▁anecd	-13640
▁shadow	-13641
multiple	-13642
▁magnetic	-13643
▁rejected	-13644
CreateModel	-13645
▁continuously	-13646
SR	-13647
MLE	-13648
▁ts	-13649
ista	-13650
prev	-13651
▁Naz	-13652
orean	-13653
▁Bridge	-13654
▁cosine	-13655
▁tissue	-13656
▁varies	-13657
▁adequate	-13658
▁synthetic	-13659
▁emotionally	-13660
fold	-13661
jack	-13662
xious	-13663
▁Hind	-13664
▁expon	-13665
▁nomin	-13666
▁piano	-13667
▁rocks	-13668
▁watts	-13669
summary	-13670
▁railway	-13671
▁apparent	-13672
▁heritage	-13673
▁celebrate	-13674
▁smartphones	-13675
▁Cos	-13676
▁SAT	-13677
▁Hero	-13678
▁compass	-13679
▁Extended	-13680
▁residence	-13681
▁Scientific	-13682
▁describing	-13683
▁restricted	-13684
.*	-13685
Qt	-13686
}',	-13687
flix	-13688
delay	-13689
hetic	-13690
▁mine	-13691
ataset	-13692
driven	-13693
ficial	-13694
layers	-13695
verter	-13696
▁cabin	-13697
▁airflow	-13698
Controller	-13699
▁coworkers	-13700
▁filtering	-13701
[[	-13702
dt	-13703
acs	-13704
Pool	-13705
Exist	-13706
claim	-13707
▁Cart	-13708
▁Wild	-13709
camera	-13710
▁Birth	-13711
▁Solar	-13712
▁plots	-13713
▁Nathan	-13714
▁popcorn	-13715
▁rivalry	-13716
▁accompan	-13717
components	-13718
▁passwords	-13719
▁Personality	-13720
CR	-13721
ICES	-13722
uten	-13723
viet	-13724
arith	-13725
dfrac	-13726
rogen	-13727
▁Edge	-13728
▁Watch	-13729
▁cinem	-13730
squares	-13731
▁copper	-13732
▁latter	-13733
________	-13734
▁Predict	-13735
▁honesty	-13736
▁penalty	-13737
▁coaching	-13738
▁entrance	-13739
▁unwanted	-13740
▁Operations	-13741
▁negotiation	-13742
)-	-13743
WN	-13744
mg	-13745
▁LS	-13746
▁NY	-13747
▁McC	-13748
▁PhD	-13749
large	-13750
ocker	-13751
▁suns	-13752
▁royal	-13753
ductory	-13754
marbles	-13755
sections	-13756
▁closure	-13757
▁faculty	-13758
▁relaxed	-13759
▁engineer	-13760
▁Transform	-13761
▁bandwidth	-13762
▁delimiter	-13763
▁exhibition	-13764
▁fractional	-13765
”,	-13766
aka	-13767
▁hi	-13768
PASS	-13769
arma	-13770
epage	-13771
▁Mode	-13772
▁repo	-13773
strong	-13774
terior	-13775
▁Dream	-13776
▁Movie	-13777
▁Ocean	-13778
aturally	-13779
elligent	-13780
irmation	-13781
▁Legends	-13782
▁acquire	-13783
▁fetched	-13784
▁protest	-13785
▁stadium	-13786
▁branches	-13787
▁registry	-13788
▁employers	-13789
▁portrayal	-13790
▁Connection	-13791
▁determinant	-13792
▁intellectual	-13793
▁encouragement	-13794
ен	-13795
eek	-13796
sis	-13797
iced	-13798
▁[])	-13799
▁Bowl	-13800
salary	-13801
▁Moder	-13802
▁lucid	-13803
▁physi	-13804
▁swims	-13805
Extract	-13806
▁grapes	-13807
▁narrow	-13808
▁Physics	-13809
▁scaling	-13810
Transform	-13811
▁excluded	-13812
▁queryset	-13813
▁rankings	-13814
▁Classical	-13815
▁assessing	-13816
▁audiences	-13817
▁headphones	-13818
▁Corporation	-13819
▁competitors	-13820
▁temporarily	-13821
(_	-13822
nan	-13823
▁$-	-13824
▁Ti	-13825
suit	-13826
todo	-13827
ubes	-13828
▁Iss	-13829
erves	-13830
liest	-13831
▁ranks	-13832
▁skins	-13833
▁Forest	-13834
▁Points	-13835
▁scoops	-13836
▁shells	-13837
categories	-13838
▁promotional	-13839
▁statistical	-13840
▁tablespoons	-13841
▁fluctuations	-13842
▁Championships	-13843
LAN	-13844
una	-13845
Port	-13846
▁MSI	-13847
▁Tyler	-13848
▁Urban	-13849
▁chrom	-13850
destroy	-13851
▁Fiction	-13852
▁impacted	-13853
▁treating	-13854
classifier	-13855
▁incidents	-13856
▁convenient	-13857
▁exceptional	-13858
▁Ms	-13859
▁ru	-13860
▁VPN	-13861
ilton	-13862
pread	-13863
▁Dead	-13864
▁lake	-13865
ferred	-13866
inputs	-13867
▁Victoria	-13868
▁enabling	-13869
▁lifespan	-13870
▁sunlight	-13871
▁surprise	-13872
px	-13873
elic	-13874
mann	-13875
idean	-13876
▁bone	-13877
▁fort	-13878
▁lens	-13879
▁trait	-13880
▁Though	-13881
▁sticks	-13882
▁carrier	-13883
startswith	-13884
comfortable	-13885
▁customization	-13886
()]	-13887
▁Uk	-13888
hero	-13889
▁Tam	-13890
Press	-13891
emale	-13892
▁Holy	-13893
essive	-13894
▁Again	-13895
▁drain	-13896
▁tooth	-13897
▁Assess	-13898
▁milest	-13899
▁Several	-13900
▁genuine	-13901
▁hormone	-13902
▁privile	-13903
▁spectrum	-13904
▁perpendicular	-13905
({"	-13906
obe	-13907
▁Jr	-13908
ansas	-13909
super	-13910
▁Sche	-13911
apshot	-13912
▁React	-13913
▁legacy	-13914
▁prefers	-13915
▁revenge	-13916
▁eligible	-13917
▁installing	-13918
▁suggesting	-13919
▁interpretations	-13920
yd	-13921
MAX	-13922
▁BY	-13923
diff	-13924
uits	-13925
▁Far	-13926
boxes	-13927
igger	-13928
▁Look	-13929
▁dess	-13930
▁grows	-13931
friends	-13932
▁Soviet	-13933
▁deemed	-13934
▁slowly	-13935
▁Supreme	-13936
▁mammals	-13937
idespread	-13938
▁inserted	-13939
pts	-13940
urd	-13941
uese	-13942
▁shr	-13943
about	-13944
acerb	-13945
▁Luke	-13946
▁pigs	-13947
▁wing	-13948
ustion	-13949
▁ducks	-13950
▁gummy	-13951
▁kills	-13952
ringing	-13953
▁Dragon	-13954
▁Recomm	-13955
▁provin	-13956
Variable	-13957
piratory	-13958
▁Country	-13959
▁Choosing	-13960
▁attorney	-13961
▁motivated	-13962
▁qualified	-13963
notification	-13964
$:	-13965
EE	-13966
]]]:	-13967
onto	-13968
plete	-13969
▁Rate	-13970
turtle	-13971
▁congr	-13972
▁hired	-13973
weather	-13974
▁Cooper	-13975
▁Member	-13976
▁_____.	-13977
▁Chapter	-13978
▁Netflix	-13979
▁Runtime	-13980
▁Stephen	-13981
▁boredom	-13982
▁engines	-13983
▁infants	-13984
MLElement	-13985
▁animated	-13986
▁assembly	-13987
iterations	-13988
▁Processing	-13989
▁acceleration	-13990
▁transitioning	-13991
[(	-13992
uv	-13993
anz	-13994
▁'#	-13995
▁Qt	-13996
')).	-13997
Does	-13998
blog	-13999
oved	-14000
trim	-14001
ToMany	-14002
▁Queue	-14003
▁comed	-14004
Address	-14005
maximum	-14006
▁Circle	-14007
▁locate	-14008
▁recycl	-14009
▁spoken	-14010
▁Decimal	-14011
▁observe	-14012
factorial	-14013
▁Exchange	-14014
▁insecurity	-14015
walk	-14016
adget	-14017
▁nerv	-14018
▁Steel	-14019
▁alive	-14020
Version	-14021
▁academ	-14022
currency	-14023
uclidean	-14024
▁-------	-14025
▁cameras	-14026
▁optical	-14027
▁deciding	-14028
▁Everything	-14029
▁translated	-14030
Sur	-14031
aug	-14032
Step	-14033
appy	-14034
▁Dim	-14035
▁Rot	-14036
▁spo	-14037
astro	-14038
▁Rome	-14039
▁beds	-14040
Called	-14041
Unknown	-14042
▁critique	-14043
▁histogram	-14044
▁mandatory	-14045
▁parliament	-14046
▁unresolved	-14047
▁surroundings	-14048
']}")	-14049
▁Voice	-14050
▁nucle	-14051
▁quadr	-14052
Comment	-14053
▁Follow	-14054
neighbor	-14055
variance	-14056
▁raising	-14057
▁alphabet	-14058
▁centered	-14059
:"	-14060
ALL	-14061
cher	-14062
laim	-14063
ingly	-14064
plane	-14065
▁Auth	-14066
▁torn	-14067
▁wash	-14068
▁Range	-14069
▁Santa	-14070
▁deter	-14071
▁Humans	-14072
▁Jersey	-14073
▁Sexual	-14074
▁bronze	-14075
▁kwargs	-14076
▁scroll	-14077
▁Machine	-14078
▁exacerb	-14079
▁opposed	-14080
▁Analysis	-14081
▁Pakistan	-14082
▁heightened	-14083
BooleanField	-14084
▁HttpRequest	-14085
AI	-14086
OP	-14087
ori	-14088
▁CM	-14089
kill	-14090
▁Sor	-14091
▁Gall	-14092
▁Hope	-14093
legend	-14094
titles	-14095
▁Crypt	-14096
▁Dutch	-14097
▁ancest	-14098
▁ritual	-14099
▁Require	-14100
▁enjoyed	-14101
▁signing	-14102
▁Computes	-14103
▁Michigan	-14104
▁Sciences	-14105
▁inferred	-14106
▁reciprocal	-14107
▁Satisfaction	-14108
▁introductory	-14109
▁Arg	-14110
▁Dry	-14111
TOKEN	-14112
▁Poké	-14113
Target	-14114
income	-14115
▁fiber	-14116
▁careers	-14117
increment	-14118
▁consisting	-14119
▁protective	-14120
▁unaffected	-14121
▁appreciated	-14122
/'	-14123
How	-14124
alcon	-14125
uzzle	-14126
▁Farm	-14127
sqlite	-14128
▁crack	-14129
keyword	-14130
▁Tensor	-14131
▁Turkey	-14132
iliation	-14133
▁Looking	-14134
▁scarves	-14135
▁Automatic	-14136
▁constraint	-14137
Eff	-14138
▁Ku	-14139
iner	-14140
▁Fat	-14141
▁Rod	-14142
plain	-14143
▁cust	-14144
ertion	-14145
▁Subsc	-14146
▁broke	-14147
▁cater	-14148
▁Sadness	-14149
▁decides	-14150
▁eastern	-14151
▁watched	-14152
▁wrapper	-14153
▁pleasure	-14154
▁newspapers	-14155
▁Independent	-14156
▁Insufficient	-14157
▁WebDriverWait	-14158
Dig	-14159
Squ	-14160
UID	-14161
}\),	-14162
▁Boy	-14163
▁cul	-14164
▁mic	-14165
loads	-14166
riors	-14167
▁bass	-14168
▁stro	-14169
Person	-14170
▁Shape	-14171
▁elder	-14172
▁Garden	-14173
ologists	-14174
▁heating	-14175
▁Converts	-14176
▁overcome	-14177
▁Sometimes	-14178
▁expanding	-14179
▁Republican	-14180
▁publishing	-14181
▁aspirations	-14182
▁manufacturers	-14183
!.	-14184
hu	-14185
=["	-14186
▁QR	-14187
MENT	-14188
▁Buy	-14189
embed	-14190
▁Fill	-14191
▁pine	-14192
▁Frame	-14193
▁Therm	-14194
▁honey	-14195
▁wheat	-14196
▁contrad	-14197
Formatter	-14198
Reference	-14199
▁anywhere	-14200
▁curiosity	-14201
▁generates	-14202
▁headlines	-14203
▁upgrading	-14204
▁demographic	-14205
FR	-14206
|\	-14207
)$.	-14208
▁ML	-14209
made	-14210
▁Hyp	-14211
▁Tro	-14212
▁jew	-14213
eties	-14214
ivial	-14215
proof	-14216
▁neut	-14217
▁wine	-14218
▁clone	-14219
▁paste	-14220
through	-14221
▁Korean	-14222
▁Systems	-14223
▁amazing	-14224
▁violent	-14225
inclusive	-14226
▁athletic	-14227
▁contacts	-14228
▁executing	-14229
▁variation	-14230
▁visualize	-14231
▁formatting	-14232
▁multiplier	-14233
▁projection	-14234
▁territories	-14235
▁watermelons	-14236
▁representative	-14237
pa	-14238
={'	-14239
aga	-14240
}$,	-14241
▁([	-14242
Flow	-14243
Mode	-14244
ktop	-14245
quee	-14246
slug	-14247
▁Gas	-14248
▁Lyn	-14249
▁Zen	-14250
▁req	-14251
▁src	-14252
burgh	-14253
tives	-14254
▁Spir	-14255
▁worn	-14256
▁Innov	-14257
▁fleet	-14258
▁Device	-14259
▁finite	-14260
▁stating	-14261
▁wealthy	-14262
▁optimizer	-14263
nt	-14264
}`;	-14265
cules	-14266
▁Band	-14267
▁Sequ	-14268
▁Tour	-14269
▁fant	-14270
▁gard	-14271
onomic	-14272
stdout	-14273
▁Stack	-14274
company	-14275
▁Castle	-14276
▁attach	-14277
▁tenant	-14278
▁inhabit	-14279
▁nursing	-14280
conscious	-14281
▁Simulated	-14282
▁Portuguese	-14283
};	-14284
IVE	-14285
WID	-14286
▁MAX	-14287
▁\)?	-14288
▁SATA	-14289
▁coat	-14290
endors	-14291
olving	-14292
▁decay	-14293
▁salad	-14294
CHOICES	-14295
cluster	-14296
parents	-14297
ulative	-14298
▁Buying	-14299
▁Michel	-14300
▁twenty	-14301
▁wanting	-14302
documents	-14303
▁annually	-14304
▁hypothes	-14305
▁Professor	-14306
▁wonderful	-14307
▁questioning	-14308
▁Intelligence	-14309
{(	-14310
uto	-14311
▁SV	-14312
)\).	-14313
Pipe	-14314
mong	-14315
▁Bor	-14316
▁Bull	-14317
▁abbre	-14318
▁roads	-14319
▁tough	-14320
▁waking	-14321
▁legally	-14322
▁offices	-14323
background	-14324
▁Elizabeth	-14325
▁assessments	-14326
▁authenticate	-14327
▁uncomfortable	-14328
TERN	-14329
aham	-14330
ucky	-14331
▁ton	-14332
▁Rain	-14333
Offset	-14334
▁argue	-14335
▁arrow	-14336
▁wound	-14337
▁Ubuntu	-14338
▁biology	-14339
▁painter	-14340
▁converts	-14341
▁invested	-14342
iso	-14343
']['	-14344
oton	-14345
usal	-14346
▁Cop	-14347
▁Dub	-14348
▁PCI	-14349
▁PCs	-14350
▁wet	-14351
until	-14352
▁thro	-14353
▁Activ	-14354
emption	-14355
▁broker	-14356
▁dealer	-14357
changing	-14358
derstood	-14359
▁athlete	-14360
▁banking	-14361
▁computes	-14362
▁disputes	-14363
Initialize	-14364
▁accepting	-14365
▁subsequently	-14366
▁с	-14367
Own	-14368
MAIL	-14369
atio	-14370
inja	-14371
▁leaf	-14372
mother	-14373
▁hosts	-14374
▁dining	-14375
▁myster	-14376
▁Dragons	-14377
▁confron	-14378
neighbors	-14379
▁Component	-14380
▁certainly	-14381
Programming	-14382
▁commentary	-14383
▁encouraging	-14384
▁permutation	-14385
CI	-14386
Cor	-14387
hill	-14388
hook	-14389
prov	-14390
▁Left	-14391
▁rear	-14392
▁Alban	-14393
▁Offic	-14394
▁reass	-14395
▁arbitr	-14396
▁curric	-14397
▁adjustment	-14398
▁Frustration	-14399
DU	-14400
repe	-14401
▁Diet	-14402
▁Sher	-14403
▁tier	-14404
Points	-14405
cience	-14406
signal	-14407
▁Course	-14408
▁Pythag	-14409
▁incred	-14410
checking	-14411
▁Emperor	-14412
▁pursuit	-14413
▁restore	-14414
▁singular	-14415
▁abandoned	-14416
▁pressures	-14417
▁transgender	-14418
▁misunderstood	-14419
don	-14420
Hist	-14421
▁NPC	-14422
DEBUG	-14423
human	-14424
▁Alab	-14425
▁bull	-14426
▁stit	-14427
lishes	-14428
▁Entry	-14429
▁Equal	-14430
▁arrest	-14431
▁scales	-14432
▁earning	-14433
▁newline	-14434
▁Indicates	-14435
▁deviation	-14436
ECT	-14437
__.	-14438
ools	-14439
rout	-14440
tial	-14441
▁pas	-14442
ayout	-14443
▁Room	-14444
▁coal	-14445
figsize	-14446
▁GitHub	-14447
▁flavors	-14448
▁guitars	-14449
▁presents	-14450
▁Resources	-14451
▁retrieving	-14452
▁Relationships	-14453
nce	-14454
rog	-14455
▁AL	-14456
▁SD	-14457
▁ec	-14458
uest	-14459
codes	-14460
▁blur	-14461
▁lots	-14462
▁puts	-14463
SELECT	-14464
isArray	-14465
▁artwork	-14466
▁interns	-14467
▁Identify	-14468
▁predomin	-14469
▁receiver	-14470
▁exponents	-14471
▁preventing	-14472
▁screenshot	-14473
▁negotiations	-14474
Des	-14475
cam	-14476
▁Kr	-14477
▁XP	-14478
bell	-14479
deck	-14480
Users	-14481
WIDTH	-14482
▁Norm	-14483
▁cues	-14484
▁hire	-14485
▁lore	-14486
▁tires	-14487
▁Animal	-14488
▁Samuel	-14489
▁Ukrain	-14490
▁disson	-14491
▁hybrid	-14492
▁rubber	-14493
▁mothers	-14494
▁renamed	-14495
sentences	-14496
▁Ministry	-14497
▁parseInt	-14498
▁surfaces	-14499
▁recognizing	-14500
uum	-14501
wal	-14502
east	-14503
centi	-14504
orian	-14505
votes	-14506
▁poem	-14507
▁knock	-14508
▁myself	-14509
▁scrape	-14510
accounts	-14511
▁asyncio	-14512
placement	-14513
▁appealing	-14514
▁Behavioral	-14515
▁respectful	-14516
▁representatives	-14517
iva	-14518
▁MN	-14519
agic	-14520
aria	-14521
isec	-14522
ancel	-14523
ronym	-14524
uator	-14525
▁Prob	-14526
▁thin	-14527
▁Bible	-14528
▁brick	-14529
▁groom	-14530
▁gross	-14531
▁sauce	-14532
choices	-14533
▁poster	-14534
existing	-14535
iversary	-14536
▁Privacy	-14537
▁adolesc	-14538
▁founder	-14539
▁pyramid	-14540
▁stealth	-14541
▁Historic	-14542
▁cylinder	-14543
▁treasure	-14544
▁triggers	-14545
▁artillery	-14546
▁assumption	-14547
▁indicators	-14548
rm	-14549
Play	-14550
mits	-14551
loader	-14552
▁worst	-14553
▁indent	-14554
▁varied	-14555
islation	-14556
▁Subject	-14557
▁bipolar	-14558
▁dislike	-14559
▁landing	-14560
▁recruit	-14561
▁rewrite	-14562
ographics	-14563
▁Maintain	-14564
▁salaries	-14565
probability	-14566
▁agriculture	-14567
▁commitments	-14568
wa	-14569
▁ABC	-14570
▁Cre	-14571
▁Gab	-14572
▁drag	-14573
▁Domin	-14574
▁prosec	-14575
▁robust	-14576
▁tablet	-14577
tiveness	-14578
▁grammar	-14579
▁retreat	-14580
▁Settings	-14581
▁solitude	-14582
▁subjective	-14583
▁conservation	-14584
WT	-14585
six	-14586
Hash	-14587
ilon	-14588
ixin	-14589
▁Jay	-14590
▁Les	-14591
▁iOS	-14592
MODEL	-14593
moves	-14594
▁Mind	-14595
▁fate	-14596
▁lasts	-14597
▁Aesthe	-14598
▁hosted	-14599
▁screws	-14600
▁stance	-14601
DATABASE	-14602
NotExist	-14603
candidate	-14604
▁callable	-14605
▁synchron	-14606
▁repetitive	-14607
▁volunteers	-14608
distribution	-14609
²,	-14610
DER	-14611
apy	-14612
▁Lew	-14613
▁Mah	-14614
▁nit	-14615
giene	-14616
▁Agric	-14617
▁maxim	-14618
lective	-14619
▁denial	-14620
▁adapter	-14621
▁fencing	-14622
▁killing	-14623
▁praised	-14624
Namespace	-14625
▁Chemistry	-14626
ToManyField	-14627
▁transitions	-14628
Ms	-14629
pio	-14630
Comp	-14631
Spec	-14632
ghan	-14633
iley	-14634
pipe	-14635
▁Pas	-14636
▁GPUs	-14637
ignore	-14638
itched	-14639
▁Anton	-14640
▁doses	-14641
▁reson	-14642
cluding	-14643
▁boards	-14644
▁Alabama	-14645
▁Liberal	-14646
▁cycling	-14647
▁secrets	-14648
migration	-14649
properties	-14650
▁triggered	-14651
frequencies	-14652
git	-14653
Null	-14654
cuss	-14655
phia	-14656
umbn	-14657
▁Syd	-14658
▁blow	-14659
▁expir	-14660
▁Pokémon	-14661
▁clusters	-14662
▁preserve	-14663
authorized	-14664
▁beverages	-14665
▁discourse	-14666
cod	-14667
tas	-14668
tor	-14669
kings	-14670
plots	-14671
staff	-14672
yroid	-14673
▁oral	-14674
▁Grace	-14675
▁props	-14676
▁cipher	-14677
▁galaxy	-14678
articles	-14679
framework	-14680
palindrome	-14681
▁Utilizing	-14682
▁alternate	-14683
▁belonging	-14684
▁deployment	-14685
▁examination	-14686
▁coordination	-14687
▁demonstrated	-14688
Api	-14689
▁DB	-14690
bian	-14691
xide	-14692
▁Ped	-14693
▁}),	-14694
achus	-14695
notes	-14696
react	-14697
sized	-14698
▁Corn	-14699
▁Indu	-14700
▁Side	-14701
▁sear	-14702
issues	-14703
mented	-14704
▁aggre	-14705
▁lands	-14706
▁circul	-14707
▁Constit	-14708
▁builder	-14709
▁sorting	-14710
▁trusted	-14711
▁Drinking	-14712
▁investor	-14713
▁gratitude	-14714
▁symmetric	-14715
▁delivering	-14716
▁geographic	-14717
hal	-14718
sth	-14719
▁Rh	-14720
▁UI	-14721
AUTH	-14722
gypt	-14723
▁>>>	-14724
▁Tol	-14725
ultiv	-14726
▁dais	-14727
▁sword	-14728
tivirus	-14729
▁fights	-14730
▁valued	-14731
▁wisdom	-14732
▁trouble	-14733
▁volumes	-14734
▁whereas	-14735
▁organisms	-14736
BI	-14737
▁·	-14738
▁CSS	-14739
▁Ros	-14740
▁beef	-14741
ograph	-14742
semble	-14743
▁escal	-14744
▁swing	-14745
Details	-14746
▁Differ	-14747
▁Friend	-14748
▁banana	-14749
▁burden	-14750
▁picnic	-14751
▁yearly	-14752
services	-14753
umptions	-14754
nsylvania	-14755
▁collects	-14756
▁showcase	-14757
combinations	-14758
▁distinction	-14759
▁companionship	-14760
▁advertisements	-14761
big	-14762
sex	-14763
conv	-14764
fits	-14765
▁Bry	-14766
▁Hit	-14767
▁Josh	-14768
Loader	-14769
▁timed	-14770
▁encode	-14771
Required	-14772
▁doubled	-14773
▁radical	-14774
▁Required	-14775
▁invasion	-14776
▁restrict	-14777
▁insertion	-14778
▁Collection	-14779
▁correction	-14780
▁submitting	-14781
▁comprehension	-14782
sid	-14783
acon	-14784
▁Gro	-14785
ifice	-14786
lette	-14787
▁ware	-14788
arring	-14789
▁loads	-14790
▁reply	-14791
▁poorly	-14792
▁remark	-14793
solution	-14794
▁planets	-14795
▁shelter	-14796
▁Transport	-14797
▁menstrual	-14798
▁thickness	-14799
▁cooperative	-14800
▁Psychological	-14801
OUT	-14802
}':	-14803
▁NH	-14804
href	-14805
wind	-14806
▁Fun	-14807
▁Mas	-14808
ftime	-14809
rates	-14810
rules	-14811
sizes	-14812
ucose	-14813
▁alleg	-14814
▁inhib	-14815
istence	-14816
▁morale	-14817
ctuation	-14818
▁curious	-14819
blueprint	-14820
▁dissonance	-14821
▁extraction	-14822
▁Mathematics	-14823
▁Recursively	-14824
Na	-14825
gt	-14826
▁~	-14827
ITY	-14828
▁Pv	-14829
Sort	-14830
enda	-14831
ivic	-14832
lins	-14833
take	-14834
▁tog	-14835
teins	-14836
▁Born	-14837
covery	-14838
▁ambig	-14839
▁Volume	-14840
▁forgot	-14841
▁Empathy	-14842
▁labeled	-14843
▁renting	-14844
▁necklace	-14845
initialize	-14846
▁Operation	-14847
▁impressive	-14848
▁whitespace	-14849
Ev	-14850
eu	-14851
ln	-14852
pc	-14853
nal	-14854
▁SP	-14855
onts	-14856
ping	-14857
plus	-14858
given	-14859
▁Brain	-14860
▁deque	-14861
▁shame	-14862
factory	-14863
surface	-14864
▁Shadow	-14865
▁abroad	-14866
important	-14867
[...]
