{
  "version": "1.0",
  "truncation": null,
  "padding": null,
  "added_tokens": [
    {
      "id": 0,
      "content": "<pad>",
      "single_word": false,
      "lstrip": false,
      "rstrip": false,
      "normalized": false,
      "special": true
    },
    {
      "id": 1,
      "content": "<unk>",
      "single_word": false,
      "lstrip": false,
      "rstrip": false,
      "normalized": false,
      "special": true
    },
    {
      "id": 2,
      "content": "<s>",
      "single_word": false,
      "lstrip": false,
      "rstrip": false,
      "normalized": false,
      "special": true
    },
    {
      "id": 3,
      "content": "</s>",
      "single_word": false,
      "lstrip": false,
      "rstrip": false,
      "normalized": false,
      "special": true
    }
  ],
  "normalizer": null,
  "pre_tokenizer": {
    "type": "Metaspace",
    "replacement": "▁",
    "prepend_scheme": "never",
    "split": false
  },
  "post_processor": {
    "type": "TemplateProcessing",
    "single": [
      {
        "SpecialToken": {
          "id": "<s>",
          "type_id": 0
        }
      },
      {
        "Sequence": {
          "id": "A",
          "type_id": 0
        }
      }
    ],
    "pair": [
      {
        "SpecialToken": {
          "id": "<s>",
          "type_id": 0
        }
      },
      {
        "Sequence": {
          "id": "A",
          "type_id": 0
        }
      },
      {
        "SpecialToken": {
          "id": "<s>",
          "type_id": 1
        }
      },
      {
        "Sequence": {
          "id": "B",
          "type_id": 1
        }
      }
    ],
    "special_tokens": {
      "<s>": {
        "id": "<s>",
        "ids": [
          2
        ],
        "tokens": [
          "<s>"
        ]
      }
    }
  },
  "decoder": {
    "type": "Sequence",
    "decoders": [
      {
        "type": "Replace",
        "pattern": {
          "String": "▁"
        },
        "content": " "
      },
      {
        "type": "ByteFallback"
      },
      {
        "type": "Fuse"
      }
    ]
  },
  "model": {
    "type": "BPE",
    "dropout": null,
    "unk_token": "<unk>",
    "continuing_subword_prefix": null,
    "end_of_word_suffix": null,
    "fuse_unk": true,
    "byte_fallback": true,
    "ignore_merges": false,
    "vocab": {
      "<pad>": 0,
      "<unk>": 1,
      "<s>": 2,
      "</s>": 3,
      "<0x00>": 4,
      "<0x01>": 5,
      "<0x02>": 6,
      "<0x03>": 7,
      "<0x04>": 8,
      "<0x05>": 9,
      "<0x06>": 10,
      "<0x07>": 11,
      "<0x08>": 12,
      "<0x09>": 13,
      "<0x0A>": 14,
      "<0x0B>": 15,
      "<0x0C>": 16,
      "<0x0D>": 17,
      "<0x0E>": 18,
      "<0x0F>": 19,
      "<0x10>": 20,
      "<0x11>": 21,
      "<0x12>": 22,
      "<0x13>": 23,
      "<0x14>": 24,
      "<0x15>": 25,
      "<0x16>": 26,
      "<0x17>": 27,
      "<0x18>": 28,
      "<0x19>": 29,
      "<0x1A>": 30,
      "<0x1B>": 31,
      "<0x1C>": 32,
      "<0x1D>": 33,
      "<0x1E>": 34,
      "<0x1F>": 35,
      "<0x20>": 36,
      "<0x21>": 37,
      "<0x22>": 38,
      "<0x23>": 39,
      "<0x24>": 40,
      "<0x25>": 41,
      "<0x26>": 42,
      "<0x27>": 43,
      "<0x28>": 44,
      "<0x29>": 45,
      "<0x2A>": 46,
      "<0x2B>": 47,
      "<0x2C>": 48,
      "<0x2D>": 49,
      "<0x2E>": 50,
      "<0x2F>": 51,
      "<0x30>": 52,
      "<0x31>": 53,
      "<0x32>": 54,
      "<0x33>": 55,
      "<0x34>": 56,
      "<0x35>": 57,
      "<0x36>": 58,
      "<0x37>": 59,
      "<0x38>": 60,
      "<0x39>": 61,
      "<0x3A>": 62,
      "<0x3B>": 63,
      "<0x3C>": 64,
      "<0x3D>": 65,
      "<0x3E>": 66,
      "<0x3F>": 67,
      "<0x40>": 68,
      "<0x41>": 69,
      "<0x42>": 70,
      "<0x43>": 71,
      "<0x44>": 72,
      "<0x45>": 73,
      "<0x46>": 74,
      "<0x47>": 75,
      "<0x48>": 76,
      "<0x49>": 77,
      "<0x4A>": 78,
      "<0x4B>": 79,
      "<0x4C>": 80,
      "<0x4D>": 81,
      "<0x4E>": 82,
      "<0x4F>": 83,
      "<0x50>": 84,
      "<0x51>": 85,
      "<0x52>": 86,
      "<0x53>": 87,
      "<0x54>": 88,
      "<0x55>": 89,
      "<0x56>": 90,
      "<0x57>": 91,
      "<0x58>": 92,
      "<0x59>": 93,
      "<0x5A>": 94,
      "<0x5B>": 95,
      "<0x5C>": 96,
      "<0x5D>": 97,
      "<0x5E>": 98,
      "<0x5F>": 99,
      "<0x60>": 100,
      "<0x61>": 101,
      "<0x62>": 102,
      "<0x63>": 103,
      "<0x64>": 104,
      "<0x65>": 105,
      "<0x66>": 106,
      "<0x67>": 107,
      "<0x68>": 108,
      "<0x69>": 109,
      "<0x6A>": 110,
      "<0x6B>": 111,
      "<0x6C>": 112,
      "<0x6D>": 113,
      "<0x6E>": 114,
      "<0x6F>": 115,
      "<0x70>": 116,
      "<0x71>": 117,
      "<0x72>": 118,
      "<0x73>": 119,
      "<0x74>": 120,
      "<0x75>": 121,
      "<0x76>": 122,
      "<0x77>": 123,
      "<0x78>": 124,
      "<0x79>": 125,
      "<0x7A>": 126,
      "<0x7B>": 127,
      "<0x7C>": 128,
      "<0x7D>": 129,
      "<0x7E>": 130,
      "<0x7F>": 131,
      "<0x80>": 132,
      "<0x81>": 133,
      "<0x82>": 134,
      "<0x83>": 135,
      "<0x84>": 136,
      "<0x85>": 137,
      "<0x86>": 138,
      "<0x87>": 139,
      "<0x88>": 140,
      "<0x89>": 141,
      "<0x8A>": 142,
      "<0x8B>": 143,
      "<0x8C>": 144,
      "<0x8D>": 145,
      "<0x8E>": 146,
      "<0x8F>": 147,
      "<0x90>": 148,
      "<0x91>": 149,
      "<0x92>": 150,
      "<0x93>": 151,
      "<0x94>": 152,
      "<0x95>": 153,
      "<0x96>": 154,
      "<0x97>": 155,
      "<0x98>": 156,
      "<0x99>": 157,
      "<0x9A>": 158,
      "<0x9B>": 159,
      "<0x9C>": 160,
      "<0x9D>": 161,
      "<0x9E>": 162,
      "<0x9F>": 163,
      "<0xA0>": 164,
      "<0xA1>": 165,
      "<0xA2>": 166,
      "<0xA3>": 167,
      "<0xA4>": 168,
      "<0xA5>": 169,
      "<0xA6>": 170,
      "<0xA7>": 171,
      "<0xA8>": 172,
      "<0xA9>": 173,
      "<0xAA>": 174,
      "<0xAB>": 175,
      "<0xAC>": 176,
      "<0xAD>": 177,
      "<0xAE>": 178,
      "<0xAF>": 179,
      "<0xB0>": 180,
      "<0xB1>": 181,
      "<0xB2>": 182,
      "<0xB3>": 183,
      "<0xB4>": 184,
      "<0xB5>": 185,
      "<0xB6>": 186,
      "<0xB7>": 187,
      "<0xB8>": 188,
      "<0xB9>": 189,
      "<0xBA>": 190,
      "<0xBB>": 191,
      "<0xBC>": 192,
      "<0xBD>": 193,
      "<0xBE>": 194,
      "<0xBF>": 195,
      "<0xC0>": 196,
      "<0xC1>": 197,
      "<0xC2>": 198,
      "<0xC3>": 199,
      "<0xC4>": 200,
      "<0xC5>": 201,
      "<0xC6>": 202,
      "<0xC7>": 203,
      "<0xC8>": 204,
      "<0xC9>": 205,
      "<0xCA>": 206,
      "<0xCB>": 207,
      "<0xCC>": 208,
      "<0xCD>": 209,
      "<0xCE>": 210,
      "<0xCF>": 211,
      "<0xD0>": 212,
      "<0xD1>": 213,
      "<0xD2>": 214,
      "<0xD3>": 215,
      "<0xD4>": 216,
      "<0xD5>": 217,
      "<0xD6>": 218,
      "<0xD7>": 219,
      "<0xD8>": 220,
      "<0xD9>": 221,
      "<0xDA>": 222,
      "<0xDB>": 223,
      "<0xDC>": 224,
      "<0xDD>": 225,
      "<0xDE>": 226,
      "<0xDF>": 227,
      "<0xE0>": 228,
      "<0xE1>": 229,
      "<0xE2>": 230,
      "<0xE3>": 231,
      "<0xE4>": 232,
      "<0xE5>": 233,
      "<0xE6>": 234,
      "<0xE7>": 235,
      "<0xE8>": 236,
      "<0xE9>": 237,
      "<0xEA>": 238,
      "<0xEB>": 239,
      "<0xEC>": 240,
      "<0xED>": 241,
      "<0xEE>": 242,
      "<0xEF>": 243,
      "<0xF0>": 244,
      "<0xF1>": 245,
      "<0xF2>": 246,
      "<0xF3>": 247,
      "<0xF4>": 248,
      "<0xF5>": 249,
      "<0xF6>": 250,
      "<0xF7>": 251,
      "<0xF8>": 252,
      "<0xF9>": 253,
      "<0xFA>": 254,
      "<0xFB>": 255,
      "<0xFC>": 256,
      "<0xFD>": 257,
      "<0xFE>": 258,
      "<0xFF>": 259,
      "▁t": 260,
      "in": 261,
      "er": 262,
      "▁a": 263,
      "he": 264,
      "on": 265,
      "es": 266,
      "at": 267,
      "re": 268,
      "▁the": 269,
      "▁s": 270,
      "en": 271,
      "▁c": 272,
      "or": 273,
      "is": 274,
      "▁f": 275,
      "an": 276,
      "al": 277,
      "ti": 278,
      "▁o": 279,
      "▁A": 280,
      "▁w": 281,
      "▁p": 282,
      "ing": 283,
      "▁m": 284,
      "ed": 285,
      "ar": 286,
      "▁d": 287,
      "ou": 288,
      "it": 289,
      "▁b": 290,
      "▁to": 291,
      "▁of": 292,
      "▁in": 293,
      "le": 294,
      "▁an": 295,
      "ic": 296,
      "tion": 297,
      "ent": 298,
      "▁T": 299,
      "▁n": 300,
      "ro": 301,
      "▁I": 302,
      "as": 303,
      "▁S": 304,
      "▁C": 305,
      "▁h": 306,
      "▁B": 307,
      "et": 308,
      "▁and": 309,
      "el": 310,
      "ac": 311,
      "▁th": 312,
      "▁is": 313,
      "▁e": 314,
      "st": 315,
      "ow": 316,
      "ion": 317,
      "▁re": 318,
      "▁=": 319,
      "am": 320,
      "om": 321,
      "▁D": 322,
      "ur": 323,
      "il": 324,
      "ol": 325,
      "ues": 326,
      "id": 327,
      "im": 328,
      "▁for": 329,
      "▁g": 330,
      "ec": 331,
      "ig": 332,
      "▁l": 333,
      "ve": 334,
      "▁st": 335,
      "ns": 336,
      "ly": 337,
      "ation": 338,
      "ut": 339,
      "ist": 340,
      "ul": 341,
      "uestion": 342,
      "wer": 343,
      "us": 344,
      "▁W": 345,
      "um": 346,
      "ate": 347,
      "ay": 348,
      "ce": 349,
      "ers": 350,
      "▁Q": 351,
      "\"\"": 352,
      "▁The": 353,
      "▁on": 354,
      "nswer": 355,
      "▁Answer": 356,
      "th": 357,
      "▁r": 358,
      "▁Question": 359,
      "ant": 360,
      "ud": 361,
      "ag": 362,
      "▁y": 363,
      "▁con": 364,
      "if": 365,
      "se": 366,
      "un": 367,
      "▁P": 368,
      "__": 369,
      "ot": 370,
      "▁we": 371,
      "ir": 372,
      "ad": 373,
      "ith": 374,
      "ess": 375,
      "ue": 376,
      "iv": 377,
      "▁it": 378,
      "od": 379,
      "▁(": 380,
      "▁that": 381,
      "ter": 382,
      "▁as": 383,
      "udent": 384,
      "▁be": 385,
      "▁with": 386,
      "▁you": 387,
      "▁pro": 388,
      "ment": 389,
      "▁U": 390,
      "▁ne": 391,
      "▁St": 392,
      "▁H": 393,
      "ain": 394,
      "▁ex": 395,
      "hic": 396,
      "▁E": 397,
      "hat": 398,
      "igh": 399,
      "▁L": 400,
      "ch": 401,
      "▁F": 402,
      "▁-": 403,
      "pp": 404,
      "ss": 405,
      "ct": 406,
      "ri": 407,
      "rom": 408,
      "▁de": 409,
      "▁v": 410,
      "ser": 411,
      "▁can": 412,
      "age": 413,
      "hich": 414,
      "▁are": 415,
      "▁M": 416,
      "ber": 417,
      "oun": 418,
      "ak": 419,
      "▁by": 420,
      "ame": 421,
      "▁R": 422,
      "▁$": 423,
      "▁com": 424,
      "▁N": 425,
      "ort": 426,
      "qu": 427,
      "ab": 428,
      "est": 429,
      "▁So": 430,
      "▁tr": 431,
      "▁he": 432,
      "ight": 433,
      "▁us": 434,
      "em": 435,
      "▁*": 436,
      "▁num": 437,
      "ci": 438,
      "\"\"\"": 439,
      "▁from": 440,
      "ver": 441,
      "ore": 442,
      "▁Ass": 443,
      "ave": 444,
      "ld": 445,
      "▁le": 446,
      "▁User": 447,
      "istant": 448,
      "▁su": 449,
      "▁\"\"\"": 450,
      "▁Assistant": 451,
      "▁al": 452,
      "▁\"": 453,
      "and": 454,
      "low": 455,
      "our": 456,
      "▁Student": 457,
      "▁G": 458,
      "▁pr": 459,
      "act": 460,
      "▁{": 461,
      "ect": 462,
      "▁\\": 463,
      "pl": 464,
      "▁II": 465,
      "end": 466,
      "▁O": 467,
      "ity": 468,
      "ure": 469,
      "ex": 470,
      "int": 471,
      "▁ch": 472,
      "tal": 473,
      "▁or": 474,
      "▁im": 475,
      "▁number": 476,
      "▁do": 477,
      "▁if": 478,
      "▁total": 479,
      "tur": 480,
      "ind": 481,
      "ere": 482,
      "ould": 483,
      "▁+": 484,
      "ap": 485,
      "ple": 486,
      "ass": 487,
      "▁have": 488,
      "▁str": 489,
      "▁this": 490,
      "▁need": 491,
      "▁'": 492,
      "ard": 493,
      "ks": 494,
      "▁Y": 495,
      "▁fol": 496,
      "ach": 497,
      "▁follow": 498,
      "ill": 499,
      "ath": 500,
      "ction": 501,
      "()": 502,
      "▁co": 503,
      "lo": 504,
      "ep": 505,
      "▁__": 506,
      "▁so": 507,
      "out": 508,
      "▁In": 509,
      "port": 510,
      "▁#": 511,
      "turn": 512,
      "art": 513,
      "elf": 514,
      "▁k": 515,
      "pe": 516,
      "▁def": 517,
      "▁following": 518,
      "iz": 519,
      "▁Which": 520,
      "▁un": 521,
      "▁out": 522,
      "▁pl": 523,
      "▁cal": 524,
      "per": 525,
      "ance": 526,
      "▁at": 527,
      "▁res": 528,
      "▁per": 529,
      "▁sh": 530,
      "cul": 531,
      "▁me": 532,
      "ile": 533,
      "up": 534,
      "▁int": 535,
      "ang": 536,
      "▁}": 537,
      "ies": 538,
      "os": 539,
      "▁ab": 540,
      "▁Th": 541,
      "▁only": 542,
      "ations": 543,
      "ome": 544,
      "▁return": 545,
      "▁ad": 546,
      "):": 547,
      "ount": 548,
      "str": 549,
      "are": 550,
      "▁fe": 551,
      "one": 552,
      "▁how": 553,
      "▁has": 554,
      "▁man": 555,
      "rect": 556,
      "iti": 557,
      "oo": 558,
      "ble": 559,
      "ence": 560,
      "▁en": 561,
      "▁What": 562,
      "ine": 563,
      "ff": 564,
      "▁tim": 565,
      "▁cont": 566,
      "ual": 567,
      "der": 568,
      "orm": 569,
      "ult": 570,
      "▁calcul": 571,
      "ide": 572,
      "▁was": 573,
      "St": 574,
      "▁not": 575,
      "▁That": 576,
      "▁se": 577,
      "av": 578,
      "ck": 579,
      "ase": 580,
      "▁app": 581,
      "all": 582,
      "ated": 583,
      "▁cl": 584,
      "▁which": 585,
      "ata": 586,
      "put": 587,
      "ther": 588,
      "ice": 589,
      "cc": 590,
      "▁sp": 591,
      "ive": 592,
      "ip": 593,
      "ound": 594,
      "ack": 595,
      "▁wh": 596,
      "**": 597,
      "▁Tr": 598,
      "og": 599,
      "▁It": 600,
      "▁ind": 601,
      "▁more": 602,
      "▁Ex": 603,
      "arti": 604,
      "▁J": 605,
      "gh": 606,
      "ust": 607,
      "▁___": 608,
      "ical": 609,
      "les": 610,
      "ord": 611,
      "ary": 612,
      "▁any": 613,
      "▁dis": 614,
      "op": 615,
      "ree": 616,
      "pt": 617,
      "alse": 618,
      "ans": 619,
      "cip": 620,
      "able": 621,
      "▁would": 622,
      "ough": 623,
      "ear": 624,
      "▁each": 625,
      "▁Let": 626,
      "ext": 627,
      "tic": 628,
      "▁j": 629,
      "▁find": 630,
      "▁If": 631,
      "▁their": 632,
      "name": 633,
      "ren": 634,
      "▁import": 635,
      "form": 636,
      "articip": 637,
      "ll": 638,
      "ivid": 639,
      "▁III": 640,
      "lp": 641,
      "▁**": 642,
      "ail": 643,
      "fer": 644,
      "▁->": 645,
      "ake": 646,
      "hen": 647,
      "▁comm": 648,
      "▁True": 649,
      "ie": 650,
      "tions": 651,
      "reat": 652,
      "\")": 653,
      "enc": 654,
      "alue": 655,
      "▁help": 656,
      "▁many": 657,
      "irst": 658,
      "articipant": 659,
      "get": 660,
      "Student": 661,
      "▁inc": 662,
      "',": 663,
      "ong": 664,
      "▁False": 665,
      "ey": 666,
      "own": 667,
      ":**": 668,
      "ign": 669,
      "orrect": 670,
      "▁about": 671,
      "king": 672,
      "oc": 673,
      "pr": 674,
      "▁We": 675,
      "▁/": 676,
      "▁Participant": 677,
      "▁q": 678,
      "▁ty": 679,
      "▁get": 680,
      "ings": 681,
      "▁An": 682,
      ").": 683,
      "ments": 684,
      "▁fun": 685,
      "ory": 686,
      "ror": 687,
      "▁all": 688,
      "ays": 689,
      "du": 690,
      "▁self": 691,
      "tr": 692,
      "▁print": 693,
      "ge": 694,
      "ub": 695,
      "▁add": 696,
      "▁will": 697,
      "ost": 698,
      "ode": 699,
      "ell": 700,
      "▁You": 701,
      "▁wor": 702,
      "lic": 703,
      "blem": 704,
      "▁ar": 705,
      "▁em": 706,
      "▁one": 707,
      "ft": 708,
      "▁rel": 709,
      "tim": 710,
      "ace": 711,
      "▁let": 712,
      "▁bo": 713,
      "ens": 714,
      "ast": 715,
      "▁:": 716,
      "▁ro": 717,
      "▁calculate": 718,
      "▁new": 719,
      "),": 720,
      "▁up": 721,
      "▁question": 722,
      "▁right": 723,
      "▁V": 724,
      "ite": 725,
      "▁gr": 726,
      "▁function": 727,
      "pon": 728,
      "▁feel": 729,
      "odel": 730,
      "red": 731,
      "▁correct": 732,
      "▁sub": 733,
      "▁cost": 734,
      "▁time": 735,
      "ates": 736,
      "enti": 737,
      "ition": 738,
      "par": 739,
      "▁des": 740,
      "gr": 741,
      "als": 742,
      "▁inter": 743,
      "▁she": 744,
      "rib": 745,
      "so": 746,
      "▁giv": 747,
      "▁problem": 748,
      "fter": 749,
      "actly": 750,
      "ia": 751,
      "▁step": 752,
      "▁hour": 753,
      "vel": 754,
      "▁\\(": 755,
      "eng": 756,
      "▁min": 757,
      "hip": 758,
      "ulti": 759,
      "ents": 760,
      "▁How": 761,
      "ased": 762,
      "ood": 763,
      ");": 764,
      "▁try": 765,
      "ous": 766,
      "self": 767,
      "▁am": 768,
      "con": 769,
      "ject": 770,
      "ally": 771,
      "erson": 772,
      "ors": 773,
      "▁true": 774,
      "▁[": 775,
      "▁sc": 776,
      "\",": 777,
      "ank": 778,
      "▁equ": 779,
      "ik": 780,
      "▁list": 781,
      "▁To": 782,
      "▁|": 783,
      "ividual": 784,
      "pro": 785,
      "akes": 786,
      "▁kn": 787,
      "rough": 788,
      "▁class": 789,
      "▁reg": 790,
      "ific": 791,
      "▁play": 792,
      "▁cons": 793,
      "▁sol": 794,
      "erm": 795,
      "▁your": 796,
      "▁first": 797,
      "▁Exactly": 798,
      "ption": 799,
      "ax": 800,
      "▁po": 801,
      "eg": 802,
      "ely": 803,
      "come": 804,
      "ild": 805,
      "iel": 806,
      "(\"": 807,
      "▁col": 808,
      "▁they": 809,
      "▁mo": 810,
      "▁form": 811,
      "▁result": 812,
      "ts": 813,
      "▁==": 814,
      "ys": 815,
      "▁year": 816,
      "▁multi": 817,
      "▁through": 818,
      "▁ans": 819,
      "urren": 820,
      "▁questions": 821,
      "▁K": 822,
      "▁answer": 823,
      "ond": 824,
      "path": 825,
      "ize": 826,
      "▁set": 827,
      "▁char": 828,
      "▁after": 829,
      "▁individual": 830,
      "ield": 831,
      "▁Now": 832,
      "▁tw": 833,
      "▁his": 834,
      "cess": 835,
      "▁there": 836,
      "▁now": 837,
      "▁ser": 838,
      "aining": 839,
      "gs": 840,
      "app": 841,
      "elcome": 842,
      "▁under": 843,
      "▁mar": 844,
      "▁acc": 845,
      "▁should": 846,
      "▁down": 847,
      "com": 848,
      "--": 849,
      "▁conf": 850,
      "▁They": 851,
      "▁pre": 852,
      "▁welcome": 853,
      "▁bre": 854,
      "▁Yes": 855,
      "▁does": 856,
      "igure": 857,
      "ty": 858,
      "▁no": 859,
      "▁her": 860,
      "ef": 861,
      "▁state": 862,
      "▁ac": 863,
      "▁x": 864,
      "cial": 865,
      "inal": 866,
      "ating": 867,
      "ily": 868,
      "ry": 869,
      "▁sec": 870,
      "param": 871,
      "ility": 872,
      "▁but": 873,
      "ten": 874,
      "▁other": 875,
      "we": 876,
      "▁disc": 877,
      "▁ev": 878,
      "ange": 879,
      "▁met": 880,
      "▁bu": 881,
      "ict": 882,
      "▁ag": 883,
      "ength": 884,
      "▁boo": 885,
      "▁rem": 886,
      "▁data": 887,
      "▁ask": 888,
      "tive": 889,
      "..": 890,
      "res": 891,
      "ise": 892,
      "▁free": 893,
      "▁bet": 894,
      "▁than": 895,
      "('": 896,
      "bers": 897,
      "▁start": 898,
      "▁when": 899,
      "▁mu": 900,
      "▁Ar": 901,
      "ession": 902,
      "anc": 903,
      "▁None": 904,
      "▁day": 905,
      "urrent": 906,
      "ial": 907,
      "▁person": 908,
      "ince": 909,
      "▁string": 910,
      "▁over": 911,
      "ob": 912,
      "aw": 913,
      "▁times": 914,
      "▁spec": 915,
      "▁user": 916,
      "ener": 917,
      "iles": 918,
      "▁then": 919,
      "▁file": 920,
      "to": 921,
      "cept": 922,
      "▁Can": 923,
      "▁who": 924,
      "▁figure": 925,
      "▁typ": 926,
      "▁exper": 927,
      "▁sy": 928,
      "▁hours": 929,
      "▁sim": 930,
      "▁use": 931,
      "iffer": 932,
      "▁wr": 933,
      "ib": 934,
      "▁them": 935,
      "▁dist": 936,
      "ire": 937,
      "▁mat": 938,
      "pect": 939,
      "its": 940,
      "rac": 941,
      "▁much": 942,
      "te": 943,
      "lud": 944,
      "ply": 945,
      "▁part": 946,
      "▁State": 947,
      "▁qu": 948,
      "▁break": 949,
      "hes": 950,
      "stand": 951,
      "▁comp": 952,
      "')": 953,
      "▁const": 954,
      "▁supp": 955,
      "▁main": 956,
      "ose": 957,
      "lect": 958,
      "▁model": 959,
      "▁div": 960,
      "oy": 961,
      "row": 962,
      "ense": 963,
      "ied": 964,
      "uring": 965,
      "ative": 966,
      "ons": 967,
      "ars": 968,
      "num": 969,
      "data": 970,
      "▁know": 971,
      "ish": 972,
      "▁two": 973,
      "ix": 974,
      "utes": 975,
      "▁dec": 976,
      "ray": 977,
      "▁This": 978,
      "rror": 979,
      "▁prov": 980,
      "▁inv": 981,
      "ions": 982,
      "ike": 983,
      "ade": 984,
      "ities": 985,
      "ames": 986,
      "▁cour": 987,
      "▁student": 988,
      "▁left": 989,
      "▁game": 990,
      "▁Ch": 991,
      "▁dr": 992,
      "ari": 993,
      "ends": 994,
      "ok": 995,
      "reate": 996,
      "file": 997,
      "hn": 998,
      "▁what": 999,
      "▁val": 1000,
      "▁used": 1001,
      "ationship": 1002,
      "ages": 1003,
      "▁experi": 1004,
      "▁wal": 1005,
      "ink": 1006,
      "\":": 1007,
      "tract": 1008,
      "▁te": 1009,
      "▁eff": 1010,
      "▁name": 1011,
      "▁value": 1012,
      "▁Ret": 1013,
      "▁may": 1014,
      "tiv": 1015,
      "▁relationship": 1016,
      "▁work": 1017,
      "▁ob": 1018,
      "ved": 1019,
      "ider": 1020,
      "irect": 1021,
      "assage": 1022,
      "▁amount": 1023,
      "▁En": 1024,
      "▁Statement": 1025,
      "▁mon": 1026,
      "▁op": 1027,
      "▁produ": 1028,
      "▁List": 1029,
      "▁Al": 1030,
      "Error": 1031,
      "ick": 1032,
      "ove": 1033,
      "▁ph": 1034,
      "▁desc": 1035,
      "ques": 1036,
      "▁see": 1037,
      "▁<": 1038,
      "play": 1039,
      "ower": 1040,
      "▁wee": 1041,
      "ning": 1042,
      "error": 1043,
      "▁some": 1044,
      "▁includ": 1045,
      "▁el": 1046,
      "▁trying": 1047,
      "ting": 1048,
      "▁its": 1049,
      "▁course": 1050,
      "ample": 1051,
      "▁understand": 1052,
      "▁type": 1053,
      "acter": 1054,
      "ah": 1055,
      "▁current": 1056,
      "▁go": 1057,
      "▁into": 1058,
      "▁He": 1059,
      "▁were": 1060,
      "stem": 1061,
      "▁make": 1062,
      "▁did": 1063,
      "▁our": 1064,
      "alth": 1065,
      "ient": 1066,
      "▁respon": 1067,
      "▁test": 1068,
      "her": 1069,
      "ull": 1070,
      "▁regard": 1071,
      "▁ass": 1072,
      "▁process": 1073,
      "▁multiply": 1074,
      "▁rec": 1075,
      "heck": 1076,
      "urns": 1077,
      "very": 1078,
      "▁Con": 1079,
      "iss": 1080,
      "▁Com": 1081,
      "ute": 1082,
      "▁Passage": 1083,
      "▁On": 1084,
      "val": 1085,
      "▁common": 1086,
      "▁All": 1087,
      "':": 1088,
      "▁makes": 1089,
      "ery": 1090,
      "``": 1091,
      "▁Hi": 1092,
      "cl": 1093,
      "▁often": 1094,
      "▁No": 1095,
      "▁Of": 1096,
      "olog": 1097,
      "▁differ": 1098,
      "oup": 1099,
      "itial": 1100,
      "▁=>": 1101,
      "ator": 1102,
      "▁sense": 1103,
      "▁pe": 1104,
      "▁Got": 1105,
      "▁years": 1106,
      "▁walking": 1107,
      "▁commun": 1108,
      "ph": 1109,
      "▁fri": 1110,
      "▁Un": 1111,
      "ures": 1112,
      "▁Returns": 1113,
      "ful": 1114,
      "ween": 1115,
      "tional": 1116,
      "ically": 1117,
      "ication": 1118,
      "ards": 1119,
      "ug": 1120,
      "▁minutes": 1121,
      "▁consider": 1122,
      "▁character": 1123,
      "use": 1124,
      "▁second": 1125,
      "line": 1126,
      "▁gives": 1127,
      "▁term": 1128,
      "▁And": 1129,
      "▁sign": 1130,
      "▁also": 1131,
      "In": 1132,
      "▁input": 1133,
      "▁during": 1134,
      "▁Great": 1135,
      "ater": 1136,
      "xt": 1137,
      "▁Thank": 1138,
      "▁statements": 1139,
      "▁between": 1140,
      "▁given": 1141,
      "▁bec": 1142,
      "fore": 1143,
      "▁Em": 1144,
      "▁students": 1145,
      "▁spe": 1146,
      "ential": 1147,
      "▁lead": 1148,
      "▁requ": 1149,
      "esent": 1150,
      "old": 1151,
      "▁lo": 1152,
      "ool": 1153,
      "▁again": 1154,
      "],": 1155,
      "ices": 1156,
      "▁Right": 1157,
      "ible": 1158,
      "▁price": 1159,
      "▁det": 1160,
      "▁//": 1161,
      "▁Ok": 1162,
      "))": 1163,
      "air": 1164,
      "iew": 1165,
      "▁high": 1166,
      "cre": 1167,
      "▁perform": 1168,
      "essage": 1169,
      "ection": 1170,
      "tain": 1171,
      "ences": 1172,
      "▁using": 1173,
      "time": 1174,
      "▁appro": 1175,
      "▁like": 1176,
      "tern": 1177,
      "▁miles": 1178,
      "▁system": 1179,
      "▁men": 1180,
      "▁Okay": 1181,
      "▁trans": 1182,
      "}\")": 1183,
      "▁just": 1184,
      "▁pos": 1185,
      "▁describ": 1186,
      "▁regarding": 1187,
      "ves": 1188,
      "ateg": 1189,
      "▁inst": 1190,
      "io": 1191,
      "▁For": 1192,
      "▁take": 1193,
      "vice": 1194,
      "▁Ad": 1195,
      "▁divid": 1196,
      "uc": 1197,
      "hed": 1198,
      "amp": 1199,
      "ask": 1200,
      "ution": 1201,
      "word": 1202,
      "▁point": 1203,
      "formation": 1204,
      "text": 1205,
      "▁med": 1206,
      "anks": 1207,
      "▁fl": 1208,
      "pos": 1209,
      "▁where": 1210,
      "▁books": 1211,
      "▁Pro": 1212,
      "▁next": 1213,
      "ets": 1214,
      "▁long": 1215,
      "▁cup": 1216,
      "ew": 1217,
      "▁month": 1218,
      "▁had": 1219,
      "hod": 1220,
      "▁both": 1221,
      "▁comple": 1222,
      "ational": 1223,
      "▁without": 1224,
      "}{": 1225,
      "ines": 1226,
      "tt": 1227,
      "▁pub": 1228,
      "ople": 1229,
      "date": 1230,
      "▁aut": 1231,
      "▁item": 1232,
      "▁orig": 1233,
      "ics": 1234,
      "▁emo": 1235,
      "▁gener": 1236,
      "▁log": 1237,
      "ized": 1238,
      "frac": 1239,
      "▁days": 1240,
      "▁par": 1241,
      "oid": 1242,
      "fic": 1243,
      "▁health": 1244,
      "quest": 1245,
      "▁fam": 1246,
      "ner": 1247,
      "▁individuals": 1248,
      "loat": 1249,
      "='": 1250,
      "ian": 1251,
      "▁area": 1252,
      "read": 1253,
      "▁support": 1254,
      "▁read": 1255,
      "▁personal": 1256,
      "▁sum": 1257,
      "▁calculation": 1258,
      "vers": 1259,
      "▁code": 1260,
      "uss": 1261,
      "▁key": 1262,
      "▁great": 1263,
      "▁inf": 1264,
      "ress": 1265,
      "▁week": 1266,
      "aking": 1267,
      "▁based": 1268,
      "▁Args": 1269,
      "wor": 1270,
      "▁means": 1271,
      "ability": 1272,
      "ams": 1273,
      "▁av": 1274,
      "led": 1275,
      "▁subtract": 1276,
      "bles": 1277,
      "▁prim": 1278,
      "▁mem": 1279,
      "ger": 1280,
      "▁these": 1281,
      "ature": 1282,
      "▁end": 1283,
      "▁att": 1284,
      "▁fact": 1285,
      "ness": 1286,
      "▁numbers": 1287,
      "▁repr": 1288,
      "▁same": 1289,
      "uct": 1290,
      "▁every": 1291,
      "▁divide": 1292,
      "▁Re": 1293,
      "day": 1294,
      "ways": 1295,
      "ants": 1296,
      "▁pot": 1297,
      "▁aw": 1298,
      "ounds": 1299,
      "▁ele": 1300,
      "▁squ": 1301,
      "ism": 1302,
      "▁length": 1303,
      "▁expect": 1304,
      "▁iss": 1305,
      "▁When": 1306,
      "url": 1307,
      "▁sm": 1308,
      "right": 1309,
      "value": 1310,
      "▁ear": 1311,
      "ra": 1312,
      "main": 1313,
      "▁integ": 1314,
      "▁social": 1315,
      "▁Thanks": 1316,
      "▁child": 1317,
      "bo": 1318,
      "py": 1319,
      "▁while": 1320,
      "])": 1321,
      "▁else": 1322,
      "ety": 1323,
      "ee": 1324,
      "▁Sure": 1325,
      "▁run": 1326,
      "ted": 1327,
      "▁sk": 1328,
      "ular": 1329,
      "▁information": 1330,
      "▁pur": 1331,
      "▁speed": 1332,
      "ision": 1333,
      "▁conn": 1334,
      "any": 1335,
      "▁error": 1336,
      "▁id": 1337,
      "▁good": 1338,
      "▁apples": 1339,
      "ving": 1340,
      "ified": 1341,
      "user": 1342,
      "▁comput": 1343,
      "list": 1344,
      "▁fin": 1345,
      "]:": 1346,
      "number": 1347,
      "▁loo": 1348,
      "ale": 1349,
      "▁equals": 1350,
      "▁sug": 1351,
      "iver": 1352,
      "▁bl": 1353,
      "▁provid": 1354,
      "▁needs": 1355,
      "▁oper": 1356,
      "▁@": 1357,
      "tit": 1358,
      "arget": 1359,
      "ustom": 1360,
      "ru": 1361,
      "▁distance": 1362,
      "▁count": 1363,
      "▁text": 1364,
      "▁incre": 1365,
      "▁loc": 1366,
      "yn": 1367,
      "▁people": 1368,
      "▁mod": 1369,
      "index": 1370,
      "oint": 1371,
      "uple": 1372,
      "ause": 1373,
      "els": 1374,
      "que": 1375,
      "▁car": 1376,
      "▁Ind": 1377,
      "chool": 1378,
      "▁context": 1379,
      "▁export": 1380,
      "sc": 1381,
      "▁ed": 1382,
      "▁before": 1383,
      "ccess": 1384,
      "ins": 1385,
      "velop": 1386,
      "ined": 1387,
      "ele": 1388,
      "ault": 1389,
      "▁Per": 1390,
      "▁been": 1391,
      "ious": 1392,
      "▁always": 1393,
      "ploy": 1394,
      "▁write": 1395,
      "ases": 1396,
      "iction": 1397,
      "▁such": 1398,
      "▁pass": 1399,
      "▁marbles": 1400,
      "key": 1401,
      "▁think": 1402,
      "ark": 1403,
      "▁i": 1404,
      "ier": 1405,
      "ited": 1406,
      "atch": 1407,
      "action": 1408,
      "▁field": 1409,
      "▁prof": 1410,
      "▁image": 1411,
      "▁since": 1412,
      "▁math": 1413,
      "▁being": 1414,
      "▁group": 1415,
      "▁found": 1416,
      "echn": 1417,
      "▁public": 1418,
      "▁fur": 1419,
      "▁max": 1420,
      "ock": 1421,
      "sh": 1422,
      "ces": 1423,
      "itive": 1424,
      "▁Since": 1425,
      "ately": 1426,
      "ception": 1427,
      "fect": 1428,
      ".\"": 1429,
      "length": 1430,
      "aren": 1431,
      "▁ref": 1432,
      "▁br": 1433,
      "idth": 1434,
      "▁back": 1435,
      "▁action": 1436,
      ".\")": 1437,
      "▁original": 1438,
      "▁divided": 1439,
      "▁experience": 1440,
      "co": 1441,
      "▁Incre": 1442,
      "irectory": 1443,
      "▁except": 1444,
      "▁three": 1445,
      "▁pol": 1446,
      "▁square": 1447,
      "▁ent": 1448,
      "log": 1449,
      "▁create": 1450,
      "▁imp": 1451,
      "set": 1452,
      "▁sti": 1453,
      "ven": 1454,
      "ality": 1455,
      "▁mention": 1456,
      "oney": 1457,
      "▁must": 1458,
      "mon": 1459,
      "til": 1460,
      "▁vari": 1461,
      "ired": 1462,
      "times": 1463,
      "▁toget": 1464,
      "▁together": 1465,
      "▁represent": 1466,
      "▁method": 1467,
      "hor": 1468,
      "ency": 1469,
      "gest": 1470,
      "▁tri": 1471,
      "▁Jo": 1472,
      "iness": 1473,
      "eters": 1474,
      "▁friends": 1475,
      "▁Wh": 1476,
      "▁further": 1477,
      "▁object": 1478,
      "Tr": 1479,
      "▁There": 1480,
      "▁off": 1481,
      "▁emotional": 1482,
      "of": 1483,
      "▁response": 1484,
      "▁sa": 1485,
      "arch": 1486,
      "▁power": 1487,
      "▁occ": 1488,
      "▁discuss": 1489,
      "▁Pl": 1490,
      "▁)": 1491,
      "min": 1492,
      "▁First": 1493,
      "▁don": 1494,
      "▁path": 1495,
      "▁family": 1496,
      "▁signific": 1497,
      "ivers": 1498,
      "▁u": 1499,
      "ife": 1500,
      "ma": 1501,
      "▁those": 1502,
      "cer": 1503,
      "▁level": 1504,
      "▁typically": 1505,
      "▁But": 1506,
      "▁ra": 1507,
      "▁relationships": 1508,
      "▁aff": 1509,
      "▁fil": 1510,
      "▁product": 1511,
      "ron": 1512,
      "aming": 1513,
      "rame": 1514,
      "▁stat": 1515,
      "----": 1516,
      "▁gu": 1517,
      "▁might": 1518,
      "ils": 1519,
      "▁cap": 1520,
      "ric": 1521,
      "iron": 1522,
      "▁best": 1523,
      "verage": 1524,
      "input": 1525,
      "ior": 1526,
      "ason": 1527,
      "▁cand": 1528,
      "cent": 1529,
      "▁different": 1530,
      "▁potential": 1531,
      "▁values": 1532,
      "▁eng": 1533,
      "▁Sh": 1534,
      "ash": 1535,
      "itional": 1536,
      "eter": 1537,
      "anges": 1538,
      "▁discount": 1539,
      "string": 1540,
      "vent": 1541,
      "add": 1542,
      "▁case": 1543,
      "▁initial": 1544,
      "count": 1545,
      "▁develop": 1546,
      "▁buy": 1547,
      "▁pay": 1548,
      "▁mentioned": 1549,
      "ification": 1550,
      "▁progr": 1551,
      "▁models": 1552,
      "▁box": 1553,
      "oll": 1554,
      "ify": 1555,
      "lu": 1556,
      "▁penc": 1557,
      "▁final": 1558,
      "▁\\)": 1559,
      "▁games": 1560,
      "ually": 1561,
      "▁\"__": 1562,
      "▁my": 1563,
      "▁beh": 1564,
      "▁expl": 1565,
      "for": 1566,
      "▁dat": 1567,
      "▁Im": 1568,
      "▁invol": 1569,
      "__\":": 1570,
      "▁player": 1571,
      "ocus": 1572,
      "olum": 1573,
      "▁check": 1574,
      "ared": 1575,
      "mer": 1576,
      "soci": 1577,
      "ps": 1578,
      "▁___.": 1579,
      "▁lar": 1580,
      "▁move": 1581,
      "▁build": 1582,
      "viron": 1583,
      "▁team": 1584,
      "▁cle": 1585,
      "▁hand": 1586,
      "▁mark": 1587,
      "fim": 1588,
      "▁z": 1589,
      "|>": 1590,
      "thing": 1591,
      "▁money": 1592,
      "gan": 1593,
      "▁cook": 1594,
      "▁associ": 1595,
      "ideo": 1596,
      "▁performance": 1597,
      "andom": 1598,
      "Field": 1599,
      "ime": 1600,
      "▁ins": 1601,
      "ait": 1602,
      "return": 1603,
      "▁bel": 1604,
      "vert": 1605,
      "ective": 1606,
      "abase": 1607,
      "istic": 1608,
      "ource": 1609,
      "▁top": 1610,
      "▁allow": 1611,
      "▁techn": 1612,
      "▁expr": 1613,
      "ype": 1614,
      "ances": 1615,
      "▁rece": 1616,
      "▁act": 1617,
      "▁made": 1618,
      "array": 1619,
      "▁age": 1620,
      "test": 1621,
      "▁content": 1622,
      "uration": 1623,
      "▁Have": 1624,
      "comm": 1625,
      "arr": 1626,
      "▁range": 1627,
      "▁clar": 1628,
      "▁impact": 1629,
      "work": 1630,
      "▁applic": 1631,
      "image": 1632,
      "model": 1633,
      "The": 1634,
      "rap": 1635,
      "▁poss": 1636,
      "ument": 1637,
      "▁got": 1638,
      "▁last": 1639,
      "▁dep": 1640,
      "▁meters": 1641,
      "==": 1642,
      "▁could": 1643,
      "alf": 1644,
      "▁activ": 1645,
      "▁___,": 1646,
      "▁line": 1647,
      "▁sold": 1648,
      "▁``": 1649,
      "._": 1650,
      "ware": 1651,
      "nd": 1652,
      "▁pencils": 1653,
      "itions": 1654,
      "▁float": 1655,
      "▁Value": 1656,
      "ird": 1657,
      "▁Is": 1658,
      "wn": 1659,
      "():": 1660,
      "▁custom": 1661,
      "▁containing": 1662,
      "ches": 1663,
      "▁interest": 1664,
      "=\"": 1665,
      "▁most": 1666,
      "▁well": 1667,
      "▁target": 1668,
      "▁players": 1669,
      "ather": 1670,
      "▁```": 1671,
      "ats": 1672,
      "...": 1673,
      "▁sav": 1674,
      "ental": 1675,
      "ique": 1676,
      "erg": 1677,
      "fig": 1678,
      "▁feelings": 1679,
      "▁success": 1680,
      "▁comb": 1681,
      "▁phys": 1682,
      "iter": 1683,
      "med": 1684,
      "True": 1685,
      "▁issues": 1686,
      "pre": 1687,
      "▁valid": 1688,
      "▁old": 1689,
      "ann": 1690,
      "▁pat": 1691,
      "▁simple": 1692,
      "ought": 1693,
      "▁effect": 1694,
      "▁associated": 1695,
      "▁ver": 1696,
      "▁employ": 1697,
      "ula": 1698,
      "▁sur": 1699,
      "agement": 1700,
      "▁Increased": 1701,
      "cle": 1702,
      "angle": 1703,
      "imum": 1704,
      "▁clo": 1705,
      "▁sell": 1706,
      "▁significant": 1707,
      "▁np": 1708,
      "aging": 1709,
      "▁considered": 1710,
      "▁Perfect": 1711,
      "ides": 1712,
      "ON": 1713,
      "▁Add": 1714,
      "ced": 1715,
      "▁message": 1716,
      "▁solve": 1717,
      "ording": 1718,
      "mat": 1719,
      "thon": 1720,
      "▁communication": 1721,
      "▁job": 1722,
      "gle": 1723,
      "▁neg": 1724,
      "▁Dis": 1725,
      "▁specific": 1726,
      "oring": 1727,
      "▁enc": 1728,
      "▁word": 1729,
      "▁small": 1730,
      "load": 1731,
      "▁John": 1732,
      "iting": 1733,
      "▁ValueError": 1734,
      "gn": 1735,
      "ization": 1736,
      "▁open": 1737,
      "▁store": 1738,
      "rix": 1739,
      "ology": 1740,
      "▁sal": 1741,
      "▁integer": 1742,
      "dr": 1743,
      "other": 1744,
      "uff": 1745,
      "ories": 1746,
      "idd": 1747,
      "▁way": 1748,
      "▁trav": 1749,
      "▁identi": 1750,
      "ouse": 1751,
      "▁indic": 1752,
      "▁cookies": 1753,
      "ists": 1754,
      "type": 1755,
      "▁prac": 1756,
      "ains": 1757,
      "▁too": 1758,
      "▁She": 1759,
      "atures": 1760,
      "iec": 1761,
      "▁cups": 1762,
      "▁costs": 1763,
      "▁terms": 1764,
      "ended": 1765,
      "▁weight": 1766,
      "▁web": 1767,
      "view": 1768,
      "ancial": 1769,
      "▁vis": 1770,
      "igr": 1771,
      "▁tem": 1772,
      "cal": 1773,
      "ows": 1774,
      "['": 1775,
      "▁want": 1776,
      "▁behav": 1777,
      "▁order": 1778,
      "son": 1779,
      "orn": 1780,
      "▁row": 1781,
      "▁rest": 1782,
      "▁output": 1783,
      "▁strateg": 1784,
      "vironment": 1785,
      "mit": 1786,
      "ton": 1787,
      "▁post": 1788,
      "▁As": 1789,
      ".\"\"\"": 1790,
      "▁remaining": 1791,
      "▁exp": 1792,
      "▁red": 1793,
      "▁items": 1794,
      "▁&": 1795,
      "▁bag": 1796,
      "ling": 1797,
      "requ": 1798,
      "face": 1799,
      "reen": 1800,
      "//": 1801,
      "▁raise": 1802,
      "eep": 1803,
      "tical": 1804,
      "lection": 1805,
      "▁cond": 1806,
      "ote": 1807,
      "ived": 1808,
      "cont": 1809,
      "▁\\).": 1810,
      "ember": 1811,
      "ring": 1812,
      "▁impro": 1813,
      "▁influ": 1814,
      "▁*/": 1815,
      "ills": 1816,
      "▁specified": 1817,
      "Con": 1818,
      "ails": 1819,
      "▁ext": 1820,
      "▁because": 1821,
      "tle": 1822,
      "▁Sar": 1823,
      "▁pop": 1824,
      "▁formula": 1825,
      "quence": 1826,
      "▁avail": 1827,
      "▁average": 1828,
      "▁points": 1829,
      "sy": 1830,
      "▁side": 1831,
      "▁occur": 1832,
      "▁>": 1833,
      "▁sure": 1834,
      "▁hist": 1835,
      "▁di": 1836,
      "▁school": 1837,
      "ever": 1838,
      "▁base": 1839,
      "ER": 1840,
      "▁design": 1841,
      "AT": 1842,
      "▁less": 1843,
      "▁describes": 1844,
      "ilities": 1845,
      "▁Eng": 1846,
      "by": 1847,
      "▁affect": 1848,
      "anced": 1849,
      "List": 1850,
      "▁Pr": 1851,
      "▁focus": 1852,
      "▁water": 1853,
      "ape": 1854,
      "acters": 1855,
      "▁above": 1856,
      "▁non": 1857,
      "▁date": 1858,
      "▁sit": 1859,
      "▁request": 1860,
      "ward": 1861,
      "ls": 1862,
      "man": 1863,
      "▁pain": 1864,
      "RL": 1865,
      "acks": 1866,
      "▁cr": 1867,
      "imal": 1868,
      "▁suggest": 1869,
      "irm": 1870,
      "▁width": 1871,
      "▁display": 1872,
      "ots": 1873,
      "ody": 1874,
      "▁account": 1875,
      "▁prom": 1876,
      "▁known": 1877,
      "▁cre": 1878,
      "ech": 1879,
      "▁provide": 1880,
      "▁life": 1881,
      "thers": 1882,
      "ging": 1883,
      "▁×": 1884,
      "less": 1885,
      "▁provided": 1886,
      "▁care": 1887,
      "▁_": 1888,
      "atic": 1889,
      "aving": 1890,
      "▁rate": 1891,
      "▁half": 1892,
      "▁include": 1893,
      "▁contro": 1894,
      "au": 1895,
      "▁event": 1896,
      "▁gaming": 1897,
      "▁change": 1898,
      "esc": 1899,
      "uck": 1900,
      "eb": 1901,
      "uture": 1902,
      "init": 1903,
      "vices": 1904,
      "▁adv": 1905,
      "gre": 1906,
      "▁physical": 1907,
      "']": 1908,
      "▁equation": 1909,
      "▁book": 1910,
      "▁even": 1911,
      "izz": 1912,
      "urn": 1913,
      "▁piec": 1914,
      "actions": 1915,
      "▁video": 1916,
      "ription": 1917,
      "▁important": 1918,
      "ending": 1919,
      "ook": 1920,
      "▁paren": 1921,
      "▁better": 1922,
      "▁feet": 1923,
      "▁ben": 1924,
      "▁config": 1925,
      "por": 1926,
      "ples": 1927,
      "▁Alright": 1928,
      "▁X": 1929,
      "▁Hey": 1930,
      "back": 1931,
      "ister": 1932,
      "ital": 1933,
      "▁clarification": 1934,
      "xim": 1935,
      "▁Then": 1936,
      "▁grap": 1937,
      "▁four": 1938,
      "▁within": 1939,
      "__(": 1940,
      "▁sing": 1941,
      "ees": 1942,
      "▁Sarah": 1943,
      "▁/**": 1944,
      "▁stud": 1945,
      "▁cent": 1946,
      "rt": 1947,
      "▁happ": 1948,
      "▁spent": 1949,
      "▁own": 1950,
      "▁children": 1951,
      "lish": 1952,
      "▁tit": 1953,
      "arm": 1954,
      "▁pack": 1955,
      "▁mus": 1956,
      "ulation": 1957,
      "tings": 1958,
      "point": 1959,
      "▁access": 1960,
      "▁author": 1961,
      "▁“": 1962,
      "▁head": 1963,
      "ives": 1964,
      "ken": 1965,
      "me": 1966,
      "▁rele": 1967,
      "ination": 1968,
      "▁ens": 1969,
      "▁instance": 1970,
      "lab": 1971,
      "▁Par": 1972,
      "▁online": 1973,
      "▁away": 1974,
      "xi": 1975,
      "▁creat": 1976,
      "▁plan": 1977,
      "▁real": 1978,
      "Ch": 1979,
      "duct": 1980,
      "▁cer": 1981,
      "▁possible": 1982,
      "▁lab": 1983,
      "iving": 1984,
      "▁ren": 1985,
      "▁bus": 1986,
      "be": 1987,
      "▁among": 1988,
      "▁Create": 1989,
      "▁respons": 1990,
      "▁lim": 1991,
      "▁round": 1992,
      "▁constr": 1993,
      "ries": 1994,
      "▁dig": 1995,
      "▁Le": 1996,
      "▁Cl": 1997,
      "▁doll": 1998,
      "▁project": 1999,
      "▁hum": 2000,
      "aces": 2001,
      "def": 2002,
      "▁needed": 2003,
      "lex": 2004,
      "qrt": 2005,
      "oot": 2006,
      "PU": 2007,
      "▁Su": 2008,
      "board": 2009,
      "▁____": 2010,
      "▁stand": 2011,
      "▁del": 2012,
      "oin": 2013,
      "▁give": 2014,
      "▁New": 2015,
      "▁Z": 2016,
      "ender": 2017,
      "▁due": 2018,
      "▁height": 2019,
      "istance": 2020,
      "▁default": 2021,
      "not": 2022,
      "▁che": 2023,
      "▁role": 2024,
      "▁available": 2025,
      "ems": 2026,
      "▁primary": 2027,
      "Ex": 2028,
      "land": 2029,
      "lock": 2030,
      "▁require": 2031,
      "▁future": 2032,
      "▁characters": 2033,
      "▁enh": 2034,
      "▁database": 2035,
      "sert": 2036,
      "fe": 2037,
      "ecess": 2038,
      "▁full": 2039,
      "ises": 2040,
      "turns": 2041,
      "▁prot": 2042,
      "▁By": 2043,
      "over": 2044,
      "▁index": 2045,
      "ological": 2046,
      "tice": 2047,
      "▁computer": 2048,
      "▁priv": 2049,
      "etch": 2050,
      "▁others": 2051,
      "the": 2052,
      "▁<|": 2053,
      "angu": 2054,
      "▁here": 2055,
      "▁educ": 2056,
      "▁environment": 2057,
      "Type": 2058,
      "xiety": 2059,
      "az": 2060,
      "▁Cal": 2061,
      "▁chall": 2062,
      "ictionary": 2063,
      "▁determ": 2064,
      "▁trad": 2065,
      "ross": 2066,
      "▁approxim": 2067,
      "ables": 2068,
      "▁company": 2069,
      "▁sym": 2070,
      "otal": 2071,
      "ango": 2072,
      "result": 2073,
      "▁opp": 2074,
      "▁Av": 2075,
      "▁usage": 2076,
      "▁size": 2077,
      "ires": 2078,
      "▁proper": 2079,
      "▁score": 2080,
      "ties": 2081,
      "ule": 2082,
      "▁ide": 2083,
      "▁friend": 2084,
      "▁bal": 2085,
      "oad": 2086,
      "IN": 2087,
      "▁Sp": 2088,
      "ST": 2089,
      "ished": 2090,
      "▁organ": 2091,
      "▁experiences": 2092,
      "▁\\[": 2093,
      "▁direct": 2094,
      "▁enter": 2095,
      "directory": 2096,
      "▁program": 2097,
      "▁load": 2098,
      "▁positive": 2099,
      "▁eas": 2100,
      "▁problems": 2101,
      "▁address": 2102,
      "ne": 2103,
      "miss": 2104,
      "▁candies": 2105,
      "▁cor": 2106,
      "math": 2107,
      "▁cho": 2108,
      "▁travel": 2109,
      "ocol": 2110,
      "place": 2111,
      "size": 2112,
      "ler": 2113,
      "▁mental": 2114,
      "col": 2115,
      "▁financial": 2116,
      "acy": 2117,
      "Pro": 2118,
      "vious": 2119,
      "▁benef": 2120,
      "ference": 2121,
      "ponse": 2122,
      "▁earn": 2123,
      "▁concer": 2124,
      "▁});": 2125,
      "▁weeks": 2126,
      "▁behavior": 2127,
      "AM": 2128,
      "▁pizz": 2129,
      "▁save": 2130,
      "▁including": 2131,
      "ptional": 2132,
      "plit": 2133,
      "▁null": 2134,
      "▁percent": 2135,
      "▁situ": 2136,
      "();": 2137,
      "ndarray": 2138,
      "urs": 2139,
      "iddle": 2140,
      "▁Dict": 2141,
      "▁position": 2142,
      "▁Gr": 2143,
      "▁belie": 2144,
      "▁exec": 2145,
      "aster": 2146,
      "▁bought": 2147,
      "▁contrib": 2148,
      "ently": 2149,
      "▁multiple": 2150,
      "this": 2151,
      "▁grow": 2152,
      "peti": 2153,
      "jango": 2154,
      "ml": 2155,
      "▁dou": 2156,
      "▁Def": 2157,
      "▁him": 2158,
      "ich": 2159,
      "▁compon": 2160,
      "▁color": 2161,
      "▁show": 2162,
      "▁understanding": 2163,
      "▁lear": 2164,
      "▁\\]": 2165,
      "▁home": 2166,
      "ipp": 2167,
      "▁factors": 2168,
      "ane": 2169,
      "▁net": 2170,
      "▁assign": 2171,
      "▁Example": 2172,
      "▁typing": 2173,
      "order": 2174,
      "my": 2175,
      "▁URL": 2176,
      "ibility": 2177,
      "▁Correct": 2178,
      "ush": 2179,
      "▁sw": 2180,
      "▁Good": 2181,
      "▁contin": 2182,
      "▁cir": 2183,
      "▁Ph": 2184,
      "▁Main": 2185,
      "ready": 2186,
      "▁whole": 2187,
      "▁`": 2188,
      "▁command": 2189,
      "ov": 2190,
      "Data": 2191,
      "▁redu": 2192,
      "▁express": 2193,
      "▁types": 2194,
      "CE": 2195,
      "▁•": 2196,
      "▁related": 2197,
      "oms": 2198,
      "▁months": 2199,
      "alls": 2200,
      "▁arr": 2201,
      "▁clear": 2202,
      "},": 2203,
      "▁Res": 2204,
      "▁High": 2205,
      "ium": 2206,
      "earch": 2207,
      "PI": 2208,
      "▁[]": 2209,
      "▁format": 2210,
      "▁view": 2211,
      "yle": 2212,
      "▁page": 2213,
      "let": 2214,
      "▁another": 2215,
      "▁works": 2216,
      "aj": 2217,
      "▁concept": 2218,
      "met": 2219,
      "▁Bo": 2220,
      "inter": 2221,
      "fo": 2222,
      "▁exist": 2223,
      "uments": 2224,
      "ager": 2225,
      "apt": 2226,
      "▁simpl": 2227,
      "▁Br": 2228,
      "▁Dec": 2229,
      "▁unique": 2230,
      "▁approximately": 2231,
      "umber": 2232,
      "▁narr": 2233,
      "RE": 2234,
      "▁market": 2235,
      "';": 2236,
      "fix": 2237,
      "br": 2238,
      "▁os": 2239,
      "▁arg": 2240,
      "▁options": 2241,
      "omet": 2242,
      "▁cards": 2243,
      "▁match": 2244,
      "▁profession": 2245,
      "▁takes": 2246,
      "ilar": 2247,
      "▁application": 2248,
      "lean": 2249,
      "▁report": 2250,
      "▁leg": 2251,
      "max": 2252,
      "valid": 2253,
      "▁blue": 2254,
      "▁members": 2255,
      "ameters": 2256,
      "lices": 2257,
      "ges": 2258,
      "▁vers": 2259,
      "▁service": 2260,
      "▁tuple": 2261,
      "▁negative": 2262,
      "rie": 2263,
      "▁doc": 2264,
      "▁results": 2265,
      "rive": 2266,
      "aff": 2267,
      "▁random": 2268,
      "▁Only": 2269,
      "hel": 2270,
      "▁parti": 2271,
      "An": 2272,
      "▁elements": 2273,
      "▁community": 2274,
      "▁already": 2275,
      "▁returns": 2276,
      "]):": 2277,
      "iod": 2278,
      "wards": 2279,
      "▁single": 2280,
      "▁bot": 2281,
      "▁confirm": 2282,
      "sp": 2283,
      "tem": 2284,
      "▁required": 2285,
      "▁additional": 2286,
      "arily": 2287,
      "▁status": 2288,
      "ores": 2289,
      "▁App": 2290,
      "▁increase": 2291,
      "message": 2292,
      "▁development": 2293,
      "▁hard": 2294,
      "eah": 2295,
      "ural": 2296,
      "▁example": 2297,
      "▁against": 2298,
      "▁stick": 2299,
      "ecessary": 2300,
      "▁()": 2301,
      "ector": 2302,
      "ript": 2303,
      "▁sides": 2304,
      "▁title": 2305,
      "En": 2306,
      "▁enti": 2307,
      "ources": 2308,
      "▁near": 2309,
      "▁Te": 2310,
      "▁colum": 2311,
      "sych": 2312,
      "airs": 2313,
      "▁remain": 2314,
      "Re": 2315,
      "▁sl": 2316,
      "▁recomm": 2317,
      "chie": 2318,
      "▁world": 2319,
      "▁slices": 2320,
      "▁connection": 2321,
      "▁around": 2322,
      "asing": 2323,
      "ustr": 2324,
      "▁approach": 2325,
      "▁working": 2326,
      "▁anal": 2327,
      "urity": 2328,
      "lected": 2329,
      "▁private": 2330,
      "▁features": 2331,
      "adem": 2332,
      "▁bro": 2333,
      "▁still": 2334,
      "▁pages": 2335,
      "▁expected": 2336,
      "▁Yeah": 2337,
      "ilit": 2338,
      "aut": 2339,
      "cks": 2340,
      "ttp": 2341,
      "unction": 2342,
      "▁Each": 2343,
      "inary": 2344,
      "▁dollars": 2345,
      "▁After": 2346,
      "▁avoid": 2347,
      "▁purch": 2348,
      "▁Sim": 2349,
      "\\)": 2350,
      "▁mean": 2351,
      "sing": 2352,
      "oes": 2353,
      "ients": 2354,
      "▁record": 2355,
      "▁cm": 2356,
      "▁food": 2357,
      "▁past": 2358,
      "ern": 2359,
      "epend": 2360,
      "▁table": 2361,
      "▁plus": 2362,
      "▁email": 2363,
      "anguage": 2364,
      "▁};": 2365,
      "ailed": 2366,
      "und": 2367,
      "▁cover": 2368,
      "▁===": 2369,
      "ftware": 2370,
      "▁conflic": 2371,
      "orted": 2372,
      "▁identif": 2373,
      "▁frac": 2374,
      "▁card": 2375,
      "▁Wor": 2376,
      "net": 2377,
      "sit": 2378,
      "▁film": 2379,
      "▁–": 2380,
      "LE": 2381,
      "atus": 2382,
      "▁lit": 2383,
      "▁story": 2384,
      "▁influence": 2385,
      "medi": 2386,
      "▁search": 2387,
      "▁dictionary": 2388,
      "▁convert": 2389,
      "▁large": 2390,
      "config": 2391,
      "from": 2392,
      "▁improve": 2393,
      "▁tax": 2394,
      "odes": 2395,
      "▁De": 2396,
      "stance": 2397,
      "▁Gener": 2398,
      "▁Any": 2399,
      "▁invest": 2400,
      "▁bat": 2401,
      "▁consum": 2402,
      "leep": 2403,
      "▁fac": 2404,
      "ID": 2405,
      "python": 2406,
      "▁look": 2407,
      "adi": 2408,
      "▁element": 2409,
      "pty": 2410,
      "ym": 2411,
      "▁.": 2412,
      "▁Initial": 2413,
      "olution": 2414,
      "OR": 2415,
      "▁users": 2416,
      "▁Play": 2417,
      "▁media": 2418,
      "Ar": 2419,
      "start": 2420,
      "lev": 2421,
      "▁rat": 2422,
      "ormal": 2423,
      "▁place": 2424,
      "▁port": 2425,
      "://": 2426,
      "▁previous": 2427,
      "orage": 2428,
      "eed": 2429,
      "▁est": 2430,
      "▁law": 2431,
      "ergy": 2432,
      "▁Acc": 2433,
      "rip": 2434,
      "▁]": 2435,
      "▁music": 2436,
      "▁kil": 2437,
      "node": 2438,
      "class": 2439,
      "Res": 2440,
      "ze": 2441,
      "ters": 2442,
      "ret": 2443,
      "▁changes": 2444,
      "▁accept": 2445,
      "▁really": 2446,
      "ero": 2447,
      "▁pres": 2448,
      "iffic": 2449,
      "▁third": 2450,
      "▁!": 2451,
      "▁Ign": 2452,
      "▁Or": 2453,
      "ogn": 2454,
      "▁pred": 2455,
      "meric": 2456,
      "▁chocol": 2457,
      "▁said": 2458,
      "▁Be": 2459,
      "tif": 2460,
      "▁keep": 2461,
      "▁HT": 2462,
      "▁super": 2463,
      "▁integers": 2464,
      "▁flour": 2465,
      "▁anxiety": 2466,
      "ively": 2467,
      "▁actions": 2468,
      "▁control": 2469,
      "▁settings": 2470,
      "▁Here": 2471,
      "izes": 2472,
      "▁representing": 2473,
      "▁events": 2474,
      "▁series": 2475,
      "fil": 2476,
      "((": 2477,
      "▁migr": 2478,
      "▁exc": 2479,
      "ordin": 2480,
      "▁However": 2481,
      "▁Alex": 2482,
      "▁session": 2483,
      "▁password": 2484,
      "▁gir": 2485,
      "▁equal": 2486,
      "plic": 2487,
      "iversity": 2488,
      "cy": 2489,
      "▁skills": 2490,
      "sub": 2491,
      "▁present": 2492,
      "current": 2493,
      "▁certain": 2494,
      "arg": 2495,
      "aid": 2496,
      "problem": 2497,
      "▁tick": 2498,
      "ourn": 2499,
      "clus": 2500,
      "atform": 2501,
      "ules": 2502,
      "▁ensure": 2503,
      "ball": 2504,
      "▁making": 2505,
      "▁activities": 2506,
      "▁difference": 2507,
      "\";": 2508,
      "▁train": 2509,
      "▁achie": 2510,
      "ected": 2511,
      "▁win": 2512,
      "▁double": 2513,
      "▁competi": 2514,
      "enced": 2515,
      "state": 2516,
      "▁flow": 2517,
      "▁\\),": 2518,
      "▁gall": 2519,
      "aries": 2520,
      "▁challeng": 2521,
      "values": 2522,
      "▁cri": 2523,
      "▁inches": 2524,
      "▁fru": 2525,
      "\".": 2526,
      "omen": 2527,
      "▁Rep": 2528,
      "▁files": 2529,
      "utions": 2530,
      "▁mag": 2531,
      "▁Ser": 2532,
      "▁Enh": 2533,
      "▁Col": 2534,
      "▁period": 2535,
      "cket": 2536,
      "▁lik": 2537,
      "Name": 2538,
      "▁prob": 2539,
      "float": 2540,
      "▁cars": 2541,
      "izing": 2542,
      "▁One": 2543,
      "models": 2544,
      "▁server": 2545,
      "sum": 2546,
      "▁meas": 2547,
      "▁thank": 2548,
      "▁ability": 2549,
      "ucture": 2550,
      "ident": 2551,
      "numbers": 2552,
      "ream": 2553,
      "bal": 2554,
      "▁Fl": 2555,
      "▁offer": 2556,
      "tml": 2557,
      "alid": 2558,
      "▁sci": 2559,
      "▁art": 2560,
      "▁ess": 2561,
      "▁ID": 2562,
      "ynam": 2563,
      "omin": 2564,
      "▁percentage": 2565,
      "rior": 2566,
      "ding": 2567,
      "idence": 2568,
      "lease": 2569,
      "▁pounds": 2570,
      "▁hold": 2571,
      "▁upd": 2572,
      "ither": 2573,
      "head": 2574,
      "▁space": 2575,
      "▁prefer": 2576,
      "▁Ab": 2577,
      "ooks": 2578,
      "▁various": 2579,
      "▁anything": 2580,
      "▁business": 2581,
      "now": 2582,
      "▁steps": 2583,
      "pper": 2584,
      "▁('": 2585,
      "▁successful": 2586,
      "▁commonly": 2587,
      "?:": 2588,
      "▁scen": 2589,
      "pass": 2590,
      "▁reach": 2591,
      "^{": 2592,
      "▁short": 2593,
      "▁miss": 2594,
      "▁low": 2595,
      "culate": 2596,
      "▁Americ": 2597,
      "qual": 2598,
      "args": 2599,
      "▁call": 2600,
      "che": 2601,
      "▁mother": 2602,
      "▁profit": 2603,
      "▁Exception": 2604,
      "sqrt": 2605,
      "▁len": 2606,
      "▁node": 2607,
      "▁At": 2608,
      "▁light": 2609,
      "▁km": 2610,
      "▁similar": 2611,
      "ored": 2612,
      "check": 2613,
      "▁US": 2614,
      "hics": 2615,
      "▁directory": 2616,
      "▁primarily": 2617,
      "[]": 2618,
      "PT": 2619,
      "field": 2620,
      "▁colle": 2621,
      "▁psych": 2622,
      "ounter": 2623,
      "▁ve": 2624,
      "▁ret": 2625,
      "▁bool": 2626,
      "▁Mar": 2627,
      "▁factor": 2628,
      "aling": 2629,
      "dis": 2630,
      "▁appear": 2631,
      "yp": 2632,
      "conn": 2633,
      "rop": 2634,
      "▁stickers": 2635,
      "▁enhance": 2636,
      "▁rect": 2637,
      "itor": 2638,
      "ips": 2639,
      "▁sales": 2640,
      "aps": 2641,
      "▁units": 2642,
      "ators": 2643,
      "content": 2644,
      "▁training": 2645,
      "indow": 2646,
      "▁complex": 2647,
      "aily": 2648,
      "▁frequ": 2649,
      "▁solution": 2650,
      "uction": 2651,
      "▁according": 2652,
      "sec": 2653,
      "▁body": 2654,
      "sole": 2655,
      "▁minus": 2656,
      "ograp": 2657,
      "atis": 2658,
      "▁loss": 2659,
      "Model": 2660,
      "▁described": 2661,
      "olume": 2662,
      "▁submit": 2663,
      "())": 2664,
      "rel": 2665,
      "▁Red": 2666,
      "SE": 2667,
      "▁aud": 2668,
      "▁local": 2669,
      "▁multiplying": 2670,
      "▁energy": 2671,
      "▁root": 2672,
      "▁called": 2673,
      "▁feature": 2674,
      "ude": 2675,
      "▁+=": 2676,
      "▁Test": 2677,
      "▁software": 2678,
      "▁someone": 2679,
      "▁Fr": 2680,
      "▁reason": 2681,
      "▁Emily": 2682,
      "ift": 2683,
      "echan": 2684,
      "▁far": 2685,
      "▁quality": 2686,
      "ones": 2687,
      "ension": 2688,
      "pi": 2689,
      "atisf": 2690,
      "▁Set": 2691,
      "▁refer": 2692,
      "▁Bl": 2693,
      "▁having": 2694,
      "▁platform": 2695,
      "▁management": 2696,
      "▁Avoid": 2697,
      "pose": 2698,
      "▁Prom": 2699,
      "▁effects": 2700,
      "▁states": 2701,
      "▁levels": 2702,
      "left": 2703,
      "▁gen": 2704,
      "▁See": 2705,
      "▁matches": 2706,
      "acher": 2707,
      "▁gover": 2708,
      "used": 2709,
      "cies": 2710,
      "▁maximum": 2711,
      "../": 2712,
      "▁sole": 2713,
      "ead": 2714,
      "aset": 2715,
      "reg": 2716,
      "title": 2717,
      "zz": 2718,
      "▁hesit": 2719,
      "▁elect": 2720,
      "▁fraction": 2721,
      "orical": 2722,
      "ajor": 2723,
      "▁Man": 2724,
      "▁accur": 2725,
      "ifference": 2726,
      "▁Reg": 2727,
      "▁study": 2728,
      "▁treat": 2729,
      "▁boxes": 2730,
      "▁sugar": 2731,
      "append": 2732,
      "▁Ac": 2733,
      "ming": 2734,
      "▁Cont": 2735,
      "ds": 2736,
      "conom": 2737,
      "hing": 2738,
      "▁cupc": 2739,
      "▁demon": 2740,
      "--------": 2741,
      "▁professional": 2742,
      "aves": 2743,
      "ering": 2744,
      "agon": 2745,
      "▁assignment": 2746,
      "ience": 2747,
      "▁very": 2748,
      "▁twice": 2749,
      "▁%": 2750,
      "aken": 2751,
      "outh": 2752,
      "State": 2753,
      "aged": 2754,
      "▁fetch": 2755,
      "mand": 2756,
      "imeter": 2757,
      "▁source": 2758,
      "ortun": 2759,
      "▁house": 2760,
      "joy": 2761,
      "▁soci": 2762,
      "▁created": 2763,
      "eff": 2764,
      "vely": 2765,
      "▁components": 2766,
      "ners": 2767,
      "▁Rec": 2768,
      "▁anim": 2769,
      "▁Person": 2770,
      "▁array": 2771,
      "▁parts": 2772,
      "▁Optional": 2773,
      "▁cannot": 2774,
      "▁plt": 2775,
      "acity": 2776,
      "hy": 2777,
      "▁interface": 2778,
      "ised": 2779,
      "istr": 2780,
      "▁dam": 2781,
      "ename": 2782,
      "▁CPU": 2783,
      "▁employees": 2784,
      "ols": 2785,
      "ifficult": 2786,
      "▁demonstr": 2787,
      "▁generate": 2788,
      "sequence": 2789,
      "ta": 2790,
      "mod": 2791,
      "lished": 2792,
      "▁won": 2793,
      "prefix": 2794,
      "▁partner": 2795,
      "ports": 2796,
      "icient": 2797,
      "hol": 2798,
      "▁lack": 2799,
      "asks": 2800,
      "map": 2801,
      "▁complete": 2802,
      "▁interactions": 2803,
      "▁es": 2804,
      "▁den": 2805,
      "aring": 2806,
      "new": 2807,
      "dat": 2808,
      "▁city": 2809,
      "db": 2810,
      "total": 2811,
      "▁ratio": 2812,
      "▁requires": 2813,
      "▁sex": 2814,
      "▁names": 2815,
      "▁Tuple": 2816,
      "▁govern": 2817,
      "ensor": 2818,
      "().": 2819,
      "gin": 2820,
      "▁Att": 2821,
      "ademic": 2822,
      "▁conditions": 2823,
      "▁configuration": 2824,
      "info": 2825,
      "rem": 2826,
      "▁sounds": 2827,
      "▁Sc": 2828,
      "iam": 2829,
      "▁categ": 2830,
      "Frame": 2831,
      "▁hesitate": 2832,
      "▁construct": 2833,
      "▁sever": 2834,
      "▁mater": 2835,
      "▁Op": 2836,
      "uro": 2837,
      "aper": 2838,
      "ensive": 2839,
      "ral": 2840,
      "▁},": 2841,
      "▁solely": 2842,
      "ilt": 2843,
      "▁pieces": 2844,
      "part": 2845,
      "▁distrib": 2846,
      "▁Se": 2847,
      "itch": 2848,
      "ultur": 2849,
      "].": 2850,
      "▁Emma": 2851,
      "$.": 2852,
      "▁words": 2853,
      "▁dynam": 2854,
      "▁history": 2855,
      "ury": 2856,
      "code": 2857,
      "page": 2858,
      "process": 2859,
      "▁special": 2860,
      "▁Tom": 2861,
      "▁shir": 2862,
      "▁bags": 2863,
      "▁until": 2864,
      "▁With": 2865,
      "erap": 2866,
      "▁ris": 2867,
      "SON": 2868,
      "ML": 2869,
      "▁install": 2870,
      ")^": 2871,
      "cular": 2872,
      "▁human": 2873,
      "▁ann": 2874,
      "▁issue": 2875,
      "rite": 2876,
      "▁django": 2877,
      "mar": 2878,
      "▁includes": 2879,
      "join": 2880,
      "▁mechan": 2881,
      "irection": 2882,
      "'),": 2883,
      "▁May": 2884,
      "▁update": 2885,
      "▁stop": 2886,
      "▁(-": 2887,
      "▁document": 2888,
      "▁sn": 2889,
      "err": 2890,
      "▁necessary": 2891,
      "▁systems": 2892,
      "▁client": 2893,
      "▁Mark": 2894,
      "▁effective": 2895,
      "▁draw": 2896,
      "▁season": 2897,
      "▁entire": 2898,
      "▁politi": 2899,
      "resh": 2900,
      "su": 2901,
      "plate": 2902,
      "▁perimeter": 2903,
      "String": 2904,
      "▁language": 2905,
      "Key": 2906,
      "▁occurred": 2907,
      "▁products": 2908,
      "olumn": 2909,
      "enn": 2910,
      "matrix": 2911,
      "▁version": 2912,
      "▁compute": 2913,
      "▁growth": 2914,
      "▁cupcakes": 2915,
      "▁strong": 2916,
      "Com": 2917,
      "ids": 2918,
      "▁Parameters": 2919,
      "▁Data": 2920,
      "way": 2921,
      "▁air": 2922,
      "wise": 2923,
      "▁Fin": 2924,
      "light": 2925,
      "▁refers": 2926,
      "bject": 2927,
      "▁exactly": 2928,
      "▁expression": 2929,
      "ibr": 2930,
      "▁recommended": 2931,
      "▁land": 2932,
      "({": 2933,
      "▁received": 2934,
      "▁higher": 2935,
      "\\).": 2936,
      "reng": 2937,
      "output": 2938,
      "▁doesn": 2939,
      "ev": 2940,
      "Node": 2941,
      "ulate": 2942,
      "▁whe": 2943,
      "▁determine": 2944,
      "▁customer": 2945,
      "▁Enhanced": 2946,
      "position": 2947,
      "eting": 2948,
      "▁matrix": 2949,
      "lement": 2950,
      "▁abs": 2951,
      "▁allows": 2952,
      "▁ir": 2953,
      "▁methods": 2954,
      "▁suggested": 2955,
      "▁bas": 2956,
      "ram": 2957,
      "▁least": 2958,
      "indows": 2959,
      "▁groups": 2960,
      "./": 2961,
      "ections": 2962,
      "▁lower": 2963,
      "▁extract": 2964,
      "▁Impro": 2965,
      "▁exam": 2966,
      "▁feed": 2967,
      "ectiv": 2968,
      "▁estab": 2969,
      "TP": 2970,
      "icy": 2971,
      "EN": 2972,
      "▁Oh": 2973,
      "▁sep": 2974,
      "▁gets": 2975,
      "▁practice": 2976,
      "▁research": 2977,
      "▁dim": 2978,
      "▁services": 2979,
      "Id": 2980,
      "▁Therefore": 2981,
      "▁PC": 2982,
      "side": 2983,
      "with": 2984,
      "middle": 2985,
      "Value": 2986,
      "▁network": 2987,
      "▁press": 2988,
      "▁compared": 2989,
      "▁})": 2990,
      "▁mill": 2991,
      "▁console": 2992,
      "istics": 2993,
      "▁say": 2994,
      "▁convers": 2995,
      "▁oranges": 2996,
      "empt": 2997,
      "▁pens": 2998,
      "mun": 2999,
      "▁later": 3000,
      "▁deb": 3001,
      "▁fill": 3002,
      "▁cy": 3003,
      "rypt": 3004,
      "suff": 3005,
      "▁strategy": 3006,
      "tics": 3007,
      "▁Up": 3008,
      "roll": 3009,
      "▁technology": 3010,
      "▁involves": 3011,
      "▁EX": 3012,
      "pression": 3013,
      "ina": 3014,
      "▁initi": 3015,
      "▁girls": 3016,
      "dd": 3017,
      "▁Do": 3018,
      "omes": 3019,
      "AR": 3020,
      "▁unit": 3021,
      "status": 3022,
      "site": 3023,
      "▁Int": 3024,
      "usion": 3025,
      "▁false": 3026,
      "ump": 3027,
      "ternal": 3028,
      "uzz": 3029,
      "augh": 3030,
      "▁Both": 3031,
      "▁boys": 3032,
      "▁major": 3033,
      "ributes": 3034,
      "▁ca": 3035,
      "▁Who": 3036,
      "▁assistance": 3037,
      "▁operations": 3038,
      "Cl": 3039,
      "▁mis": 3040,
      "omething": 3041,
      "▁remo": 3042,
      "char": 3043,
      "iven": 3044,
      "▁Comple": 3045,
      "oose": 3046,
      "▁plot": 3047,
      "cs": 3048,
      "Time": 3049,
      "ms": 3050,
      "▁task": 3051,
      "▁contain": 3052,
      "▁Dr": 3053,
      "mission": 3054,
      "ledge": 3055,
      "▁become": 3056,
      "▁divis": 3057,
      "▁Eth": 3058,
      "▁Ignoring": 3059,
      "▁daily": 3060,
      "price": 3061,
      "▁share": 3062,
      "venue": 3063,
      "▁blo": 3064,
      "oper": 3065,
      "▁strategies": 3066,
      "▁security": 3067,
      "▁recogn": 3068,
      "suffix": 3069,
      "▁apply": 3070,
      "▁sequence": 3071,
      "▁adj": 3072,
      "▁sent": 3073,
      "▁situation": 3074,
      "▁py": 3075,
      "fact": 3076,
      "▁writ": 3077,
      "▁device": 3078,
      "▁extr": 3079,
      "▁along": 3080,
      "▁though": 3081,
      "ials": 3082,
      "avor": 3083,
      "([": 3084,
      "fort": 3085,
      "▁started": 3086,
      "Char": 3087,
      "DE": 3088,
      "▁Out": 3089,
      "▁green": 3090,
      "▁popular": 3091,
      "greed": 3092,
      "▁regular": 3093,
      "▁link": 3094,
      "▁volume": 3095,
      "▁location": 3096,
      "▁temper": 3097,
      "▁grad": 3098,
      "item": 3099,
      "▁logging": 3100,
      "▁never": 3101,
      "tively": 3102,
      "eger": 3103,
      "request": 3104,
      "▁empty": 3105,
      "box": 3106,
      "▁wants": 3107,
      "▁clean": 3108,
      "▁idea": 3109,
      "▁building": 3110,
      "▁contains": 3111,
      "▁immedi": 3112,
      "====": 3113,
      "html": 3114,
      "▁memory": 3115,
      "▁selling": 3116,
      "▁Sub": 3117,
      "ront": 3118,
      "▁condition": 3119,
      "SS": 3120,
      "▁prior": 3121,
      "▁Supp": 3122,
      "CA": 3123,
      "▁Gu": 3124,
      "driver": 3125,
      "▁receive": 3126,
      "<|": 3127,
      "ysis": 3128,
      "▁Car": 3129,
      "quests": 3130,
      "▁fields": 3131,
      "▁consist": 3132,
      "▁Cons": 3133,
      "orth": 3134,
      "▁According": 3135,
      "erc": 3136,
      "▁Ra": 3137,
      "▁ones": 3138,
      "▁Dav": 3139,
      "▁grade": 3140,
      "▁radi": 3141,
      "▁pizza": 3142,
      "▁separ": 3143,
      "▁limit": 3144,
      "ayer": 3145,
      "})": 3146,
      "▁phone": 3147,
      "ival": 3148,
      "ses": 3149,
      "To": 3150,
      "▁writing": 3151,
      "▁war": 3152,
      "▁Some": 3153,
      "base": 3154,
      "▁starting": 3155,
      "▁academic": 3156,
      "uate": 3157,
      "fs": 3158,
      "▁eg": 3159,
      "aim": 3160,
      "▁purpose": 3161,
      "ng": 3162,
      "game": 3163,
      "▁likely": 3164,
      "▁opportun": 3165,
      "isa": 3166,
      "▁production": 3167,
      "encies": 3168,
      "▁towards": 3169,
      "▁resources": 3170,
      "▁conflict": 3171,
      "▁five": 3172,
      "▁seconds": 3173,
      "▁bit": 3174,
      "object": 3175,
      "tices": 3176,
      "ync": 3177,
      "▁independ": 3178,
      "▁generally": 3179,
      "frame": 3180,
      "▁rout": 3181,
      "▁decision": 3182,
      "▁graphics": 3183,
      "oding": 3184,
      "▁challenges": 3185,
      "ract": 3186,
      "▁drive": 3187,
      "▁sleep": 3188,
      "▁maintain": 3189,
      "▁something": 3190,
      "▁boolean": 3191,
      "▁cases": 3192,
      "▁Agreed": 3193,
      "▁execute": 3194,
      "▁Min": 3195,
      "Not": 3196,
      "▁piece": 3197,
      "▁mov": 3198,
      "pected": 3199,
      "▁University": 3200,
      "first": 3201,
      "split": 3202,
      "▁numer": 3203,
      "otional": 3204,
      "CEPT": 3205,
      "width": 3206,
      "ched": 3207,
      "level": 3208,
      "▁Med": 3209,
      "▁taken": 3210,
      "no": 3211,
      "▁stress": 3212,
      "▁satisf": 3213,
      "▁Calculate": 3214,
      "▁gameplay": 3215,
      "▁angle": 3216,
      "▁Initialize": 3217,
      "▁?": 3218,
      "▁Co": 3219,
      "▁savings": 3220,
      "pat": 3221,
      "▁offic": 3222,
      "ilitary": 3223,
      "▁narrative": 3224,
      "aker": 3225,
      "▁storage": 3226,
      "▁EXCEPT": 3227,
      "arden": 3228,
      "▁kilom": 3229,
      "▁Define": 3230,
      "▁supply": 3231,
      "▁describe": 3232,
      "▁details": 3233,
      "▁song": 3234,
      "tes": 3235,
      "▁triangle": 3236,
      "ighb": 3237,
      "▁difficult": 3238,
      "▁Wait": 3239,
      "uns": 3240,
      "▁dict": 3241,
      "dict": 3242,
      "▁collection": 3243,
      "▁scenari": 3244,
      "▁engine": 3245,
      "▁gave": 3246,
      "egr": 3247,
      "irth": 3248,
      "▁dest": 3249,
      "po": 3250,
      "▁capacity": 3251,
      "▁Ge": 3252,
      "▁correctly": 3253,
      "▁room": 3254,
      "▁bott": 3255,
      "rodu": 3256,
      "amed": 3257,
      "▁Adding": 3258,
      "▁cool": 3259,
      "ground": 3260,
      "▁column": 3261,
      "ifies": 3262,
      "▁War": 3263,
      "▁eval": 3264,
      "▁achieve": 3265,
      "▁structure": 3266,
      "ged": 3267,
      "json": 3268,
      "▁imple": 3269,
      "▁sympt": 3270,
      "▁handle": 3271,
      "▁flo": 3272,
      "▁circ": 3273,
      "ultural": 3274,
      "▁Char": 3275,
      "▁description": 3276,
      "▁discussions": 3277,
      "inks": 3278,
      "User": 3279,
      "ened": 3280,
      "▁...": 3281,
      "ptions": 3282,
      "hips": 3283,
      "▁psychological": 3284,
      "▁cred": 3285,
      "term": 3286,
      "serv": 3287,
      "taining": 3288,
      "▁took": 3289,
      "▁gues": 3290,
      "▁Social": 3291,
      "▁Individual": 3292,
      "▁pd": 3293,
      "loc": 3294,
      "▁Pre": 3295,
      "sequ": 3296,
      "escription": 3297,
      "▁bound": 3298,
      "lim": 3299,
      "arant": 3300,
      "ison": 3301,
      "▁encour": 3302,
      "af": 3303,
      "▁standard": 3304,
      "▁cou": 3305,
      "▁Trans": 3306,
      "_{": 3307,
      "anti": 3308,
      "▁cv": 3309,
      "anging": 3310,
      "▁artic": 3311,
      "▁subject": 3312,
      "▁enough": 3313,
      "client": 3314,
      "▁Using": 3315,
      "CT": 3316,
      "Equal": 3317,
      "cd": 3318,
      "ells": 3319,
      "▁division": 3320,
      "year": 3321,
      "terns": 3322,
      "▁goal": 3323,
      "▁few": 3324,
      "▁United": 3325,
      "▁looking": 3326,
      "▁Pol": 3327,
      "▁toy": 3328,
      "▁Read": 3329,
      "era": 3330,
      "▁commit": 3331,
      "▁damage": 3332,
      "▁Aut": 3333,
      "▁paid": 3334,
      "IT": 3335,
      "ceed": 3336,
      "▁Path": 3337,
      "▁probability": 3338,
      "oud": 3339,
      "▁File": 3340,
      "▁usually": 3341,
      "ares": 3342,
      "▁assert": 3343,
      "press": 3344,
      "det": 3345,
      "▁provides": 3346,
      "▁parse": 3347,
      "encing": 3348,
      "▁World": 3349,
      "inking": 3350,
      "▁sample": 3351,
      "▁Mon": 3352,
      "▁early": 3353,
      "amb": 3354,
      "▁educational": 3355,
      "▁lines": 3356,
      "▁added": 3357,
      "icro": 3358,
      "▁host": 3359,
      "ague": 3360,
      "▁Py": 3361,
      "▁activity": 3362,
      "▁learning": 3363,
      "▁therap": 3364,
      "▁camp": 3365,
      "▁depend": 3366,
      "▁earnings": 3367,
      "oice": 3368,
      "uted": 3369,
      "▁et": 3370,
      "ai": 3371,
      "▁measure": 3372,
      ":\",": 3373,
      "▁void": 3374,
      "create": 3375,
      "▁government": 3376,
      "▁rectangle": 3377,
      "▁reflect": 3378,
      "Date": 3379,
      "ache": 3380,
      "book": 3381,
      "osed": 3382,
      "▁setting": 3383,
      "▁render": 3384,
      "▁done": 3385,
      "▁Rem": 3386,
      "aur": 3387,
      "▁intern": 3388,
      "find": 3389,
      "off": 3390,
      "ales": 3391,
      "▁origin": 3392,
      "▁across": 3393,
      "▁stock": 3394,
      "ww": 3395,
      "▁Print": 3396,
      "▁kilometers": 3397,
      "pping": 3398,
      "▁sorted": 3399,
      "password": 3400,
      "ke": 3401,
      "top": 3402,
      "▁frame": 3403,
      "▁mor": 3404,
      "▁trip": 3405,
      "▁requests": 3406,
      "▁option": 3407,
      "▁Ne": 3408,
      "ublic": 3409,
      "▁altern": 3410,
      "▁Ethan": 3411,
      "instance": 3412,
      "▁decimal": 3413,
      "▁face": 3414,
      "▁gallons": 3415,
      "▁equally": 3416,
      "▁actually": 3417,
      "▁gl": 3418,
      "izer": 3419,
      "▁econom": 3420,
      "▁track": 3421,
      "oration": 3422,
      "▁bi": 3423,
      "▁setup": 3424,
      "▁multipl": 3425,
      "▁Improved": 3426,
      "tely": 3427,
      "▁member": 3428,
      "▁review": 3429,
      "ights": 3430,
      "mb": 3431,
      "▁saved": 3432,
      "▁univers": 3433,
      "de": 3434,
      "▁animals": 3435,
      "▁contribute": 3436,
      "▁aspect": 3437,
      "▁instr": 3438,
      "▁JSON": 3439,
      "▁uses": 3440,
      "▁revenue": 3441,
      "ept": 3442,
      "att": 3443,
      "▁lot": 3444,
      "▁Lisa": 3445,
      "ube": 3446,
      "▁rows": 3447,
      "urch": 3448,
      "▁overall": 3449,
      "▁sche": 3450,
      "ampions": 3451,
      "defined": 3452,
      "▁Sec": 3453,
      "▁board": 3454,
      "AN": 3455,
      "ttps": 3456,
      "rieve": 3457,
      "▁integr": 3458,
      "▁Qu": 3459,
      "api": 3460,
      "▁<=": 3461,
      "▁parents": 3462,
      "▁Ol": 3463,
      "osing": 3464,
      "▁currently": 3465,
      "▁buying": 3466,
      "ici": 3467,
      "▁ful": 3468,
      "▁liter": 3469,
      "▁tasks": 3470,
      "}\\": 3471,
      "person": 3472,
      "▁images": 3473,
      "▁education": 3474,
      "▁API": 3475,
      "aced": 3476,
      "▁url": 3477,
      "▁bask": 3478,
      "▁Emotional": 3479,
      "▁put": 3480,
      "▁rules": 3481,
      "Be": 3482,
      "▁manage": 3483,
      "enses": 3484,
      "hood": 3485,
      "▁puzz": 3486,
      "▁$\\": 3487,
      "▁sexual": 3488,
      "▁Personal": 3489,
      "▁Check": 3490,
      "(-": 3491,
      "▁dividing": 3492,
      "▁increased": 3493,
      "▁Str": 3494,
      "▁adding": 3495,
      "▁liters": 3496,
      "▁remainder": 3497,
      "\"]": 3498,
      "▁Over": 3499,
      "GB": 3500,
      "False": 3501,
      "▁famil": 3502,
      "▁college": 3503,
      "cost": 3504,
      "▁essential": 3505,
      "▁American": 3506,
      "▁bar": 3507,
      "ensions": 3508,
      "▁foot": 3509,
      "▁screen": 3510,
      "ET": 3511,
      "post": 3512,
      "▁calculated": 3513,
      "ql": 3514,
      "▁normal": 3515,
      "▁solved": 3516,
      "▁admin": 3517,
      "▁label": 3518,
      "▁contact": 3519,
      "oogle": 3520,
      "▁decre": 3521,
      "Th": 3522,
      "wo": 3523,
      "▁enjoy": 3524,
      "▁Number": 3525,
      "olve": 3526,
      "▁minimum": 3527,
      "▁fit": 3528,
      "▁toys": 3529,
      "▁turn": 3530,
      "▁journ": 3531,
      "▁career": 3532,
      "▁weap": 3533,
      "response": 3534,
      "olation": 3535,
      "▁dynamics": 3536,
      "▁going": 3537,
      "reci": 3538,
      "▁played": 3539,
      "oman": 3540,
      "label": 3541,
      "▁Web": 3542,
      "items": 3543,
      "udget": 3544,
      "isions": 3545,
      "dir": 3546,
      "case": 3547,
      "▁RAM": 3548,
      "▁ways": 3549,
      "▁connect": 3550,
      "▁script": 3551,
      "na": 3552,
      "ags": 3553,
      "raft": 3554,
      "ope": 3555,
      "▁included": 3556,
      "otes": 3557,
      "▁Their": 3558,
      "▁identity": 3559,
      "▁balls": 3560,
      "▁six": 3561,
      "▁says": 3562,
      "▁Conf": 3563,
      "hentic": 3564,
      "▁taking": 3565,
      "ster": 3566,
      "▁mist": 3567,
      "▁zero": 3568,
      "target": 3569,
      "▁customers": 3570,
      "▁running": 3571,
      "▁starts": 3572,
      "▁filter": 3573,
      "rome": 3574,
      "▁pick": 3575,
      "▁medical": 3576,
      "np": 3577,
      "room": 3578,
      "▁&&": 3579,
      "▁objects": 3580,
      "▁attempt": 3581,
      "▁David": 3582,
      "▁military": 3583,
      "▁sale": 3584,
      "▁parent": 3585,
      "▁several": 3586,
      "▁sound": 3587,
      "▁eggs": 3588,
      "fl": 3589,
      "bose": 3590,
      "hand": 3591,
      "ober": 3592,
      "Array": 3593,
      "▁mach": 3594,
      "▁ur": 3595,
      "email": 3596,
      "bl": 3597,
      "atural": 3598,
      "▁gain": 3599,
      "▁quick": 3600,
      "ining": 3601,
      "▁garden": 3602,
      "atives": 3603,
      "${": 3604,
      "▁ign": 3605,
      "▁vehic": 3606,
      "derstand": 3607,
      "oreign": 3608,
      "ixed": 3609,
      "▁json": 3610,
      "▁pizzas": 3611,
      "▁Ins": 3612,
      "▁knowledge": 3613,
      "draw": 3614,
      "▁Sam": 3615,
      "▁Jack": 3616,
      "imin": 3617,
      "command": 3618,
      "ley": 3619,
      "ork": 3620,
      "▁bill": 3621,
      "▁username": 3622,
      "▁motiv": 3623,
      "▁characterized": 3624,
      "▁fail": 3625,
      "▁pers": 3626,
      "▁cur": 3627,
      "lines": 3628,
      "▁Will": 3629,
      "aight": 3630,
      "Enter": 3631,
      "▁legal": 3632,
      "OT": 3633,
      "');": 3634,
      "▁These": 3635,
      "▁concern": 3636,
      "▁adult": 3637,
      "default": 3638,
      "▁fire": 3639,
      "▁block": 3640,
      "▁big": 3641,
      "▁spend": 3642,
      "CharField": 3643,
      "▁saf": 3644,
      "itory": 3645,
      "▁emotions": 3646,
      "essages": 3647,
      "▁appe": 3648,
      "dig": 3649,
      "▁devices": 3650,
      "▁ballo": 3651,
      "▁designed": 3652,
      "▁spends": 3653,
      "▁straight": 3654,
      "▁gas": 3655,
      "une": 3656,
      "AL": 3657,
      "element": 3658,
      "▁streng": 3659,
      "▁Chr": 3660,
      "▁begin": 3661,
      "▁political": 3662,
      "▁Pe": 3663,
      "▁calculations": 3664,
      "dec": 3665,
      "▁util": 3666,
      "cos": 3667,
      "clud": 3668,
      "▁traditional": 3669,
      "do": 3670,
      "ying": 3671,
      "▁applications": 3672,
      "▁love": 3673,
      "▁plant": 3674,
      "points": 3675,
      "▁seems": 3676,
      "▁giving": 3677,
      "itude": 3678,
      "▁property": 3679,
      "▁teams": 3680,
      "uel": 3681,
      "▁wait": 3682,
      "▁Ben": 3683,
      "▁ban": 3684,
      "ancy": 3685,
      "next": 3686,
      "▁continu": 3687,
      "ising": 3688,
      "▁thing": 3689,
      "▁combined": 3690,
      "abilities": 3691,
      "▁simply": 3692,
      "elling": 3693,
      "▁choices": 3694,
      "aptop": 3695,
      "▁close": 3696,
      "▁tickets": 3697,
      "table": 3698,
      "▁Sm": 3699,
      "Test": 3700,
      "▁women": 3701,
      "▁looks": 3702,
      "▁query": 3703,
      "bum": 3704,
      "SD": 3705,
      "(),": 3706,
      "Int": 3707,
      "▁lat": 3708,
      "▁sets": 3709,
      "▁perce": 3710,
      "hour": 3711,
      "▁population": 3712,
      "method": 3713,
      "▁guarant": 3714,
      "▁tra": 3715,
      "▁tre": 3716,
      "▁Jan": 3717,
      "cohol": 3718,
      "▁Open": 3719,
      "▁throw": 3720,
      "▁exclus": 3721,
      "▁otherwise": 3722,
      "▁particular": 3723,
      "▁partners": 3724,
      "▁Met": 3725,
      "eness": 3726,
      "Ser": 3727,
      "▁brow": 3728,
      "▁nearest": 3729,
      "▁strug": 3730,
      "▁reci": 3731,
      "anged": 3732,
      "icial": 3733,
      "▁extra": 3734,
      "▁Mich": 3735,
      "gree": 3736,
      "random": 3737,
      "▁website": 3738,
      "▁whether": 3739,
      "▁historical": 3740,
      "▁relig": 3741,
      "▁once": 3742,
      "▁brand": 3743,
      "example": 3744,
      "▁prevent": 3745,
      "cing": 3746,
      "▁style": 3747,
      "agn": 3748,
      "▁chocolates": 3749,
      "▁autom": 3750,
      "▁pattern": 3751,
      "sed": 3752,
      "▁assum": 3753,
      "▁constructor": 3754,
      "▁regardless": 3755,
      "%.": 3756,
      "▁Det": 3757,
      "ellow": 3758,
      "▁static": 3759,
      "▁general": 3760,
      "verse": 3761,
      "▁directly": 3762,
      "ert": 3763,
      "hib": 3764,
      "▁Dep": 3765,
      "▁Next": 3766,
      "▁perfect": 3767,
      "ino": 3768,
      "▁choose": 3769,
      "▁window": 3770,
      "}:": 3771,
      "▁recipe": 3772,
      "▁temperature": 3773,
      "host": 3774,
      "▁Count": 3775,
      "▁Why": 3776,
      "▁shel": 3777,
      "▁ge": 3778,
      "▁symptoms": 3779,
      "▁luck": 3780,
      "▁income": 3781,
      "▁topics": 3782,
      "go": 3783,
      "▁party": 3784,
      "▁reading": 3785,
      "▁graph": 3786,
      "▁written": 3787,
      "];": 3788,
      "active": 3789,
      "▁select": 3790,
      "▁playing": 3791,
      "amps": 3792,
      "▁paint": 3793,
      "▁arguments": 3794,
      "down": 3795,
      "uild": 3796,
      "▁trust": 3797,
      "▁country": 3798,
      "▁Mo": 3799,
      "▁cas": 3800,
      "▁Windows": 3801,
      "▁indicates": 3802,
      "$,": 3803,
      "▁{}": 3804,
      "annel": 3805,
      "▁areas": 3806,
      "ek": 3807,
      "▁ill": 3808,
      "▁introdu": 3809,
      "▁minute": 3810,
      "▁driver": 3811,
      "kn": 3812,
      "names": 3813,
      "▁completely": 3814,
      "▁dataset": 3815,
      "▁skin": 3816,
      "▁Indifference": 3817,
      "▁cause": 3818,
      "▁abilities": 3819,
      "▁engagement": 3820,
      "▁cut": 3821,
      "ael": 3822,
      "▁tal": 3823,
      "▁map": 3824,
      "▁operating": 3825,
      "▁feeling": 3826,
      "▁ax": 3827,
      "change": 3828,
      "levant": 3829,
      "▁budget": 3830,
      "▁direction": 3831,
      "▁fig": 3832,
      "▁Raises": 3833,
      "▁risk": 3834,
      "ordinates": 3835,
      "▁either": 3836,
      "[\"": 3837,
      "▁---": 3838,
      "▁learn": 3839,
      "▁remove": 3840,
      "related": 3841,
      "▁''": 3842,
      "hemat": 3843,
      "▁involve": 3844,
      "antic": 3845,
      "▁released": 3846,
      "▁Fe": 3847,
      "▁Euro": 3848,
      "import": 3849,
      "▁Sol": 3850,
      "▁center": 3851,
      "▁representation": 3852,
      "▁Des": 3853,
      "▁helps": 3854,
      "▁involved": 3855,
      "▁Individuals": 3856,
      "▁walk": 3857,
      "elete": 3858,
      "respon": 3859,
      "▁calculating": 3860,
      "▁implement": 3861,
      "xy": 3862,
      "▁pairs": 3863,
      "▁Please": 3864,
      "Request": 3865,
      "▁shared": 3866,
      "strip": 3867,
      "Ind": 3868,
      "▁irre": 3869,
      "▁sports": 3870,
      "ystem": 3871,
      "▁degre": 3872,
      "▁happiness": 3873,
      "▁degrees": 3874,
      "▁tank": 3875,
      "▁balloons": 3876,
      "▁particip": 3877,
      "words": 3878,
      "▁['": 3879,
      "grad": 3880,
      "query": 3881,
      "function": 3882,
      "▁remember": 3883,
      "div": 3884,
      "pec": 3885,
      "▁States": 3886,
      "▁gender": 3887,
      "▁kind": 3888,
      "ana": 3889,
      "Dict": 3890,
      "▁ep": 3891,
      "▁flowers": 3892,
      "reet": 3893,
      "wh": 3894,
      "▁phot": 3895,
      "▁became": 3896,
      "unch": 3897,
      "▁operation": 3898,
      "lobal": 3899,
      "▁visual": 3900,
      "Response": 3901,
      "▁meet": 3902,
      "▁tree": 3903,
      "▁prompt": 3904,
      "▁purchase": 3905,
      ",\"": 3906,
      "▁able": 3907,
      "plot": 3908,
      "▁Teacher": 3909,
      "▁runs": 3910,
      "▁appreci": 3911,
      "▁dele": 3912,
      ")/": 3913,
      "▁shirts": 3914,
      "bs": 3915,
      "▁bak": 3916,
      "▁black": 3917,
      "▁||": 3918,
      "▁Not": 3919,
      "▁hy": 3920,
      "={": 3921,
      "push": 3922,
      "▁claim": 3923,
      "▁living": 3924,
      "▁≈": 3925,
      "icted": 3926,
      "Found": 3927,
      "▁teach": 3928,
      "ads": 3929,
      "▁death": 3930,
      "urrency": 3931,
      "▁plug": 3932,
      "▁functions": 3933,
      "▁mid": 3934,
      "▁actual": 3935,
      "▁instead": 3936,
      "▁packs": 3937,
      "▁rom": 3938,
      "▁HTML": 3939,
      "▁stability": 3940,
      "bol": 3941,
      "apping": 3942,
      "▁Lack": 3943,
      "▁extends": 3944,
      "irt": 3945,
      "QL": 3946,
      "▁vol": 3947,
      "▁National": 3948,
      "]]:": 3949,
      "emon": 3950,
      "▁indicate": 3951,
      "fill": 3952,
      "▁rev": 3953,
      "▁Cent": 3954,
      "▁fish": 3955,
      "▁choice": 3956,
      "][": 3957,
      "▁Comp": 3958,
      "▁laptop": 3959,
      "\"?": 3960,
      "▁opin": 3961,
      "▁Engaging": 3962,
      "▁analysis": 3963,
      "Element": 3964,
      "▁treatment": 3965,
      "▁la": 3966,
      "▁Commun": 3967,
      "▁monthly": 3968,
      "Al": 3969,
      "Number": 3970,
      "▁My": 3971,
      "ivia": 3972,
      ".,": 3973,
      "▁optim": 3974,
      "player": 3975,
      "▁balance": 3976,
      "overy": 3977,
      "▁topic": 3978,
      "▁lost": 3979,
      "rew": 3980,
      "++": 3981,
      "ED": 3982,
      "color": 3983,
      "▁analy": 3984,
      "▁Math": 3985,
      "zen": 3986,
      "▁region": 3987,
      "ung": 3988,
      "▁Ear": 3989,
      "▁token": 3990,
      "▁Load": 3991,
      "username": 3992,
      "ont": 3993,
      "token": 3994,
      "▁degree": 3995,
      "parse": 3996,
      "ibrary": 3997,
      "▁easy": 3998,
      "▁Find": 3999,
      "Item": 4000,
      "▁Act": 4001,
      "▁statement": 4002,
      "cast": 4003,
      "▁live": 4004,
      "like": 4005,
      "▁goals": 4006,
      "etal": 4007,
      "▁obj": 4008,
      "▁Ed": 4009,
      "pack": 4010,
      "gment": 4011,
      "ership": 4012,
      "▁Mary": 4013,
      "▁desire": 4014,
      "paren": 4015,
      "▁Lily": 4016,
      "▁English": 4017,
      "porary": 4018,
      "▁sens": 4019,
      "▁come": 4020,
      "▁Rel": 4021,
      "rup": 4022,
      "tig": 4023,
      "onday": 4024,
      "▁El": 4025,
      "poses": 4026,
      "esents": 4027,
      "▁located": 4028,
      "▁fr": 4029,
      "▁attack": 4030,
      "height": 4031,
      "▁leads": 4032,
      "▁situations": 4033,
      "}'": 4034,
      "iding": 4035,
      "▁duration": 4036,
      "uses": 4037,
      "▁undefined": 4038,
      "▁Date": 4039,
      "Object": 4040,
      "Par": 4041,
      "▁passage": 4042,
      "▁Max": 4043,
      "▁compan": 4044,
      "SV": 4045,
      "▁exerc": 4046,
      "Un": 4047,
      "ese": 4048,
      "igns": 4049,
      "▁cop": 4050,
      "▁irrelevant": 4051,
      "comes": 4052,
      "▁seen": 4053,
      "▁things": 4054,
      "ux": 4055,
      "pir": 4056,
      "ilk": 4057,
      "▁adjust": 4058,
      "▁comment": 4059,
      "web": 4060,
      "▁Inter": 4061,
      "▁represents": 4062,
      "▁Get": 4063,
      "▁processing": 4064,
      "\"{": 4065,
      "▁His": 4066,
      "▁suggests": 4067,
      "ief": 4068,
      "▁connections": 4069,
      "▁updated": 4070,
      "▁fem": 4071,
      "▁elif": 4072,
      "▁longer": 4073,
      "▁leading": 4074,
      "▁Sk": 4075,
      "ulture": 4076,
      "▁external": 4077,
      "▁million": 4078,
      "▁digits": 4079,
      "trans": 4080,
      "stances": 4081,
      "nes": 4082,
      "acc": 4083,
      "▁opportunities": 4084,
      "##": 4085,
      "▁migrations": 4086,
      "ox": 4087,
      "▁chocolate": 4088,
      "▁everything": 4089,
      "▁reduce": 4090,
      "▁Creat": 4091,
      "entially": 4092,
      "tific": 4093,
      "▁conver": 4094,
      "▁album": 4095,
      "▁Log": 4096,
      "▁cos": 4097,
      "▁creating": 4098,
      "root": 4099,
      "▁Run": 4100,
      "MA": 4101,
      "osp": 4102,
      "ture": 4103,
      "▁Off": 4104,
      "utf": 4105,
      "Text": 4106,
      "▁planning": 4107,
      "lear": 4108,
      "▁employee": 4109,
      "▁therapy": 4110,
      "▁constant": 4111,
      "iers": 4112,
      "▁relation": 4113,
      "▁modern": 4114,
      "known": 4115,
      "▁birth": 4116,
      "reed": 4117,
      "By": 4118,
      "▁responses": 4119,
      "▁Hand": 4120,
      "▁!=": 4121,
      "▁Google": 4122,
      "kens": 4123,
      "only": 4124,
      "▁mode": 4125,
      "da": 4126,
      "run": 4127,
      "▁salary": 4128,
      "▁band": 4129,
      "hical": 4130,
      "NotFound": 4131,
      "▁solutions": 4132,
      "▁Use": 4133,
      "▁initially": 4134,
      "▁today": 4135,
      "pload": 4136,
      "▁why": 4137,
      "▁vi": 4138,
      "▁pair": 4139,
      "product": 4140,
      "▁Michael": 4141,
      "▁skill": 4142,
      "▁sqrt": 4143,
      "estamp": 4144,
      "▁Prov": 4145,
      "connection": 4146,
      "▁decisions": 4147,
      "▁),": 4148,
      "▁neighb": 4149,
      "▁effort": 4150,
      "tention": 4151,
      "▁South": 4152,
      "▁basket": 4153,
      "▁Europe": 4154,
      "▁candid": 4155,
      "▁worked": 4156,
      "▁Sw": 4157,
      "▁Once": 4158,
      "Or": 4159,
      "keys": 4160,
      "uary": 4161,
      "▁datetime": 4162,
      "mark": 4163,
      "▁suff": 4164,
      "AD": 4165,
      "avy": 4166,
      "▁larger": 4167,
      "▁Avoiding": 4168,
      "ursor": 4169,
      "anch": 4170,
      "▁continue": 4171,
      "▁offers": 4172,
      "▁competitive": 4173,
      "RO": 4174,
      "▁$$": 4175,
      "description": 4176,
      "▁deal": 4177,
      "▁movie": 4178,
      "▁explain": 4179,
      "▁outcomes": 4180,
      "▁site": 4181,
      "▁purposes": 4182,
      "forward": 4183,
      "▁beneficial": 4184,
      "▁medication": 4185,
      "▁Am": 4186,
      "achel": 4187,
      "▁investment": 4188,
      "▁pic": 4189,
      "based": 4190,
      "▁verbose": 4191,
      "most": 4192,
      "▁feedback": 4193,
      "▁perception": 4194,
      "toBe": 4195,
      "▁deep": 4196,
      "▁radius": 4197,
      "▁Sci": 4198,
      "cel": 4199,
      "filter": 4200,
      "▁combat": 4201,
      "▁migration": 4202,
      "http": 4203,
      "flow": 4204,
      "▁Start": 4205,
      "AC": 4206,
      "▁entry": 4207,
      "ords": 4208,
      "▁Hist": 4209,
      "▁classes": 4210,
      "▁columns": 4211,
      "tery": 4212,
      "▁School": 4213,
      "enge": 4214,
      "▁Game": 4215,
      "▁eat": 4216,
      "train": 4217,
      "Invalid": 4218,
      "▁safety": 4219,
      "round": 4220,
      "▁forms": 4221,
      "sel": 4222,
      "▁download": 4223,
      "▁discussed": 4224,
      "care": 4225,
      "gram": 4226,
      "ponent": 4227,
      "bit": 4228,
      ")(": 4229,
      "amera": 4230,
      "school": 4231,
      "Action": 4232,
      "rate": 4233,
      "arter": 4234,
      "aches": 4235,
      "asons": 4236,
      "▁largest": 4237,
      "CO": 4238,
      "ene": 4239,
      "▁plants": 4240,
      "▁scenario": 4241,
      "NotFoundError": 4242,
      "▁significance": 4243,
      "hest": 4244,
      "▁club": 4245,
      "search": 4246,
      "eral": 4247,
      "Im": 4248,
      "sin": 4249,
      "▁logger": 4250,
      "▁experienced": 4251,
      "▁db": 4252,
      "lick": 4253,
      "pace": 4254,
      "ueue": 4255,
      "ribute": 4256,
      "▁labels": 4257,
      "cour": 4258,
      "▁greater": 4259,
      "acing": 4260,
      "DataFrame": 4261,
      "▁anti": 4262,
      "▁From": 4263,
      "▁enem": 4264,
      "▁built": 4265,
      "TX": 4266,
      "files": 4267,
      "entific": 4268,
      "▁upper": 4269,
      "▁smaller": 4270,
      "▁ago": 4271,
      "▁HTTP": 4272,
      "uation": 4273,
      "▁package": 4274,
      "▁var": 4275,
      "▁mind": 4276,
      "pri": 4277,
      "▁benefits": 4278,
      "▁significantly": 4279,
      "▁Output": 4280,
      "▁presence": 4281,
      "▁nature": 4282,
      "inations": 4283,
      "ably": 4284,
      "iment": 4285,
      "▁variable": 4286,
      "▁{'": 4287,
      "▁Error": 4288,
      "▁pressure": 4289,
      "ada": 4290,
      "atory": 4291,
      "dom": 4292,
      "vant": 4293,
      "▁inj": 4294,
      "▁novel": 4295,
      "▁transform": 4296,
      "▁AD": 4297,
      "▁favor": 4298,
      "▁paper": 4299,
      "▁Olivia": 4300,
      "oking": 4301,
      "▁Monday": 4302,
      "▁Time": 4303,
      "idget": 4304,
      "▁Ah": 4305,
      "ION": 4306,
      "▁helped": 4307,
      "▁named": 4308,
      "gener": 4309,
      "▁existing": 4310,
      "▁ran": 4311,
      "▁covered": 4312,
      "▁concepts": 4313,
      "uly": 4314,
      "▁species": 4315,
      "ried": 4316,
      "ustry": 4317,
      "▁Type": 4318,
      "▁active": 4319,
      "▁correspon": 4320,
      "gles": 4321,
      "▁bur": 4322,
      "▁prime": 4323,
      "▁rates": 4324,
      "▁Net": 4325,
      "OS": 4326,
      "Config": 4327,
      "▁alternative": 4328,
      "Pl": 4329,
      "rec": 4330,
      "▁thanks": 4331,
      "▁practices": 4332,
      "onds": 4333,
      "▁roll": 4334,
      "▁worth": 4335,
      "▁Array": 4336,
      "▁split": 4337,
      "▁Key": 4338,
      "▁tests": 4339,
      "▁serve": 4340,
      "▁${": 4341,
      "artment": 4342,
      "Exception": 4343,
      "▁competition": 4344,
      "▁guid": 4345,
      "ders": 4346,
      "write": 4347,
      "▁interaction": 4348,
      "▁agree": 4349,
      "phas": 4350,
      "equ": 4351,
      "iber": 4352,
      "▁coins": 4353,
      "▁night": 4354,
      "▁patterns": 4355,
      "▁Mia": 4356,
      "server": 4357,
      "ached": 4358,
      "▁denomin": 4359,
      "selves": 4360,
      "posed": 4361,
      "Man": 4362,
      "days": 4363,
      "force": 4364,
      "▁Germ": 4365,
      "▁industry": 4366,
      "▁station": 4367,
      "▁sister": 4368,
      "perty": 4369,
      "ha": 4370,
      "csv": 4371,
      "avig": 4372,
      "ening": 4373,
      "▁sand": 4374,
      "iors": 4375,
      "ially": 4376,
      "▁hardware": 4377,
      "▁module": 4378,
      "▁amounts": 4379,
      "oss": 4380,
      "fri": 4381,
      "stit": 4382,
      "tification": 4383,
      "▁City": 4384,
      "▁payment": 4385,
      "▁tools": 4386,
      "elebr": 4387,
      "lication": 4388,
      "US": 4389,
      "sol": 4390,
      "ustral": 4391,
      "astic": 4392,
      "Set": 4393,
      "▁internet": 4394,
      "▁organization": 4395,
      "ratic": 4396,
      "▁await": 4397,
      "▁Players": 4398,
      "▁section": 4399,
      "sequences": 4400,
      "▁strength": 4401,
      "▁pen": 4402,
      "igration": 4403,
      "▁resolution": 4404,
      "iciency": 4405,
      "▁article": 4406,
      "Of": 4407,
      "▁cakes": 4408,
      "ES": 4409,
      "rol": 4410,
      "}\"": 4411,
      "▁category": 4412,
      "ctive": 4413,
      "▁advice": 4414,
      "▁Python": 4415,
      "gor": 4416,
      "▁accom": 4417,
      "▁dress": 4418,
      "▁rather": 4419,
      "▁arch": 4420,
      "▁prices": 4421,
      "urance": 4422,
      "▁appl": 4423,
      "ops": 4424,
      "ortive": 4425,
      "▁mob": 4426,
      "▁messages": 4427,
      "iginal": 4428,
      "▁Display": 4429,
      "hold": 4430,
      "▁critical": 4431,
      "▁Che": 4432,
      "▁repe": 4433,
      "▁shows": 4434,
      "▁January": 4435,
      "mm": 4436,
      "ancing": 4437,
      "▁Focus": 4438,
      "▁sometimes": 4439,
      "cles": 4440,
      "ipment": 4441,
      "▁science": 4442,
      "▁discussion": 4443,
      "bot": 4444,
      "Path": 4445,
      "▁lay": 4446,
      "▁testing": 4447,
      "ites": 4448,
      "▁white": 4449,
      "▁defined": 4450,
      "▁finding": 4451,
      "▁immediately": 4452,
      "doc": 4453,
      "lower": 4454,
      "aby": 4455,
      "bed": 4456,
      "▁aim": 4457,
      "▁Bar": 4458,
      "version": 4459,
      "unk": 4460,
      "lying": 4461,
      "▁send": 4462,
      "▁mathemat": 4463,
      "▁'{": 4464,
      "▁AM": 4465,
      "▁fast": 4466,
      "▁stamps": 4467,
      "}$": 4468,
      "▁ow": 4469,
      "address": 4470,
      "▁Intern": 4471,
      "▁circle": 4472,
      "▁replace": 4473,
      "▁expenses": 4474,
      "oyal": 4475,
      "peed": 4476,
      "▁shape": 4477,
      "▁noteb": 4478,
      "database": 4479,
      "mo": 4480,
      "sl": 4481,
      "▁material": 4482,
      "▁motherboard": 4483,
      "▁roles": 4484,
      "cdot": 4485,
      "'.": 4486,
      "pay": 4487,
      "▁leave": 4488,
      "▁assess": 4489,
      "▁Generate": 4490,
      "▁news": 4491,
      "group": 4492,
      "▁James": 4493,
      "▁March": 4494,
      "▁Process": 4495,
      "▁hot": 4496,
      "CH": 4497,
      "▁sil": 4498,
      "▁async": 4499,
      "osition": 4500,
      "▁addition": 4501,
      "itation": 4502,
      "▁Austral": 4503,
      "▁moving": 4504,
      "Index": 4505,
      "assert": 4506,
      "umer": 4507,
      "▁Inst": 4508,
      "▁Oct": 4509,
      "▁limited": 4510,
      "▁Me": 4511,
      "▁keys": 4512,
      "▁Your": 4513,
      "▁Sounds": 4514,
      "ban": 4515,
      "▁Aug": 4516,
      "▁audio": 4517,
      "resents": 4518,
      "▁becomes": 4519,
      "▁little": 4520,
      "▁mass": 4521,
      "▁engage": 4522,
      "▁Financial": 4523,
      "print": 4524,
      "▁indeed": 4525,
      "▁Tim": 4526,
      "▁materials": 4527,
      "▁successfully": 4528,
      "▁tables": 4529,
      "BA": 4530,
      "df": 4531,
      ":\")": 4532,
      "▁Wr": 4533,
      "last": 4534,
      "▁oun": 4535,
      "▁allowed": 4536,
      "Dr": 4537,
      "▁Post": 4538,
      "update": 4539,
      "▁binary": 4540,
      "▁fruits": 4541,
      "▁importance": 4542,
      "▁component": 4543,
      "▁phr": 4544,
      "istration": 4545,
      "eras": 4546,
      "▁Har": 4547,
      "▁North": 4548,
      "▁Custom": 4549,
      "expected": 4550,
      "▁AI": 4551,
      "▁background": 4552,
      "▁mom": 4553,
      "rows": 4554,
      "▁Power": 4555,
      "▁participant": 4556,
      "▁straightforward": 4557,
      "▁interests": 4558,
      "▁dog": 4559,
      "utive": 4560,
      "▁born": 4561,
      "▁cat": 4562,
      "adata": 4563,
      "▁pars": 4564,
      "▁natural": 4565,
      "ameter": 4566,
      "▁finish": 4567,
      "▁seeking": 4568,
      "uts": 4569,
      "▁compat": 4570,
      "ifferent": 4571,
      "iff": 4572,
      "labels": 4573,
      "▁meaning": 4574,
      "▁consumption": 4575,
      "▁Apr": 4576,
      "phone": 4577,
      "▁release": 4578,
      "gen": 4579,
      "ole": 4580,
      "▁completed": 4581,
      "pathy": 4582,
      "▁Part": 4583,
      "format": 4584,
      "▁alcohol": 4585,
      "▁Leg": 4586,
      "▁Every": 4587,
      "No": 4588,
      "▁healthy": 4589,
      "▁ey": 4590,
      "ufact": 4591,
      "gress": 4592,
      "▁selected": 4593,
      "▁digit": 4594,
      "Form": 4595,
      "ippet": 4596,
      "source": 4597,
      "Col": 4598,
      "▁calories": 4599,
      "ille": 4600,
      "utton": 4601,
      "▁romantic": 4602,
      "▁thoughts": 4603,
      "iet": 4604,
      "▁cultural": 4605,
      "iques": 4606,
      "File": 4607,
      "▁cub": 4608,
      "▁Call": 4609,
      "ications": 4610,
      "step": 4611,
      "itable": 4612,
      "▁transfer": 4613,
      "▁(!": 4614,
      "▁held": 4615,
      "display": 4616,
      "▁heart": 4617,
      "aint": 4618,
      "▁Are": 4619,
      "▁ing": 4620,
      "istent": 4621,
      "▁batch": 4622,
      "ectively": 4623,
      ")]": 4624,
      "▁'./": 4625,
      "opping": 4626,
      "uesday": 4627,
      "▁grid": 4628,
      "ighest": 4629,
      "initial": 4630,
      "▁ever": 4631,
      "erse": 4632,
      "▁appropri": 4633,
      "entif": 4634,
      "▁produce": 4635,
      "fol": 4636,
      "▁sys": 4637,
      "▁lif": 4638,
      "▁Mock": 4639,
      "▁cross": 4640,
      "▁uns": 4641,
      "delete": 4642,
      "UT": 4643,
      "▁cru": 4644,
      "▁digital": 4645,
      "ibilities": 4646,
      "apan": 4647,
      "asy": 4648,
      "gorith": 4649,
      "▁establish": 4650,
      "ously": 4651,
      "▁More": 4652,
      "▁respect": 4653,
      "derstanding": 4654,
      "▁originally": 4655,
      "ialog": 4656,
      "ordinate": 4657,
      "lose": 4658,
      "▁der": 4659,
      "iring": 4660,
      "▁asks": 4661,
      "RI": 4662,
      "▁authentic": 4663,
      "filename": 4664,
      "▁contract": 4665,
      "pes": 4666,
      "▁typical": 4667,
      "▁June": 4668,
      "▁Mat": 4669,
      "grade": 4670,
      "▁satisfaction": 4671,
      "eck": 4672,
      "▁below": 4673,
      "oti": 4674,
      "vey": 4675,
      "▁young": 4676,
      "score": 4677,
      "▁Brit": 4678,
      "\\),": 4679,
      "▁checks": 4680,
      "▁themselves": 4681,
      "eds": 4682,
      "tivity": 4683,
      "▁comes": 4684,
      "pective": 4685,
      "▁Mus": 4686,
      "▁stack": 4687,
      "'],": 4688,
      "len": 4689,
      "▁collab": 4690,
      "▁demand": 4691,
      "▁strings": 4692,
      "ivil": 4693,
      "orch": 4694,
      "ellig": 4695,
      "▁managing": 4696,
      "▁hor": 4697,
      "▁repl": 4698,
      "▁depression": 4699,
      "▁King": 4700,
      "\");": 4701,
      "▁Name": 4702,
      "▁mistake": 4703,
      "▁prin": 4704,
      "▁IP": 4705,
      "▁Where": 4706,
      "▁compar": 4707,
      "lation": 4708,
      "sim": 4709,
      "istry": 4710,
      "ronic": 4711,
      "▁seek": 4712,
      "▁older": 4713,
      "▁December": 4714,
      "▁consequence": 4715,
      "▁circum": 4716,
      "▁responsible": 4717,
      "being": 4718,
      "▁Phys": 4719,
      "▁outside": 4720,
      "▁appearance": 4721,
      "▁national": 4722,
      "bar": 4723,
      "Cont": 4724,
      "▁demonstrate": 4725,
      "ians": 4726,
      "▁joy": 4727,
      "ategory": 4728,
      "▁advant": 4729,
      "den": 4730,
      "▁collect": 4731,
      "▁exclusively": 4732,
      "▁Hel": 4733,
      "▁har": 4734,
      "▁technical": 4735,
      "▁Decre": 4736,
      "▁aware": 4737,
      "▁tool": 4738,
      "▁fear": 4739,
      "▁experiencing": 4740,
      "dep": 4741,
      "▁positions": 4742,
      "util": 4743,
      "▁effectively": 4744,
      "range": 4745,
      "▁emphas": 4746,
      "▁template": 4747,
      "▁platforms": 4748,
      "lib": 4749,
      "▁Comput": 4750,
      "▁examples": 4751,
      "▁produced": 4752,
      "iance": 4753,
      "▁epis": 4754,
      "▁Seeking": 4755,
      "lar": 4756,
      "▁Af": 4757,
      "vas": 4758,
      "▁sort": 4759,
      "▁cents": 4760,
      "Event": 4761,
      "▁published": 4762,
      "aph": 4763,
      "mber": 4764,
      "ama": 4765,
      "session": 4766,
      "env": 4767,
      "ocal": 4768,
      "▁sin": 4769,
      "▁comfort": 4770,
      "▁Attributes": 4771,
      "▁During": 4772,
      "▁increases": 4773,
      "▁Sept": 4774,
      "▁kill": 4775,
      "▁economic": 4776,
      "▁expectations": 4777,
      "amples": 4778,
      "Log": 4779,
      "child": 4780,
      "images": 4781,
      "▁simplifies": 4782,
      "▁Her": 4783,
      "▁frequency": 4784,
      "▁led": 4785,
      "▁compl": 4786,
      "?\"": 4787,
      "▁snippet": 4788,
      "▁updates": 4789,
      "▁Mod": 4790,
      "▁concerns": 4791,
      "▁societal": 4792,
      "uting": 4793,
      "▁outcome": 4794,
      "▁ounces": 4795,
      "▁depth": 4796,
      "pite": 4797,
      "▁beliefs": 4798,
      "▁letter": 4799,
      "▁'__": 4800,
      "▁Our": 4801,
      "▁York": 4802,
      "sample": 4803,
      "Tuple": 4804,
      "entials": 4805,
      "event": 4806,
      "▁April": 4807,
      "raph": 4808,
      "▁Ens": 4809,
      "▁pregn": 4810,
      "▁Feb": 4811,
      "▁Valid": 4812,
      "▁scores": 4813,
      "thern": 4814,
      "▁seats": 4815,
      "▁religious": 4816,
      "oke": 4817,
      "dit": 4818,
      "▁hon": 4819,
      "▁brother": 4820,
      "▁grams": 4821,
      "HT": 4822,
      "▁denominator": 4823,
      "body": 4824,
      "▁journey": 4825,
      "▁challenge": 4826,
      "▁quad": 4827,
      "▁vehicle": 4828,
      "▁verify": 4829,
      "bin": 4830,
      "▁isolation": 4831,
      "▁Multi": 4832,
      "▁upon": 4833,
      "▁ball": 4834,
      "▁easily": 4835,
      "ament": 4836,
      "▁ten": 4837,
      "▁Base": 4838,
      "▁blank": 4839,
      "▁saves": 4840,
      ")²": 4841,
      "____": 4842,
      "▁Lim": 4843,
      "itement": 4844,
      "▁La": 4845,
      "▁scientific": 4846,
      "▁wide": 4847,
      "▁father": 4848,
      "▁companies": 4849,
      "]]": 4850,
      "}}": 4851,
      "▁rep": 4852,
      "▁confusion": 4853,
      "atching": 4854,
      "▁highest": 4855,
      "▁Mem": 4856,
      "▁Japan": 4857,
      "▁preferences": 4858,
      "oded": 4859,
      "▁rot": 4860,
      "Failed": 4861,
      "▁basic": 4862,
      "ovember": 4863,
      "power": 4864,
      "cessive": 4865,
      "▁benefit": 4866,
      "details": 4867,
      "▁interpre": 4868,
      "▁considering": 4869,
      "▁CSV": 4870,
      "▁Soph": 4871,
      "▁programs": 4872,
      "ffee": 4873,
      "▁errors": 4874,
      "▁techniques": 4875,
      "▁supposed": 4876,
      "▁behaviors": 4877,
      "▁√": 4878,
      "idge": 4879,
      "cases": 4880,
      "▁monitor": 4881,
      "Ret": 4882,
      "org": 4883,
      "Hand": 4884,
      "▁stay": 4885,
      "▁September": 4886,
      "anas": 4887,
      "▁pet": 4888,
      "▁Flask": 4889,
      "▁switch": 4890,
      "▁ticket": 4891,
      "socket": 4892,
      "▁Form": 4893,
      "▁August": 4894,
      "▁expand": 4895,
      "▁inside": 4896,
      "▁campa": 4897,
      "▁diet": 4898,
      "https": 4899,
      "ested": 4900,
      "▁Prompt": 4901,
      "▁sells": 4902,
      "▁linked": 4903,
      "▁machine": 4904,
      "▁gold": 4905,
      "▁exists": 4906,
      "▁Techn": 4907,
      "▁highlight": 4908,
      "amount": 4909,
      "reshold": 4910,
      "▁everyone": 4911,
      "▁dimensions": 4912,
      "▁shoes": 4913,
      "▁candy": 4914,
      "▁reported": 4915,
      "▁milk": 4916,
      "▁itself": 4917,
      "▁recovery": 4918,
      "▁vary": 4919,
      "itiz": 4920,
      "▁tur": 4921,
      "▁established": 4922,
      "__':": 4923,
      "▁cell": 4924,
      "oute": 4925,
      "▁dealing": 4926,
      ">(": 4927,
      "▁Tuesday": 4928,
      "task": 4929,
      "▁Class": 4930,
      "▁safe": 4931,
      "▁announ": 4932,
      "▁staff": 4933,
      "▁roots": 4934,
      "▁library": 4935,
      "▁Mr": 4936,
      "core": 4937,
      "▁appreciate": 4938,
      "));": 4939,
      "aly": 4940,
      "save": 4941,
      "▁movement": 4942,
      "▁throughout": 4943,
      "▁countries": 4944,
      "▁pan": 4945,
      "▁syn": 4946,
      "dated": 4947,
      "ruary": 4948,
      "DR": 4949,
      "▁former": 4950,
      "ipping": 4951,
      "▁consequences": 4952,
      "ios": 4953,
      "▁thought": 4954,
      "▁champions": 4955,
      "struct": 4956,
      "Sh": 4957,
      "▁\"\"": 4958,
      "▁Ste": 4959,
      "iday": 4960,
      "orpor": 4961,
      "▁thread": 4962,
      "anger": 4963,
      "▁pool": 4964,
      "▁Perform": 4965,
      "uth": 4966,
      "▁weekly": 4967,
      "▁GPU": 4968,
      "friend": 4969,
      "antity": 4970,
      "▁calls": 4971,
      "▁plans": 4972,
      "▁button": 4973,
      "▁celebr": 4974,
      "▁register": 4975,
      "▁Air": 4976,
      "▁tag": 4977,
      "▁colors": 4978,
      "▁returned": 4979,
      "▁trade": 4980,
      "▁efficiency": 4981,
      "ouch": 4982,
      "▁went": 4983,
      "▁login": 4984,
      "wr": 4985,
      "▁coeff": 4986,
      "idden": 4987,
      "ulated": 4988,
      "*-": 4989,
      "umb": 4990,
      "pped": 4991,
      "weight": 4992,
      "▁November": 4993,
      "▁confidence": 4994,
      "ili": 4995,
      "▁getting": 4996,
      "ades": 4997,
      "itors": 4998,
      "▁bottles": 4999,
      "▁accurate": 5000,
      "▁gather": 5001,
      "ided": 5002,
      "▁lic": 5003,
      "▁Cr": 5004,
      "▁Dan": 5005,
      "▁ste": 5006,
      "ifier": 5007,
      "opy": 5008,
      "▁inn": 5009,
      "ongo": 5010,
      "▁'../": 5011,
      "▁Pres": 5012,
      "▁potentially": 5013,
      "▁protect": 5014,
      "▁bad": 5015,
      "PS": 5016,
      "▁Pat": 5017,
      "▁missing": 5018,
      "▁acqu": 5019,
      "▁mer": 5020,
      "▁bank": 5021,
      "features": 5022,
      "▁surface": 5023,
      "▁July": 5024,
      "▁projects": 5025,
      "▁Colle": 5026,
      "student": 5027,
      "▁providing": 5028,
      "ued": 5029,
      "▁vector": 5030,
      "▁_____": 5031,
      "▁Fam": 5032,
      "▁\\(\\": 5033,
      "▁Ry": 5034,
      "ission": 5035,
      "▁exact": 5036,
      "▁serial": 5037,
      "▁manufact": 5038,
      "▁bread": 5039,
      "lier": 5040,
      "pop": 5041,
      "▁Promise": 5042,
      "▁exercise": 5043,
      "oming": 5044,
      "ivity": 5045,
      "▁copy": 5046,
      "▁alone": 5047,
      "distance": 5048,
      "▁transport": 5049,
      "vari": 5050,
      "aught": 5051,
      "utual": 5052,
      "▁Happ": 5053,
      "▁Mike": 5054,
      "▁iter": 5055,
      "▁Given": 5056,
      "cell": 5057,
      "egative": 5058,
      "▁October": 5059,
      "▁validation": 5060,
      "▁distribution": 5061,
      "▁rank": 5062,
      "▁matter": 5063,
      "▁occurs": 5064,
      "▁Group": 5065,
      "ums": 5066,
      "rics": 5067,
      "ulations": 5068,
      "▁Intel": 5069,
      "▁numpy": 5070,
      "▁withdraw": 5071,
      "arc": 5072,
      "▁Eff": 5073,
      "▁qual": 5074,
      "▁defin": 5075,
      "▁ded": 5076,
      "▁prec": 5077,
      "elements": 5078,
      "▁hol": 5079,
      "Input": 5080,
      "hens": 5081,
      "ivery": 5082,
      "▁controll": 5083,
      "▁leaves": 5084,
      "appro": 5085,
      "▁equations": 5086,
      "▁studies": 5087,
      "▁appropriate": 5088,
      "tures": 5089,
      "men": 5090,
      "ctor": 5091,
      "▁dogs": 5092,
      "▁entirely": 5093,
      "then": 5094,
      "▁distress": 5095,
      "mor": 5096,
      "▁properties": 5097,
      "▁isn": 5098,
      "▁muff": 5099,
      "▁wall": 5100,
      "▁theme": 5101,
      "LO": 5102,
      "▁Ag": 5103,
      "reaming": 5104,
      "▁easier": 5105,
      "▁parameters": 5106,
      "cr": 5107,
      "▁du": 5108,
      "▁race": 5109,
      "▁views": 5110,
      "ifying": 5111,
      "Case": 5112,
      "▁manager": 5113,
      "▁attention": 5114,
      "▁Many": 5115,
      "▁late": 5116,
      "▁Update": 5117,
      "▁stuck": 5118,
      "▁hab": 5119,
      "datetime": 5120,
      "▁expressed": 5121,
      "▁Sch": 5122,
      "oting": 5123,
      "▁February": 5124,
      "grid": 5125,
      "▁removed": 5126,
      "▁requirements": 5127,
      "▁Most": 5128,
      "▁ingred": 5129,
      "roy": 5130,
      "▁Exper": 5131,
      "objects": 5132,
      "iqu": 5133,
      "▁dom": 5134,
      "▁doing": 5135,
      "▁Health": 5136,
      "▁processes": 5137,
      "sers": 5138,
      "▁dro": 5139,
      "▁manip": 5140,
      "▁Elect": 5141,
      "PA": 5142,
      "▁);": 5143,
      "▁culture": 5144,
      "SI": 5145,
      "unt": 5146,
      "digit": 5147,
      "OST": 5148,
      "icate": 5149,
      "▁earned": 5150,
      "▁restaur": 5151,
      "▁farm": 5152,
      ".”": 5153,
      "▁summar": 5154,
      "▁{\"": 5155,
      "▁lists": 5156,
      "▁blood": 5157,
      "▁quickly": 5158,
      "▁misun": 5159,
      "atically": 5160,
      "▁Represents": 5161,
      "▁creation": 5162,
      "▁mechanics": 5163,
      "').": 5164,
      "▁unn": 5165,
      "▁tren": 5166,
      "▁conflicts": 5167,
      "▁-*-": 5168,
      "owers": 5169,
      "works": 5170,
      "reams": 5171,
      "▁Anxiety": 5172,
      "▁sem": 5173,
      "▁elimin": 5174,
      "▁Well": 5175,
      "▁exhib": 5176,
      "▁inform": 5177,
      "▁reference": 5178,
      "fully": 5179,
      "ao": 5180,
      "pred": 5181,
      "▁comments": 5182,
      "▁Chris": 5183,
      "▁increasing": 5184,
      "▁diagn": 5185,
      "▁Convert": 5186,
      "▁indicating": 5187,
      "▁kg": 5188,
      "▁rule": 5189,
      "FI": 5190,
      "▁fund": 5191,
      "▁[\"": 5192,
      "show": 5193,
      "▁fully": 5194,
      "traction": 5195,
      "▁advanced": 5196,
      "▁equipment": 5197,
      "▁Sun": 5198,
      "▁began": 5199,
      "▁CO": 5200,
      "ker": 5201,
      "ether": 5202,
      "▁fiction": 5203,
      "▁cray": 5204,
      "project": 5205,
      "▁passed": 5206,
      "▁served": 5207,
      "▁viol": 5208,
      "▁wat": 5209,
      "▁conduct": 5210,
      "ectiveness": 5211,
      "▁motivation": 5212,
      "▁bon": 5213,
      "▁Micro": 5214,
      "▁figures": 5215,
      "link": 5216,
      "▁symbol": 5217,
      "▁Image": 5218,
      "▁patient": 5219,
      "▁processed": 5220,
      "▁clarity": 5221,
      "▁variables": 5222,
      "ony": 5223,
      "▁traum": 5224,
      "▁behind": 5225,
      "▁faster": 5226,
      "▁evidence": 5227,
      "ica": 5228,
      "ipe": 5229,
      "▁jud": 5230,
      "▁characteristics": 5231,
      "Em": 5232,
      "▁ground": 5233,
      "▁scored": 5234,
      "▁accepted": 5235,
      "▁sus": 5236,
      "▁disorder": 5237,
      "▁Bet": 5238,
      "▁Hy": 5239,
      "long": 5240,
      "orders": 5241,
      "▁DataFrame": 5242,
      "ooth": 5243,
      "▁hous": 5244,
      "▁join": 5245,
      "▁frustr": 5246,
      "CD": 5247,
      "▁Support": 5248,
      "****": 5249,
      "▁rad": 5250,
      "pan": 5251,
      "▁sharing": 5252,
      "▁maintaining": 5253,
      "HD": 5254,
      "column": 5255,
      "▁prepar": 5256,
      "}.": 5257,
      "ednes": 5258,
      "▁logic": 5259,
      "▁secure": 5260,
      "▁Bob": 5261,
      "▁telev": 5262,
      "▁parser": 5263,
      "▁hit": 5264,
      "▁chic": 5265,
      "▁Rachel": 5266,
      "▁female": 5267,
      "▁abuse": 5268,
      "eline": 5269,
      "ticism": 5270,
      "▁cooling": 5271,
      "▁engaging": 5272,
      "▁progress": 5273,
      "missions": 5274,
      "▁boundaries": 5275,
      "▁crucial": 5276,
      "▁obtain": 5277,
      "▁teacher": 5278,
      "aul": 5279,
      "bre": 5280,
      "▁Super": 5281,
      "▁estim": 5282,
      "▁mechanism": 5283,
      "▁!==": 5284,
      "Up": 5285,
      "▁readonly": 5286,
      "esthe": 5287,
      "▁male": 5288,
      "▁cart": 5289,
      "▁fall": 5290,
      "initely": 5291,
      "▁bananas": 5292,
      "[:": 5293,
      "▁global": 5294,
      "eling": 5295,
      "▁Ang": 5296,
      "wargs": 5297,
      "▁substit": 5298,
      "Integer": 5299,
      "▁independence": 5300,
      "irds": 5301,
      "▁bring": 5302,
      "▁opinions": 5303,
      "exec": 5304,
      "▁Http": 5305,
      "▁reflects": 5306,
      "try": 5307,
      "▁frequently": 5308,
      "oolean": 5309,
      "▁century": 5310,
      "▁letters": 5311,
      "▁trading": 5312,
      "{\\": 5313,
      "▁People": 5314,
      "(\\": 5315,
      "▁,": 5316,
      "▁gro": 5317,
      "▁believe": 5318,
      "▁markers": 5319,
      "unc": 5320,
      "using": 5321,
      "fit": 5322,
      "▁guit": 5323,
      "▁goes": 5324,
      "▁prep": 5325,
      "lowing": 5326,
      "▁posts": 5327,
      "▁camera": 5328,
      "inner": 5329,
      "========": 5330,
      "rams": 5331,
      "rench": 5332,
      "▁legs": 5333,
      "▁town": 5334,
      "▁office": 5335,
      "▁finally": 5336,
      "itect": 5337,
      "cir": 5338,
      "▁swim": 5339,
      "ednesday": 5340,
      "call": 5341,
      "ypes": 5342,
      "▁Develop": 5343,
      "▁conversation": 5344,
      "cm": 5345,
      "View": 5346,
      "▁relevant": 5347,
      "▁clim": 5348,
      "▁floor": 5349,
      "▁Hum": 5350,
      "▁broad": 5351,
      "▁fight": 5352,
      "▁yellow": 5353,
      "▁international": 5354,
      "inct": 5355,
      "▁came": 5356,
      "▁force": 5357,
      "▁TV": 5358,
      "▁Fil": 5359,
      "App": 5360,
      "▁spaces": 5361,
      "▁complic": 5362,
      "▁Tem": 5363,
      "making": 5364,
      "▁League": 5365,
      "shape": 5366,
      "▁Ob": 5367,
      "views": 5368,
      "cat": 5369,
      "books": 5370,
      "▁dem": 5371,
      "▁crayons": 5372,
      "▁answers": 5373,
      "▁quarter": 5374,
      "ifth": 5375,
      "▁trees": 5376,
      "▁While": 5377,
      "▁moder": 5378,
      "▁characteristic": 5379,
      "tag": 5380,
      "inst": 5381,
      "▁mock": 5382,
      "▁variety": 5383,
      "▁workers": 5384,
      "▁recommend": 5385,
      "vis": 5386,
      "results": 5387,
      "▁resource": 5388,
      ")}": 5389,
      "UL": 5390,
      "▁Complete": 5391,
      "▁election": 5392,
      "Class": 5393,
      "▁middle": 5394,
      "▁shirt": 5395,
      "▁assume": 5396,
      "▁threat": 5397,
      "▁surv": 5398,
      "Manager": 5399,
      "▁police": 5400,
      "ae": 5401,
      "▁Bat": 5402,
      "▁British": 5403,
      "▁coffee": 5404,
      "▁configure": 5405,
      "▁narrator": 5406,
      "URL": 5407,
      "▁Afric": 5408,
      "▁gallon": 5409,
      "▁coordinates": 5410,
      "Le": 5411,
      "▁Long": 5412,
      "▁West": 5413,
      "▁happens": 5414,
      "elligence": 5415,
      "▁collected": 5416,
      "▁queue": 5417,
      "▁travels": 5418,
      "▁>=": 5419,
      "▁selection": 5420,
      "▁Bro": 5421,
      "▁participants": 5422,
      "oci": 5423,
      "arian": 5424,
      "▁invalid": 5425,
      "▁Step": 5426,
      "▁impl": 5427,
      "▁fourth": 5428,
      "TE": 5429,
      "▁imag": 5430,
      "▁themes": 5431,
      "▁deliver": 5432,
      "▁effectiveness": 5433,
      "▁Extract": 5434,
      "mp": 5435,
      "For": 5436,
      "▁Union": 5437,
      "▁IN": 5438,
      "▁\"./": 5439,
      "We": 5440,
      "(\"\\": 5441,
      "▁unnecessary": 5442,
      "▁traveled": 5443,
      "bound": 5444,
      "▁Black": 5445,
      "▁connected": 5446,
      "creen": 5447,
      "▁buys": 5448,
      "integer": 5449,
      "▁yield": 5450,
      "▁failure": 5451,
      "▁Object": 5452,
      "▁reasons": 5453,
      "▁Tw": 5454,
      "inder": 5455,
      "▁fat": 5456,
      "▁navig": 5457,
      "ogether": 5458,
      "▁acceptance": 5459,
      "izations": 5460,
      "▁crypt": 5461,
      "▁apple": 5462,
      "ounc": 5463,
      "▁award": 5464,
      "▁weapons": 5465,
      "▁construction": 5466,
      "▁ate": 5467,
      "atively": 5468,
      "▁adults": 5469,
      "gression": 5470,
      "AS": 5471,
      "▁coping": 5472,
      "▁attacks": 5473,
      "▁puzzles": 5474,
      "▁norm": 5475,
      "Driver": 5476,
      "Message": 5477,
      "▁discover": 5478,
      "eem": 5479,
      "coin": 5480,
      "gorithm": 5481,
      "▁policy": 5482,
      "▁supportive": 5483,
      "▁subtracting": 5484,
      "yl": 5485,
      "▁didn": 5486,
      "▁smart": 5487,
      "ka": 5488,
      "store": 5489,
      "▁recip": 5490,
      "▁environ": 5491,
      "dule": 5492,
      "▁recent": 5493,
      "▁args": 5494,
      "▁System": 5495,
      "▁Don": 5496,
      "▁cows": 5497,
      "though": 5498,
      "▁nor": 5499,
      "▁via": 5500,
      "▁Spec": 5501,
      "agonist": 5502,
      "▁yet": 5503,
      "abled": 5504,
      "▁strict": 5505,
      "ME": 5506,
      "▁explaining": 5507,
      "▁encounter": 5508,
      "▁obser": 5509,
      "▁weigh": 5510,
      "▁notebooks": 5511,
      "'])": 5512,
      "▁front": 5513,
      "▁particularly": 5514,
      "▁marketing": 5515,
      "mary": 5516,
      "static": 5517,
      "▁accuracy": 5518,
      "▁Text": 5519,
      "▁television": 5520,
      "▁resol": 5521,
      "TO": 5522,
      "ING": 5523,
      "▁capabilities": 5524,
      "▁Bit": 5525,
      "▁Non": 5526,
      "▁Sum": 5527,
      "▁‘": 5528,
      "ius": 5529,
      "▁clos": 5530,
      "oken": 5531,
      "▁mobile": 5532,
      "▁audience": 5533,
      "duc": 5534,
      "multi": 5535,
      "▁÷": 5536,
      "▁odd": 5537,
      "ref": 5538,
      "▁influenced": 5539,
      "▁exception": 5540,
      "comfort": 5541,
      "▁puzzle": 5542,
      "asc": 5543,
      "▁Mag": 5544,
      "▁reaction": 5545,
      "▁calculates": 5546,
      "Ph": 5547,
      "▁inves": 5548,
      "▁profile": 5549,
      "$$": 5550,
      "▁Mc": 5551,
      "▁cake": 5552,
      "▁faced": 5553,
      "ospital": 5554,
      "▁arrange": 5555,
      "Base": 5556,
      "otor": 5557,
      "▁fee": 5558,
      "▁charge": 5559,
      "▁vill": 5560,
      "(`": 5561,
      "▁Mor": 5562,
      "▁investig": 5563,
      "▁attend": 5564,
      "roid": 5565,
      "▁kilog": 5566,
      "▁immediate": 5567,
      "▁involving": 5568,
      "▁String": 5569,
      "IL": 5570,
      "▁weather": 5571,
      "AG": 5572,
      "▁dialog": 5573,
      "=[": 5574,
      "▁Del": 5575,
      "▁weapon": 5576,
      "▁muffins": 5577,
      "tainment": 5578,
      "▁delivery": 5579,
      "▁practical": 5580,
      "estern": 5581,
      "dim": 5582,
      "login": 5583,
      "▁Jane": 5584,
      "▁peace": 5585,
      "▁capital": 5586,
      "rict": 5587,
      ")).": 5588,
      "▁rights": 5589,
      "▁bakery": 5590,
      "pecially": 5591,
      "ras": 5592,
      "born": 5593,
      "▁Determ": 5594,
      "▁theory": 5595,
      "▁General": 5596,
      "abet": 5597,
      "▁stage": 5598,
      "bra": 5599,
      "Image": 5600,
      "parent": 5601,
      "----------------": 5602,
      "rical": 5603,
      "▁efficient": 5604,
      "eal": 5605,
      "stract": 5606,
      "▁animal": 5607,
      "▁wrong": 5608,
      "icks": 5609,
      "▁wood": 5610,
      "▁environments": 5611,
      "vest": 5612,
      "AB": 5613,
      "▁mix": 5614,
      "angular": 5615,
      "▁coding": 5616,
      "auti": 5617,
      "▁forward": 5618,
      "▁emerg": 5619,
      "▁fewer": 5620,
      "▁simplify": 5621,
      "urls": 5622,
      "oph": 5623,
      "▁SSD": 5624,
      "▁adds": 5625,
      "▁smallest": 5626,
      "Line": 5627,
      "▁credit": 5628,
      "ifically": 5629,
      "alle": 5630,
      "▁communities": 5631,
      "onom": 5632,
      "▁perceived": 5633,
      "rief": 5634,
      "rote": 5635,
      "▁wrest": 5636,
      "Ad": 5637,
      "▁counter": 5638,
      "tegr": 5639,
      "▁paths": 5640,
      "graph": 5641,
      "▁resolve": 5642,
      "▁validate": 5643,
      "band": 5644,
      "till": 5645,
      "▁cast": 5646,
      "DI": 5647,
      "▁subsc": 5648,
      "▁proced": 5649,
      "▁optional": 5650,
      "▁serious": 5651,
      "▁society": 5652,
      "aints": 5653,
      "▁Write": 5654,
      "▁Self": 5655,
      "▁battle": 5656,
      "Inter": 5657,
      "▁occup": 5658,
      "soft": 5659,
      "▁whose": 5660,
      "▁pregnancy": 5661,
      "▁HD": 5662,
      "▁interval": 5663,
      "▁friendships": 5664,
      "▁programming": 5665,
      "▁USB": 5666,
      "▁earns": 5667,
      "▁decrease": 5668,
      "Dec": 5669,
      "▁College": 5670,
      "auth": 5671,
      "▁hyp": 5672,
      "types": 5673,
      "▁loop": 5674,
      "▁reli": 5675,
      "ecutive": 5676,
      "▁Team": 5677,
      "▁schools": 5678,
      "▁SQL": 5679,
      "counts": 5680,
      "▁consistent": 5681,
      "can": 5682,
      "▁candidate": 5683,
      "▁Just": 5684,
      "▁stri": 5685,
      "pository": 5686,
      "▁ju": 5687,
      "iewer": 5688,
      "riage": 5689,
      "▁poor": 5690,
      "month": 5691,
      "txt": 5692,
      "▁powerful": 5693,
      "▁restaurant": 5694,
      "▁nodes": 5695,
      "Gr": 5696,
      "spec": 5697,
      "▁dark": 5698,
      "▁harm": 5699,
      "ias": 5700,
      "▁sun": 5701,
      "context": 5702,
      "Valid": 5703,
      "▁fixed": 5704,
      "tian": 5705,
      "▁recognized": 5706,
      "▁failed": 5707,
      "▁football": 5708,
      "▁defe": 5709,
      "▁transition": 5710,
      "plays": 5711,
      "▁trig": 5712,
      "remove": 5713,
      "FA": 5714,
      "ara": 5715,
      "▁Retrieve": 5716,
      "▁accounts": 5717,
      "▁especially": 5718,
      "vi": 5719,
      "▁reve": 5720,
      "▁chips": 5721,
      "▁sched": 5722,
      "▁sources": 5723,
      "▁corresponding": 5724,
      "dataset": 5725,
      "▁Config": 5726,
      "ceptions": 5727,
      "akers": 5728,
      "itter": 5729,
      "▁channel": 5730,
      "▁Wednesday": 5731,
      "template": 5732,
      "www": 5733,
      "conf": 5734,
      "▁leaving": 5735,
      "▁filename": 5736,
      "▁detailed": 5737,
      "▁cans": 5738,
      "▁remains": 5739,
      "▁Card": 5740,
      "erv": 5741,
      "▁IV": 5742,
      "▁Port": 5743,
      "▁identify": 5744,
      "▁Const": 5745,
      "▁Physical": 5746,
      "▁[];": 5747,
      "▁saw": 5748,
      "▁Peter": 5749,
      "▁loaves": 5750,
      "ij": 5751,
      "ham": 5752,
      "▁tu": 5753,
      "yles": 5754,
      "LI": 5755,
      "uid": 5756,
      "▁referred": 5757,
      "▁multiplication": 5758,
      "▁oil": 5759,
      "irtual": 5760,
      "▁winning": 5761,
      "▁bottom": 5762,
      "▁eating": 5763,
      "▁Online": 5764,
      "▁discounted": 5765,
      "▁friendship": 5766,
      "▁sandw": 5767,
      "ography": 5768,
      "▁upload": 5769,
      "vals": 5770,
      "▁spir": 5771,
      "▁phen": 5772,
      "▁belong": 5773,
      "▁performed": 5774,
      "▁instruction": 5775,
      "mut": 5776,
      "▁Reduc": 5777,
      "▁Child": 5778,
      "▁House": 5779,
      "elines": 5780,
      "▁Django": 5781,
      "▁instit": 5782,
      "arters": 5783,
      "▁intended": 5784,
      "tenance": 5785,
      "local": 5786,
      "uffer": 5787,
      "▁developed": 5788,
      "\"),": 5789,
      "▁slow": 5790,
      "area": 5791,
      "where": 5792,
      "▁cash": 5793,
      "▁fuel": 5794,
      "▁jar": 5795,
      "uster": 5796,
      "▁chem": 5797,
      "▁socket": 5798,
      "▁advance": 5799,
      "▁discussing": 5800,
      "▁chance": 5801,
      "▁'''": 5802,
      "▁Luc": 5803,
      "▁destination": 5804,
      "%,": 5805,
      "▁scale": 5806,
      "▁Simulate": 5807,
      "pol": 5808,
      "▁Ir": 5809,
      "▁French": 5810,
      "▁Inf": 5811,
      "▁click": 5812,
      "▁road": 5813,
      "▁ideas": 5814,
      "Add": 5815,
      "▁ship": 5816,
      "second": 5817,
      "▁ul": 5818,
      "▁terr": 5819,
      "▁campaign": 5820,
      "PE": 5821,
      "obb": 5822,
      "▁seem": 5823,
      "AME": 5824,
      "▁shop": 5825,
      "▁reality": 5826,
      "ression": 5827,
      "illa": 5828,
      "author": 5829,
      "queue": 5830,
      "▁cogn": 5831,
      "▁define": 5832,
      "▁Tod": 5833,
      "window": 5834,
      "▁park": 5835,
      "ampion": 5836,
      "▁conven": 5837,
      "▁jobs": 5838,
      "▁struct": 5839,
      "ured": 5840,
      "gebra": 5841,
      "▁Conn": 5842,
      "button": 5843,
      "▁capture": 5844,
      "▁focused": 5845,
      "▁identifier": 5846,
      "Map": 5847,
      "▁parsed": 5848,
      "▁bars": 5849,
      "ictions": 5850,
      "entim": 5851,
      "ectives": 5852,
      "▁son": 5853,
      "▁fair": 5854,
      "och": 5855,
      "late": 5856,
      "▁compre": 5857,
      "▁demonstration": 5858,
      "Qu": 5859,
      "apter": 5860,
      "Each": 5861,
      "▁Total": 5862,
      "rial": 5863,
      "ambda": 5864,
      "▁dise": 5865,
      "ooting": 5866,
      "▁Earth": 5867,
      "▁carry": 5868,
      "▁minor": 5869,
      "mediate": 5870,
      "▁Science": 5871,
      "▁Bu": 5872,
      "▁Russ": 5873,
      "▁wrote": 5874,
      "▁combination": 5875,
      "urg": 5876,
      "▁Vis": 5877,
      "▁Product": 5878,
      "▁aspects": 5879,
      "olf": 5880,
      "▁Day": 5881,
      "ester": 5882,
      "▁Model": 5883,
      "▁fulfill": 5884,
      "▁summarize": 5885,
      "▁literature": 5886,
      "amin": 5887,
      "▁suppl": 5888,
      "toEqual": 5889,
      "▁Integr": 5890,
      "▁records": 5891,
      "'))": 5892,
      "▁God": 5893,
      "utor": 5894,
      "▁edge": 5895,
      "manager": 5896,
      "▁formed": 5897,
      "▁affects": 5898,
      "▁despite": 5899,
      "atur": 5900,
      "options": 5901,
      "▁Player": 5902,
      "Rep": 5903,
      "squ": 5904,
      "▁Go": 5905,
      "ouncil": 5906,
      "▁walls": 5907,
      "▁places": 5908,
      "▁raised": 5909,
      "▁receiving": 5910,
      "▁jo": 5911,
      "▁Two": 5912,
      "replace": 5913,
      "▁tip": 5914,
      "▁grand": 5915,
      "achment": 5916,
      "▁caused": 5917,
      "▁sentence": 5918,
      "All": 5919,
      "aughter": 5920,
      "zer": 5921,
      "▁proposed": 5922,
      "▁Regular": 5923,
      "▁expensive": 5924,
      "▁solving": 5925,
      "oreignKey": 5926,
      "▁fan": 5927,
      "ani": 5928,
      "▁Div": 5929,
      "▁cats": 5930,
      "▁drives": 5931,
      "▁decor": 5932,
      "▁divisible": 5933,
      "common": 5934,
      "▁confused": 5935,
      "lin": 5936,
      "▁Fol": 5937,
      "▁Disc": 5938,
      "▁affected": 5939,
      "▁WebDriver": 5940,
      "elt": 5941,
      "▁substance": 5942,
      "▁Id": 5943,
      "anned": 5944,
      "▁Video": 5945,
      "▁Column": 5946,
      ")?": 5947,
      "DB": 5948,
      "jection": 5949,
      "▁enemy": 5950,
      "▁Decreased": 5951,
      "▁vac": 5952,
      "Client": 5953,
      "▁followed": 5954,
      "utri": 5955,
      "}`": 5956,
      "▁polic": 5957,
      "▁excitement": 5958,
      "aft": 5959,
      "▁Ver": 5960,
      "▁guarantees": 5961,
      "Count": 5962,
      "ectors": 5963,
      "▁linear": 5964,
      "▁propor": 5965,
      "▁spending": 5966,
      "rc": 5967,
      "sk": 5968,
      "▁Cour": 5969,
      "▁Sl": 5970,
      "sort": 5971,
      "▁absol": 5972,
      "ATA": 5973,
      "iform": 5974,
      "▁apart": 5975,
      "ny": 5976,
      "▁Est": 5977,
      "efore": 5978,
      "outer": 5979,
      "▁—": 5980,
      "▁labor": 5981,
      ">;": 5982,
      "▁electric": 5983,
      "▁functionality": 5984,
      "NA": 5985,
      "bon": 5986,
      "▁gre": 5987,
      "▁resid": 5988,
      "ups": 5989,
      "▁\"../": 5990,
      "▁drug": 5991,
      "should": 5992,
      "▁relax": 5993,
      "▁secret": 5994,
      "▁Sing": 5995,
      "▁wealth": 5996,
      "Result": 5997,
      "▁magic": 5998,
      "▁Hol": 5999,
      "▁layer": 6000,
      "▁Should": 6001,
      "▁promote": 6002,
      "▁stories": 6003,
      "</": 6004,
      "week": 6005,
      "omial": 6006,
      "▁decl": 6007,
      "antasy": 6008,
      "▁moment": 6009,
      "▁advantage": 6010,
      "esteem": 6011,
      "▁Val": 6012,
      "▁dream": 6013,
      "ologies": 6014,
      "▁centim": 6015,
      "icon": 6016,
      "▁retrieve": 6017,
      "▁Cap": 6018,
      "▁headers": 6019,
      "affic": 6020,
      "▁earlier": 6021,
      "▁segment": 6022,
      "}')": 6023,
      "▁wed": 6024,
      "lets": 6025,
      "Se": 6026,
      "▁belief": 6027,
      "clude": 6028,
      "▁cubic": 6029,
      "▁neighbor": 6030,
      "*(": 6031,
      "overn": 6032,
      "▁domain": 6033,
      "▁interpret": 6034,
      "cap": 6035,
      "obj": 6036,
      "uilding": 6037,
      "▁Encour": 6038,
      "PAT": 6039,
      "▁hash": 6040,
      "▁master": 6041,
      "kwargs": 6042,
      "▁Phil": 6043,
      "▁noted": 6044,
      "▁processor": 6045,
      "▁Inc": 6046,
      "ishes": 6047,
      "▁Oper": 6048,
      "▁Champions": 6049,
      "▁asking": 6050,
      "▁guitar": 6051,
      "▁Initializes": 6052,
      "ours": 6053,
      "uming": 6054,
      "▁morning": 6055,
      "itize": 6056,
      "▁blocks": 6057,
      "▁compatibility": 6058,
      "▁→": 6059,
      "▁Drive": 6060,
      "▁heat": 6061,
      "location": 6062,
      "▁ordered": 6063,
      "▁Understanding": 6064,
      "^\\": 6065,
      "lig": 6066,
      "▁bul": 6067,
      "ensity": 6068,
      "▁Tur": 6069,
      "▁mount": 6070,
      "▁County": 6071,
      "▁phrase": 6072,
      "▁asked": 6073,
      "▁Public": 6074,
      "▁latest": 6075,
      "axis": 6076,
      "apers": 6077,
      "▁civil": 6078,
      "▁songs": 6079,
      "▁phenomen": 6080,
      "▁Ev": 6081,
      "▁Roman": 6082,
      "▁Canada": 6083,
      "▁foreign": 6084,
      "▁argument": 6085,
      "=(": 6086,
      "Handler": 6087,
      "icated": 6088,
      "▁initialize": 6089,
      "▁dependencies": 6090,
      "Size": 6091,
      "erry": 6092,
      "▁combinations": 6093,
      "▁Ensure": 6094,
      "▁Australia": 6095,
      ",”": 6096,
      "▁casual": 6097,
      "▁inters": 6098,
      "▁generated": 6099,
      "TH": 6100,
      "▁Pass": 6101,
      "atabase": 6102,
      "▁comprehens": 6103,
      "▁protagonist": 6104,
      "▁esc": 6105,
      "▁sql": 6106,
      "original": 6107,
      "▁Nor": 6108,
      "Point": 6109,
      "metic": 6110,
      "▁catch": 6111,
      "▁reverse": 6112,
      "▁availability": 6113,
      "▁transactions": 6114,
      "MO": 6115,
      "mem": 6116,
      "▁CD": 6117,
      "▁Return": 6118,
      "ney": 6119,
      "aled": 6120,
      "anguages": 6121,
      "▁universally": 6122,
      "eful": 6123,
      "▁Tit": 6124,
      "▁cycle": 6125,
      "▁German": 6126,
      "▁advert": 6127,
      "▁surround": 6128,
      "▁commitment": 6129,
      "▁independent": 6130,
      "▁installation": 6131,
      "has": 6132,
      "▁hair": 6133,
      "▁Prof": 6134,
      "▁baby": 6135,
      "adness": 6136,
      "▁innov": 6137,
      "▁challenging": 6138,
      "rown": 6139,
      "▁Whe": 6140,
      "▁sequ": 6141,
      "▁entered": 6142,
      "API": 6143,
      "▁alter": 6144,
      "▁owner": 6145,
      "▁cognitive": 6146,
      "▁frustration": 6147,
      "▁Jenn": 6148,
      "▁pand": 6149,
      "▁advent": 6150,
      "▁attributes": 6151,
      "▁mile": 6152,
      "▁Engine": 6153,
      "▁proceed": 6154,
      "▁Di": 6155,
      "true": 6156,
      "▁prints": 6157,
      "▁pal": 6158,
      "agram": 6159,
      "▁Hard": 6160,
      "▁Master": 6161,
      "▁exchange": 6162,
      "▁university": 6163,
      "▁DDR": 6164,
      "▁Height": 6165,
      "▁£": 6166,
      "▁fans": 6167,
      "▁specifically": 6168,
      "▁Home": 6169,
      "▁trou": 6170,
      "▁India": 6171,
      "▁https": 6172,
      "▁veget": 6173,
      "▁ignore": 6174,
      "▁environmental": 6175,
      "omb": 6176,
      "▁patients": 6177,
      "Sc": 6178,
      "ico": 6179,
      "two": 6180,
      "raises": 6181,
      "▁moved": 6182,
      "▁applied": 6183,
      "ifts": 6184,
      "params": 6185,
      "▁meeting": 6186,
      "▁Increase": 6187,
      "){": 6188,
      "ribe": 6189,
      "▁Lab": 6190,
      "▁eats": 6191,
      "service": 6192,
      "▁architect": 6193,
      "▁fix": 6194,
      "▁sib": 6195,
      "match": 6196,
      "▁drinks": 6197,
      "▁ends": 6198,
      "▁note": 6199,
      "▁tend": 6200,
      "▁internal": 6201,
      "▁Alice": 6202,
      "speed": 6203,
      "▁bake": 6204,
      "▁aesthe": 6205,
      "▁separate": 6206,
      "▁centimeters": 6207,
      "▁personality": 6208,
      "▁intim": 6209,
      "▁perman": 6210,
      "▁America": 6211,
      "ENT": 6212,
      "▁auth": 6213,
      "▁evalu": 6214,
      "With": 6215,
      "▁church": 6216,
      "▁hom": 6217,
      "ado": 6218,
      "flo": 6219,
      "▁Educ": 6220,
      "▁gift": 6221,
      "rat": 6222,
      "▁cursor": 6223,
      "▁central": 6224,
      "▁household": 6225,
      "▁follows": 6226,
      "sm": 6227,
      "▁Paul": 6228,
      "▁feels": 6229,
      "▁amb": 6230,
      "▁fruit": 6231,
      "▁Employ": 6232,
      "▁Sophia": 6233,
      "▁etc": 6234,
      "▁mood": 6235,
      "▁Ignore": 6236,
      "▁Action": 6237,
      "DO": 6238,
      "▁driving": 6239,
      "▁quadratic": 6240,
      "produ": 6241,
      "▁shelf": 6242,
      "▁counts": 6243,
      "▁filled": 6244,
      "SU": 6245,
      "send": 6246,
      "▁trauma": 6247,
      "▁micro": 6248,
      "▁Econom": 6249,
      "▁factory": 6250,
      "onac": 6251,
      "▁stream": 6252,
      "lers": 6253,
      "▁Color": 6254,
      "▁torch": 6255,
      "▁Calcul": 6256,
      "ava": 6257,
      "lls": 6258,
      "▁Bal": 6259,
      "playing": 6260,
      "▁medications": 6261,
      "Hz": 6262,
      "negative": 6263,
      "▁China": 6264,
      "▁annual": 6265,
      "▁schema": 6266,
      "▁appoint": 6267,
      "▁evaluate": 6268,
      "▁International": 6269,
      "▁intelligence": 6270,
      "▁Thom": 6271,
      "▁Enjoy": 6272,
      "▁alt": 6273,
      "▁Family": 6274,
      "▁placed": 6275,
      "▁glass": 6276,
      "▁San": 6277,
      "ained": 6278,
      "iny": 6279,
      "▁ice": 6280,
      "▁delete": 6281,
      "▁Neither": 6282,
      "▁supported": 6283,
      "whel": 6284,
      "▁Its": 6285,
      "▁adapt": 6286,
      "▁container": 6287,
      "▁Direct": 6288,
      "▁interesting": 6289,
      "▁Liam": 6290,
      "autiful": 6291,
      "▁\")": 6292,
      "▁anger": 6293,
      "▁yards": 6294,
      "▁applying": 6295,
      "Su": 6296,
      "▁closed": 6297,
      "▁listed": 6298,
      "▁consecutive": 6299,
      "▁however": 6300,
      "▁confirms": 6301,
      "▁\\\\": 6302,
      "▁Gold": 6303,
      "▁depos": 6304,
      "apped": 6305,
      "▁allowing": 6306,
      "▁Art": 6307,
      "▁Fri": 6308,
      "▁Jac": 6309,
      "▁formal": 6310,
      "▁squares": 6311,
      "It": 6312,
      "▁Also": 6313,
      "▁films": 6314,
      "▁battery": 6315,
      "▁thinking": 6316,
      "▁Bel": 6317,
      "▁Random": 6318,
      "▁kilograms": 6319,
      "li": 6320,
      "card": 6321,
      "onacci": 6322,
      "▁classified": 6323,
      "▁predict": 6324,
      "▁touch": 6325,
      "ographic": 6326,
      "▁difficulty": 6327,
      "▁isinstance": 6328,
      "oted": 6329,
      "▁blog": 6330,
      "ederal": 6331,
      "udio": 6332,
      "ipped": 6333,
      "▁suitable": 6334,
      "lay": 6335,
      "Code": 6336,
      "▁tac": 6337,
      "fields": 6338,
      "▁browser": 6339,
      "entry": 6340,
      "usive": 6341,
      "▁align": 6342,
      "▁bytes": 6343,
      "▁policies": 6344,
      "Pr": 6345,
      "▁AMD": 6346,
      "▁imm": 6347,
      "▁oppon": 6348,
      "▁inputs": 6349,
      "▁packages": 6350,
      "▁represented": 6351,
      "▁Amy": 6352,
      "▁useful": 6353,
      "▁insurance": 6354,
      "▁automatically": 6355,
      "users": 6356,
      "▁ready": 6357,
      "sv": 6358,
      "bye": 6359,
      "osis": 6360,
      "▁Wal": 6361,
      "▁flat": 6362,
      "Red": 6363,
      "othes": 6364,
      "▁Jake": 6365,
      "▁Keep": 6366,
      "▁preferred": 6367,
      "▁temporary": 6368,
      "admin": 6369,
      "mates": 6370,
      "uk": 6371,
      "zon": 6372,
      "utely": 6373,
      "▁fost": 6374,
      "▁chairs": 6375,
      "▁desired": 6376,
      "▁improved": 6377,
      "MS": 6378,
      "▁documents": 6379,
      "▁Second": 6380,
      "▁differences": 6381,
      "▁coach": 6382,
      "▁checking": 6383,
      "▁families": 6384,
      "oe": 6385,
      "coordinate": 6386,
      "▁maintenance": 6387,
      "Call": 6388,
      "tick": 6389,
      "▁dry": 6390,
      "asure": 6391,
      "fiction": 6392,
      "▁helpful": 6393,
      "▁roses": 6394,
      "chemy": 6395,
      "engine": 6396,
      "war": 6397,
      "pire": 6398,
      "olar": 6399,
      "rier": 6400,
      "obbies": 6401,
      "▁Access": 6402,
      "IS": 6403,
      "▁expans": 6404,
      "zing": 6405,
      "▁stored": 6406,
      "▁compare": 6407,
      "▁reads": 6408,
      "▁exceed": 6409,
      "▁oneself": 6410,
      "ocks": 6411,
      "▁reb": 6412,
      "▁Disorder": 6413,
      "▁dialogue": 6414,
      "prom": 6415,
      "unic": 6416,
      "▁clothing": 6417,
      "oses": 6418,
      "▁Dem": 6419,
      "approx": 6420,
      "stream": 6421,
      "▁notes": 6422,
      "▁awareness": 6423,
      "osen": 6424,
      "▁Govern": 6425,
      "▁explan": 6426,
      "▁UK": 6427,
      "This": 6428,
      "▁Green": 6429,
      "▁detail": 6430,
      "▁implementation": 6431,
      "▁ADHD": 6432,
      "▁perspective": 6433,
      "▁European": 6434,
      "▁scrap": 6435,
      "tree": 6436,
      "▁maybe": 6437,
      "▁reduced": 6438,
      "▁Does": 6439,
      "▁lives": 6440,
      "ibonacci": 6441,
      "▁sch": 6442,
      "▁solid": 6443,
      "▁Default": 6444,
      "▁Expl": 6445,
      "▁weak": 6446,
      "▁Complex": 6447,
      "▁changed": 6448,
      "▁api": 6449,
      "▁genre": 6450,
      "Aut": 6451,
      "nodes": 6452,
      "▁wire": 6453,
      "category": 6454,
      "▁Service": 6455,
      "▁encoding": 6456,
      "▁shopping": 6457,
      "▁hope": 6458,
      "house": 6459,
      "▁Park": 6460,
      "▁Point": 6461,
      "▁childhood": 6462,
      "▁couple": 6463,
      "At": 6464,
      "▁orders": 6465,
      "▁substances": 6466,
      "▁Law": 6467,
      "▁signal": 6468,
      "full": 6469,
      "▁juice": 6470,
      "open": 6471,
      "▁observ": 6472,
      "▁beginning": 6473,
      "js": 6474,
      "▁Mal": 6475,
      "▁Being": 6476,
      "gy": 6477,
      "▁dead": 6478,
      "▁Order": 6479,
      "▁William": 6480,
      "ott": 6481,
      "▁humor": 6482,
      "▁classroom": 6483,
      "▁guests": 6484,
      "▁traffic": 6485,
      "nab": 6486,
      "comp": 6487,
      "gers": 6488,
      "stood": 6489,
      "reedom": 6490,
      "▁rooms": 6491,
      "inese": 6492,
      "▁raw": 6493,
      "▁transaction": 6494,
      "▁promo": 6495,
      "▁explore": 6496,
      "▁sessions": 6497,
      "▁titles": 6498,
      "▁bed": 6499,
      "cknow": 6500,
      "▁languages": 6501,
      "car": 6502,
      "egin": 6503,
      "▁Higher": 6504,
      "▁π": 6505,
      "▁NOT": 6506,
      "▁swe": 6507,
      "▁cookie": 6508,
      "▁schedule": 6509,
      "annels": 6510,
      "free": 6511,
      "▁north": 6512,
      "agers": 6513,
      "▁respond": 6514,
      "onym": 6515,
      "▁Lin": 6516,
      "▁Sur": 6517,
      "▁losing": 6518,
      "▁preference": 6519,
      "ATE": 6520,
      "register": 6521,
      "('/": 6522,
      "▁Take": 6523,
      "▁spread": 6524,
      "settings": 6525,
      "RA": 6526,
      "irts": 6527,
      "▁Free": 6528,
      "▁rare": 6529,
      "▁youn": 6530,
      "▁domin": 6531,
      "▁assist": 6532,
      "▁widget": 6533,
      "▁popularity": 6534,
      "cient": 6535,
      "employ": 6536,
      "connect": 6537,
      "▁creates": 6538,
      "amm": 6539,
      "tile": 6540,
      "▁Ber": 6541,
      "▁delay": 6542,
      "asic": 6543,
      "icture": 6544,
      "▁Indian": 6545,
      "▁Content": 6546,
      "reme": 6547,
      "atter": 6548,
      "▁told": 6549,
      "▁Street": 6550,
      "▁responsibility": 6551,
      "▁gene": 6552,
      "▁heavy": 6553,
      "asion": 6554,
      "▁DE": 6555,
      "▁sod": 6556,
      "▁drop": 6557,
      "pattern": 6558,
      "Te": 6559,
      "sent": 6560,
      "▁produc": 6561,
      "Info": 6562,
      "ford": 6563,
      "hash": 6564,
      "izon": 6565,
      "▁Lear": 6566,
      "▁drawing": 6567,
      "▁articles": 6568,
      "elly": 6569,
      "▁flex": 6570,
      "▁statistics": 6571,
      "▁died": 6572,
      "▁doub": 6573,
      "▁reviews": 6574,
      "▁Handle": 6575,
      "▁remote": 6576,
      "▁divisor": 6577,
      "life": 6578,
      "vention": 6579,
      "▁requirement": 6580,
      "▁Maria": 6581,
      "▁Fire": 6582,
      "▁noise": 6583,
      "▁loyal": 6584,
      "payload": 6585,
      "▁formatted": 6586,
      "which": 6587,
      "▁menu": 6588,
      "vision": 6589,
      "▁invent": 6590,
      "▁protection": 6591,
      "here": 6592,
      "tuple": 6593,
      "▁eight": 6594,
      "orge": 6595,
      "simple": 6596,
      "third": 6597,
      "▁baking": 6598,
      "VID": 6599,
      "Any": 6600,
      "NAME": 6601,
      "ideos": 6602,
      "▁ultim": 6603,
      "▁rating": 6604,
      "iar": 6605,
      "olumns": 6606,
      "▁beads": 6607,
      "▁struggle": 6608,
      "▁\\):": 6609,
      "style": 6610,
      "▁princi": 6611,
      "route": 6612,
      "▁interact": 6613,
      "▁numerator": 6614,
      ".')": 6615,
      "▁--": 6616,
      "circ": 6617,
      "▁Best": 6618,
      "▁reti": 6619,
      "dy": 6620,
      "semb": 6621,
      "Color": 6622,
      "estyle": 6623,
      "▁scenarios": 6624,
      "▁Increasing": 6625,
      "Gener": 6626,
      "▁Christ": 6627,
      "▁loading": 6628,
      "▁Sal": 6629,
      "anted": 6630,
      "▁Ital": 6631,
      "▁minimal": 6632,
      "▁Party": 6633,
      "▁generation": 6634,
      "▁fore": 6635,
      "▁Looks": 6636,
      "itual": 6637,
      "▁Iter": 6638,
      "▁aren": 6639,
      "▁forces": 6640,
      "▁healthcare": 6641,
      "▁distances": 6642,
      "irus": 6643,
      "▁tall": 6644,
      "▁accurately": 6645,
      "FF": 6646,
      "▁court": 6647,
      "}}{": 6648,
      "limit": 6649,
      "▁exploration": 6650,
      "On": 6651,
      "lope": 6652,
      "▁por": 6653,
      "▁alph": 6654,
      "▁Anger": 6655,
      "▁quite": 6656,
      "▁Historical": 6657,
      "ilder": 6658,
      "▁Associ": 6659,
      "▁medium": 6660,
      "▁theore": 6661,
      "▁Effective": 6662,
      "▁Ext": 6663,
      "lands": 6664,
      "▁cells": 6665,
      "▁shift": 6666,
      "▁stores": 6667,
      "personal": 6668,
      "▁Joy": 6669,
      "click": 6670,
      "▁humans": 6671,
      "▁implic": 6672,
      "dest": 6673,
      "▁isol": 6674,
      "working": 6675,
      "▁stable": 6676,
      "▁marriage": 6677,
      "assertEqual": 6678,
      "▁basketball": 6679,
      "UN": 6680,
      "▁criticism": 6681,
      "▁pun": 6682,
      "olic": 6683,
      "▁bonus": 6684,
      "▁movies": 6685,
      "++)": 6686,
      "▁Apple": 6687,
      "▁publish": 6688,
      "▁favorite": 6689,
      "Is": 6690,
      "const": 6691,
      "orter": 6692,
      "▁jus": 6693,
      "▁tf": 6694,
      "coming": 6695,
      "▁Frequ": 6696,
      "▁happy": 6697,
      "Hel": 6698,
      "▁highly": 6699,
      "utils": 6700,
      "ositive": 6701,
      "▁batches": 6702,
      "mean": 6703,
      "▁GTX": 6704,
      "▁cro": 6705,
      "▁official": 6706,
      "▁mph": 6707,
      "ictim": 6708,
      "▁dreams": 6709,
      "▁wanted": 6710,
      "ading": 6711,
      "cious": 6712,
      "▁bike": 6713,
      "▁powers": 6714,
      "han": 6715,
      "▁clients": 6716,
      "▁changing": 6717,
      "close": 6718,
      "iquid": 6719,
      "▁html": 6720,
      "▁champion": 6721,
      "▁pursu": 6722,
      "▁unrelated": 6723,
      "ondon": 6724,
      "▁Other": 6725,
      "▁criti": 6726,
      "▁voice": 6727,
      "▁algorithm": 6728,
      "▁conv": 6729,
      "▁determined": 6730,
      "▁consult": 6731,
      "▁Function": 6732,
      "▁properly": 6733,
      "▁unexpected": 6734,
      "▁opportunity": 6735,
      "▁ath": 6736,
      "ashing": 6737,
      "▁nullable": 6738,
      "▁polyn": 6739,
      "▁courses": 6740,
      "▁ensures": 6741,
      "▁Under": 6742,
      "hist": 6743,
      "▁adop": 6744,
      "▁prem": 6745,
      "▁hobbies": 6746,
      "▁unknown": 6747,
      "▁Microsoft": 6748,
      "▁discomfort": 6749,
      "▁multiplied": 6750,
      "holder": 6751,
      "▁Bitcoin": 6752,
      "uls": 6753,
      "▁Jacob": 6754,
      "▁route": 6755,
      "▁serves": 6756,
      "▁ingredients": 6757,
      "lat": 6758,
      "zone": 6759,
      "▁tell": 6760,
      "eding": 6761,
      "▁sust": 6762,
      "▁visited": 6763,
      "▁confront": 6764,
      "ForeignKey": 6765,
      "]])": 6766,
      "rian": 6767,
      "▁Cor": 6768,
      "Options": 6769,
      "▁fa": 6770,
      "lings": 6771,
      "inity": 6772,
      "▁chat": 6773,
      "▁upgrad": 6774,
      "afe": 6775,
      "MP": 6776,
      "la": 6777,
      "▁Ref": 6778,
      "▁cache": 6779,
      "▁currency": 6780,
      "Tensor": 6781,
      "abs": 6782,
      "▁cube": 6783,
      "▁http": 6784,
      "ersion": 6785,
      "▁disorders": 6786,
      "▁magaz": 6787,
      "▁visit": 6788,
      "▁purchasing": 6789,
      ":.": 6790,
      "▁taught": 6791,
      "▁enhances": 6792,
      "▁::": 6793,
      "▁mutual": 6794,
      "▁cryptoc": 6795,
      "▁technique": 6796,
      "▁previously": 6797,
      "▁Low": 6798,
      "▁talk": 6799,
      "▁brain": 6800,
      "▁DV": 6801,
      "ader": 6802,
      "world": 6803,
      "▁breaks": 6804,
      "▁protected": 6805,
      "ago": 6806,
      "▁cooking": 6807,
      "UR": 6808,
      "Met": 6809,
      "▁serv": 6810,
      "paths": 6811,
      "▁risks": 6812,
      "▁survey": 6813,
      "▁draft": 6814,
      "▁wedding": 6815,
      "▁apps": 6816,
      "▁advis": 6817,
      "osop": 6818,
      "owns": 6819,
      "▁Bre": 6820,
      "iches": 6821,
      "▁Po": 6822,
      "▁bey": 6823,
      "▁anime": 6824,
      "▁measures": 6825,
      "▁locations": 6826,
      "▁improvement": 6827,
      "ictionaries": 6828,
      "lob": 6829,
      "floor": 6830,
      "elen": 6831,
      "▁vict": 6832,
      "Rec": 6833,
      "wood": 6834,
      "▁River": 6835,
      "▁Friday": 6836,
      "▁novels": 6837,
      "▁Core": 6838,
      "▁Soci": 6839,
      "install": 6840,
      "▁Bus": 6841,
      "▁Hmm": 6842,
      "going": 6843,
      "▁shelves": 6844,
      "▁handling": 6845,
      "auto": 6846,
      "▁Goodbye": 6847,
      "▁wid": 6848,
      "▁mask": 6849,
      "Column": 6850,
      "▁seven": 6851,
      "▁mission": 6852,
      "▁prioritize": 6853,
      "(()": 6854,
      "None": 6855,
      "faces": 6856,
      "▁Rober": 6857,
      "▁Remove": 6858,
      "▁loan": 6859,
      "forEach": 6860,
      "HE": 6861,
      "SA": 6862,
      "apes": 6863,
      "▁beyond": 6864,
      "▁speaker": 6865,
      "▁attribute": 6866,
      "los": 6867,
      "▁smooth": 6868,
      "entifier": 6869,
      "▁professionals": 6870,
      "▁girl": 6871,
      "▁quantity": 6872,
      "▁removing": 6873,
      "▁leadership": 6874,
      "osite": 6875,
      "▁shares": 6876,
      "▁speeds": 6877,
      "▁restric": 6878,
      "hot": 6879,
      "▁\"))": 6880,
      "▁Bec": 6881,
      "▁Blue": 6882,
      "▁Contin": 6883,
      "▁artist": 6884,
      "urations": 6885,
      "▁entertainment": 6886,
      "ien": 6887,
      "▁Strong": 6888,
      "entiment": 6889,
      "▁Greater": 6890,
      "▁illness": 6891,
      "▁recorded": 6892,
      "▁confident": 6893,
      "▁threshold": 6894,
      "Length": 6895,
      "oder": 6896,
      "▁ending": 6897,
      "sign": 6898,
      "▁hands": 6899,
      "▁negoti": 6900,
      "▁employment": 6901,
      "eles": 6902,
      "iling": 6903,
      "▁episode": 6904,
      "▁Sil": 6905,
      "patch": 6906,
      "▁baked": 6907,
      "ithmetic": 6908,
      "▁equival": 6909,
      "▁ensuring": 6910,
      "parser": 6911,
      "▁payload": 6912,
      "BC": 6913,
      "▁laws": 6914,
      "logger": 6915,
      "▁periods": 6916,
      "avel": 6917,
      "frequ": 6918,
      "▁leader": 6919,
      "gressive": 6920,
      "▁prop": 6921,
      "Def": 6922,
      "leg": 6923,
      "sys": 6924,
      "▁buff": 6925,
      "▁notice": 6926,
      "▁indifference": 6927,
      "▁pound": 6928,
      "▁phil": 6929,
      "▁drink": 6930,
      "▁tuples": 6931,
      "▁schedul": 6932,
      "▁tour": 6933,
      "▁writer": 6934,
      "▁Mac": 6935,
      "▁Fear": 6936,
      "▁peers": 6937,
      "▁discour": 6938,
      "uit": 6939,
      "▁East": 6940,
      "unique": 6941,
      "▁enumer": 6942,
      "mitted": 6943,
      "▁magical": 6944,
      "Sub": 6945,
      "▁nick": 6946,
      "▁London": 6947,
      "▁resulting": 6948,
      "▁twe": 6949,
      "▁Water": 6950,
      "icients": 6951,
      "ugs": 6952,
      "Status": 6953,
      "▁contr": 6954,
      "itionally": 6955,
      "▁communicate": 6956,
      ")),": 6957,
      "uable": 6958,
      "ixel": 6959,
      "▁distinct": 6960,
      "▁supplies": 6961,
      "▁altogether": 6962,
      "▁laps": 6963,
      "▁painting": 6964,
      "MM": 6965,
      "columns": 6966,
      "▁almost": 6967,
      "tein": 6968,
      "▁ages": 6969,
      "▁simpler": 6970,
      "edia": 6971,
      "▁die": 6972,
      "▁covers": 6973,
      "▁Dig": 6974,
      "theta": 6975,
      "▁rock": 6976,
      "▁star": 6977,
      "▁clearly": 6978,
      "▁circumstances": 6979,
      "Tree": 6980,
      "▁Line": 6981,
      "▁commer": 6982,
      "▁habits": 6983,
      "staticmethod": 6984,
      "▁Den": 6985,
      "uries": 6986,
      "posure": 6987,
      "▁saving": 6988,
      "▁repository": 6989,
      "Mod": 6990,
      "▁reset": 6991,
      "Function": 6992,
      "▁recognition": 6993,
      "▁wife": 6994,
      "▁execution": 6995,
      "application": 6996,
      "▁Adv": 6997,
      "phere": 6998,
      "Context": 6999,
      "▁reject": 7000,
      "del": 7001,
      "▁firm": 7002,
      "▁rein": 7003,
      "▁styles": 7004,
      "igue": 7005,
      "craft": 7006,
      "rooms": 7007,
      "▁dating": 7008,
      "▁Limited": 7009,
      "Py": 7010,
      "since": 7011,
      "▁Church": 7012,
      "▁installed": 7013,
      "▁Field": 7014,
      "Process": 7015,
      "▁retrie": 7016,
      "▁helping": 7017,
      "▁vehicles": 7018,
      "andon": 7019,
      "▁trends": 7020,
      "▁extended": 7021,
      "▁identified": 7022,
      "ume": 7023,
      "▁fees": 7024,
      "custom": 7025,
      "▁south": 7026,
      "▁teachers": 7027,
      "▁standards": 7028,
      "IP": 7029,
      "▁($": 7030,
      "▁Light": 7031,
      "▁Stand": 7032,
      "▁Whether": 7033,
      "▁Sign": 7034,
      "▁angles": 7035,
      "▁offered": 7036,
      "▁'.": 7037,
      "▁Exec": 7038,
      "▁axis": 7039,
      "▁woman": 7040,
      "▁purchases": 7041,
      "▁conversion": 7042,
      "▁bor": 7043,
      "▁pret": 7044,
      "▁chosen": 7045,
      "▁farmer": 7046,
      "▁charges": 7047,
      "▁himself": 7048,
      "forcement": 7049,
      "▁announced": 7050,
      "▁substitute": 7051,
      "erve": 7052,
      "▁relief": 7053,
      "▁Network": 7054,
      "Types": 7055,
      "water": 7056,
      "rought": 7057,
      "▁chickens": 7058,
      "▁targeted": 7059,
      "▁organizations": 7060,
      "▁seeds": 7061,
      "▁coll": 7062,
      "▁tourn": 7063,
      "▁Having": 7064,
      "▁metadata": 7065,
      "▁Immediate": 7066,
      "stack": 7067,
      "▁plays": 7068,
      "rim": 7069,
      "▁Down": 7070,
      "DateTime": 7071,
      "▁agreement": 7072,
      "▁Face": 7073,
      "▁Last": 7074,
      "▁ques": 7075,
      "▁soon": 7076,
      "▁collaboration": 7077,
      "onal": 7078,
      "▁authentication": 7079,
      "alk": 7080,
      "estiv": 7081,
      "itting": 7082,
      "▁disapp": 7083,
      "▁Depression": 7084,
      "▁department": 7085,
      "▁Ro": 7086,
      "▁Ava": 7087,
      "indices": 7088,
      "▁phenomenon": 7089,
      "He": 7090,
      "▁RE": 7091,
      "▁desk": 7092,
      "▁push": 7093,
      "▁pencil": 7094,
      "▁efforts": 7095,
      "▁opening": 7096,
      "▁concent": 7097,
      "▁parties": 7098,
      "▁overwhel": 7099,
      "▁studying": 7100,
      "▁dictionaries": 7101,
      "aven": 7102,
      "factor": 7103,
      "▁Index": 7104,
      "▁reput": 7105,
      "anth": 7106,
      "radi": 7107,
      "▁ple": 7108,
      "irmed": 7109,
      "▁rain": 7110,
      "choice": 7111,
      "▁adjac": 7112,
      "certain": 7113,
      "pm": 7114,
      "▁pygame": 7115,
      "▁experiment": 7116,
      "plom": 7117,
      "▁Daniel": 7118,
      "▁decided": 7119,
      "▁produces": 7120,
      "/',": 7121,
      "[];": 7122,
      "utral": 7123,
      "uce": 7124,
      "elenium": 7125,
      "▁George": 7126,
      "▁hidden": 7127,
      "arguments": 7128,
      "▁struggles": 7129,
      "▁encouraged": 7130,
      "DF": 7131,
      "rand": 7132,
      "Return": 7133,
      "▁Gl": 7134,
      "arts": 7135,
      "Token": 7136,
      "▁danger": 7137,
      "▁accommod": 7138,
      "▁guidelines": 7139,
      "▁HttpResponse": 7140,
      "▁Users": 7141,
      "▁dozen": 7142,
      "Ob": 7143,
      "▁ce": 7144,
      "▁emb": 7145,
      "nabis": 7146,
      "▁Project": 7147,
      "IG": 7148,
      "ky": 7149,
      "▁Cas": 7150,
      "▁everyday": 7151,
      "▁computers": 7152,
      "tify": 7153,
      "counter": 7154,
      "▁intervals": 7155,
      "▁achievements": 7156,
      "VE": 7157,
      "normal": 7158,
      "▁webpage": 7159,
      "alph": 7160,
      "▁joined": 7161,
      "▁appears": 7162,
      "▁familial": 7163,
      "FO": 7164,
      "exp": 7165,
      "eler": 7166,
      "▁Pay": 7167,
      "▁Feel": 7168,
      "▁doctor": 7169,
      "▁Map": 7170,
      "▁Research": 7171,
      "apid": 7172,
      "real": 7173,
      "▁van": 7174,
      "▁shot": 7175,
      "▁definition": 7176,
      "module": 7177,
      "ursday": 7178,
      "▁motor": 7179,
      "returns": 7180,
      "▁portray": 7181,
      "ulner": 7182,
      "▁python": 7183,
      "▁engineering": 7184,
      "mode": 7185,
      "▁hop": 7186,
      "binary": 7187,
      "▁indust": 7188,
      "▁credentials": 7189,
      "ebug": 7190,
      "gric": 7191,
      "ocity": 7192,
      "SC": 7193,
      "▁seat": 7194,
      "▁bills": 7195,
      "▁cloud": 7196,
      "▁expert": 7197,
      "▁businesses": 7198,
      "▁sen": 7199,
      "▁birds": 7200,
      "▁stuff": 7201,
      "hab": 7202,
      "▁],": 7203,
      "cover": 7204,
      "▁Back": 7205,
      "▁illustr": 7206,
      "▁timestamp": 7207,
      "▁dates": 7208,
      "▁consumer": 7209,
      "imize": 7210,
      "ocation": 7211,
      "percent": 7212,
      "profile": 7213,
      "document": 7214,
      "▁regions": 7215,
      "▁occurren": 7216,
      "▁tea": 7217,
      "▁pric": 7218,
      "▁Company": 7219,
      "▁dynamic": 7220,
      "exit": 7221,
      "▁entity": 7222,
      "▁Determine": 7223,
      "▁converted": 7224,
      "▁incorrect": 7225,
      "null": 7226,
      "▁Anna": 7227,
      "shirts": 7228,
      "▁Creates": 7229,
      "▁drinking": 7230,
      "▁creativity": 7231,
      "Property": 7232,
      "]);": 7233,
      "▁weights": 7234,
      "iforn": 7235,
      "▁radio": 7236,
      "nel": 7237,
      "she": 7238,
      "▁Jul": 7239,
      "▁Mount": 7240,
      "▁Accept": 7241,
      "eli": 7242,
      "▁):": 7243,
      "ests": 7244,
      "▁watch": 7245,
      "▁Bi": 7246,
      "move": 7247,
      "▁focuses": 7248,
      "▁healing": 7249,
      "▁coverage": 7250,
      "(__": 7251,
      "Conn": 7252,
      "calculate": 7253,
      "▁indifferent": 7254,
      "▁Communication": 7255,
      "ario": 7256,
      "▁proportion": 7257,
      "▁Pal": 7258,
      "▁weighs": 7259,
      "▁funds": 7260,
      "PATH": 7261,
      "blue": 7262,
      "EY": 7263,
      "olars": 7264,
      "▁Stud": 7265,
      "exists": 7266,
      "▁incl": 7267,
      "▁facing": 7268,
      "▁reward": 7269,
      "▁Command": 7270,
      "▁married": 7271,
      "▁Center": 7272,
      "▁Creating": 7273,
      "SCA": 7274,
      "▁Lat": 7275,
      "▁Comb": 7276,
      "▁Work": 7277,
      "sorted": 7278,
      "▁videos": 7279,
      "▁absolute": 7280,
      "▁conversations": 7281,
      "▁ahead": 7282,
      "▁header": 7283,
      "▁instances": 7284,
      "▁distribute": 7285,
      "▁eye": 7286,
      "▁eaten": 7287,
      "▁cooper": 7288,
      "▁exclud": 7289,
      "▁limits": 7290,
      "▁comprehensive": 7291,
      "II": 7292,
      "▁(\"": 7293,
      "inos": 7294,
      "upper": 7295,
      "▁Psych": 7296,
      "▁opened": 7297,
      "argument": 7298,
      "Str": 7299,
      "abb": 7300,
      "▁prev": 7301,
      "roller": 7302,
      "▁nutri": 7303,
      "▁tiles": 7304,
      "itoring": 7305,
      "▁bottle": 7306,
      "▁traits": 7307,
      "▁rewards": 7308,
      "▁withdrawal": 7309,
      "unte": 7310,
      "ometry": 7311,
      "▁reports": 7312,
      "▁Anti": 7313,
      "▁Prac": 7314,
      "▁stim": 7315,
      "▁guess": 7316,
      "AP": 7317,
      "ui": 7318,
      "TER": 7319,
      "▁launch": 7320,
      "▁England": 7321,
      "ca": 7322,
      "icit": 7323,
      "Parser": 7324,
      "unicip": 7325,
      "versed": 7326,
      "▁GB": 7327,
      "▁Mel": 7328,
      "minute": 7329,
      "▁Chinese": 7330,
      "ano": 7331,
      "▁aid": 7332,
      "video": 7333,
      "▁Arch": 7334,
      "▁Taking": 7335,
      "raz": 7336,
      "▁pri": 7337,
      "Service": 7338,
      "▁practic": 7339,
      "▁authority": 7340,
      "▁Noah": 7341,
      "headers": 7342,
      "▁enumerate": 7343,
      "\"],": 7344,
      "▁Ama": 7345,
      "alysis": 7346,
      "▁expansion": 7347,
      "▁Heightened": 7348,
      "non": 7349,
      "worth": 7350,
      "▁News": 7351,
      "▁Real": 7352,
      "▁SE": 7353,
      "angles": 7354,
      "created": 7355,
      "▁rent": 7356,
      "ifornia": 7357,
      "ashe": 7358,
      "▁Estab": 7359,
      "▁replaced": 7360,
      "▁Cer": 7361,
      "▁Dou": 7362,
      "▁edges": 7363,
      "▁facilit": 7364,
      "▁Lu": 7365,
      "▁disease": 7366,
      "character": 7367,
      "▁commands": 7368,
      "Page": 7369,
      "ingu": 7370,
      "▁becoming": 7371,
      "▁Miss": 7372,
      "▁Fetch": 7373,
      "▁links": 7374,
      "▁stated": 7375,
      "▁categor": 7376,
      "▁license": 7377,
      "▁upgrade": 7378,
      "mathb": 7379,
      "▁dolls": 7380,
      "▁webdriver": 7381,
      "▁vacc": 7382,
      "▁Actually": 7383,
      "▁creative": 7384,
      "▁lose": 7385,
      "▁pants": 7386,
      "▁hospital": 7387,
      "▁complexity": 7388,
      "▁productivity": 7389,
      "ernel": 7390,
      "▁Environment": 7391,
      "job": 7392,
      "▁crim": 7393,
      "▁lock": 7394,
      "▁redirect": 7395,
      "IA": 7396,
      "lam": 7397,
      "▁cities": 7398,
      "▁viewed": 7399,
      "▁cleaning": 7400,
      "You": 7401,
      "home": 7402,
      "▁Maybe": 7403,
      "Command": 7404,
      "contrib": 7405,
      "▁diverse": 7406,
      "des": 7407,
      "track": 7408,
      "▁improving": 7409,
      "depth": 7410,
      "equal": 7411,
      "▁stars": 7412,
      "▁consideration": 7413,
      "cale": 7414,
      "▁victim": 7415,
      "▁collabor": 7416,
      "▁supports": 7417,
      "jo": 7418,
      "▁Age": 7419,
      "▁inten": 7420,
      "▁drivers": 7421,
      "inc": 7422,
      "▁Mex": 7423,
      "▁sou": 7424,
      "etches": 7425,
      "▁mapping": 7426,
      "▁probably": 7427,
      "ands": 7428,
      "▁URLs": 7429,
      "▁interested": 7430,
      "▁sandwiches": 7431,
      "▁Job": 7432,
      "▁cous": 7433,
      "▁orange": 7434,
      "▁rental": 7435,
      "▁retail": 7436,
      "▁presented": 7437,
      "▁routine": 7438,
      "▁indicated": 7439,
      ")=": 7440,
      "oto": 7441,
      "tex": 7442,
      "win": 7443,
      "▁PM": 7444,
      "tage": 7445,
      "eless": 7446,
      "Start": 7447,
      "vc": 7448,
      "raw": 7449,
      "▁Top": 7450,
      "▁utf": 7451,
      "▁relative": 7452,
      "That": 7453,
      "ikes": 7454,
      "rest": 7455,
      "▁wrestling": 7456,
      "▁mathematical": 7457,
      "LA": 7458,
      "bu": 7459,
      "▁pull": 7460,
      "▁Absol": 7461,
      "uge": 7462,
      "▁Squ": 7463,
      "▁Before": 7464,
      "▁claims": 7465,
      "ivate": 7466,
      "▁oblig": 7467,
      "▁shown": 7468,
      "▁virtual": 7469,
      "▁quarters": 7470,
      "▁categories": 7471,
      "ects": 7472,
      "evin": 7473,
      "begin": 7474,
      "clusion": 7475,
      "▁happen": 7476,
      "▁Contact": 7477,
      "apper": 7478,
      "▁door": 7479,
      "▁scene": 7480,
      "▁editing": 7481,
      "▁lifestyle": 7482,
      "abric": 7483,
      "empty": 7484,
      "▁Music": 7485,
      "▁opinion": 7486,
      "▁repeated": 7487,
      "usr": 7488,
      "▁jump": 7489,
      "▁California": 7490,
      "▁Year": 7491,
      "▁dedicated": 7492,
      "▁strategic": 7493,
      "▁commission": 7494,
      "▁structures": 7495,
      "▁boy": 7496,
      "▁guidance": 7497,
      "▁thr": 7498,
      "▁reactions": 7499,
      "▁implications": 7500,
      "ucks": 7501,
      "ulties": 7502,
      "▁brown": 7503,
      "▁Current": 7504,
      "▁younger": 7505,
      "▁Republic": 7506,
      "▁valuable": 7507,
      "pg": 7508,
      "eth": 7509,
      "▁font": 7510,
      "▁summer": 7511,
      "▁musical": 7512,
      "▁Economic": 7513,
      "adow": 7514,
      "prise": 7515,
      "▁Enter": 7516,
      "▁inher": 7517,
      "▁enemies": 7518,
      "xic": 7519,
      "riptions": 7520,
      "▁serving": 7521,
      "▁continued": 7522,
      "▁consistently": 7523,
      "▁interpersonal": 7524,
      "ered": 7525,
      "izontal": 7526,
      "▁machines": 7527,
      "▁France": 7528,
      "▁introduced": 7529,
      "access": 7530,
      "rypted": 7531,
      "▁Mongo": 7532,
      "▁straw": 7533,
      "▁explanation": 7534,
      "umul": 7535,
      "▁Rest": 7536,
      "▁operate": 7537,
      "▁bow": 7538,
      "▁Clear": 7539,
      "▁holds": 7540,
      "▁Response": 7541,
      "▁depending": 7542,
      "hr": 7543,
      "▁pays": 7544,
      "▁Short": 7545,
      "▁Streng": 7546,
      "▁interview": 7547,
      "ipher": 7548,
      "▁displayed": 7549,
      "▁Num": 7550,
      "▁White": 7551,
      "▁slice": 7552,
      "▁criter": 7553,
      "▁indices": 7554,
      "▁mentions": 7555,
      "▁wins": 7556,
      "▁worker": 7557,
      "▁eventually": 7558,
      "bool": 7559,
      "entity": 7560,
      "perform": 7561,
      "▁subred": 7562,
      "▁destroy": 7563,
      "▁attempts": 7564,
      "▁Demon": 7565,
      "question": 7566,
      "▁Que": 7567,
      "ooking": 7568,
      "▁metal": 7569,
      "▁Smith": 7570,
      "telling": 7571,
      "▁picking": 7572,
      ")$": 7573,
      "argv": 7574,
      "▁phase": 7575,
      "▁Excessive": 7576,
      "▁sizes": 7577,
      "▁anyone": 7578,
      "▁fantasy": 7579,
      "▁journal": 7580,
      "▁diameter": 7581,
      "ki": 7582,
      "oric": 7583,
      "timestamp": 7584,
      "YY": 7585,
      "sites": 7586,
      "▁taxes": 7587,
      "▁freedom": 7588,
      "▁distributed": 7589,
      "hus": 7590,
      "tified": 7591,
      "▁fifth": 7592,
      "▁tried": 7593,
      "▁hourly": 7594,
      "▁loyalty": 7595,
      "▁excessive": 7596,
      "osh": 7597,
      "urer": 7598,
      "uphor": 7599,
      "▁burn": 7600,
      "▁proof": 7601,
      "sleep": 7602,
      "▁Cool": 7603,
      "▁wind": 7604,
      "▁wonder": 7605,
      "dro": 7606,
      "Trans": 7607,
      "ademy": 7608,
      "Answer": 7609,
      "ifficulties": 7610,
      "uous": 7611,
      "▁causes": 7612,
      "▁flag": 7613,
      "gments": 7614,
      "berries": 7615,
      "▁reduction": 7616,
      "endor": 7617,
      "▁Thomas": 7618,
      "▁analyze": 7619,
      "hav": 7620,
      "JSON": 7621,
      "▁neck": 7622,
      "▁Council": 7623,
      "▁addressing": 7624,
      "▁kit": 7625,
      "adian": 7626,
      "▁meal": 7627,
      "ailable": 7628,
      "▁assigned": 7629,
      "▁Christian": 7630,
      "var": 7631,
      "quality": 7632,
      "▁nothing": 7633,
      "▁finished": 7634,
      "▁concerning": 7635,
      "▁electrical": 7636,
      "mate": 7637,
      "▁Coll": 7638,
      "▁Thursday": 7639,
      "onel": 7640,
      "▁sat": 7641,
      "essor": 7642,
      "▁Therap": 7643,
      "▁forums": 7644,
      "fr": 7645,
      "inn": 7646,
      "▁Plot": 7647,
      "ilience": 7648,
      "ifications": 7649,
      "▁Hen": 7650,
      "▁coming": 7651,
      "di": 7652,
      "Rem": 7653,
      "▁core": 7654,
      "system": 7655,
      "vector": 7656,
      "▁moves": 7657,
      "▁sadness": 7658,
      "▁instructions": 7659,
      "ba": 7660,
      "Dis": 7661,
      "▁Pop": 7662,
      "▁introduction": 7663,
      "▁Doc": 7664,
      "▁tensor": 7665,
      "GA": 7666,
      "esh": 7667,
      "▁gym": 7668,
      "▁Cy": 7669,
      "ibly": 7670,
      "block": 7671,
      "digits": 7672,
      "ration": 7673,
      "▁extension": 7674,
      "cknowled": 7675,
      "▁comparison": 7676,
      "gi": 7677,
      "ULT": 7678,
      "Load": 7679,
      "▁Rev": 7680,
      "▁bicy": 7681,
      "undred": 7682,
      "▁modified": 7683,
      "fetch": 7684,
      "scores": 7685,
      "ida": 7686,
      "▁Pot": 7687,
      "▁Hall": 7688,
      "▁cold": 7689,
      "▁brought": 7690,
      "▁developing": 7691,
      "!\"": 7692,
      ".\",": 7693,
      "▁eras": 7694,
      "▁poly": 7695,
      "▁compet": 7696,
      "▁simulate": 7697,
      "▁attit": 7698,
      "valuate": 7699,
      "▁prefix": 7700,
      "▁trigger": 7701,
      "▁Dictionary": 7702,
      "▁equivalent": 7703,
      "cery": 7704,
      "ovie": 7705,
      "cache": 7706,
      "▁surg": 7707,
      "▁Paren": 7708,
      "▁plane": 7709,
      "channel": 7710,
      "▁Happiness": 7711,
      "▁manipulation": 7712,
      "uty": 7713,
      "cards": 7714,
      "edy": 7715,
      ")}\")": 7716,
      "▁Robert": 7717,
      "▁entries": 7718,
      "▁offering": 7719,
      "▁submission": 7720,
      "cipl": 7721,
      "▁Admin": 7722,
      "tifications": 7723,
      "FL": 7724,
      "arciss": 7725,
      "▁majority": 7726,
      "enders": 7727,
      "ighter": 7728,
      "▁Autom": 7729,
      "▁preparation": 7730,
      "▁replacement": 7731,
      "configuration": 7732,
      "▁hel": 7733,
      "antly": 7734,
      "chain": 7735,
      "▁Mart": 7736,
      "ailing": 7737,
      "▁Games": 7738,
      "▁params": 7739,
      "positions": 7740,
      "▁callback": 7741,
      "▁narratives": 7742,
      "▁transportation": 7743,
      "Phone": 7744,
      "▁Based": 7745,
      "▁summary": 7746,
      "\\\\": 7747,
      "sage": 7748,
      "▁susp": 7749,
      "▁tokens": 7750,
      "▁Compute": 7751,
      "▁addiction": 7752,
      "anish": 7753,
      "▁afford": 7754,
      "webdriver": 7755,
      "▁Friends": 7756,
      "▁Similar": 7757,
      "aks": 7758,
      "▁Grap": 7759,
      "▁king": 7760,
      "iments": 7761,
      "logging": 7762,
      "▁necess": 7763,
      "▁buildings": 7764,
      "SP": 7765,
      "▁cable": 7766,
      "▁Positive": 7767,
      "cipal": 7768,
      "▁tone": 7769,
      "lector": 7770,
      "▁Integration": 7771,
      "toString": 7772,
      "▁Migration": 7773,
      "▁Providing": 7774,
      "pair": 7775,
      "▁warm": 7776,
      "▁uniform": 7777,
      "▁Focusing": 7778,
      "▁President": 7779,
      "New": 7780,
      "▁Design": 7781,
      "▁baseball": 7782,
      "▁consists": 7783,
      "▁workplace": 7784,
      "▁rectangular": 7785,
      "▁storytelling": 7786,
      "allow": 7787,
      "▁felt": 7788,
      "lee": 7789,
      "▁rul": 7790,
      "▁appeti": 7791,
      "▁silver": 7792,
      "▁daughter": 7793,
      "▁please": 7794,
      "▁handler": 7795,
      "▁polynomial": 7796,
      ">,": 7797,
      "▁clock": 7798,
      "▁severe": 7799,
      "▁Through": 7800,
      "▁versions": 7801,
      "`,": 7802,
      "▁paralle": 7803,
      "▁observed": 7804,
      "!/": 7805,
      "olved": 7806,
      "▁Today": 7807,
      "▁absence": 7808,
      "▁Subtract": 7809,
      "▁Kar": 7810,
      "night": 7811,
      "▁subjects": 7812,
      "▁difficulties": 7813,
      "[],": 7814,
      "▁onto": 7815,
      "▁modul": 7816,
      "▁approval": 7817,
      "▁director": 7818,
      "▁recently": 7819,
      "▁encourage": 7820,
      "▁coefficients": 7821,
      "SH": 7822,
      "▁Amazon": 7823,
      "POST": 7824,
      "▁faces": 7825,
      "van": 7826,
      "door": 7827,
      "▁Cath": 7828,
      "▁assets": 7829,
      "essional": 7830,
      "▁operator": 7831,
      "▁expresses": 7832,
      "So": 7833,
      "CON": 7834,
      "▁IT": 7835,
      "onic": 7836,
      "▁offset": 7837,
      "▁contexts": 7838,
      "▁atm": 7839,
      "▁vertex": 7840,
      "ady": 7841,
      "////": 7842,
      "▁sites": 7843,
      "Storage": 7844,
      "▁Change": 7845,
      "▁marble": 7846,
      "▁shouldn": 7847,
      "Reg": 7848,
      "aped": 7849,
      "ette": 7850,
      "rees": 7851,
      "▁bright": 7852,
      "▁viewer": 7853,
      "▁reliable": 7854,
      "▁guaranteed": 7855,
      "odo": 7856,
      "zed": 7857,
      "gues": 7858,
      "iki": 7859,
      "inger": 7860,
      "▁Africa": 7861,
      "property": 7862,
      "▁extensive": 7863,
      "▁horm": 7864,
      "▁Event": 7865,
      "▁corpor": 7866,
      "ectivity": 7867,
      "▁ancient": 7868,
      "▁district": 7869,
      "▁restrictions": 7870,
      "▁jack": 7871,
      "▁-=": 7872,
      "▁slope": 7873,
      "▁Sunday": 7874,
      "▁candidates": 7875,
      "▁Maintaining": 7876,
      "Out": 7877,
      "▁essay": 7878,
      "▁Series": 7879,
      "lor": 7880,
      "more": 7881,
      "antum": 7882,
      "phones": 7883,
      "raction": 7884,
      "cho": 7885,
      "▁Kevin": 7886,
      "handler": 7887,
      "▁familiar": 7888,
      "umps": 7889,
      "▁armor": 7890,
      "▁norms": 7891,
      "▁slight": 7892,
      "slice": 7893,
      "▁optimal": 7894,
      "▁Feelings": 7895,
      "▁answered": 7896,
      "▁keyboard": 7897,
      "SQL": 7898,
      "]],": 7899,
      "uri": 7900,
      "▁seed": 7901,
      "secret": 7902,
      "uphoria": 7903,
      "coordinates": 7904,
      "▁info": 7905,
      "uality": 7906,
      "▁ended": 7907,
      "▁marks": 7908,
      "▁transl": 7909,
      "▁Western": 7910,
      "attr": 7911,
      "▁Children": 7912,
      "▁sentiment": 7913,
      "▁Department": 7914,
      "▁contributions": 7915,
      "SO": 7916,
      "▁Bill": 7917,
      "▁eyes": 7918,
      "▁urban": 7919,
      "▁layout": 7920,
      "▁signed": 7921,
      "▁developers": 7922,
      "Mat": 7923,
      "▁arm": 7924,
      "▁branch": 7925,
      "▁cancer": 7926,
      "▁diss": 7927,
      "ashion": 7928,
      "▁faith": 7929,
      "▁predicted": 7930,
      "As": 7931,
      "dist": 7932,
      "health": 7933,
      "▁bears": 7934,
      "▁Development": 7935,
      "▁integration": 7936,
      "▁couns": 7937,
      "▁widely": 7938,
      "▁choosing": 7939,
      "collection": 7940,
      "deg": 7941,
      "▁Men": 7942,
      "▁Rock": 7943,
      "ayscale": 7944,
      "▁sugges": 7945,
      "▁Japanese": 7946,
      "▁regulations": 7947,
      "▁Note": 7948,
      "▁ranking": 7949,
      "just": 7950,
      "▁hun": 7951,
      "▁Memory": 7952,
      "▁philosop": 7953,
      "pet": 7954,
      "django": 7955,
      "▁Cultural": 7956,
      "mas": 7957,
      "png": 7958,
      "]]):": 7959,
      "▁attract": 7960,
      "}/": 7961,
      "pen": 7962,
      "▁tags": 7963,
      "▁prepare": 7964,
      "▁reached": 7965,
      "▁enjoyment": 7966,
      "▁commercial": 7967,
      "▁Rob": 7968,
      "▁Rich": 7969,
      "▁Common": 7970,
      "▁Algebra": 7971,
      "▁returning": 7972,
      "loss": 7973,
      "useum": 7974,
      "▁directed": 7975,
      "▁troubles": 7976,
      "▁existence": 7977,
      "four": 7978,
      "▁teaching": 7979,
      "▁attraction": 7980,
      "repr": 7981,
      "obile": 7982,
      "▁wear": 7983,
      "▁arise": 7984,
      "▁Instit": 7985,
      "▁recheck": 7986,
      "▁intimacy": 7987,
      "▁confirmed": 7988,
      "▁≤": 7989,
      "▁inventory": 7990,
      "atisfaction": 7991,
      "tri": 7992,
      "▁folder": 7993,
      "rd": 7994,
      "▁((": 7995,
      "ander": 7996,
      "typeof": 7997,
      "contain": 7998,
      "▁depends": 7999,
      "tax": 8000,
      "▁Save": 8001,
      "▁Task": 8002,
      "▁bond": 8003,
      "▁Demonstr": 8004,
      "▁encourages": 8005,
      "Total": 8006,
      "aa": 8007,
      "Val": 8008,
      "migr": 8009,
      "▁#!/": 8010,
      "aware": 8011,
      "▁Move": 8012,
      "▁guide": 8013,
      "dataframe": 8014,
      "▁parameter": 8015,
      "▁arithmetic": 8016,
      "ini": 8017,
      "src": 8018,
      "Create": 8019,
      "▁participate": 8020,
      "▁Ur": 8021,
      "▁auto": 8022,
      "classes": 8023,
      "unge": 8024,
      "▁Old": 8025,
      "▁Pan": 8026,
      "▁Plan": 8027,
      "▁chain": 8028,
      "ji": 8029,
      "And": 8030,
      "gal": 8031,
      "▁codes": 8032,
      "itizens": 8033,
      "▁vulner": 8034,
      "▁Central": 8035,
      "▁matching": 8036,
      "PC": 8037,
      "tensor": 8038,
      "▁duplic": 8039,
      ".'": 8040,
      "\"))": 8041,
      "▁\"#": 8042,
      "liam": 8043,
      "▁brace": 8044,
      "▁lemon": 8045,
      "▁chemical": 8046,
      "▁ap": 8047,
      "▁seashe": 8048,
      "clock": 8049,
      "prompt": 8050,
      "▁donuts": 8051,
      "▁endpoint": 8052,
      "▁happened": 8053,
      "MI": 8054,
      "▁tro": 8055,
      "apture": 8056,
      "▁Happy": 8057,
      "▁inner": 8058,
      "▁purchased": 8059,
      "▁investments": 8060,
      "sche": 8061,
      "CASCA": 8062,
      "romag": 8063,
      "▁trick": 8064,
      "CASCADE": 8065,
      "▁excell": 8066,
      "Linear": 8067,
      "▁liquid": 8068,
      "struction": 8069,
      "▁fine": 8070,
      "▁soup": 8071,
      "▁flash": 8072,
      "▁moral": 8073,
      "▁league": 8074,
      "▁featured": 8075,
      "▁exposure": 8076,
      "\\_": 8077,
      "iat": 8078,
      "Game": 8079,
      "tons": 8080,
      "ummy": 8081,
      "itness": 8082,
      "▁brief": 8083,
      "▁flask": 8084,
      "▁intake": 8085,
      "▁loaded": 8086,
      "▁pil": 8087,
      "Initial": 8088,
      "▁houses": 8089,
      "▁Spanish": 8090,
      "▁Community": 8091,
      "▁Cup": 8092,
      "▁Human": 8093,
      "▁Price": 8094,
      "▁debug": 8095,
      "▁restr": 8096,
      "Sim": 8097,
      "ria": 8098,
      "upp": 8099,
      "▁Writing": 8100,
      "effective": 8101,
      "▁greeting": 8102,
      "▁inser": 8103,
      "▁episodes": 8104,
      "MB": 8105,
      "uing": 8106,
      "ville": 8107,
      "▁notable": 8108,
      "▁Government": 8109,
      "DS": 8110,
      "occ": 8111,
      "oria": 8112,
      "▁Lic": 8113,
      "▁spot": 8114,
      "▁Three": 8115,
      "▁fresh": 8116,
      "ola": 8117,
      "▁er": 8118,
      "▁soda": 8119,
      "▁finds": 8120,
      "▁privacy": 8121,
      "▁participation": 8122,
      "comb": 8123,
      "▁Tri": 8124,
      "tles": 8125,
      "▁Tele": 8126,
      "ponents": 8127,
      "interest": 8128,
      "▁divisors": 8129,
      "▁selenium": 8130,
      "▁understood": 8131,
      "VER": 8132,
      "itiv": 8133,
      "▁rob": 8134,
      "success": 8135,
      "▁Select": 8136,
      "▁honest": 8137,
      "▁unf": 8138,
      "▁incorpor": 8139,
      "▁Sus": 8140,
      "eries": 8141,
      "▁manif": 8142,
      "▁Learning": 8143,
      "^{-": 8144,
      "ella": 8145,
      "▁Organ": 8146,
      "▁Running": 8147,
      "▁picture": 8148,
      "ifficulty": 8149,
      "rupt": 8150,
      "hours": 8151,
      "▁paying": 8152,
      "▁emotion": 8153,
      "▁visible": 8154,
      "▁Language": 8155,
      "iger": 8156,
      "comple": 8157,
      "▁Distr": 8158,
      "▁Simpl": 8159,
      "▁cannabis": 8160,
      "▁protocol": 8161,
      "▁Character": 8162,
      "▁'/": 8163,
      "From": 8164,
      "aste": 8165,
      "▁Make": 8166,
      "▁broken": 8167,
      "▁possess": 8168,
      "▁sufficient": 8169,
      "[-": 8170,
      "aws": 8171,
      "alax": 8172,
      "redu": 8173,
      "debug": 8174,
      "screen": 8175,
      "▁Author": 8176,
      "▁vision": 8177,
      "▁fetching": 8178,
      "▁Book": 8179,
      "commit": 8180,
      "▁Court": 8181,
      "▁breast": 8182,
      "▁Germany": 8183,
      "▁instrument": 8184,
      "gate": 8185,
      "▁Code": 8186,
      "▁clearer": 8187,
      ".)": 8188,
      ">>": 8189,
      "▁pig": 8190,
      "arrow": 8191,
      "▁growing": 8192,
      "▁managed": 8193,
      "▁Royal": 8194,
      "execute": 8195,
      "▁filtered": 8196,
      "▁ownership": 8197,
      "iant": 8198,
      "isis": 8199,
      "stock": 8200,
      "▁Star": 8201,
      "▁orient": 8202,
      "▁Finally": 8203,
      "▁siblings": 8204,
      "▁Education": 8205,
      "cond": 8206,
      "Level": 8207,
      "▁cream": 8208,
      "▁squared": 8209,
      "▁breaking": 8210,
      "▁uncertain": 8211,
      "ya": 8212,
      "well": 8213,
      "▁enthus": 8214,
      "▁defense": 8215,
      "▁reputation": 8216,
      "▁Ryzen": 8217,
      "awn": 8218,
      "false": 8219,
      "scape": 8220,
      "▁merg": 8221,
      "pmatrix": 8222,
      "perature": 8223,
      "▁kept": 8224,
      "Check": 8225,
      "▁tele": 8226,
      "▁walks": 8227,
      "▁contem": 8228,
      "▁evaluation": 8229,
      "▁({": 8230,
      "eded": 8231,
      "▁Cir": 8232,
      "▁deck": 8233,
      "▁signs": 8234,
      "▁spell": 8235,
      "▁neglect": 8236,
      "▁servings": 8237,
      "Right": 8238,
      "▁drugs": 8239,
      "ictional": 8240,
      "▁Assuming": 8241,
      "team": 8242,
      "▁picked": 8243,
      "▁streaming": 8244,
      "derstandings": 8245,
      "gent": 8246,
      "boards": 8247,
      "▁Internet": 8248,
      "mail": 8249,
      "agonal": 8250,
      "▁defines": 8251,
      "▁reflection": 8252,
      "▁intersection": 8253,
      "reek": 8254,
      "▁sustain": 8255,
      "▁seashells": 8256,
      "ccer": 8257,
      "clusive": 8258,
      "ometric": 8259,
      "samples": 8260,
      "▁passeng": 8261,
      "▁Frequent": 8262,
      "▁expressions": 8263,
      "GE": 8264,
      "rep": 8265,
      "▁heard": 8266,
      "transform": 8267,
      "▁registration": 8268,
      "actor": 8269,
      "plotlib": 8270,
      "▁eliminate": 8271,
      "prot": 8272,
      "▁Hyper": 8273,
      "▁\").": 8274,
      "▁beg": 8275,
      "▁deriv": 8276,
      "cons": 8277,
      "▁padd": 8278,
      "ultane": 8279,
      "▁bucket": 8280,
      "▁insert": 8281,
      "▁incident": 8282,
      "▁Configure": 8283,
      "Min": 8284,
      "One": 8285,
      "duration": 8286,
      "liament": 8287,
      "▁border": 8288,
      "▁manual": 8289,
      "▁lengths": 8290,
      "▁victory": 8291,
      "Migration": 8292,
      "▁Level": 8293,
      "▁founded": 8294,
      "▁subreddit": 8295,
      "▁BI": 8296,
      "BASE": 8297,
      "▁Util": 8298,
      "▁hall": 8299,
      "▁photos": 8300,
      "required": 8301,
      "▁Security": 8302,
      "▁sections": 8303,
      "▁Association": 8304,
      "NS": 8305,
      "ita": 8306,
      "ota": 8307,
      "▁Sen": 8308,
      "▁appeal": 8309,
      "▁speech": 8310,
      "▁toward": 8311,
      "▁subsequ": 8312,
      "▁achieved": 8313,
      "▁payments": 8314,
      "KEY": 8315,
      "▁vs": 8316,
      "oles": 8317,
      "▁Pred": 8318,
      "usband": 8319,
      "▁killed": 8320,
      "▁Therapy": 8321,
      "▁leaders": 8322,
      "▁although": 8323,
      "▁insights": 8324,
      "▁perceptions": 8325,
      "▁Ann": 8326,
      "▁Army": 8327,
      "▁tile": 8328,
      "sembly": 8329,
      "ean": 8330,
      "▁/*": 8331,
      "answer": 8332,
      "[])": 8333,
      "▁Sym": 8334,
      "▁____.": 8335,
      "account": 8336,
      "average": 8337,
      "▁estate": 8338,
      "redentials": 8339,
      "▁performing": 8340,
      "estival": 8341,
      "▁samples": 8342,
      "▁YouT": 8343,
      "▁clothes": 8344,
      "▁shipping": 8345,
      "ris": 8346,
      "▁Requ": 8347,
      "ulates": 8348,
      "▁Store": 8349,
      "indrome": 8350,
      "▁Making": 8351,
      "▁aesthetic": 8352,
      "Att": 8353,
      "rot": 8354,
      "city": 8355,
      "▁Exp": 8356,
      "▁attr": 8357,
      "▁Trust": 8358,
      "▁newsp": 8359,
      "elihood": 8360,
      "▁stands": 8361,
      "▁empathy": 8362,
      "▁implies": 8363,
      "▁Absolutely": 8364,
      "chema": 8365,
      "dates": 8366,
      "artial": 8367,
      "▁crime": 8368,
      "▁municip": 8369,
      "▁abstract": 8370,
      "▁displays": 8371,
      "▁ST": 8372,
      "▁Prot": 8373,
      "▁craft": 8374,
      "▁believed": 8375,
      "CRE": 8376,
      "tra": 8377,
      "fall": 8378,
      "▁cow": 8379,
      "▁meals": 8380,
      "▁mouse": 8381,
      "▁decide": 8382,
      "▁hotel": 8383,
      "comment": 8384,
      "▁grades": 8385,
      "▁adventure": 8386,
      "▁broadcast": 8387,
      "clear": 8388,
      "erved": 8389,
      "▁Chic": 8390,
      "▁Tree": 8391,
      "▁trial": 8392,
      "▁Business": 8393,
      "▁affection": 8394,
      "bols": 8395,
      "▁Pok": 8396,
      "▁Tex": 8397,
      "Player": 8398,
      "aturday": 8399,
      "▁weekend": 8400,
      "▁websites": 8401,
      "▁influences": 8402,
      "CM": 8403,
      "aked": 8404,
      "entries": 8405,
      "▁saying": 8406,
      "generate": 8407,
      "▁permanent": 8408,
      "Post": 8409,
      "▁cooler": 8410,
      "▁Twitter": 8411,
      "foo": 8412,
      "ribed": 8413,
      "▁Jose": 8414,
      "▁Road": 8415,
      "▁Fetches": 8416,
      "▁president": 8417,
      "▁rapid": 8418,
      "▁mistakes": 8419,
      "▁Lou": 8420,
      "▁dev": 8421,
      "▁pets": 8422,
      "▁tail": 8423,
      "▁Space": 8424,
      "▁overs": 8425,
      "▁Championship": 8426,
      "unit": 8427,
      "▁mal": 8428,
      "▁involvement": 8429,
      "▁temperatures": 8430,
      "▁Full": 8431,
      "▁slot": 8432,
      "▁Search": 8433,
      "children": 8434,
      "▁combine": 8435,
      "jpg": 8436,
      "copy": 8437,
      "stery": 8438,
      "▁Because": 8439,
      "Det": 8440,
      "Please": 8441,
      "gender": 8442,
      "▁corner": 8443,
      "hs": 8444,
      "help": 8445,
      "outs": 8446,
      "▁Fre": 8447,
      "ipolar": 8448,
      "▁marked": 8449,
      "▁scholars": 8450,
      "▁Management": 8451,
      "▁predictions": 8452,
      "stat": 8453,
      "}\\).": 8454,
      "▁Unit": 8455,
      "students": 8456,
      "▁physics": 8457,
      "DateTimeField": 8458,
      "\").": 8459,
      "▁Sy": 8460,
      "▁View": 8461,
      "▁calm": 8462,
      "▁insp": 8463,
      "▁Always": 8464,
      "....": 8465,
      "arity": 8466,
      "agraph": 8467,
      "cursor": 8468,
      "▁yourself": 8469,
      "▁resistance": 8470,
      "azz": 8471,
      "▁Case": 8472,
      "▁Board": 8473,
      "▁Guard": 8474,
      "ulating": 8475,
      "▁Discuss": 8476,
      "▁funding": 8477,
      "▁Configuration": 8478,
      "urt": 8479,
      "▁Invest": 8480,
      "▁frequent": 8481,
      "=['": 8482,
      "')),": 8483,
      "wide": 8484,
      "▁Mass": 8485,
      "▁Local": 8486,
      "▁fabric": 8487,
      "▁billion": 8488,
      "▁grocery": 8489,
      "▁husband": 8490,
      "▁expressing": 8491,
      "▁fre": 8492,
      "ensus": 8493,
      "▁east": 8494,
      "▁mort": 8495,
      "▁vote": 8496,
      "▁detect": 8497,
      "▁housing": 8498,
      "direction": 8499,
      "▁channels": 8500,
      "▁simultane": 8501,
      "GET": 8502,
      "PIO": 8503,
      "Tim": 8504,
      "bet": 8505,
      "▁keyword": 8506,
      "▁Software": 8507,
      "▁administr": 8508,
      "Arg": 8509,
      "bytes": 8510,
      "strings": 8511,
      "▁provider": 8512,
      "▁Following": 8513,
      "ths": 8514,
      "▁AC": 8515,
      "bert": 8516,
      "havior": 8517,
      "▁waste": 8518,
      "▁cultur": 8519,
      "dimension": 8520,
      "▁Sort": 8521,
      "▁tells": 8522,
      "▁mechanisms": 8523,
      "▁cryptocurrency": 8524,
      "Group": 8525,
      "uctive": 8526,
      "▁guilt": 8527,
      "▁votes": 8528,
      "▁parenting": 8529,
      "udden": 8530,
      "▁Jason": 8531,
      "▁acceptable": 8532,
      "▁End": 8533,
      "▁Analy": 8534,
      "▁Mother": 8535,
      "ais": 8536,
      "tags": 8537,
      "▁iden": 8538,
      "actory": 8539,
      "▁river": 8540,
      "▁networks": 8541,
      "▁troublesh": 8542,
      "std": 8543,
      "▁Cost": 8544,
      "▁Vari": 8545,
      "errors": 8546,
      "▁injury": 8547,
      "▁officer": 8548,
      "tan": 8549,
      "Math": 8550,
      "▁Big": 8551,
      "Hello": 8552,
      "▁Show": 8553,
      "package": 8554,
      "▁decline": 8555,
      "▁rational": 8556,
      "rain": 8557,
      "▁opposite": 8558,
      "▁parental": 8559,
      "▁reducing": 8560,
      "▁Application": 8561,
      "▁Area": 8562,
      "▁village": 8563,
      "▁arranging": 8564,
      "▁resilience": 8565,
      "'}": 8566,
      "!\")": 8567,
      "'):": 8568,
      "mock": 8569,
      "icine": 8570,
      "Logger": 8571,
      "thread": 8572,
      "feature": 8573,
      "▁Life": 8574,
      "▁Linux": 8575,
      "▁dimes": 8576,
      "▁penal": 8577,
      "▁triple": 8578,
      "▁coefficient": 8579,
      "__)": 8580,
      "▁Yep": 8581,
      "▁heav": 8582,
      "▁recall": 8583,
      "▁Register": 8584,
      "icity": 8585,
      "Product": 8586,
      "▁Consistent": 8587,
      "emic": 8588,
      "▁Hor": 8589,
      "▁Divid": 8590,
      "iled": 8591,
      "▁Vol": 8592,
      "osphere": 8593,
      "▁harmful": 8594,
      "▁willing": 8595,
      "▁estimated": 8596,
      "rastr": 8597,
      "▁bind": 8598,
      "▁YouTube": 8599,
      "▁protein": 8600,
      "▁remained": 8601,
      "▁AP": 8602,
      "▁movements": 8603,
      "odies": 8604,
      "/(": 8605,
      "▁gar": 8606,
      "▁wish": 8607,
      "▁fails": 8608,
      "▁Request": 8609,
      "▁Facebook": 8610,
      "▁universe": 8611,
      "▁selecting": 8612,
      "Per": 8613,
      "▁Imag": 8614,
      "▁Less": 8615,
      "▁Click": 8616,
      "▁bonds": 8617,
      "▁pretty": 8618,
      "▁repair": 8619,
      "▁Academy": 8620,
      "▁Another": 8621,
      "▁artists": 8622,
      "▁recover": 8623,
      "▁Everyone": 8624,
      "▁flight": 8625,
      "▁criteria": 8626,
      "Mon": 8627,
      "▁Joh": 8628,
      "▁Node": 8629,
      "▁ideal": 8630,
      "extract": 8631,
      "▁prison": 8632,
      "▁hundred": 8633,
      "▁matters": 8634,
      "▁focusing": 8635,
      "▁Technology": 8636,
      "lambda": 8637,
      "cor": 8638,
      "func": 8639,
      "▁hex": 8640,
      "▁Henry": 8641,
      "▁spect": 8642,
      "▁implements": 8643,
      "iece": 8644,
      "▁sector": 8645,
      "cean": 8646,
      "parts": 8647,
      "▁coin": 8648,
      "▁Canadian": 8649,
      "▁Standard": 8650,
      "edge": 8651,
      "▁Building": 8652,
      "▁Database": 8653,
      "▁promotion": 8654,
      "sql": 8655,
      "▁Ty": 8656,
      "▁cls": 8657,
      "▁Australian": 8658,
      "CK": 8659,
      "iders": 8660,
      "▁agent": 8661,
      "▁constit": 8662,
      "▁erasers": 8663,
      "▁windows": 8664,
      "oop": 8665,
      "aval": 8666,
      "▁zip": 8667,
      "▁Initi": 8668,
      "▁forget": 8669,
      "▁waiting": 8670,
      "▁Professional": 8671,
      "FT": 8672,
      "Fil": 8673,
      "▁Mer": 8674,
      "esome": 8675,
      "▁Meta": 8676,
      "▁guest": 8677,
      "▁appetite": 8678,
      "▁transformation": 8679,
      "▁pip": 8680,
      "▁Parse": 8681,
      "▁appeared": 8682,
      "▁numerous": 8683,
      "▁cry": 8684,
      "▁Force": 8685,
      "▁meter": 8686,
      "itivity": 8687,
      "▁evenly": 8688,
      "▁flower": 8689,
      "▁lowest": 8690,
      "▁climate": 8691,
      "▁citizens": 8692,
      "▁emergency": 8693,
      "acts": 8694,
      "▁ment": 8695,
      "romise": 8696,
      "▁manner": 8697,
      "oneliness": 8698,
      "▁Callable": 8699,
      "▁pin": 8700,
      "▁corn": 8701,
      "▁tang": 8702,
      "▁toler": 8703,
      "▁Retrie": 8704,
      "▁casino": 8705,
      "▁relaxation": 8706,
      "▁aqu": 8707,
      "▁clin": 8708,
      "▁Award": 8709,
      "▁diplom": 8710,
      "▁markets": 8711,
      "▁vacation": 8712,
      "bur": 8713,
      "cls": 8714,
      "▁csv": 8715,
      "layer": 8716,
      "▁deploy": 8717,
      "▁famous": 8718,
      "EL": 8719,
      "antha": 8720,
      "▁Link": 8721,
      "▁Vict": 8722,
      "▁wrap": 8723,
      "▁Franc": 8724,
      "▁stocks": 8725,
      "▁turned": 8726,
      "▁tournament": 8727,
      "PD": 8728,
      "iances": 8729,
      "ossible": 8730,
      "▁escape": 8731,
      "▁vertical": 8732,
      "▁Translate": 8733,
      "tee": 8734,
      "}{\\": 8735,
      "zero": 8736,
      "▁Pen": 8737,
      "▁Word": 8738,
      "▁worry": 8739,
      "▁History": 8740,
      "▁fictional": 8741,
      "▁sequences": 8742,
      "ja": 8743,
      "affe": 8744,
      "nings": 8745,
      "▁rail": 8746,
      "▁soil": 8747,
      "▁gradu": 8748,
      "▁hyper": 8749,
      "▁mixed": 8750,
      "▁Univers": 8751,
      "▁fatigue": 8752,
      "▁literary": 8753,
      "drop": 8754,
      "▁Politi": 8755,
      "▁addresses": 8756,
      "▁approaches": 8757,
      "igned": 8758,
      "inite": 8759,
      "▁Market": 8760,
      "(*": 8761,
      "Net": 8762,
      "▁Pars": 8763,
      "▁suic": 8764,
      "Optional": 8765,
      "▁tension": 8766,
      "▁Additionally": 8767,
      "▁Gen": 8768,
      "ATION": 8769,
      "▁pies": 8770,
      "▁Weight": 8771,
      "▁ignored": 8772,
      "▁procedure": 8773,
      "QU": 8774,
      "tity": 8775,
      "▁Size": 8776,
      "alchemy": 8777,
      "▁butter": 8778,
      "▁planet": 8779,
      "▁typeof": 8780,
      "▁winner": 8781,
      "▁economy": 8782,
      "▁trained": 8783,
      "▁Lar": 8784,
      "▁athle": 8785,
      "▁median": 8786,
      "interval": 8787,
      "▁baskets": 8788,
      "▁charity": 8789,
      "▁Try": 8790,
      "caten": 8791,
      "Chrome": 8792,
      "member": 8793,
      "public": 8794,
      "▁basis": 8795,
      "seconds": 8796,
      "▁divers": 8797,
      "▁pandas": 8798,
      "▁Difficulty": 8799,
      "SET": 8800,
      "lass": 8801,
      "▁termin": 8802,
      "▁occupied": 8803,
      "▁secondary": 8804,
      "▁crew": 8805,
      "▁doct": 8806,
      "▁therm": 8807,
      "Task": 8808,
      "▁Know": 8809,
      "▁Wood": 8810,
      "▁west": 8811,
      "needed": 8812,
      "mic": 8813,
      "▁Exc": 8814,
      "▁Rad": 8815,
      "astern": 8816,
      "▁debut": 8817,
      "ocratic": 8818,
      "▁Unique": 8819,
      "variable": 8820,
      "▁traveling": 8821,
      "▁compatible": 8822,
      "`.": 8823,
      "▁Wi": 8824,
      "export": 8825,
      "▁greatest": 8826,
      "▁connectivity": 8827,
      "tx": 8828,
      "aver": 8829,
      "noon": 8830,
      "▁Blo": 8831,
      "activ": 8832,
      "tests": 8833,
      "idents": 8834,
      "▁layers": 8835,
      "▁elected": 8836,
      "▁relations": 8837,
      "▁discovered": 8838,
      "symb": 8839,
      "▁Playing": 8840,
      "▁concert": 8841,
      "▁fitness": 8842,
      "▁showing": 8843,
      "▁Establish": 8844,
      "inf": 8845,
      "look": 8846,
      "▁identical": 8847,
      "riers": 8848,
      "▁builds": 8849,
      "IM": 8850,
      "Many": 8851,
      "▁inqu": 8852,
      "▁gifts": 8853,
      "▁cultures": 8854,
      "▁increment": 8855,
      "pal": 8856,
      "stop": 8857,
      "▁wave": 8858,
      "▁embed": 8859,
      "▁enable": 8860,
      "▁Du": 8861,
      "mons": 8862,
      "Content": 8863,
      "ializer": 8864,
      "▁Reading": 8865,
      "▁planned": 8866,
      "percentage": 8867,
      "▁ord": 8868,
      "reens": 8869,
      "▁cheese": 8870,
      "▁violence": 8871,
      "▁Construct": 8872,
      ":\\": 8873,
      "▁phrases": 8874,
      "▁likelihood": 8875,
      "▁monitoring": 8876,
      "▁Jew": 8877,
      "▁Adds": 8878,
      "▁crow": 8879,
      "▁suit": 8880,
      "orough": 8881,
      "▁receives": 8882,
      "migrations": 8883,
      "My": 8884,
      "prime": 8885,
      "▁pitch": 8886,
      "chen": 8887,
      "wait": 8888,
      "▁soft": 8889,
      "▁Sleep": 8890,
      "▁______": 8891,
      "▁abandon": 8892,
      "Fi": 8893,
      "pd": 8894,
      "cand": 8895,
      "illing": 8896,
      "netism": 8897,
      "▁Division": 8898,
      "▁intr": 8899,
      "▁nation": 8900,
      "▁Washing": 8901,
      "▁extracted": 8902,
      "▁interpretation": 8903,
      "▁guard": 8904,
      "▁truth": 8905,
      "▁turns": 8906,
      "▁keeping": 8907,
      "▁passive": 8908,
      "▁removal": 8909,
      "▁nuc": 8910,
      "▁pros": 8911,
      "▁advoc": 8912,
      "▁Render": 8913,
      "▁frames": 8914,
      "Position": 8915,
      "TeX": 8916,
      "irs": 8917,
      "▁Four": 8918,
      "▁none": 8919,
      "isters": 8920,
      "▁jsonify": 8921,
      "▁enhanced": 8922,
      "▁electronic": 8923,
      "▁emphasizes": 8924,
      "bec": 8925,
      "First": 8926,
      "▁Dark": 8927,
      "▁forg": 8928,
      "▁sensor": 8929,
      "▁matplotlib": 8930,
      "gb": 8931,
      "Soup": 8932,
      "tasks": 8933,
      "▁Adam": 8934,
      "▁Java": 8935,
      "center": 8936,
      "ealous": 8937,
      "▁lions": 8938,
      "tically": 8939,
      "▁obtained": 8940,
      "▁preprocess": 8941,
      "▁registered": 8942,
      "▁LED": 8943,
      "▁Office": 8944,
      "WS": 8945,
      "▁dp": 8946,
      "▁tun": 8947,
      "▁Kore": 8948,
      "predict": 8949,
      "▁rounds": 8950,
      "▁dismiss": 8951,
      "autifulSoup": 8952,
      "keep": 8953,
      "mask": 8954,
      "▁debt": 8955,
      "▁truck": 8956,
      "article": 8957,
      "▁Empire": 8958,
      "▁senior": 8959,
      "()).": 8960,
      "▁kids": 8961,
      "▁Provide": 8962,
      "▁longest": 8963,
      "▁Samantha": 8964,
      "▁continues": 8965,
      "nn": 8966,
      "pin": 8967,
      "▁Mid": 8968,
      "▁Rely": 8969,
      "▁aims": 8970,
      "▁tips": 8971,
      "▁Cross": 8972,
      "▁Prior": 8973,
      "▁Simple": 8974,
      "▁borrow": 8975,
      "▁sending": 8976,
      "▁conference": 8977,
      "**:": 8978,
      "crete": 8979,
      "▁Women": 8980,
      "▁volunte": 8981,
      "▁completion": 8982,
      "▁`${": 8983,
      "gling": 8984,
      "▁canvas": 8985,
      "********": 8986,
      "▁metrics": 8987,
      "▁teamwork": 8988,
      "▁technologies": 8989,
      "▁Cam": 8990,
      "otype": 8991,
      "▁elev": 8992,
      "handle": 8993,
      "▁LaTeX": 8994,
      "▁thick": 8995,
      "▁navigate": 8996,
      "▁vegetables": 8997,
      "());": 8998,
      "▁Allow": 8999,
      "▁Media": 9000,
      "▁awarded": 9001,
      "▁Mad": 9002,
      "short": 9003,
      "▁Chat": 9004,
      "▁tower": 9005,
      "▁cousin": 9006,
      "▁Replace": 9007,
      "▁neutral": 9008,
      "▁regularly": 9009,
      "▁que": 9010,
      "▁hero": 9011,
      "▁ride": 9012,
      "validate": 9013,
      "▁Saturday": 9014,
      "rastructure": 9015,
      "De": 9016,
      "▁Vir": 9017,
      "ithub": 9018,
      "rimin": 9019,
      "▁photo": 9020,
      "▁monkeys": 9021,
      "▁recording": 9022,
      "▁supporting": 9023,
      "IntegerField": 9024,
      "▁progression": 9025,
      "backs": 9026,
      "▁immun": 9027,
      "▁chances": 9028,
      "▁conducted": 9029,
      "▁gun": 9030,
      "▁laun": 9031,
      "▁unable": 9032,
      "▁aggressive": 9033,
      "ros": 9034,
      "▁mur": 9035,
      "exper": 9036,
      "raise": 9037,
      "▁Jess": 9038,
      "▁Perm": 9039,
      "verted": 9040,
      "▁Input": 9041,
      "▁joint": 9042,
      "▁crisis": 9043,
      "▁authors": 9044,
      "▁superior": 9045,
      "▁advisable": 9046,
      "▁tk": 9047,
      "USER": 9048,
      "insert": 9049,
      "▁Frank": 9050,
      "▁plain": 9051,
      "▁Alcohol": 9052,
      "▁Program": 9053,
      "▁IDs": 9054,
      "▁acid": 9055,
      "▁COVID": 9056,
      "▁sheet": 9057,
      "▁surrounding": 9058,
      "▁mel": 9059,
      "▁Cogn": 9060,
      "▁sentences": 9061,
      "rl": 9062,
      "Admin": 9063,
      "▁Cloud": 9064,
      "Connection": 9065,
      "exceptions": 9066,
      "ho": 9067,
      "img": 9068,
      "▁IO": 9069,
      "▁agric": 9070,
      "▁deposit": 9071,
      "}(": 9072,
      "eans": 9073,
      "▁icon": 9074,
      "▁Special": 9075,
      "▁exhibit": 9076,
      "▁separately": 9077,
      "▁simultaneously": 9078,
      "▁Apply": 9079,
      "▁widgets": 9080,
      "▁bookshel": 9081,
      "▁separated": 9082,
      "ua": 9083,
      "▁Ren": 9084,
      "▁god": 9085,
      "▁papers": 9086,
      "▁precise": 9087,
      "▁shorter": 9088,
      "▁Catholic": 9089,
      "▁memories": 9090,
      "▁notification": 9091,
      "NG": 9092,
      "▁Ul": 9093,
      "▁Plug": 9094,
      "achine": 9095,
      "▁Found": 9096,
      "▁Title": 9097,
      "▁foods": 9098,
      "▁lunch": 9099,
      "▁Sports": 9100,
      "▁absent": 9101,
      "▁graduate": 9102,
      "▁investors": 9103,
      "'{": 9104,
      "sw": 9105,
      "▁Even": 9106,
      "▁rise": 9107,
      "ributed": 9108,
      "▁passing": 9109,
      "▁symbols": 9110,
      "▁Additional": 9111,
      "▁procedures": 9112,
      "}$.": 9113,
      "bing": 9114,
      "iture": 9115,
      "▁keeps": 9116,
      "▁Mexico": 9117,
      "threshold": 9118,
      "▁AS": 9119,
      "▁irr": 9120,
      "▁suc": 9121,
      "forms": 9122,
      "ecurity": 9123,
      "▁motion": 9124,
      "▁Charles": 9125,
      "ufficient": 9126,
      "▁fractions": 9127,
      "Pass": 9128,
      "aser": 9129,
      "enty": 9130,
      "▁Care": 9131,
      "avings": 9132,
      "pressed": 9133,
      "aze": 9134,
      "ampl": 9135,
      "ursive": 9136,
      "▁solar": 9137,
      "metadata": 9138,
      "romagnetism": 9139,
      "▁completing": 9140,
      "▁simulation": 9141,
      "gu": 9142,
      "▁Sn": 9143,
      "weet": 9144,
      "ucket": 9145,
      "▁Club": 9146,
      "aching": 9147,
      "piration": 9148,
      "▁divides": 9149,
      "IO": 9150,
      "ryption": 9151,
      "▁basically": 9152,
      "▁highlighted": 9153,
      "het": 9154,
      "▁dice": 9155,
      "▁breath": 9156,
      "counters": 9157,
      "▁injuries": 9158,
      "▁detection": 9159,
      "▁atmosphere": 9160,
      "ira": 9161,
      "▁vel": 9162,
      "▁scan": 9163,
      "ishing": 9164,
      "utable": 9165,
      "▁loved": 9166,
[...]
